#version: 0.2
Ġ t
h e
Ġ a
i n
Ġ s
Ġt he
Ġ w
â Ģ
Ġ o
r e
n d
e r
o u
h a
i s
Ġ b
e d
i t
o n
Ġ m
e n
Ġo f
in g
Ġ c
Ġ f
Ġt o
e s
o r
Ġa nd
Ġ d
Ġ p
l l
a s
a n
Ġ he
Ġ l
Ġ in
a t
a r
Ġ h
Ġ I
âĢ Ļ
Ġ n
Ġ ha
. Ċ
o m
ha t
Ġ g
i c
l e
âĢ ľ
o t
âĢ Ŀ
o w
Ġb e
i d
u t
s e
v e
l d
i on
Ġ e
Ġ y
Ġw as
s t
i m
Ġt h
l y
en t
Ġ Ġ
g h
c e
Ġo n
Ġt hat
Ġ it
Ġy ou
Ġ Ā
e t
a y
Ġ re
a l
Ġ u
Ġw h
i r
it h
a d
v er
Ġs t
Ġ T
c t
Ġf or
u r
Ġh is
Ġa s
gh t
Ġw ith
o o
Ġha d
Ġhe r
Ġ r
âĢĿ Ċ
Ġ k
, Ċ
Ġw e
he r
Ġ is
a m
a c
Ġn ot
ou ld
âĢĻ s
Ġ H
Ġa n
Ġm e
Ġs a
Ġ S
Ġ A
r o
k e
c h
r i
Ġa t
t er
Ġ âĢľ
Ġ M
Ġs e
Ġm y
i f
i ll
ic h
a in
Ġh im
Ġs he
" Ċ
Ā e
ĠT he
a nd
ĠĠ ĠĠ
a ll
i ght
i l
es s
Ġs u
' s
Ġsa id
Ġb y
Ġ B
o re
. âĢĿĊ
t h
Ġwh ich
âĢĻ t
Ġs o
Ġ C
Ġc on
u s
e l
q u
t he
re d
Ġha ve
at ion
r om
Ġ "
Ġd o
Ġn e
r a
Ġo r
p e
Ġ j
t o
om e
Ġth is
u l
Ġa ll
re s
Ġ W
Ġd e
Ġl i
p p
Ġb ut
e m
es t
Ġ P
k ed
an t
ĠH e
, âĢĿ
ou r
ou t
u n
Ġu p
Ġ v
Ġf rom
b le
Ġe x
' t
g e
ac k
u st
Ġs h
Ġthe y
Ġwe re
ou s
is t
âĢ Ķ
he n
a k
Ġk n
Ġo ut
on e
. "Ċ
o s
ar d
in d
ï ¿
ï¿ ½
o d
e ct
u m
se l
at e
ar t
i e
Ġwh o
r ou
Ġa re
er s
o l
Ā o
Ā n
r y
Ġa l
e ll
Ġw ould
Ġon e
Ġthe m
oo d
it y
Ġ G
on g
Ġa b
Ġthe ir
ow n
Ġ L
ha n
i g
Ġn o
Ġw or
Ā a
ver y
am e
as t
Ġc om
id e
i ve
T he
Ġm an
oo k
Ġp ro
Ġg o
Ġl e
u re
n t
Ġthe re
Å ¡
Ġ i
Ā t
Ġ F
p t
Ġli ke
, "
c k
a g
Ġ D
v en
Ġw ill
Ġc ould
or t
Ā r
t her
o p
o v
j e
sel f
Ġyou r
he d
âĢ ĺ
it t
i es
Ġbe en
- -
h ing
re at
a u
Ġw hat
Ġd id
o st
Ā i
w ay
a ce
Ġan y
Ġ N
ĠĠĠĠ ĠĠĠĠ
o se
Ġu n
Ġa g
Ā h
Y ou
Ġf e
Ġ J
Ġab out
Ġ R
a ke
f f
en ce
Ġ if
e p
Ġc l
Ġin to
Ġw hen
in e
in k
Ġth ou
i v
Ġkn ow
Ġc an
ot her
ĠI t
a p
im e
a b
all y
a re
Ġm ore
p l
Ġb ack
Ġ E
b er
Ġ O
ic e
Ġs ay
Ġp l
Ġ (
ou nd
Ġs ha
c c
t e
as s
b e
? âĢĿĊ
Ā s
ĠS he
u d
an ce
Ġo ther
p er
a ble
Ġb l
a v
h i
Ā d
Ā Ċ
Ġ .
ur n
m ent
Ġ im
Ġ qu
Ġs ome
Ġha nd
Ġ _
nd er
Ġd is
Ä į
it e
c i
o f
Ġo ver
f ore
Ġto o
ion s
Ġd own
Ġa m
Ġu s
Ġs p
n e
Ġo ur
Ġt r
Ġt han
he re
o ve
Ġt ime
ĠB ut
Ġr o
âĢĻ d
Ġn ow
or d
Ġse e
Ä ĩ
Ġs m
o g
res s
Ā l
âĢľ I
Ġag ain
Ġt w
ic k
Ġa r
ĠA nd
u e
w e
Ġthe n
Ġj ust
j ect
Ġa d
itt le
Ġp er
ĠM r
Ġp r
Ġp o
f ter
ad e
o nd
u ch
Ġ en
Ġha s
Ā u
Ġup on
ing s
Ġe y
an g
ar s
is h
i re
w n
Ġon ly
H e
Ġof f
re e
Ġf l
Ġl ook
o j
? "Ċ
ou nt
s i
u ll
Ġsh ould
an s
at her
Ġw ant
l ed
; Ċ
Ġg et
Ġm ay
Ġl ittle
Ġth ink
Ġd on
Ġp art
Ġg reat
ar y
Ġsu ch
Ġ very
h is
t ain
Ġs l
at ed
rou nd
f or
Ġsha ll
Ġ K
Ġo b
Ġd ay
i ous
. .
om et
er v
Ġb r
is e
c l
Ġp e
Ġ z
Ġe ven
a ge
i le
Ġg r
Ġl ong
Ġw ay
if e
o ld
n g
o y
p s
ar k
Ġthou ght
Ġm ust
Ġbe c
Ġt e
ig n
Ġp re
n ess
Ġg ood
Ġh ow
Ġc ame
f t
Ġs c
e w
ï¿½ Ā
âĢĻ Ċ
Ġne ver
Ġey es
rou gh
Ġd es
ad y
r u
ĠC h
Ġhe ad
? âĢĿ
w ard
c on
e nd
Ġa fter
Ġw ent
or n
Ã ¼
a ve
âĢĻ m
Ġe very
t y
n ot
Ġo ld
Ġu nder
ac h
o ll
i z
au se
Ġthe se
s o
Ġ '
i ed
Ġg l
Ġbe fore
Ġm uch
Å ¾
oo ked
? Ċ
" I
ir st
Ġtw o
Ġc ome
th ing
âĢľ W
. âĢĿ
Ġg ot
ï¿½Ā ï¿½Ā
Ġm ade
is s
Ġc ha
Ġ You
A nd
Ġhe re
pp ed
Ġ âĢ
Ġcon t
Ġcom p
ri ed
d e
Ġo wn
ou gh
f ul
Ġt urn
Ġdid n
t ed
al k
i ly
Ġre m
omet hing
at h
. _
Ġth rough
t hat
f e
ĠThe y
Ġwor k
Ā .
Ġ âĢĺ
Ġth ose
at er
Ġc h
Ġr ight
Ġd a
Ġl ooked
Ġw here
Ġst ill
Ġre s
b l
en ed
ation s
Ġf a
c es
ou se
Ġit s
S he
Ġa cc
re t
Ġse em
Ġm ake
Ġbe t
od y
Ġa way
Ġs pe
Ġcon s
l i
âĢĻ re
e ver
Ġy e
op le
it ion
m e
a z
Ġf ace
w h
Ġbe g
Ġl et
ot h
Ġm ost
Ġwe ll
Ġj e
re n
t ing
Ġf irst
Ġim p
en s
Ġ V
Ġo p
m an
n a
Ġwith out
a w
o b
v es
: Ċ
as e
. "
Ġp res
Ġn a
Ġdo or
Ġk e
Ġgo ing
Ġa round
Ġm ight
Ġ Y
i a
r ow
Ġs ame
Ġt ell
i an
Ġcom m
Ġe m
' Ċ
Ġro om
Ġw om
] Ċ
Ġhim self
he s
pe ct
âĢĻ ll
Ġd ist
Ā y
Ġ [
in ce
on s
Ġas ked
Ġn ight
Ġpe ople
way s
a red
r an
Ġfe el
b ut
p le
w ith
Ġa p
Ġp ut
Ġc ar
ra ct
s s
Ġc all
Ġbe ing
Ġs omething
Ġm en
- Ċ
or y
Ā g
c ed
' ll
g g
Ġw r
ï ¬
Ġsa w
I t
Ġl ife
c hed
i j
m ed
ĠI n
Ġp ass
u p
h y
er tain
" W
it her
ĠS t
v ed
B ut
o ck
ri end
? "
! Ċ
el t
E R
Ġbec ause
ĠĠĠĠĠĠĠĠ ĠĠĠĠĠĠĠĠ
s ide
e x
or s
r d
o c
Ġwor d
Ġa pp
Ā ,
ĠThe re
ĠW e
âĢĻ ve
in t
v ing
Ġl ove
Ġbe l
l ess
Ġsu b
l es
e red
Ġsay s
en er
Ġkn ew
Ġl ast
ir l
Ġp le
Ġy et
ak ing
Ġre p
ï¿½ Ċ
ul t
s u
Ġha pp
Ġt ake
ut en
Ġp ers
r on
k s
' m
ent s
Ġ U
ber g
d en
Å¡ e
m s
hi ld
o ice
at ter
Ġne ed
Ā. Ā
g et
ow er
c ess
l f
Ġm om
Ġ ent
ĠP ro
Ġn at
w as
ic t
ct ion
m y
Ġne w
c om
is hed
Ġh ouse
' d
Ġo d
as on
Ā, Ā
Ġtoo k
uten berg
Ġal ways
a it
ar ry
k a
Ġnot hing
Ġto ld
Ġle ft
o ver
ce pt
Ġs v
ut h
Ġm ind
ro ss
Ġg u
. âĢĻĊ
Ġc hild
Ġre t
Ā m
Ä ĳ
at ch
i p
Ġp os
Ġa c
Ġc our
' re
ĠG od
Ġl ight
Ġf elt
Ġe nd
_ ,
Ġth ing
Ġex p
un g
Ġc he
a id
Ġ -
Ġth ings
oo l
i gh
' ve
Ġman y
u ck
at es
as ter
Ġf riend
Ġhand s
Ġm other
Ġf ound
Ġthou gh
i x
i al
Ġg ive
Ġseem ed
d u
1 6
i ld
a h
Ā c
Ġap pe
u nd
a ir
Ġre l
Ġg irl
Ġhe art
ff ect
Ġse c
en se
Ġw ind
Ġwh ile
l ing
Ġs k
Ġs at
Ġsu pp
Ġon ce
ic al
re am
a j
ver s
Ġth y
ĠThe n
Ġe ver
Ġc r
y ou
Ă Ċ
ent ly
n ing
N o
! âĢĿ
Ġturn ed
Ġs w
p os
sel ves
m er
Ġf ar
O R
Ġat t
Ġan other
Ġwor ld
ow ed
Ġd if
ï¿½ ï¿½
u al
ï¬ Ĩ
Ġv oice
Ġdo es
im es
Ġb oy
it s
Ġpl ace
Ġd ark
E N
Ġyou ng
Äĩ e
Ġs et
e c
Ġt alk
a il
s h
Ġc ount
Ġf ather
Ġs ur
Ġcon f
ha d
o on
Ġye ars
Ġe ar
m ost
Ġal so
Ġmom ent
Ġwom an
Ġwh om
Ġf ind
h ind
m en
Ġs il
Ġagain st
n y
Ġst art
, âĢĻ
Ġw ar
Ġhe ard
ot t
in ed
Ġf oll
Ġfe w
at i
au ght
Ġs ide
Ġw ait
e e
Ġth ree
ĠT his
Ā f
Ġa ct
te nd
Ġc le
ĠâĢ ¦
Y es
wh ich
Ġs erv
ĠPro ject
A R
ar ing
Ġin st
it ed
v ent
Ġb o
ri ght
ul ar
x t
Ġany thing
ry ing
Ġmy self
b ody
Ą Ċ
ce iv
, '
âĢľ You
Ġha rd
I N
Ġple as
Ġre al
1 0
an y
O N
Ġb ed
o pe
Ġin t
Ġt er
ĠI f
âĢľ T
Ġhe l
i je
n er
Ġst ood
Ġc han
- ch
ĠMr s
in ess
Ġg re
Ġbeg an
u b
g ed
ĠW hat
Ġst r
Ġl aw
at ing
Ġh ome
ĠG utenberg
s p
Ġme an
Ġre ally
A N
we en
ow s
re st
Ġcour se
le ct
n ed
os p
Ġin d
Ġen ough
i red
Ġdis c
Ġn or
c y
is ed
a ct
d ay
ĠT hat
Ġthe e
d er
in s
t s
Ġto ward
Ġ ide
Ġo cc
ov ed
Ġre ason
T o
p ro
Ġre g
Ġre f
Ġd el
Ġre st
Ġ âĢĶ
Ġe l
Ġc ertain
Ġas s
Ġke ep
Ġwho le
Ġk ind
ĠH er
b y
Ġd r
Ġh on
ĠH is
si ble
a ut
Ġe ach
i us
Ġwh ite
Ġn ame
Ġc o
Ġp ur
Ġbe hind
) ,
Ġret urn
p r
Ġre ad
ull y
Ã ¢
Ġg ener
en e
Ġb oth
I n
Ġre c
Ġu nt
ou th
Ā p
o or
Ă ě
b r
Ġd ra
Ġwas n
Ġbl ack
Ġsm all
Ġsu re
O h
Ġin f
. 'Ċ
c ri
Ĥ ¬
â Ĥ¬
en g
n ow
Ġt ak
k o
u res
i et
Ġqu ite
o ke
Ġlook ing
Ġw ater
Ġs le
Ġcan not
Ġso on
Ġop en
st and
ha ps
k ing
u bl
u g
p h
a le
Ġse en
it i
Ġhel p
Ġst and
Ġh um
! âĢĿĊ
Ġ Äį
ĠH arry
Ġin de
it ies
Ġm ar
is ter
ĠT h
! "
Ġpers on
Ā k
Ġc are
re nt
Ġs ound
Ġbet ween
Ġp ower
d ed
et h
Ġan s
Ġ Å¡
ĠF or
Ġbel ie
Ġf am
Ġwant ed
Ġp ull
v o
i o
Ġl ady
i ven
ut e
W e
Ġbet ter
ï¿½Āï¿½Ā ï¿½Āï¿½Ā
Ġha ir
Ġst e
Ġl au
Ġm in
u ally
a o
Ġr un
Ġl ess
Ġpres ent
b ed
orn ing
Ġs ince
re ad
Ġha lf
one y
al ked
Ġb u
o ot
The y
i er
Ġc ur
ron t
Ġu se
Ġd one
Ġf in
Ġwh y
f ect
Ġha ving
d den
id er
W hat
Ġs ent
Ġal most
âĢľ A
Ġg ave
Ġday s
E S
â Ħ
Ġunt il
âĦ ¢
The re
Ġne xt
ant s
Ġcall ed
j a
re et
re ady
get her
Ġi z
Ġsu dden
Ġb ig
m on
ain ed
ve l
os ed
s he
ĠA n
ent le
ud e
ceiv ed
n o
il ed
Ġh our
Ġm on
s erv
Ġal ong
h il
Ġrem em
ab ly
ĠW hen
Ġthere fore
Ġsu ff
Ġex t
ment s
l and
Ġg one
im a
ri but
1 5
T hat
2 0
Ġf ell
Ġh old
Ġc ond
un t
Ġm atter
ate ly
ha r
Ġpr in
Ġword s
re w
ĠM y
em ent
Ġcould n
1 7
Ġb us
i ver
Ġar t
Ġne ar
in a
e y
Ã¼ an
Ġm orning
Ġhe ar
âĢľ S
Ġr ound
Ġpl ay
ĠJ o
Äį e
Ġw all
Ġt ra
ĠS o
Ġsu n
for m
Ġs ir
- y
Ġin ter
Ġad v
f ully
Ġde c
t en
I I
Ġb ook
Ġa ir
ce ed
Ġb reat
ou b
ro om
ou l
am p
Ġpro v
Ġfa ct
H E
Ġf ront
rou ght
s hi
um b
Ġher self
a ven
Ġac ross
c er
Ġg iven
y ing
. ]Ċ
Ġcha r
al s
ow ing
âĢ ĵ
Ġfe et
Ġam ong
ĠA t
us ed
Ġthem selves
et er
Ġdif fe
Ġw alk
Ġnat ure
Ġsec ond
Ġt re
Ġwho se
Ġc op
Ġl ay
Ġe v
ir d
Ġde ad
Ġfor m
as h
Ā v
Ġob ject
- h
âĢľW hat
Äĩ i
it ch
1 2
j u
ĠM iss
ĠN o
Ġin c
ent ion
g er
an k
Ġm aster
Ġh or
Ġc a
Ġp ol
Ġd ri
Ġb ody
Ġh igh
! "Ċ
Ġa w
ha ve
ou n
Ġcount ry
i b
Ġel se
w here
je g
Ġun to
ort un
Ġw on
Ġal ready
Ġb est
h im
r ist
he ad
Ġe qu
Ġqu est
ot e
ret urn
Ġs on
a i
Ġb ro
e k
Ġt able
iz ed
Ġtr ue
Ġ ve
ubl ic
ĠA s
ĠĀ Ċ
at t
Ġm et
Ġinde ed
u se
Ġk ill
Ġspe ak
ut ion
pp ing
Ā w
osp od
Ġunder stand
em pt
Ġf ull
Ġde ath
Ġf ore
Ġf our
Ġs im
ĠM ar
le t
Ġp ain
1 3
um p
Ġ est
Ġs we
id es
n i
in es
ir c
ac hed
M y
1 4
1 9
Ġb re
g o
Ġv is
Ġ ed
te rest
il ity
iv es
Ġth us
Ġm oney
Ġz a
w er
Ġa ff
Ġ *
Ġf ing
ress ed
an e
Ġevery thing
j i
a x
Ġother s
ie ld
Ġar m
Ġcont in
Ġw ife
an ces
ě Ă
Ġo pp
Ġp ri
Ĕ Ă
Ġn od
ĠO n
he ther
pe nd
Ġt ill
Ġde ar
o pped
T his
Ġr ather
u ff
er ve
c ha
Ġne cess
Ġor der
ct or
Ġto gether
Ġl ist
ou d
Ġhow ever
Ā ę
Ġt rying
Ġst ate
oj i
Ġsub ject
- s
w or
ir t
Ġle ast
Ġpo or
Ġw atch
Ġg entle
per i
ĠS ir
Ġg ra
- f
f ic
T h
Ġd ro
itt ing
Ġf all
Ġp rom
Ġcl ose
Ġb it
Ġsp ir
Ġ Z
? âĢĻĊ
k en
o nder
Ġbe aut
Ġtak en
Ġt i
u c
Ġsle ep
" You
S T
m b
Ġlet ter
ĠH si
Ġex pl
Ġv ol
Ġm er
id ent
Ġp a
it er
Ġb ad
id ed
ĠB r
Ġl and
er y
uth or
Ġp h
L E
Ġsl ow
w hat
Ġin v
Ġus ed
Ġpo int
Ġb rought
ic ular
Ġk ing
Ġme ans
ĠA r
Ġc old
Ġp ast
Ġl ar
v a
et s
Ġcom ing
ĠA l
Ġr a
ie f
Ġf ire
Ā. ĀĊ
is f
ain t
1 8
Ġm outh
f rom
Ġt ried
Ġas k
i ans
Ġad m
d on
Ġal one
Ġ ill
Ġin s
Ġit self
Ġm u
- t
ag es
Ġchild ren
ch ool
C H
Ġbl ood
Ġd oub
ur ing
Ġh ur
at s
Ġhe ld
g r
- Ā
g in
ĠI s
b it
Ġre d
Ġst ep
ous and
e v
Ġsudden ly
li ke
âĢľ H
Ġp ar
og a
Ġst ay
Ġin side
A s
F or
Ġde ep
Ġc ap
ou ght
Ġc or
ur y
ious ly
Ġwork s
u ght
ver n
c hes
Ġb ar
p art
ĠA ll
Ġe ither
ac es
the y
Ġt ri
âĢ ¦
ĠâĢ ĵ
Ġle ave
t a
Ġha th
the m
ent y
Ġle g
âĢľ D
Ġbelie ve
Ġh ope
ren ce
h o
Ġfe ar
Ġqu ick
il i
und red
Ġj ud
Ġsome one
Ġ es
Ġsm ile
\ '
Ġr an
Ġe as
Ġcons ider
am es
Ġper haps
âĢľI t
at ive
u red
Ġpro per
ĠH ow
us h
Ġpro p
A L
ang er
Ġqu iet
Ġfl oor
s ess
Ġdoes n
Ġs ort
Ġfam ily
th is
ą ē
ard s
Ġ Å¾
Ġof ten
Ġdo ing
Ġwom en
l s
Ġp ap
e ad
are nt
in ation
ak es
Ġke pt
- c
our s
ĠP r
te red
Ġc ause
Ġtr ans
Ġad d
Ġw alked
Ġcomm on
Ġn um
Ġappe ar
Ġar ms
Ġide a
Ġm od
Ġre qu
ce ive
i i
ĠC on
ver al
aught er
if ic
Ġcon st
en ing
d is
as ion
Ġin terest
Ġs n
Ġs oul
âĢľ No
t on
Ġremem ber
Ġst reet
the re
if f
Ġab s
Ġpro du
ress ion
Ġman ner
OR D
Ġd ire
ract er
Ġl ater
or ry
ord ing
Ġc ol
res ent
Ġre pl
Ġe ffect
ie w
Ġt imes
Ġst op
o le
Ġst opped
M r
Ġs ing
ĠT o
id d
us hed
ter n
Ġc ase
itt ed
i ble
Ġwind ow
Ġw onder
Ġwould n
a im
Ġbr other
ac ed
er ing
e b
Ġs ign
shi p
l ight
Ġs qu
or row
h n
Ġf ree
Ġli ve
W hen
Ġfor t
e ar
Ġcle ar
I T
ĠN ow
the ir
p re
Ġst ra
ĠC l
le y
Ġs ix
ĠN ot
ci al
T hen
Ġdiffe rent
Ġwh is
. )
b and
Ġ Q
Ġle ar
. --
ran ge
Ġtr uth
o es
s k
Ġth ousand
Ġp ay
ĠE ng
s c
" A
Ġro ad
Ġs ve
Ġim ag
ĠCh rist
Ġde v
et y
med i
Ġ. ..
Ġ Äĩe
r ic
ri e
r ing
Ġres pect
Ġh ot
ak o
Ġc irc
al ity
Ġf av
Ġto wn
ber t
ĠB e
m a
Ġcl ass
A T
Ġd ream
ar ch
Ġm il
Ġa ffect
Ġw hether
Ġm ove
Ġh undred
Ā b
ĠB l
Ġex c
it ude
Ġnat ur
se qu
Ġt ou
t r
Ġm ist
air s
Ġ &
N ot
Ġob serv
al th
os s
Ġfeel ing
or i
i ke
Ġbr ing
Ġs chool
Ġye ar
ore d
Ġn ar
ou ra
Ġlar ge
ay be
am a
Ġs y
Ġl ost
il ing
or m
Ġstart ed
p ar
1 1
Ġc ried
Ġl ot
Ġb es
Ġpart icular
Ġha st
o ly
Ġgo vern
Äĩ u
ĠÅ¡ to
Ġm is
Ġab ove
Ġacc ount
Ġlau gh
Ġst ud
omet imes
Ġdoub t
Ġprin ci
Ġt en
Ġse veral
Ġhapp ened
ain s
Ġcop y
f ra
Ġeven ing
I f
s on
ot ion
Ġg round
Ġa ble
w ill
us band
w ould
-y Ã¼
Ġa uthor
Ġsh ort
b ably
Ġso ft
. âĢĶ
.. ..
ic ally
Ġgener al
Ġpass ed
cc ess
led ge
e g
Ġbreat h
a pp
at ched
at ure
Ġs it
Ġw ish
i k
i en
c le
- p
Ġg a
Ġp ublic
ic ked
is on
ove red
Ġpro f
Ġ ir
Ġc ut
âĢĻ ing
Ġpull ed
Ġhum an
ĠP a
Ġans wer
Ġgl ass
ha nd
Ġex pect
qu e
i ent
u ed
Ġcha ir
Ġw ood
iz e
ect ion
z e
Ġs ister
ĠC om
Ġl ord
Äĳ e
ut es
ad am
Ġc oll
Ġm oved
Ġo ught
" Yes
Ġin cl
Ġ ut
Ġsur pr
Ġgo ld
ov a
ĠS ee
h ow
an ch
Ġde f
p ed
Ġac qu
v i
ĠU n
Ġb ur
Ġquest ion
on es
Ġr u
Ġme et
Ġf r
Ġe t
Ġsay ing
c he
- b
Ġv irt
h old
ĠL ord
av ing
fra id
Ġter ms
É ¹
ĠL ORD
it ions
re m
ĠD on
. '
Ġear th
Ġc ent
ĠW ill
Ġf re
Ġfriend s
Ġpleas ure
Ġbus iness
Ġop ened
Ġan g
Ġs am
l o
Ġha r
Ġm ine
f ort
= =
C h
- m
U S
Ġbeg in
Ġj o
Ġfa ir
Ġf oot
ĠO ne
Ġcon cer
ĠO F
! Ă
Ġex ist
Ġlong er
Ġslow ly
âĢľ Yes
ron ic
Ġs ense
H ow
Ġc orn
k ay
w ell
u ct
we re
if ul
Ġf ive
p ose
l ig
l ish
ĠG ospod
Ġspir it
Ġf ur
Ġv al
Ġl ow
we red
Ġc reat
c a
O L
Ġd iv
"W hat
Ġhad n
th ough
Ġv i
g ing
u es
ĠD o
p ly
Ġsu m
Ġpos sess
Ġwith in
Ġthink ing
w ise
d o
Ġb i
el s
" S
m ore
Ġto p
Ġy es
ĠJo hn
Ġj ed
I S
Ġmon th
Ġpl an
ĠF ran
ur ch
Ġper fect
Ġlook s
Ġ âĢĻ
Ġkn own
eter m
U R
Ġany one
Ġt rou
Ġc e
Ġ X
er n
om an
Ġwor th
Ġst ru
e h
Ăě ĄĊ
- l
Ġfor th
' Ā
as ed
Ġm iss
con s
is m
ous ly
pl oy
Ġex am
Ġhe av
Å¾ e
Ġsp oke
Ġm aking
r ay
Ġstr ong
ard en
l ic
? 'Ċ
r t
ĠW hy
Ġme re
ad d
O f
. ,
Ġtalk ing
ne y
ic es
Ġk oji
Ġa fraid
Ġk ad
Ġre ceived
u nder
tend ed
Ġbec ame
Ġcomp le
Ġg od
c ould
un e
b o
er t
c ul
Ġex cept
ot s
Ġreturn ed
Ġ ï¿½
mer ic
in ion
Ġocc asion
Ġnod ded
on y
ab y
Ġst ory
av es
Ġv ar
Ġv iew
Ġcomm and
c han
pl es
hi le
l a
Ġhon our
Ġe lect
Ġlaw s
Ġdr ink
Ġt ry
Ġbl ue
Ġnum ber
Ġc ross
hi a
Ġwait ing
Ġt em
I R
Ġh usband
o je
2 5
Ġs er
Ġ --
N ow
ĠN ew
0 0
Ġb ott
Ġapp ro
Ġ Ă
in ted
Ġwr ong
Ġstand ing
Ġd est
ow ers
Ġfor ward
ru pt
Ġis n
Ġpr ay
Ġget ting
E L
Ġout side
Ġag o
.. .
Ġfor g
Ġpr ot
r id
ov ing
r or
ĠT om
ll ed
" D
i am
Ġcom pl
Ġfing ers
R O
Ġar ri
w o
Ġp ie
o ff
ter s
Ġpre t
ĠR o
al m
l er
T ER
si b
d om
Ġrepl ied
Ġf un
" No
st r
Ġans wered
g hed
Ġ ï¬Ĩ
is ing
Ġre ached
Ġs itting
ĠP er
id ence
Ġm us
âĢľ And
Ġbec ome
k u
s ome
ĠT HE
Ġdo g
oc ked
ĠS p
e ks
Ġm ur
con t
ci ous
Ġsh ow
Ġbre ak
Ġs ight
it ing
ĠG er
W ith
c ing
n ight
ir ty
ol og
j oy
ur s
Ġne ither
gg ed
"I t
st er
as k
Ġcont r
O n
Ġmin utes
Ġf ig
Ġpos sible
en a
âĢľW ell
Ġsm iled
ill ed
if ied
Ġl if
Ġsk in
S o
it c
Ġc ra
[ _
Ġgr and
Ġd in
Ġsec ret
Ġtw enty
Ġim medi
ward s
Ġst range
Ġh ung
Ġsha d
Ġha t
ar a
Ġey e
- men
a ur
Ġsu ccess
Ġhour s
umb led
as ure
Ġli ps
Ġle ad
in i
âĢľ He
Ġbes ide
ĠL i
ĠS c
Ġli ving
ag n
Ġs orry
Ġon to
Ġgreat er
âĢľ Oh
ĠĠĠĠ ĠĠ
à ¶
c ome
Ġacc ording
Ġstra ight
b ack
Ġs in
Ġfor ce
Ġseem s
Ġde cl
ap pe
Ġse a
g ar
at he
ĠE d
Ġimp ort
Ġsh ook
Ġdire ct
âĢľ The
Ġtoward s
Ġk iss
Ġsupp ose
Ġfa ith
ab out
E x
am ent
= "
b s
Ġsil ence
oo f
ĠĠĠĠĠĠĠĠĠĠĠĠĠĠĠĠ ĠĠĠĠĠĠĠĠ
ĠG r
Ġf ight
Ġcomp any
act ly
Ġdes p
Ġpro bably
âĢĶ âĢĶ
âĢľ M
ang u
Ġem ploy
c o
Ġt aking
ch ing
Ġter ri
Ġle an
s m
-- Ċ
Ġsv oj
Ġsh out
Ġme m
ĠO r
Ġgre en
Ġhe aven
Ġm ed
v ol
in ary
Ġl ine
an ced
Ġpe ace
g es
Ġshould er
u ous
Ġide as
Ġn j
Ġd aughter
Ġhor se
itt en
ound ation
Ġcha racter
idd le
ĠA meric
Ġnecess ary
Ġp ict
Ġfor mer
un k
id ing
. âĢĻ
Ġbu ild
Ġk id
âĢĺ I
A t
ĠC har
. E
z z
ag ed
ha ll
im p
ĠW ith
Ġdes ire
Ġo ri
Ġsat isf
Ġb urn
Ġg az
ist s
ant ly
n oon
Ġsk y
ic ed
) .
Ġhapp y
A P
Ġcl osed
m iss
Ġswe et
Ġf ine
Ġdif fic
m ing
Ġha ll
Ġa ge
wh o
Ġmay be
ĠR e
p ri
Ġm akes
Ġag re
ri age
Ġlau ghed
ov i
âĢľ C
Ġd ut
ang don
Ġc ity
Ġtre es
Ġd eterm
Ġdo ctor
Ã¼ eh
2 3
Ġ er
eng th
Ġb ene
ĠK ing
ri es
us ion
Ġt reat
Ġche st
Ġsm ell
Ġm i
y ond
Ġn one
Ġl ate
Ġc ou
Ġc aught
ad a
an a
Ġpap er
Ġob lig
ĠP ar
Ġme ant
m and
ĠE m
ĠM ary
ĠL e
S C
v al
cl aim
w hen
Ġd ress
ĠSt ates
Ġbeaut iful
Ġres ol
Ġevery one
Ġreg ard
ac ked
Ġpret ty
" Oh
Ġc row
Ġn jeg
ce nd
Ġpro ceed
ru g
2 4
Ġsc ream
Ġn ice
ort ion
ir m
ĠD r
Ġe at
um st
Ġoff ic
âĢĶ âĢĿĊ
cri pt
r ance
he l
Ġyour self
g l
ou red
._ Ċ
Ġse nd
Ġd uring
Ġent ire
c al
? âĢĻ
Ġd am
Ġd anger
op h
tain ed
âĢľT hat
Ġr ose
Ġl ab
ra g
Ġre Äįe
Ġc ast
ic ha
Ġnatur al
I L
in ter
ec ause
Ġg un
in ct
âĢľ But
ect ed
ĠF oundation
Ġwar m
Ġe le
Ġf ool
Ġori gin
ĠH en
Ġw it
bl ing
Ġf ood
Ġwe ek
or ies
on t
Ġquick ly
r is
Ġknow s
itc hen
Ġy ell
Ġpri v
Ġknow ledge
Ġne ck
ĠW ell
f l
Ġgirl s
i pped
Ġen g
Ġro ck
Ġj ob
-Ā -Ā
Ġcour t
il t
Ġpart s
Ġb are
Ġw is
Ġd et
c ent
up on
Ġdra w
Ġth r
Ġap art
ic s
Ġw ild
C T
Ġso ld
Ġhis t
Ġj oy
ĠD e
Ġcl ot
l j
Ġvi ol
c an
d own
/ /
Ġk ao
A M
re l
e or
Ġappe ared
, )
âĢľ L
Ġin n
Ġre ady
pp er
k i
Ć Ċ
y s
Ġb right
Ġboy s
Ġm ount
Ġen em
Ġbe yond
Ġse lf
Ġem pt
Ġs en
Ġw atched
ĠP ao
Ġgl ad
is es
in y
Ġf if
pe red
Ġli ved
Ġsha r
ĠC ar
Ġcom es
W ell
î ģ
Ġbe ar
Ġh op
am ed
i Å¡
d es
S t
Ġfur ther
âĢĶ Ċ
2 2
Ġcon sequ
Ġgentle man
Ġp ost
ĠB y
Ġfoll owed
b ar
ĠA d
< /
Ġs al
C E
re ng
ĠP e
ĠL et
Ġhold ing
AP TER
Ġd ied
Ġact ually
Ġm ain
Ġm or
us s
ĠS am
Ġt ight
a Å¡e
Ġor d
re g
ĠQ u
Ġpur pose
Ġsl ight
ce ll
Ġc hi
oo se
Ġde g
ĠO f
be red
Ġcl os
a Å¡
Ġs ometimes
I s
Ġafter noon
g y
e en
Ġd ie
S E
Ġfin ally
Ġdist ribut
oll y
Ġgu ess
Ġbo x
Ġtrou ble
l t
b ing
Ġan im
Ġl ength
id ge
Ġgovern ment
og n
CH APTER
IN G
Ġra ised
c ount
ĠI nd
il s
ha m
um e
ĠE very
E n
Ġqu ar
y our
Ġde al
Ġen joy
ĠO h
Ġcomple te
j ust
it ation
Ġ x
iv ing
it es
Ġoff ice
en n
te en
Ġsc ar
ĠP hil
se c
âĢľ G
u an
Ġop inion
âĢľ B
ci ety
Ā ?
Ġb aby
Ġph one
"W ell
Ġu nd
i um
Ġr ain
gg est
pos ed
s aid
Ġj er
Ġequ al
âĤ¬ âĦ¢
ĠA fter
ĠF ather
as p
16 3
" But
com p
i vers
Ġm ention
e ah
Ġs ens
H is
" >
a fter
if t
e ven
Ă !
Ġtr ain
e very
ill y
be en
E D
Ġcorn er
Ġac cept
Ġli ber
t is
Ġf ield
Ġk itchen
Ġsh ut
ï¿½ï¿½ ï¿½ï¿½
Ġdel ight
i res
per or
Ġh ill
arent s
Ġchan ce
Ġex peri
Ġchan ge
Ġwatch ing
Ġrel ig
Ġm ess
Ġag ree
Ġleg s
Ġpass ion
Ġb ird
ac y
2 6
Ġt ree
g an
ve re
ag er
Ġth ro
ĠS ome
Ġ ver
Ġo t
Ē Ċ
âĢľW e
b or
f ace
Ġl ed
Ġheav y
Ġrun ning
Ġbeaut y
3 0
f er
Ġsc ene
k es
Ġs ad
ust om
Ġr iver
Ġst ared
ion e
Ġcontin ued
Ġpo ck
Ġacc om
d ist
ook ing
ha pp
Ġe ight
Ġexp ression
ist ed
Ġsil ent
ag ain
Ġvis it
ra ce
r ang
Ġneed ed
Ġst ri
an cy
Ġl ad
at or
ĠT ess
est y
ran k
Ġex actly
ĠH ar
as es
âĢľ Y
ĠE l
im ent
t han
pt ain
for med
Ġp ract
Å ĵ
Ġcon vers
un ch
Ġimp os
v an
u ation
Ġsupp ort
d a
pl ay
or a
the n
Ġfoll owing
r am
Ġthought s
2 8
st ant
are t
Ġs ick
en ces
Å ł
Äį i
or k
Ġb ag
p o
Ġst one
u a
Ġdec ided
Ġad ded
on el
Ġs ac
it al
Ġe ff
se t
Ġp aid
sp an
? '
Ġf ast
Ġple ase
Ġmonth s
Ġb ound
P ro
Ġsuff ic
Ġfell ow
is ion
il es
sh ould
iv id
a ld
cept ion
ic a
ĠE ven
ĠG ar
aj u
ro y
Ġc ry
' ing
ad em
ĠM a
Ġth in
2 7
ol ute
Ġmin ute
ib re
Ġkn e
B e
Ġso l
Ġv ill
âĤ¬ Åĵ
g u
ĠL u
ack s
fe rence
Ĕ Ċ
Ġsim ply
Ġc re
Ā 'Ā
) Ċ
m ione
H er
Ġp red
Ġbene ath
Ġwr itten
k ind
Ġsu ggest
Ġstep s
p ers
hy s
" G
ra ph
ij em
ě Ċ
cal ibre
e an
d id
re en
W h
t ime
m other
Ġre pe
Ġimmedi ately
s pect
Å¡ i
in ing
Ġelect ronic
âĢĶ and
A n
Ġcon cl
Ġear ly
us es
ing ly
Ġfoll ow
Ġp en
-- --
Ġcle an
Ġrep resent
ign or
Ġpre p
Ġserv ant
rie f
Ġd er
L I
ation al
T H
k y
ut ure
Ġcl im
Ġd en
ĠPa ul
Ġd u
Ġempt y
Ġcirc umst
ĠJ ul
Ġst reng
Ġobserv ed
Ġl im
att le
Ġp ot
Ġrem ain
od e
r ich
âĤ¬ Ā
res h
Ġha ven
Ġwait ed
Ġem p
ha p
Ġt ax
Ġli e
ĠR on
s omething
Ġpers ons
Ġp ra
Ġl o
Ġbe ll
Ġwe ak
Ġ É¹
ĠA unt
p on
Ġte ars
ĠEng lish
Ġc up
Ġclot hes
our se
ren ch
in to
z y
oph ie
Ġhe ll
ad ed
Ġm ir
ĠL ady
Ġha ng
- d
Ġsee ing
N D
ott en
Ġdark ness
6 9
L A
Ġ Ċ
n u
at ur
ar m
ci ent
Ġsing le
k now
R E
ict ion
Ġbook s
Ġb all
ud ed
" The
be c
ĠB ig
Ġfort une
iet y
re me
Ġvirt ue
En ter
- w
Ġl oved
Ġth ick
Ġli ked
Ġm o
Ġm ut
ĠM an
st ood
Ġl angu
a f
Ġinst ead
in ite
ĠM om
Ġcond uct
h ood
Ã ¦
ant age
e av
Ġw ide
l u
al se
ĠA b
os op
Ġimport ant
Ġb ra
' I
ĠJ ack
ad ame
" That
Ġm iddle
Ġf right
h ouse
j ed
m p
t ic
eor ge
ĠF l
ĠT r
cri bed
Ġcon v
Ġp ick
Ã ¡
Ġst ar
du ced
Ġm ag
Ġhur t
Ġgr ass
Ġgo v
ud d
Ġbel ow
ell e
Ġnear ly
ĠN e
g reat
Ġc ig
Ġeas y
Ġsm o
g a
Ġbro ken
if y
el a
âĢľ O
Ġmar ried
Ġbegin ning
Ġdin ner
an ny
er c
ive ly
Ġcertain ly
Ġcar ried
EN E
Ġm oon
Ġinc re
le ep
and er
at a
Ġr ad
r it
i ant
ci ally
i or
ĠC hia
Ġs now
Ġa in
am er
k n
v oj
c ertain
Ġgo es
Ġcrow d
Ġfav our
z en
ro p
miss ion
2 9
Ġfor get
Ġto day
Ġh it
Ġin qu
pos ition
s ed
- and
ors es
Ġwhis pered
, ï¿½
Ġc oun
Ġatt empt
ix ed
Ġt ired
as hed
hi p
th rough
en ess
Ġme l
ĠAn ne
Ġun cle
s y
Ġset t
Ġthro at
an n
Ġm id
st it
Ġs i
Ġh u
iter ary
Ġgre w
Ġhard ly
Ġde pend
2 1
Ġcom fort
Ġc at
Ġsp ent
em l
" And
ov itch
Ġp ure
A S
Ġkill ed
îģ ĵ
ha s
ĠUn ited
Ġ ï¬
ĠJ ust
est s
ing u
Ġp un
Ġf at
i ber
Ġscar ce
ĠY es
Ġp arents
ĠL ou
Ġso le
Ġwr ite
Ġm ark
Ġcopy right
Ġpl ain
Ġt all
Ġf uture
Ġbro ke
ĠEng land
Ġp ress
âĢĶ the
Ġch urch
Ġw he
ut ed
5 0
W hy
r al
Ġo v
aur a
B ook
Ġpo et
Ġrem ained
Ġsh ot
Ġserv ice
B y
Ġexp ress
ē Ċ
Ġp ath
H arry
Ġl atter
Ġm ad
Ġn i
ĠN or
Ġd om
ast e
ul ty
._ ]Ċ
form ation
Ġm oving
e ed
ĠM aybe
Ġso ciety
Ġf illed
âĢľ P
ĠM e
Ġd an
Ġc al
Ġt alked
Ġeas ily
w ood
Ġt a
Ġle aving
ab eth
ĠThe se
Ġsil ver
ne w
Ġwalk ing
ill e
ra il
A l
Ġatt ention
m it
ac ing
Ġint ell
w en
Ġp hil
ije h
Ġm otion
Ġw ond
O U
Ġon es
Ġsw ord
" He
ï¿½ï¿½ï¿½ï¿½ ï¿½
Ġan n
wor k
Ġnot iced
ort s
, âĢĶ
with out
m in
Ġchar ge
Ġhapp en
Ġdist ance
m n
ro l
Ġagre ement
iv il
Ā -Ā
Ġte eth
y n
Ġsp o
Ġno ble
Ġmus ic
Ġed ge
A ll
Ġse at
ĠBl ack
p ass
ll ing
i ers
Ġyou th
ide red
Ġremem bered
Ġr ich
Ġg ame
Ġa head
g n
Ġsh ip
Ġv an
Ġl oud
đ Ă
Ġl a
os es
Ġdut y
c ies
Ġpie ce
Ġrec ogn
Ġturn ing
ound s
Ġ[ _
ĠP eter
Ġno se
Ġst aring
Ġwall s
and y
Ġg ri
Ġne g
ls a
ji h
r s
Ġrem ark
Ġto m
Ġl j
had ow
Ġpre vent
ag ue
ra p
Ġsupp osed
Ġt it
Ġw ine
Ġp ale
ĠB ar
b our
Ġte le
Ġshould ers
Ġl aid
ij a
es e
Ġreal ized
Ġd rew
Ġwor ked
th y
ivid ual
om er
Ġt u
4 0
i ence
Ġsa nd
od ies
Ġstreng th
Ġsa fe
Ġg rou
ab les
ĠS e
Ġch ief
Ġimpos sible
Ġest ab
Ġtak es
Ġserv ants
Ġth ird
ĠW h
d ie
Ġtr ust
AN T
âĢľW hy
icha rd
Ġl ying
Ġtell ing
ĠL angdon
j em
f riend
I ON
a ction
Ġjud g
Ġbr own
re p
Ġcond ition
be fore
b et
Ġo kay
Ġsp ot
L et
al ed
Ġdo ll
ĠC ol
Ġpart y
Ġpre v
ac her
rou d
pe cially
i ps
Ġfre qu
Ġf alse
Ġg arden
ĠS im
hap ter
Ġc ru
ĠWill iam
le ase
ĠĠ Ġ
ĠA m
ay s
Ġwork ing
Ġwhat ever
R I
Ġnot e
o om
Ġf it
l rich
Ġat tend
Ġste pped
Ġsum mer
re ct
st em
ĠHer mione
ci ence
il a
Ġfl at
b i
Ġnar od
Ġr ing
ĠHe aven
ru ct
Ġhapp iness
ĠP l
f ess
us hing
st on
Ġtou ch
Ġc ell
SC ENE
Ġarri ved
Ġd rug
Ġgreat est
Ġpock et
Ġp al
ē Ă
T HE
Ġbl ind
b el
Ġt y
Ġmil es
it ary
âĢĶ I
Ġexperi ence
Ġim m
Ġdes k
Ġv ain
Ġp icked
ĠJ er
Ġconf ess
an i
Ġjust ice
Ġauthor ity
Ġpleas ed
Ġsh owed
jeg a
ĠS h
ra w
_ ]Ċ
Ġst ick
ĠM me
Ġcontr ary
Ġm aid
Ġf le
b a
ak en
ic ate
oura ge
Ġmere ly
Ġto r
ĠF rance
. ï¿½Ċ
3 3
Ġfig ure
Ġmist ress
Ġs ong
Ġde part
im in
to gether
erv ed
Ġth row
Ġnew s
Ġpres ence
Ġpro ble
m ber
st airs
Ġoblig ed
ous es
re y
com m
is hing
Ġen c
de red
Ġgr ad
ortun ity
³ ¦
à ³¦
f ather
Ġterri ble
Ġj a
on ly
b ro
Ġp od
J ust
Ġr az
Ġfin ished
y e
ac hing
Ġd read
ĠĀ ï¿½Āï¿½Āï¿½Āï¿½Ā
âĢľH ow
Ġh orses
Ġm ass
Ġlear ned
at o
Ġde mand
Ġne igh
Ġbe at
ąē Ę
D o
Ġ id
e ch
j o
l ong
Ġdro pped
ĠHen ry
g ov
s ha
ĠF rench
ov es
ĠG ree
Ġstru ck
al ous
ar i
Ġgl anced
Ġpict ure
Ã Ń
Ġend eav
ĠH s
Ġte nder
um ent
Ġre ceive
Ġwe eks
" M
ĠP o
Ġour selves
ĠS ophie
Ġst uff
Ġf aint
Ġf ro
Ġre ven
Ġbel ong
el ess
Ġf ly
Ġal though
se e
_ Ċ
ist ance
Ġm ill
Ġc atch
Ġpol ice
i ance
Ġr ub
== ==
up id
G utenberg
Ġabs olute
Ġwe aring
ic ense
ist r
at ic
Ġdis appe
ri et
Ġar g
Ġwant s
Ġyell ow
ound ed
Ġcl oud
th ought
Ġj ump
ug ust
ill a
p or
Ġsuff er
C hapter
Ġe Book
EN T
Ġwor se
i od
ĠG eorge
! âĢĻ
Ġbo at
Ġshad ow
Ġchan ged
Ġm ot
ĠL y
Ġbuild ing
Ġquiet ly
ĠG u
Ġwond ered
Ġread ing
Ġlad ies
Ġgr ow
ent ed
ĠM other
Ġw in
Ġi h
Ġconvers ation
stand ing
ra el
O ne
Ġv r
Ġpo inted
Mr s
Ġun f
en cy
ē ĔĂ
Ġno body
Ġf resh
ĠâĢ ł
c ap
let t
ish ment
ar ies
A fter
b es
Ġal ive
ĠR oman
Ġco ff
Ġde p
ri ll
Ã ¨
Ġcou ple
Ġcar ry
Ġfing er
ar ily
A G
im ents
Ġr ail
w ant
" C
u ly
m itted
um ed
Ġdes ign
ĠD ick
Ġu z
Ġdeg ree
th ink
ĠCh in
Ġv ict
ag g
O r
Ġev il
- g
Ġm oj
Ġp ati
al i
Ġc ost
ond on
Ġwind ows
Ġsu per
ï¿½Āï¿½Āï¿½Āï¿½Ā ï¿½Āï¿½Ā
Ġapp re
b ur
ï¿½Āï¿½Āï¿½Āï¿½Āï¿½Āï¿½Ā ï¿½Ā
z a
Ġse par
ĠĀï¿½Āï¿½Āï¿½Āï¿½Ā ï¿½Āï¿½Āï¿½Āï¿½Āï¿½Āï¿½Āï¿½Ā
an na
ĠGar p
Ġpriv ate
" H
ili ar
Ġcon ce
Ġent ered
p ond
Ġch Ã¼an
Ġn erv
Ġsurpr ised
qu is
Ġpos ition
ĠY ork
Ġgra b
ĠS w
, Ă
"W e
Ġt iny
Ġd ust
ĠS er
Ġbl ess
Ġprodu ce
Ġvill age
ĠC ast
Ġp u
Ġacc ess
Ġshout ed
over n
Ě Ċ
Ġf aces
ĠJ ew
ag raph
E very
Ġas ks
s uch
c ceed
al ad
ĠE x
Ġc over
ort ed
Ġoff er
Ġn jih
Ġh ig
ĠM on
Ġafter wards
iv ed
r ant
tern al
Ġliber ty
Ġc alm
Ġd ry
ĠB ill
, --
U T
- in
Ġl oc
Ġc overed
a ff
o x
anch oly
Ġ ignor
Ġv id
Ġf ol
Ġk o
Ê ĥ
Ġb ow
d ing
Ġd oth
F rom
Ġsp read
ud den
Ġb le
' T
I C
Ġdiffic ult
ig hed
Ġc ab
v iew
Ġsp ring
ad es
Ġrem ind
it able
Ġind ividual
I M
aj or
s it
Ġdra g
Ġem peror
_ .
Ġst ret
Ġspe cial
Ġwr ote
Ġw ise
- room
c her
Ġg iving
ter ing
ĠY et
Ġche ck
al a
Ġobject s
Ġgra ce
Ġexist ence
ĠPar is
Ġlif ted
Y our
ĠW ang
se m
Ġcons idered
ĠChrist ian
all ed
O S
i pp
ir th
Ġco at
Ġus ual
Ġval ue
Ġhist ory
ĠC a
ĠM adam
3 5
Ġcon qu
Ġex ec
Ġle aves
y r
Ġpl aces
! --
ac c
- st
Ġl uck
ag a
Ġsim ple
il ia
Ġg ro
p et
Ġext reme
k in
z ed
ĠA g
Ġadv antage
Ġp ushed
ĠM c
m uch
Ġext ra
ĠR ome
Ġp at
Ą ą
is c
Ġdis p
Ġsome where
Ġdoor s
Ġappear ance
ĠB og
Ġsit uation
Ã ³
Ġa ction
ĠHe re
Ġspe aking
Ġz eml
Ġph ot
all ey
Ġfa ult
W ho
Ġn ames
Ġc and
to p
id den
Ġli ves
Ġc red
ï¿½ s
bl es
Ġm adam
Ġgaz e
3 7
Ġsh irt
Ġentire ly
Ġd ad
Ġpr ince
Ġang ry
ĠChar les
Ġgu ard
Ġp an
ener al
Ġturn s
ard on
Ġwr iting
Ġ \'
ic ious
Ġent ertain
Ġpos sib
eth od
f ast
as hing
f ord
ĠLou is
ĠV er
om ach
u i
Ġk oj
Ġevery body
Ġlear n
Ġp hys
ul a
" T
Ġst ore
Ġt one
su b
Ġnot ice
Ġbare ly
Ġsp ace
ac qu
Ġper iod
cl ock
Ġbe ha
Ġi i
ĠD a
our t
ash ion
Ġc amp
3 9
Ġa ut
han k
-s an
Ġlean ed
Ġre ign
Ġo st
Ġdisc over
f ield
ke ep
ah u
Ġm arry
Ġex cell
s l
ĠL aura
ĠAmeric an
Ġir on
ĠD ad
ĠChar l
ha bit
Ġim per
ĠD u
c ked
Ġent er
Ġw ore
ą ě
Ġpr ide
Ġphil osop
3 4
ć Ċ
Ġre ach
Ġbl ank
him self
Ġan x
s pe
ĠPer haps
Ġletter s
Ġpr ison
Ġall ow
âĢľS o
Ġg ives
ĠH omer
Ġgr in
L O
ĠPhil ip
Ġenem y
Ġany body
ĠOn ly
alad in
Ġse ven
ort es
Ġr oof
Ġst airs
ĠL ike
m ight
Ġsome body
Ġmean ing
bec ause
Ġquest ions
Ġst at
Ġtre m
3 6
ul ous
Ġopp os
Ġlangu age
Äĳ u
ĠTess a
Ġsa ve
l ittle
Ġdist ingu
Ġb orn
Ġcig aret
umbled ore
fess or
ar lett
Ġexpect ed
Ġu r
peri or
: _
ch ive
udden ly
Ġkne es
claim ed
ĠâĢ ŀ
em ber
Ġth rew
Ġshar p
le x
ud ing
Ġmar riage
Ġnor th
Ġp op
Ġprop ortion
âĢľ Not
Ġpol it
ĠIs rael
ĠTh us
o e
Ġb an
bert ine
Ġpar agraph
Ġaw are
II I
Ġh ost
Ġh un
Ġc ivil
Ġw and
Ġb odies
S ir
Ġsuffic ient
th ose
ur ope
il ar
Ġhon est
Ġv o
Ġde b
adem ark
ous in
Ġsa ke
Ġgr ay
Ġsm iling
Ġan cient
Ġshe w
l in
m ay
Ġt on
D on
g ood
Ġg en
Ġproper ty
Ġlist en
Ġte a
Ġfe e
Ġaffect ion
Ġsurpr ise
Ġsy stem
Ġe gg
Ġbott om
Ġinf lu
Ġd i
Ġt aste
pl ace
Ġk u
Ġslight ly
Ġgra ve
Ġimag ine
Ġw ished
ke y
so ci
I O
j ud
b u
4 9
Ġexpl ained
ord s
Ġforg otten
Ġnar row
han g
w ar
Ġb ank
ĠU lrich
Ġe ars
Ġst upid
Ġkid s
Ġdis play
our ney
- day
ĠM adame
Ġbes ides
ĠO wen
Ġs erve
or ious
Ġth irty
Ġb ath
Ġclos er
Ġexpl ain
Ġl oss
av i
Ġdri ve
, âĢĿĊ
Ġprinci ples
Ġimp ro
Ġsh op
Ġv ent
Ġmem ory
" P
Ġcomp an
Ġf old
Ġgrou p
Ġbelie ved
ar ound
il o
c r
Ġha te
Ġw et
3 8
or an
Ġgr ant
âĢĶ a
Ġfr own
m ust
n ers
w hile
Ġconst it
Ġexam ple
ĠA nt
Ġsoft ly
ĠR ichard
Ġhu ge
Ġrelig ion
e qu
Ġr ul
Ġu Äį
ï¿½ ?Ċ
Ġgu y
ĠGer man
Ġf ac
t i
Ġes pecially
s hall
os ity
ĠA ng
Ġt ong
Ġworth y
Ġcircumst ances
Ġsu cceed
Ġcr own
ĠA ugust
Ġp ity
s ing
Ġvar ious
ĠP et
W here
"W hy
ed om
Ġdeterm ined
in u
Ġsee k
Ġtak o
n al
as ons
al f
Ġdisc overed
w ind
Ġex erc
ĠB en
Ġlaugh ing
ĠC ha
a way
ĠĠĠĠĠĠĠĠĠĠĠĠĠĠĠĠ ĠĠĠĠĠĠ
Ġm ort
Ġf ru
ĠFran c
mb ers
ro ad
ĠI z
v u
Ġany way
a ly
ĠL ondon
Ġk ako
ĠD or
rag on
vel op
. M
Ä Į
Ġcare fully
ry ce
ĠD av
Ġcreat ure
ĠE ll
Ġpl aced
Ġunder stood
e em
ell a
ĠC an
ne ver
Ġf ish
se mb
aj esty
ĠW here
Ġcomplete ly
m ar
s erve
Ġwe ight
ĠJ ud
ĠF rom
Ġse arch
ĠĠĠĠ Ġ
Ġod d
Ġhead s
in c
im ate
Ġdist inct
if fe
Ġcomm un
Ġbit ter
Ġrepe ated
kn own
Ġinn oc
Ġc ard
Ġ ess
Ġdon ations
Ġs orrow
br ary
or ne
ex t
Ġsh ru
Ġknow ing
Ġp ack
ab elle
ain ted
Ġplay ing
um ents
ab b
Ġcent ury
ur red
I V
Ġis land
e as
Ăě Ċ
Ġst ation
Ġcru el
Ġas king
ĠÅ¾ iv
É »
> Ċ
Ġper form
cri be
Ġbur st
Ġst ro
Ġt est
Ġunderstand ing
k er
st e
st ead
us si
G E
Ġob v
Ġst omach
Ġsm oke
m et
su pp
Ġtou ched
Ġdra wn
be y
Ġï¬ ģ
ortun e
Ġsac ri
at r
ĠC al
! '
Ġbre ast
ĠD id
ru ction
Ġdest roy
Ġas leep
hen s
Ġdire ction
âĢľ She
p he
w r
âĦ¢ Ċ
ĠS te
Å¾ i
Ġn on
Ġspe ech
th ur
Ġc ustom
ĠT e
M ar
Ġproble m
Ġref lect
Ġapart ment
Ġsha me
Ġappe ars
AN D
Ġg est
Ġro y
ES S
ĠI van
âĢľ R
A r
Ġall owed
i as
Â ł
ĠS m
ĠJ im
Ġjud ge
' S
Ġcon n
the se
Ġw inter
est ed
Ġpr oof
Ġres pon
ĠY our
P H
Ġsha lt
ast ic
Äĩ a
Ġb ull
ra b
Ġmer it
Ġdisc uss
t urn
âĢľ F
Ġstru gg
o Å¡e
Ġgentle men
Ġgre y
Ġto t
v ille
Ġb ent
Ġpro ve
ĠW ho
: //
Ġl ock
C on
Ġconcer ning
ch ief
Ġfar m
al t
ook s
em u
Ġdro ve
O T
h on
Ę Ċ
oran aga
_ ]
f act
ail s
Ġas soci
Ġve li
I A
i ar
ey es
Ġmet al
itt y
Ġne go
Ġpur su
Ġlist ened
Ġp ressed
Ġcoff ee
Ġc ool
ab ility
Ġh y
Ġr id
b on
n ie
a ith
w w
in ces
Ġn ation
Ġg rief
iv al
n s
Ġz ap
Ġo per
Ġl over
Ġpers u
Ā? ĀĊ
. g
tain ing
Ġprodu ced
Ġorigin al
Ġspir its
Ġre ve
Ġm ach
ĠS hadow
Ġbu y
ir a
it ive
Ġs ighed
Ġa v
ĠM er
Ġa vo
j er
end ed
Ġtom orrow
Ġint ro
Ġdiffe rence
Ġmor al
Ġg ar
Ġb irth
ific ation
Ġg ate
a ked
ĠPr ince
Ġd are
Ġton ight
Ġke y
Wh ich
Ġp roud
Ġs pl
Ġtr ade
# Ă
or p
ĠS ch
Ġplay ed
8 0
n ce
ĠW u
Ġcha p
es h
icha el
Ġtem per
Ġlab our
pe ople
Ġwor ry
ĠI m
A D
ne cess
er m
Ġfeel s
Ġsu sp
com ing
oun ced
Ġd ue
Ġpri est
Ġl ose
ĠT H
Ġinf inite
se em
Ġs ons
ie ve
row s
is l
Ġlike wise
Ġmel ancholy
Ġre vol
b led
unt a
s ur
in ting
ca pe
Ġn amed
ï¬ Ģ
ĠI I
Ġh osp
Ġpap ers
o int
ĠH ouse
Ġm ult
Ġfore st
E M
ord inary
Ġha bit
Ġpo em
ĠUn cle
Ġget s
Ġf irm
" L
Ġfif ty
Ġfl o
Ġw ra
Ġwonder ful
ĠEd die
Ġro lled
Ġb rief
Ġopp ortunity
Ġcap ital
Ġ Åł
ec ilia
u le
al ing
he art
Ġhe sit
Ġp et
A B
Ġr ap
Ġcont rol
Ġn as
bo ard
Ġrequ ire
ĠE urope
ap er
Ġser ious
m ade
re es
Ġwere n
Ġfav or
Ġl it
le g
Ġperson al
l ive
ĠF eng
Ġno ise
Ġprom ise
ater ial
Ġh ouses
. F
Ġprov ide
pl ic
Ġlight s
al o
Ġmention ed
Ġwe alth
ĠP ers
ex p
ly de
Ġlove ly
Ġin formation
Ġprof ess
Ġperfect ly
c ar
el ve
ĠL iterary
Ġa unt
-Ā-Ā -Ā-Ā
g round
Ġprinci ple
s ay
3 1
Ġp air
Ġr is
Ġw ret
cha racter
Ġp or
ą Ċ
Ġor gan
Ġs na
Ġf urn
ĠSt ate
ĠGr and
Ġqu al
ing er
l ine
Ġn ije
Ġl ines
Ġr ise
Ġsh oes
Ġbec om
Ġkn ife
- er
Ġother wise
f ile
Ġun less
Ġlist ening
ag o
g ress
Ġp ill
Ġcol or
Ġg all
Ġrel ation
o inted
us ing
Ġam b
Pro ject
Ġb read
Ġd ressed
ĠW il
Ġd im
Ġtit le
ĠS und
Ġsecond s
Ġqu ant
Ġgr at
4 5
ĠY Ã¼
Ġmatter s
Ġf uck
Ġj ourney
Ġb and
p al
happ y
Ć Ć
Ġsound s
Ġs an
Ġsold iers
l ied
ĠSim on
not hing
Ġjudg ment
Ġfam iliar
Ġgl ory
ra v
Ġmeet ing
ar ian
Ġcons cious
nd a
Ġf ixed
Ġagre ed
! âĢĻĊ
er able
Ġb as
Ġbed room
Ġeff ort
ur se
Ġ îģĵ
Ġsound ed
Ġh oly
He re
Ġmur m
Ġsha re
ĠC ortes
it iz
Ġl ap
T is
ed er
Ġp ort
ent h
ract ed
Ġut ter
Ġaccom p
âĢľY eah
on ed
et a
Ġbott le
Ġc ousin
ĠA h
l ad
ig g
Ġsur v
. [
not e
ĠCl ary
Ġnecess ity
ĠW est
ant es
Ġimag ination
Ġh ide
Ġwhis per
Ġgl ance
Ġ ice
ust ed
be ing
Ġyour s
Ġdev il
ut ation
Ġhe alth
Ġking dom
iffe rent
Ġf il
Ġ -Ċ
he st
ĠC ount
Ġadm ir
Ġb old
ĠM art
o cc
ac le
Ġgener ally
Ġstreet s
ĠL ove
Ġthan k
Ġw icked
ĠCon stant
Ġc ourage
ix ote
ĠM aster
| /
:// /
b ly
c ond
Ġst iff
t le
f irst
om in
su ff
id s
ĠR ob
Ġ .Ċ
ot ed
are r
d y
es ter
ĠE lsa
Ġsl u
m al
.... ....
i per
h or
Ġadd ress
cript ion
ĠB ond
Ġoff ered
ĠR ose
ĠSt reet
Ġfore ign
Ġinflu ence
t ake
Ġsu it
arent ly
6 0
ck s
ĠJ ake
Ġmil k
Ġs outh
Ġh ither
Ġman aged
Ex it
Ġemploy ed
Ġhot el
n est
4 7
ac ious
Ġst ream
ĠSc arlett
am b
Ġsp le
Ġgr own
ed s
Ġsha king
_ C
ver se
Ġsv oje
Ġje alous
ol a
Ġp ubl
it a
ak a
ĠAl bertine
Ġst ir
Ġbu ilt
âĢľD o
ur g
as c
Ġpr ice
Ġc rying
Ġbeg un
ist ic
ish op
AR D
h ost
Ġprot ect
o pt
Ġcl aim
Ġemp ire
Ġqu een
el ing
cul iar
Ġtong ue
âĢľ There
ack et
d am
ĠM ark
Ġold er
ier re
anch o
Ġm ethod
" Ā
Ġse x
ĠO ld
ĠM or
A rt
re ason
Ġfre edom
Ġfall en
& Ċ
Ġme asure
ĠJ on
at tered
ha rd
Ġ Äĩu
Ġclear ly
Ġpass age
Ġru le
ha le
Ġspe nd
ol f
b re
Ġf ancy
ve y
Ġwe ar
ĠBr it
.M oj
Ġfor med
ĠEm ily
k v
ĠJ ace
Ġche ek
Ġshru gged
Ġequ ally
habit ants
ĠM ike
ĠG ray
ud i
Ġbe hold
ak er
Ġar my
" How
p a
Ġp ark
ink ing
ĠT oranaga
Ġbr ain
Ġth ine
ĠA ny
st one
or g
Ġes cape
Ġst ock
Ġf ashion
l ooked
Ġb ij
oo p
Ġvo ices
-l aw
ĠL aw
Ġw a
Ġintell ig
/ In
ot he
Ġfright ened
in ci
ll y
Ġst ories
Ġfa il
li er
X X
ir gin
ord er
ph one
Ġresol ved
m as
o h
em o
Ġinst ance
Ġocc up
Ġk a
ul ation
Ġcons ent
Ġcol our
ep s
Ġf ate
ia h
Ġpass ing
Ġb je
ĠPer cy
ĠH aw
Ġb attle
uc ked
Ġal i
ĠJ ames
Ġfall ing
Ġdiffic ulty
Ġway s
ĠAr chive
Ġp og
th ings
Ġh o
Ġn ap
âĢľ N
Ġocc urs
du ce
id ly
ĠCa ptain
av ed
st ance
u x
Ġhe at
Ġfor ced
Ġca pt
Ġob serve
Ġres ult
wor thy
he nd
Ġp owers
Ġca uses
add y
E T
res pond
Ġdraw ing
Ġsome how
Ġe ld
Ġg ently
je v
ĠIz rail
Ġbro ad
ĠV al
oo ps
ĠC ome
4 8
ĠJ ap
Ġsu perior
ĠR ussi
ob ody
Ġthink s
Ġare n
Ġwr it
en i
Ġbreak fast
m om
om en
Ġput ting
Ġsw all
Ġtr ademark
Ġbl ock
âĢĻ u
Ġcomp ly
less ly
ans on
Ġkeep ing
Ġb al
Ġe p
ĠM ay
Ġmin ister
ag on
i pe
ĠS al
" B
Ġdam n
Ġcross ed
ĠM olly
ĠÄį u
ĠH all
ĠD umbledore
Ġpa used
Ġt al
ust r
Ġfl owers
ĠY Ã¼an
ĠC lyde
Ġact ions
ĠB ecause
Ġex claimed
Ġl ower
Ġrest r
Ġconsider able
ch ild
âĢľ My
ut s
Ġb ol
Ġdoll ars
ij u
Ġy ield
s ame
Ġh ole
Ġpre c
Ġfeel ings
' ai
Ġed uc
âĢĺ You
did n
A side
he t
H si
- by
Ġfun ny
Ġgun s
m es
Ġlike ly
âĢľ They
Ġinst ant
Ġl og
Ġle ap
ol es
Ġf ill
Ġsa ith
S ome
Ġinter rupt
Ġcr it
ĠQu ixote
Ġar rang
Ġbo ard
ĠFran k
Ġd v
Å¡ to
Ġfor ty
in ally
* *
Ġm al
en ance
Ġcom b
ĠS u
Ġst ars
Ġsqu are
cons ider
Ġmove ment
ac hel
D e
os ing
Ġte nd
Ġhon or
Ġnatur ally
Â ·
go ing
Ġsome what
Ġch oice
r un
Ġun ivers
i ot
Ġcont ent
ĠS ec
ex pect
c il
Ġexcell ent
ĠG l
âĢľI f
Ġne ka
ro do
Ġas ide
"> <
og raph
Ġe vent
P er
ĠA ND
^ ^
Ġanim al
le an
Ġst y
ĠL a
ĠT O
ceiv ing
ar ling
Ġth reat
Ġey eb
ĠSund ay
4 6
Ġbe ast
Ġcap able
Ġsh oot
Ġnew sp
Ġman kind
ĠE r
Ġmind s
av a
ed y
Ġf ond
Ġscarce ly
Ġf em
> </
Ġp om
ĠT ai
Ġcred it
et te
I D
ĠL ev
Ġo w
es ides
es sel
ore s
Ġdo ct
3 2
Ġrep ro
Ġus ing
Ġp ardon
" Ă
ĠG eneral
Ġsur round
o pp
Ġfore head
Ġ ing
p res
ĠJ es
Ġas su
gy pt
iz ation
n og
ĠPro fessor
en ced
l ished
Ġor dered
Ġb ought
ĠP ark
ĠG ood
_ .Ċ
al in
Ġ vers
O M
Ġdes ired
se y
ĠThe ir
Ġsl ipped
Ġr ode
am ing
Ġgr owing
Ġcigaret te
Ġacqu aint
Ġem er
a e
an other
Ġc ow
Ġeng ine
Ġtw ice
Ġa ston
Ġhop es
ĠG old
Ġstay ed
Ġli brary
Ġn ations
Ġd ance
Ġno vel
Ġb iti
Ġus ually
ad ing
Ġnjeg ov
Ġst ates
hen g
ĠK e
Ġhelp ed
Ġsha pe
ir ing
ĠD el
Å¡ t
Ġcall ing
f it
Ġkn ight
Ġtra ve
Ġdo Äĳe
tain s
A re
Ġwhe el
Ġroy al
Ġhur ried
ll s
athe red
Ġk r
Ġd ign
iz ing
ē Ĕ
. S
âĢľD on
Ġm agn
dis c
Ġaffect ed
Ġg as
P hil
Ġsple nd
en ny
W ill
Ġfriend ship
Ġsoon er
Ġl oose
F oot
Ġs our
Ġstud y
Ġrep ly
Ġreal ity
Ġr ising
-ch i
Ġprov ided
Ġsp ite
Ġdro p
I G
Ġso cial
m ake
overn ment
al ph
in o
hi h
Ġm a
Ġcast le
ir ot
iz abeth
I ST
Ġsu spect
Ġex ha
Ġconsequ ence
Ġsett led
int s
im s
Ġtw elve
cl es
Ġpra ise
ĠJ an
Ġdr unk
n atur
Ġhe aring
au d
Ġsubject s
Ġfrequ ently
ci p
Ġanim als
ant ic
re c
ĠD es
ĠK unta
ou ble
Ġs igh
Ġdis g
G r
Ġmon arch
Y et
Ġpleas ant
ep ing
Ġsle pt
g en
ur ity
Ġprom ised
ĠCol onel
ic ated
e lect
wor ld
Ġad vent
ĠC ath
Ġfoll ows
Ġprep ared
The se
ib us
Ġhor ri
Ġmut tered
Ġdiv ine
Ġbird s
ing ing
en ch
ol i
C om
Ġtr ick
Ġpe culiar
ĠT ar
ĠAr thur
Ġtr uck
ian ne
a ul
Ġd ying
Ġaff airs
ĠT wo
Ġw ed
ĠS ancho
Ġsim ilar
Ġspo ken
as ant
Ġn ine
ĠH ist
vent ion
ĠDu ke
Ġwood en
Ġw id
ĠG o
ĠJap an
el ia
again st
Ġr um
Ġo bey
Foot note
Ġsu gar
Ġc ases
-er h
ind er
Ġreal ize
10 0
G od
Ġper mission
them selves
" There
y er
Ġsleep ing
Ġrel ations
Ġpal ace
Ġem otion
Ġc amer
Ġany more
Ġpull ing
Ġtr uly
C l
Ġl aughter
Ġ ign
ri je
ĠH ans
d el
eg ro
Ġmur der
mon y
Ā? Ā
Ġwor ship
Ġbl ow
ro v
Ġsa v
ĠK aladin
om as
ac ob
Ġimp ression
ï¿½Āï¿½Ā ï¿½Ā
" Not
oy al
ĠR ich
olog y
ĠS y
Ġdist ur
g aret
ĠĀ ï¿½Āï¿½Āï¿½Ā
ĠJ ason
Ġex cl
Ġpossess ion
ĠC or
Ġdes cend
Ġhosp ital
alin ar
Ġdream s
r ass
A ST
Ġcar rying
as ures
ĠW all
b id
imp ort
Ġche er
Ġbr idge
Ġinv ol
Ġgod s
are st
. org
a pt
ĠS aint
Ġli es
Ġpro pos
Ġsens es
% Ċ
Ġda wn
Ġinterest ed
Ġr od
ck now
ĠJ a
Ġwis dom
an us
it or
Ġs ides
Ġfight ing
Ġh idden
Ġkiss ed
Ġpresent ed
Ġbe z
Ġte xt
ĠM ichael
az el
Ġem b
Ġend ed
âĢľI s
Ġsur face
ink s
Ġch oose
Ġbut ter
Ġpre fer
Ġcha mber
Ġenem ies
ĠAd am
Ġsw ift
ic i
ĠK ad
-h si
Ġgreat ly
Ġro b
r ors
.g utenberg
Ġde velop
Ġf oc
ug o
there fore
Ġpossess ed
ĠA lex
- up
Ġspe cies
ar n
Ġcra zy
d oor
ap s
Ġche eks
Ġin tended
Ġfru it
Ġbus y
Ġoffic ial
w ater
sk i
hi b
on a
ac hes
ie h
ĠAmeric a
Ġwor ried
Ġind ul
Ġs ed
Ġsatisf ied
gg ing
Ġneed s
h um
Ġv essel
B ER
W hile
D une
Ġpie ces
ĠJo e
Ġre asons
art her
Ġcont empt
b all
Ġatt ack
Ġle vel
s ue
M aybe
Ġa cknow
Ġper ceived
Ġso vere
ĠâĢ¦ Ċ
agn an
R e
ive red
Ġeng aged
Ġat e
Ġen v
Ġwe l
Ġhang ing
Ġwe ather
ĠC o
7 0
.) Ċ
Ġfl esh
Q U
Ġhar m
Ġqu e
Ġdo zen
ad v
ĠB o
Ġr ank
B l
Ġquant ity
Ġest eem
rs ula
con f
Ġadv ice
Ġpl ant
Ġear nest
Ġmom ents
j es
et e
Ġk on
âĢľT his
Ġmed ium
Ă ĄĊ
. ï¿½?Ċ
Ġ ll
ĠH on
ul ated
ist en
Ġclim bed
Ġan ger
Ġdes per
ĠM at
ut ions
Ġsv ak
an c
N or
Ġin j
ribut e
Ġfort un
com fort
Ġburn ing
Ġcor rupt
ĠSw ann
ĠW as
âĢĻ Art
ri g
Ġpres ently
Ġe ager
ov je
! âĢĶ
er ous
th orne
Ġopen ing
Ġp in
âĢĻArt agnan
ĠM il
âĢĶ that
Ġch in
ix t
Ġrequ ired
ĠS ad
Ġcoun ter
ĠI N
ĠI II
Ġproceed ed
Ġr ide
the less
n el
-h ua
pro v
Ġsole mn
L ES
ie ce
Ġca ptain
Th ou
ot te
ens ive
- th
Ġassu red
al ter
Ġdis app
ĠL arch
Ġord ers
Ġv ague
Ġdirect ly
Ġcon c
Ġpass ions
ter day
as ing
Ġph r
Ġshould n
ĠH el
[ Footnote
e re
Ġ ident
Ġb ill
Ä Ĩ
ha l
Ġna j
f all
ĠJ une
Ġpo k
Ġread er
ign ed
Ġf et
Ġre nd
Ġgold en
om kv
omkv ist
A C
Ġre ward
Ġt ables
Ġrep ort
s w
atch ing
l ow
bar rass
Ġmess age
Ġl unch
Ġroom s
Ġa ud
Ġm aterial
Ġaff air
ĠF re
j en
am m
Ġcur ious
Ġpol ic
Ġs r
ail ed
Ġconf idence
Ġord inary
Ġk oje
Ġ Ã
Ġexp ense
umb ers
t oo
Ġhand ed
Ġspe ed
Ġt aught
ain ing
- li
am o
4 1
Ġaw ful
on na
t wo
ĠBig ger
Ġw est
Ġscream ed
7 5
Ġob sc
Ġart ic
Ġpro cess
Ġdanger ous
ĠBrit ish
Ġwe ap
ĠE ragon
ac ity
Ġc ott
Ġany where
ĠWh ite
Ġp age
Ġha ted
Ġsh ock
e unt
ir it
Ġext ent
ĠE ar
o k
Ġparticular ly
e ge
Ġd irty
Ā x
is a
Ġcent er
Ġserv ed
Ġv alley
pe lled
Ġwit ness
M iss
wor th
Ġwood s
Ġshad ows
Ġfield s
er ted
her n
. Ã¢
c ase
Ġst are
ĠÅ¡ ta
Ġgrab bed
in ced
ĠF rodo
Ġdecl ared
ĠR os
Ġcl o
Ġhop ed
is to
Ġtr oops
ĠHar riet
Ġsmo oth
Ġso lic
cont in
ic u
g ate
p ort
Ġfin al
in cess
ĠS uch
D id
ĠM ing
ve t
ud ence
ens ion
' You
ĠC all
Ġv oj
Ġde fect
erm antes
Ġhill s
Ġst age
ĠL ittle
Ġcl er
re f
ld om
G ospod
P r
s ol
Ġinde pend
Ġpict ures
it z
ĠW ood
han ks
Ġwor st
Ġin habitants
._ ]
t t
Ġrad io
_ ,Ċ
Ġj acket
K ING
Ġl est
wh ite
any thing
in ions
ĠM anson
Ġdisappe ared
Ġr ag
Ġmount ain
anna h
um ph
ĠL ee
ĠCh ris
import ant
st ill
re al
Ġfind ing
ĠCh urch
Ġp it
C ome
O ur
um n
-f ive
Ġoppos ite
w in
ĠJ os
ĠA N
ĠE gypt
Ġsec ure
Ġassoci ated
c ame
Ġna ked
Ġexp ressed
Ġneigh bour
T r
Ġpre ced
Ġp ink
Ġfol ks
ĠA li
Ġextra ordinary
r ine
ud es
ic o
ur d
Ġce iling
Ġdesp air
Ġsuggest ed
Ġcr ack
Ġt ail
ab el
L angdon
Ġli p
with standing
Ġpossib ly
Ġen orm
Ġe ating
am ps
Y eah
Ġkn ock
l ar
ar ked
Ġy ard
Ġd ig
Ġinter view
Ġpro b
Ġst uck
Ġdog s
Ġsuff ered
I J
Ġr are
Ġear lier
ĠM ore
Ġbe er
Ġl od
Ġal together
16 6
ĠM ax
ick ing
Ġr ough
il st
00 0
Ġu m
ĠM in
Ġdist ress
Ġadd ition
f ric
ĠS her
Ġl ocked
Ġen er
Ġextreme ly
Ġt empt
ĠOn ce
ĠEd ward
le ction
le br
om b
Ġhe nce
Ġrem oved
Ġru in
ĠLou ie
U n
so ever
Ġter ror
ul s
Ġocc urred
Ġdes cribed
Ġdist ant
Ġref und
Ġeffect s
Ġavo id
Q u
S IR
ang ers
at han
E V
Ġdel iver
Ġaff ord
Ġaccept ed
Ġmach ine
p ut
Ġjump ed
Ġd well
Ġli b
ĠT ob
Ġsh it
u k
g ive
ĠS ol
S c
LE T
Ġmag ic
ĠD ay
Ġsc r
F A
Ġim age
ire ct
l ast
Ġwra pped
Ġsatisf action
ch o
Ġc ult
Ġcount ries
Ġmount ains
ĠJ am
oura ble
Ġref used
b ow
l ook
in ate
ĠS ha
ĠNot hing
Ex eunt
Ġdr um
Ġg le
Ġtrans l
Ġswe at
v is
at ives
Ġtele phone
Ġ É»
Ġe ast
Ġstand s
Ġin sp
Ġ. .
p es
5 9
Ġhe ight
qu est
it ement
ab a
il ty
w alk
Ġstr anger
Ġviol ent
Ġ "Ċ
at ors
ent al
ĠIs abelle
Ġv ast
g ot
ĠCl are
ĠP res
Ġt un
s at
Ġc ook
- n
ĠR em
elect ronic
Ġpre tend
is hes
ĠMar illa
-m orrow
Ġca used
Ăě Ą
Ġme mbers
Ġmer cy
en ough
Ġbreat hing
ati o
am s
Ġglass es
Ġg iant
Ġd ouble
Ġha m
i Å¡e
ĠJ ean
ĠR om
ĠM el
âĢĶ but
-y ear
as ions
ĠC ecilia
Ġob st
Ġb og
Ġbath room
- ni
ĠL icense
Ġc art
Ġcar riage
Ġsure ly
< p
f ound
ĠA rab
Ġfif teen
Ġfore ver
ract ers
Ġpur cha
Ġmy st
ĠO R
Ġcont em
Ġheart s
Ġadm it
m o
ĠHow ever
Ġfaith ful
ĠJ em
Ġi ii
ĠV en
" N
ĠP ierre
v ile
Ġcontin ue
- sh
Ġam az
Ġsha ke
w oman
em ents
ĠS il
Ġ- âĢĿĊ
Ġs ought
Ġ `
Ġsl id
al ways
Ġwis hes
Ġre ck
Ġcare ful
âĢĻ er
Ġk ings
t w
ather ine
Ġm isf
- "Ċ
Ġl ack
oll ow
Ġoffic er
ĠLe o
i qu
Ġnor mal
Ġr ang
Ġjed an
ĠR alph
âĢľT hen
Ġsing ing
every thing
ĠJ ones
Ġnerv ous
ĠR ed
ĠO s
âĢĻ Ã¼an
Ġper pet
Ġmiss ion
Ġev idence
Ġher s
il ies
Ġmod ern
Ġincl uding
Ġdemand ed
Ġsa il
O UR
ĠT ur
ren ces
E CT
Ġun known
ĠY ing
ĠC ity
E ven
b oy
Ġcirc le
Ġf ier
Ġf arther
Ġex ceed
m od
Ġad opt
ortun ate
Ġob ed
Ġexc ited
Ġn ad
Ã ¶
ue en
Ġprin ces
z an
f a
ĠL in
Ġc itiz
Ġf an
or ous
Ġyes terday
4 4
Ġacc ident
J o
Ġtri al
Ġr ace
ĠN egro
Ġimp ati
Ġcor rect
ii i
Ġdri ft
ie ur
Ġsc reen
Ġburn ed
ian a
ĠJes us
Ġle ather
s ure
in ction
an ied
m ist
Ġthr own
Ġapp lic
Ġmil itary
Ġsen sible
Ġabsolute ly
Ġsusp ic
sel ess
"I f
ĠO ve
in terest
Ġre nder
ĠL at
um ber
l ooking
ers on
ĠRob in
c irc
M AR
k om
ĠW ar
Ġsupp er
t ow
ĠĀï¿½Āï¿½Āï¿½Āï¿½Āï¿½Āï¿½Āï¿½Āï¿½Āï¿½Āï¿½Āï¿½Ā "Ā
Ġs ize
Ġv od
Ā, ĀĊ
s im
Ġw ake
Ġmiss ing
Ġpract ice
Ġphys ical
et t
ĠAugust us
se arch
ĠO ur
" Then
Ġm ood
z u
Ġsh own
ag ger
at ures
Ġb owed
ĠF red
m ind
is ions
Ġg athered
ed ing
Ġe ase
Ġman ners
ĠDav id
ons ieur
hand s
Ġme at
ĠH ol
Ġmist ake
z ing
ĠRo bert
ie ved
th os
Ġmir ror
Th us
Ġwonder ing
Ġob tain
Ġconsequ ently
" ĀĊ
i osity
p resent
ĠT s
ĠT er
Ġsy mp
Ġam ount
Ġstret ched
Ġg host
Ġm og
Ġhouse hold
ĠChrist mas
L e
O V
Ġun happy
Ġw ave
Ġass ure
Ġn urse
Ġj oj
Ġs ch
bl ack
Ġinf er
stit ution
Ġsc ared
Ġj aw
Ġtra vel
mom ent
ĠW or
an cing
Ġsty le
đ Ċ
ĠA re
ï¿½ t
ĠJ e
ĠIt aly
Ġchar ming
ĠY OU
d r
Ġpl ate
Ġcor respond
Ġrel ief
Ġt ent
Ġestab lished
Ġbe ard
Ġte acher
Ġbje Å¡e
Ġcab in
- de
l je
Ġb uck
expect ed
at ers
f ice
l aw
Ġev ident
ĠB el
ĠG reat
Ġspe ct
n om
n abeth
az e
a res
f ied
Ġa ko
Ġsqu ee
Ġwho lly
Ġsh if
Ġprinci pal
ĠSp ain
Ġqual ities
- to
Ġne Äĩe
ĠJul ien
Ġfle w
my self
ll en
ĠN ever
Ġr ib
ĠC ons
um pt
ribut ed
Ġthr one
ĠA y
Ġreg ular
Ġlean ing
c op
Ġbet ray
Ġmid st
Ġcoll ection
Ġc ream
Ġp ause
r as
c har
u ps
Ġamong st
Ġt ur
ĠCar l
Ġj un
7 8
er o
Ġare a
ĠL uc
Ġz e
Ġste el
ĠP ot
p rom
he ld
Ġpro ved
Ġfool ish
count ry
Â Ń
Ġquar ter
w ent
or ing
p ur
ĠM oses
Ġqu ality
ines e
Ġt voj
ens es
Ġsent ence
ĠL ook
ÂŃ Ċ
g ain
ro se
- the
Ġfa iled
y et
Ġcl ock
us an
Ġpl enty
o pping
z n
Ġi v
u el
an je
am med
om s
Ġappre hens
Ġdrink ing
âĢľA h
Ã¨ re
ĠS outh
f am
Ġse ldom
Ġwh ilst
" They
and alf
Å¡ ten
Ġp ig
ig ger
Ġhig her
L U
uc hes
Ġignor ant
Ġ ili
Ġp ounds
Ġinst ruct
G ood
c ol
ĠJ ane
w ers
Ġestab lish
Ā !
el o
âĢĶ âĢľ
Ġdoor way
Ġse vent
ĠR achel
Ġgot ten
âĢľA re
Ġabs urd
os en
Ġjo in
ĠCast orp
5 5
Ġacqu ainted
-l ooking
t ell
Ġhop ing
Ġse vere
Ġrem ains
Ġsub s
Ġl amp
man y
ĠY Ã¼eh
Ġd rank
Ġwa ist
Ġal ter
ě ĂĊ
Ġ Â·
her s
os ition
Ġev ents
Ġwh ist
ac he
âĢĻ clock
Ġg ospod
Ġgood s
Ġut most
pers on
Ġs illy
Ġg ather
Ġes cap
il bo
Ġnight s
Ġgl oom
Ġem barrass
Ġpoint s
"D o
ĠLaw rence
ĠB ryce
Ġbo ots
sib ility
Ġtr ack
i ently
V ery
ick en
Ġun able
Ġ vel
A m
Ġper mitted
Ġl one
Ġc ities
Ġab and
Ġrem arked
ap h
u ang
Ġhig hest
uten ant
ul f
Ġexerc ise
ap ers
Ġent rance
c or
Ġd ull
B ecause
Ġst orm
Ġr age
20 0
Ġup stairs
ĠTh ou
Ġ Ã¢
l ife
ĠG il
Ġra ise
Ġhist or
ab bit
ĠS l
Ġimag ined
Ġcon ception
ose ph
Ġcount enance
. A
at ches
Ġmiss ed
seem ed
iv ity
ra h
"D on
en c
Ġon i
âĢĺ What
Ġcor rid
7 9
pos sess
Ġimport ance
Ġloc ated
Ġc ro
U N
Ġcomp osed
Ġrequ est
Ġviol ence
Ġmy ster
Ġest ate
Ġgr ate
m aster
Ġcond em
Ġx x
Ġ Äĳ
ne ed
Ġjo Å¡
ĠCharl ie
Ġpro posed
ē +
Ġgr im
Ġper ceive
ĠDo ctor
Ġod gov
Ġl oves
ĠS ung
Ġadv anced
Ġsovere ign
cons cious
Ġgrand mother
ast ed
ĠJohn ny
' clock
Ġh om
ess ica
Ġgre et
ask et
Ġkind ness
ĠSt ep
ple asure
ĠCom p
ick s
Ġbrother s
ha med
av annah
bet ween
Ġoffic ers
, "Ċ
ĠA fric
as y
Ġc as
Ġt im
Ġst ones
Ġimmedi ate
Ġcloud s
com mon
ump ed
ĠEl izabeth
an ation
Ġre jo
cept ions
Ġconst ant
ar is
Ġr ushed
ĠSt u
Ġn am
ĠS en
Ġrid ic
Å ½
ic ation
ĠGree k
ent ial
Ġfriend ly
Ġshe l
Ġz n
v ar
Ġprom pt
agg ie
oun ce
Ġtri p
Ġu g
ĠÄį ovje
Ġon a
Ġdis ci
Ġg onna
Ġpower ful
ris to
ĠC hi
Ġcons ist
Ġhum ble
ĠJohn son
ĠP ol
Ġar ch
b ook
Ġg ain
Ġcons cience
Ġint ention
Ġce re
u h
th s
Ġto ss
b ell
pl ess
Ġmill ion
Ġenorm ous
Ġyoung er
Ġsa ved
ri an
ĠP iper
Ġre n
Ġb ase
Ġwill ing
Ġwhen ever
Ġb other
Ġagree able
Ġbra ve
Ġbecom es
un te
Ġv ig
m und
Ġw ip
Ġstart ing
Ġeff orts
Ġcl ut
Ġsna pped
Ġinterest ing
for ce
Ġconsider ation
Ġhur ry
l an
Ġst air
ĠN ature
Ġr ow
ind a
Ġcall s
Ġt z
Ġwhen ce
Ġconcer ned
Ġp oured
Ġfree ly
Ġjo ined
! 'Ċ
ĠeBook s
ĠM al
s ent
Ġcon ven
Ġpro gress
Ġind ust
Ġdeep ly
? --
l ove
it ated
Ġun if
oss arian
Ġpre cious
Ġexc use
vi our
Ġrul es
Ġc aut
se en
ĠMar garet
Ġpo inting
ac les
ass ion
Ġs ne
Å¡ a
Ġaccom pl
Ġm ov
- old
n es
7 6
b us
p ret
âĢĻ st
Ġim pl
Ġmight y
Ġforg ot
Ġtell s
ĠLu ke
I US
ĠQ ueen
Ġdign ity
Ġhor ror
==== ====
e ous
Ġty pe
ĠNor th
el ine
Ġfor ms
Ġmar ked
Ġv as
Ġlet ting
4 2
ost i
Ġun eas
Ġreg ret
Ġdes ert
Ġexc itement
o jega
ll e
Ġsa f
Ġocc ur
Ġsh ining
ĠR ep
Ġphr ase
Ġse es
Ġtreat ed
Ġw ww
Ġl ust
- e
st vo
ĠI V
IN E
19 4
Ġcont act
ĠâĢĶ Ċ
Ġf ully
Ġappro ached
Ġcra w
ag re
Ġthan ks
Ġce lebr
Ġatt itude
Ġhung ry
C an
Ġfl atter
ia o
Ġneg lect
Ġp sy
Ġhapp ens
Ā Ĕ
in ked
U L
ul gar
Ġh ob
Ġdri ver
Ġw ound
Ġte ach
Ġdistingu ished
Ġc ars
tr ans
Ġincre ase
ąēĘ Ă
Ġsm iles
ĠJames on
ĠI r
Ġm ud
ac on
ĠTh omas
d em
ut er
Ġfrown ed
Ġrec all
Ġs its
Ġz ak
Ġgu ys
_ D
ain e
Th ough
Ę Ą
we ik
Ġacquaint ance
Ġhands ome
Ġop et
want ed
d oes
k new
turn ed
oc r
Ġrec oll
Ġconcer n
Ġdread ful
b ra
k ward
p han
Ġb ab
Ġc hat
s ince
Ġvis ion
Ġv ide
ak s
Ġar ts
Ġfam ous
oint ment
Ġp ool
st eps
Ġin formed
Ġpro c
ud ent
Ġpr on
ĠLi u
l ady
i pping
Ġinnoc ent
natur al
at ory
Ġque er
Ġgu ilty
ad s
ĠCh inese
ES T
Ġd ate
ĠM ost
5 8
Ġgood ness
- like
m ary
âĢĻ ang
Ġher o
Ġprot ected
ver t
Ġbur ied
ov na
d ur
Ġl iter
ĠS ometimes
ĠH igh
C ON
ĠPo irot
st reet
Ġendeav our
ĠB et
, [
) .Ċ
c ourse
l ie
Ġevery where
ĠE ast
Ġabs ence
ale m
Ġuse ful
Ġpati ence
- cl
âĢĺ No
ij i
Ġcomm er
Ġter m
re r
Ġfly ing
Ġanx ious
Ġb ones
m is
ov ima
ĠAl ice
in ations
chan t
Ġapp arently
- a
in al
S h
Ġdis position
Ġg e
v r
Ġp alm
o very
s per
Ġinst r
Ġener gy
- character
ĠCar ol
id ently
Ġconf usion
or ough
ĠâĢ¦ âĢĿĊ
ĠJ ord
ĠRich ie
re qu
IR ST
u gg
Ġthere of
Ġexp ed
Ġconv inced
Ġse ated
Ġp ages
Ġso b
Ġa ch
âĢ Ĳ
Ġde mon
oo s
in n
Ġp ush
p ower
Ġappro ach
Ġdut ies
Ġr out
Ġmurm ured
R A
ĠT y
cent r
res pect
Ġpart ic
em an
Ġrelig ious
Ġcand le
Ġvi Å¡e
- k
ject s
acqu es
ĠPe ople
Ġb id
Ġdel ivered
Ġhum our
Ġinst inct
Ġr ije
O O
Ġstr ict
Ġgen ius
ĠMart in
cha ir
ag ree
Ġda ily
Ġcop ies
Ġ Äĩ
Ġre sem
Ġsw ung
. D
e ither
Ġpubl ished
ĠS un
-ni ang
ion al
Ġnjeg a
Ġt ied
Ġin ner
ĠA p
IT Y
ĠF ar
ĠHaw ai
in ent
Ġn umbers
Ġex cess
con cer
Ġw ings
Ġhesit ated
it ate
Ġconstit ution
if ference
os om
Ġdisc ourse
Ġpo ison
ĠN ay
ĠJ en
Ġphys ic
Ġintell ect
ĠJapan ese
Ġre ar
âĢĶ âĢĿ
Ġz na
ĠGer ald
ĠThe od
est ic
Ġlear ning
Ġb ul
Ġu st
Ġhall way
Ġwor n
ĠB ern
ĠJ uly
ro g
Ġsub stance
ĠGu ermantes
l or
op en
ount ain
gg ie
m i
Ġfl ower
"S o
Ġright s
an che
Ġgu ards
Ġexc han
Ġd imin
ĠPe eta
E d
Ġv en
pos sible
Ġlead ing
d je
st art
Ġm ale
Ġsal t
ĠJ acob
necess ary
Ġsour ce
i ko
ĠW in
Ġdam ned
Ġr ate
can not
ab u
be hind
Ġd ed
Ġsh ore
wh om
ĠD an
ill s
Ġpr im
Ġremind ed
P l
ĠP al
Ġex per
vo je
D U
ha ving
Ġnot es
Ġwith d
semb ly
ĠE n
Ġscream ing
Ġnod s
âĢľG ood
ĠH an
Ġapp ly
Ġnum erous
ant a
Ġgov ore
id ity
Ġu pper
ir med
ĠB esides
Ġcreat ed
ir y
ĠC r
g ener
ĠB er
ĠH unt
um in
5 4
ri a
Ġgener ous
Ġatt ract
um ble
P RO
Ġcha racters
Ġmo Å¾e
ĠP art
p ha
Ġt ar
Ġw ire
" My
Ġcle ver
ot ted
ou p
ul ate
ĠG andalf
ĠSt ill
âĢľW ho
br idge
an im
ĠT w
f ire
he ard
Ġsold ier
ject ed
ell y
Ġpol ite
Ġgest ure
Ġt ip
S ection
ist ence
Ġsil k
gr am
Ġj ury
ath y
o is
ĠLev in
b orn
Ġpres erve
Ġsaf ety
t es
Ġne at
h ol
ĠM ex
ĠY ang
Ġproper ly
Ġder ived
Ġro pe
ste in
Ġresol ution
ĠF anny
Ġtrem bling
ĠD alinar
on ies
per ial
Ġcommand ed
Ġquar ters
Ġsv ojega
_ M
Ġprec ise
us alem
Ġleg isl
Ġwel come
Ġsister s
bl ood
Ġweak ness
Ġa im
i ka
ĠM o
agn us
. ]
Ġble w
Ġlone ly
Ġw oke
na pe
ker chief
Ġm atch
ĠInd ians
Ġsuff ering
ĠF ord
j in
Ġme al
bor ne
Ġf ought
Ġcon ceive
per haps
Ġrep utation
Ġwas h
9 0
_ F
âĢľY our
---- ----
H N
O W
Ġch osen
Ġtri f
Ġpay ing
Ġte am
shi h
Ġ ,
Ġs ink
or ia
ĠAn na
Ġwed ding
Ġr ic
Ġab road
app ro
Ġfl ight
Ġrock s
Ġp hen
um es
ign ation
Ġcreat ures
Ġrecogn ized
Ġe cho
Ġfold ed
5 6
Ġab st
Ch rist
ge ant
ĠB ilbo
_ L
c est
ur st
Ġsent iments
Ġdan cing
ĠE st
Ġfl ash
^ r
ĠIt al
ĠV irgin
ĠH azel
Ġman if
li ament
off in
Ġobv ious
ĠPr incess
Ġarri val
ĠH ave
Ġsw im
ĠDe an
Ġhand le
Ġshar ply
Ġc ave
Ġlaw yer
ĠH ad
Ġcr ime
ĠM oj
âĢĺ It
Ġreven ge
Ġsucceed ed
est ig
Ġmost ly
Ġm ax
ĠK itty
Ġpati ent
Ġo nda
Ġde m
Ġref use
Ġed ition
Ġinterrupt ed
as ley
Ġmag istr
Ġaccomp anied
Ġy ards
Ġpu zz
om ed
Ġcl oth
Ġsp r
Ġdistribut ing
Ġcl ub
ĠL ong
Ġb io
Ġv am
we alth
Ġinst antly
Ġbad ly
ĠE nder
C har
b its
Ġact s
Ġprin ted
Ġcommon ly
ĠĠĠĠĠĠĠĠĠĠĠĠĠĠĠĠĠĠĠĠĠĠ Ġ
Ă Ą
Ġpl at
ĠF irst
" F
Ġf ix
es tern
Ġfe ars
! ĂĊ
-li en
ĠAn n
Ġsol id
Ġcal cul
se ct
Ġr ust
Ġrec ord
Ġre v
s il
ĠHs Ã¼eh
Ġas hamed
ile y
agg art
Ġdri ving
Ġconf used
Ġgrant ed
Ġse ll
' un
Ġal t
. \'
, Ã¢
ent ine
F F
im ag
Ġre con
Ġvirt ues
ĠT V
Ġris k
ur ies
f ell
ĠWall ace
Ġfoll y
u fact
in cl
Ġtri umph
Ġincre ased
Ă '
Ġ ."Ċ
Ġn in
ĠW ould
et he
Ġstart s
Ġcur iosity
Ġmis ery
Ġignor ance
Ġar rest
Ġd irt
Ġres pond
Ġdesp ite
ĠR ub
ĠEar th
ĠCl ara
or um
ĠJew s
ĠĀï¿½Āï¿½Āï¿½Ā 'Ā
ce an
Ġstud ents
Ġapp lied
pr inci
Ġt ask
Ġarg ument
Ġphilosop hy
Ġm ajor
ir ts
Ġb ude
Ġd ru
I nd
Ġaw ake
N j
7 4
ĠP at
Ġk az
Ġsupp ly
i ally
Ġegg s
a ffect
il ities
Ġdis e
Ġrel ated
19 5
ĠFranc is
ĠO ther
. ï¿½
c ast
Ġse ized
ĠR og
Ġse ason
c u
th ia
Ġm our
âĢĻ ai
Ġre comm
wh ole
16 1
Ġden y
Ġeduc ation
Ġo il
P e
v in
ov u
Ġfavor ite
Ġa id
Ć ą
iver se
H en
ĠSad ie
ess a
ap a
âĢľW here
Ġc ens
Ġwret ched
ĠW alter
mb ol
Ġat tended
Ġob tained
.) ]Ċ
" Now
ĠFranc ie
l ock
in ople
âĢĻ Ã¼
Ġreven ue
Ġj u
ĠC ap
ĠBe fore
Ġsuffic iently
Ġb rill
ĠB ob
Ġt ick
Ġsm art
Ġo k
ri el
ï¬ ģ
ĠEr h
ĠLy d
Ġent reat
Ġcond itions
um bling
S ee
Ġhel pless
at Ã¡
âĢĶ it
Ġsp ark
ĠDon ne
Ġforg ive
Ġdelight ed
w ing
Ġg ift
you ng
Ġfe ver
ĠE ve
ran e
Ġhold s
yn thia
ĠC le
Ġadm itted
Ġcontr ad
d ark
f ar
ĠE p
Ġbl ame
Ġen qu
Ġmar ch
ave l
ĠBr other
Ġf ra
Ġf ame
Ġcompan ion
Ġap olog
Ġm ajesty
Ġdirect ed
ĠT aggart
ĠM ur
pl ain
ĠH ard
Ġ ÄĮ
âĢľD id
lean or
f oll
ri ot
AT ION
Ġer ror
Ġto wer
Ġsac red
ĠBlack thorne
Ġkn ocked
Ġin con
Ġze al
% ěĂ
Ġne k
Ġsc he
or ter
yr ion
ĠJam ie
ĠIn stead
how ever
Ġp il
Ġro ll
Ė ĄĊ
' ,
Ġh orn
âĢľ E
me an
Ġfin ish
Ġcoun sel
ĠP olly
Ġre duced
Ġhorri ble
? ï¿½Ċ
Ġinv ited
appe ar
Ġprep are
Ġdec ision
Ġins isted
Ġfig ures
ne x
ĠInd ian
on ce
Ġm ap
as u
az i
Ġe ternal
Ġprov inces
Ġcol ours
ye ars
Ġfor ces
wor ks
as hes
ĠS omething
all s
ov o
in us
Ġthen ce
pp le
Ġgrand father
r ad
l ace
Ġbe ach
are well
Ġass istance
os ha
' an
Ġfat al
Ġdin ing
ar se
Ġve x
Ġexpl anation
ĠM ajor
h in
ly n
ĠSt an
Ġwe ird
cc a
ib son
P ao
Ġdel ay
Ġconcl uded
ĠR iver
On ly
on ia
cc les
Ġsl ave
Ġdef ence
Ġlif t
Ġam use
âĢľ Of
ribut ion
Ġs ang
Ġo h
Ġsil ently
Ġpolit ical
Jo hn
ly osha
Ġwas hed
us hes
ĠB al
ag ement
sat isf
gn es
Ġloc al
ol anus
Ġch o
ori olanus
et r
ict ions
F rank
P age
w ild
- ha
ĠS qu
Ġdec ide
could n
V I
t ook
Ġbeg ged
Ġb ore
av al
z o
ut ter
Ġswe pt
Ġcha in
ĠIs abel
ĠS ix
F IRST
ress ions
ĠInd eed
ol ate
ĠJ oseph
Ġnat ive
Ġvar iety
ons ense
d ri
el i
Ġaw kward
Ġann oy
g est
ar med
a ï¬Ĩ
Ġw agon
Ġbecom ing
ĠPres ident
as ked
Ġcorrid or
_ G
Ġocc asions
Ġcent re
ĠLy ra
Ġspe c
. t
Ġeld er
Ġw aves
Ġthr ust
Ġvan ished
ĠE ug
t aken
Ġcomm itted
Ă Ē
Ġw aved
Ġnj ima
ant e
Ġend s
Ġchair s
ĠTh ough
rep resent
ĠM ac
Ġar ise
Ġapp ointed
Ġread ily
Ġwas te
Ġhas n
' What
Ġprof it
Ġobv iously
âĢľ âĢĺ
U pon
Ġsacri fice
Ġp ant
Ġfl ung
ĠEvery thing
in ity
en es
Ġcomp ar
u ce
Ġkn ee
O kay
Ġser iously
udd y
ĠJ enny
th ree
el j
Ġcur rent
Ġdrag on
Ġsle e
Ġbreat he
Ġdet ails
4 3
Ġsc orn
Ġce ased
Ġenc oura
Ġpain t
Ġp p
T om
Ġn ational
Ġwhere in
Ġswe ar
c are
Ġsv i
ni k
Ġsoul s
Ġvict ory
ic y
en u
je Å¡
Ġbl ade
20 1
f ull
ĠRe arden
Ġh iding
ĠCharl otte
Ġdist r
Ġup set
c ur
âĢľ J
Ġwalk s
Ġsl aves
Ġug ly
- ey
gl ass
Ġsam o
du ction
just ice
ud ge
ĠW en
Ġcompl ain
ĠAn jin
ĠJord an
ĠD anny
Ġste ady
Ġb osom
ĠBr own
al most
Ġne ma
ab or
Ġhead ed
S p
v ation
ĠC hing
semb led
Ġte ch
Ġdef end
ag rid
Ġex act
Ġdeb t
ĠM en
Ġj oke
Ġte asp
ran c
am y
wh y
Ġnecess arily
Ġpun ishment
ą Ĕ
ĠS avannah
Ġv ac
Ġp ile
ĠGospod n
some one
Ġfuck ing
Ġc ries
Ġbeha viour
ĠCom m
Ġphot ograph
Ġr iding
Ġeyeb rows
Ã §
Ġmis erable
Ġgrat itude
atur day
Ġnewsp aper
er al
pp y
rov itch
Ġsvoj u
Ġfather s
Ġa st
Ġk od
ĠRussi an
Ġret reat
am as
Ġb ishop
Ġl ic
Ġco ach
% Ć
ĠM aggie
ĠL arry
g entle
Ġpre jud
Ġres ent
Ġtem ple
Ġdel iber
atÃ¡ sha
Ġa y
Ġcomp re
Ġkeep s
S uch
an ish
t te
Ġz l
Ġsu pre
ob serv
su ccess
Ġref er
Ġobed ience
G o
Ġdo k
n or
ĠĠĠĠĠĠĠĠĠĠĠĠĠĠĠĠ ĠĠĠĠĠĠĠĠĠĠĠĠĠĠĠĠ
ĠS ar
Ġpsy ch
r in
or ney
ĠG ately
Ġc rew
est i
i h
Ġtr ad
id ay
ĠBl omkvist
- shih
Ġo ath
at re
Ġt our
im o
ib ly
Ġyell ed
other s
Ġ .âĢĿĊ
Ġsc ru
Ġcont ri
- si
h ome
at us
ĠP RO
Ġbelie f
ĠLat in
O G
an ge
- i
h ist
Ġhast e
- hand
Ġclim b
Ġfam ilies
" She
Ġvis ible
ĠAnd rew
Ġluck y
h t
Ġrel ax
Ġco ast
ĠD en
av u
Ġcle ared
ous ed
Ġ !
ro ft
w ait
Ġcoll ect
Ġa pt
im medi
-- "Ċ
ac a
Ġoff ering
Ġann ounced
Ġaut om
cip it
ar l
a Äį
e z
Ġso fa
Ġim a
Ġtw isted
Ġve Äĩ
6 6
Ġb ree
Ġpor ch
Ġo pt
w hether
ple x
Ġvan ity
ĠRom ans
l au
v oice
ustom ed
Ġrepresent ed
' ĀĊ
it ure
ast ian
Ġinc red
Ġn ay
im ony
Ġintellig ence
Ġdist inction
Ġconce al
r st
Ġsett le
nd ing
ĠHel en
ĠS hih
ag s
ĠAy la
.t xt
Ġs cience
Ġb orrow
Ġsign s
Ġrend ered
ĠM ars
n ame
if ts
Ġed itions
Ġdiv ided
Ġstud ied
Ġcomfort able
ĠHaw thorne
f ree
Ġcon vey
ĠMar ius
Ġcomp uter
ot ions
Sc ene
Ġp atter
Ġfact s
be aut
m osp
Ġmen e
Ġbre aking
as ped
an ie
Ġy a
b out
Ġin tend
iss ion
- %
Ġsh owing
h un
ĠSal ander
ul se
Ġsince re
ĠS an
od d
Ġbring ing
âĢĻ en
Ġdoct rine
"G ood
it ched
Ġv ice
Ġst ove
"I s
l oc
' u
A h
her self
an u
al es
ĠRo ark
15 0
part icular
Ġstra w
"A ll
Ġc ock
Ġpain ted
âĢĶ he
ĠV ol
L ook
Ġfier ce
li ver
S ON
ĠR E
Ġpolic y
Ġcon centr
Ġdo bro
âĢĻ ung
aught ers
Ġu d
9 6
Ġacqu ired
Ġinqu ired
m m
inite ly
T ob
s Ã¼an
ent ions
Ġde pri
Ġpain s
Ġp ushing
Ġgov ori
O HN
Ġw ilt
Ġl y
urg is
ĠSec ond
og g
ĠN ick
ĠM ah
Ġdes ires
-h ouse
Ġfet ch
Ġp our
Ġne arer
ub al
Ġcoll ege
Ġstri ke
ff ic
Ġun ion
Ġunivers al
ĠT ell
ĠS usan
f oot
w ords
un s
ĠDel vile
u pp
Ġto rt
re ally
7 7
Ġsent iment
Ġcircumst ance
Ġdri ven
Ġth under
Ġprev ious
Ġre le
ot es
Ġpres erved
Ġincl ined
our nal
Ġpl astic
Ġwr ist
Ġneigh bor
Ġescap ed
ĠM ont
ĠB offin
L ike
Ġl ung
T hy
Ġamb ition
l ot
Ġdel icate
H ave
n ora
Ġd arling
ĠW hile
c ow
Ġsy n
Ġb at
Ġheav ily
Ġs add
Ġbell y
y l
ĠLu cy
Ġgrin ned
el f
Ġtor n
ĠWe asley
Ġcell s
Ġw ives
ĠS on
Ġenjoy ed
ē+ ěĂ
r ons
Ġb ench
ĠSam my
n ature
th ren
Ġdes erve
Ġop inions
umpt ion
Ġdemon str
em ort
old emort
em per
Ġme chan
er ry
Ġprov ince
Ġvirt uous
Ġpop ular
ĠM u
Ġth umb
O P
al so
ĠThere fore
" '
' D
Ġins pect
Ġmark et
Ġput s
d est
Ġadm in
Ġexec ution
Ġo vo
Ġwant ing
e ffect
ĠS uddenly
an ches
âĢľI n
Ġconst antly
Ġsy mbol
ĠEm ma
Ġsl ip
ail a
Ġd il
Ġr om
Ġret ired
-- "
Ġstrugg le
Ġm ild
Ġal oud
Ġre search
Ġhard er
ĠCharl us
Ġtra il
ĠMc C
ĠAng el
ic ago
im us
u ge
he im
ĠN obody
ĠR ay
Ġblood y
d ra
Ġf aded
ĠG ibson
ĠO live
, %
b reat
am ela
uches s
id el
l ers
oo per
Ġclo ak
sec ond
. e
ress es
Ġst aff
o ber
u it
ac count
ĠChrist ians
Ġet c
v ision
ĠWell s
Ġb ite
Ġch uck
- an
d ep
Ġa rose
ĠG oth
Ġaccording ly
aris se
Ġre nt
Ġdistribut e
Ġfrequ ent
Ġr ig
: âĢĶĊ
a ult
ĠA ss
plic ity
Ą Ă
ling er
Ġgrate ful
l im
Ġfl our
ud a
was n
âĢľO kay
Ġstart led
ĠSo ames
p ir
L i
Ġcult iv
ĠSch weik
j et
ni vers
Ġtax es
I ÄĨ
Ġis t
Ġswall owed
ĠCh ung
m l
Ġab rupt
ĠY ossarian
ĠAr k
ĠF our
âĢľB ecause
The ir
ĠA sh
Ġd amp
Ġd ana
art ment
Ġgri p
Ġgovore Äĩi
Ġun ited
ĠJer usalem
Ġconqu er
un ted
ĠJ ill
Ġsk ull
Ġhor iz
d i
Ġnj emu
Ġan ti
Ġfell ows
Ġf o
ĠB or
Ġlj udi
Ġsp are
ĠO d
' M
k ins
oth rop
Ġgov or
U M
un ning
Ġact ive
Ġgrad ually
Ġvent ure
Tob y
olog ical
mosp here
a pped
à ¨
lf red
p ite
ĠA le
Ġsk ill
ĠĠĠĠĠĠĠĠĠĠĠĠĠĠĠĠĠĠĠĠĠĠĠĠ Ġ
Ġshout ing
us ual
child ren
Ġl ake
ur u
Ġhapp ening
Ġlj ub
o bl
Ġin her
ĠC ourt
cc ording
Ġchap ter
at oes
ĠO ut
Ġs re
Ġprop he
Ġmod e
Ġl ament
Ġhigh ly
Ġcompl iance
unte ers
Ġde fe
Ġhand kerchief
Ġbirth day
Ġpleas ures
Ġincl uded
Ġformer ly
bar ians
Ġimpro ve
i Äį
el ed
Ġunif orm
re ne
E lsa
? âĢĶ
Ġw aters
is ure
or se
ay a
Ġlow ered
Ġin vent
Ġlady ship
ar ly
ĠM ad
ab s
ful ness
Ġref lection
Ġpriv ile
Ġintro duced
Ġnear by
Ġnot ion
. ht
p en
Ġlab or
ĠRose mary
ĠSher man
it ol
âĢľC ome
f ind
Ġfl ed
m atter
p her
Ī Ĵ
Ġimp r
int ell
T C
Ã ª
Ġj ew
je an
ĠTh ose
Ġbr ow
Ġgaz ed
âĢľL et
m at
â ĪĴ
Ġl ux
Ġcomple x
Ġmain tain
Ġw ard
-Ā-Ā-Ā-Ā -Ā-Ā-Ā-Ā
us al
AG E
L iber
ĠG et
Ġsurround ed
v ity
Ġv ener
Ġelect ric
ĠTar zan
Ġpart ly
Ġmist aken
Ġhast ily
EL L
! ě
Ġm ixed
ĠS ince
ĠM ed
Ġfe ast
Ġadv ance
Ġacknow led
Ġp ow
Ġbe ating
Ġgu ests
Ġwar ning
Ġde ce
AR T
-ch Ã¼
Ġpoet ry
Ġf ence
us k
amp ed
.ht ml
Ġkill ing
iÅ¡ ta
stit ute
' Ã¼an
ĠS op
ĠIm perial
Ġsplend id
Ġp ust
Ġeas ier
E ng
ĠMe i
Ġdisg race
Ġste ad
-c ol
Ġï¬ Ĥ
ĠB uck
Ġrem ove
Ġcompan ions
D r
Ġb ast
ĠH al
Ġshe et
ĠS T
per fect
Ġsepar ate
is her
Ġf ist
5 1
ct ions
Ġregard ed
Ġfem ale
Ġr hy
th ony
Ġw hale
Ġr ush
Ġdra gged
Ġsacri fic
ĠHer bert
S im
T hank
ang le
Ġhy p
f inger
um ps
Ã³ v
ant ages
appe ared
Ġkind s
Ġreck on
ati us
j at
sib ly
Ġtr ous
ĠGr ant
ĠM ag
Ġin form
ow ager
Ġth orough
Ġun certain
Ġfour th
Ġ ĂĊ
Ġinvol ved
Ġo s
ist ing
ĠTh ree
Ġappre ci
' er
u o
Ġf und
Ġv ulgar
vers ion
ĠBar on
ar ms
ri er
if ies
Ġchar m
Ġjealous y
Ġmot or
Ġconscious ness
d ro
an o
_ ;
Ġt s
Ġpl ans
Ġmort al
sk ar
ic ing
ka o
keep er
be ar
Ġres istance
Ġsp rang
N E
Ġsec urity
" This
Ġs ank
av l
am ong
Ġex tend
og ue
Ġinst it
im sey
Ġsh y
ĠS nape
Ġcou ch
Ġth ir
Ġfe ared
ĠGree ks
Ġsha de
Ġmed ic
Ġman age
Ġjed n
ille fort
ĠSol om
Ġdeg rees
gn atius
Ġir rit
Ġcon tained
ast y
Ġele g
OR GE
Ġc ards
Ġp ants
Ġguns linger
c ross
Ġha l
ĠR eg
co at
âĢ¦ âĢĿĊ
& Ă
M ule
Ġc ups
Ġh oney
ĠT oo
ĠS aturday
Ġshe d
ĠC oll
Ġd va
aster n
Ġce ase
Ġs ina
Ġto w
Ġem br
ple te
ĠĠĠĠĠĠĠĠĠĠĠĠĠĠĠĠ ĠĠĠĠĠ
- "
Ġlight ly
Ġele ven
Ġzap ov
Ġt ale
LO W
Ġsuspic ion
e Mule
/In coming
-ey ed
be cca
ĠAn nabeth
Ġdo st
Ġper formed
ens ed
Ġdeterm ine
Ġmyster ious
Ġf aster
Ġans wers
Ġkoj a
ie u
ĠCon t
Ġdistribut ion
e f
enc roft
Ġche cked
U B
Ġmod er
Ġsun light
/In cipit
Ġb asket
em on
19 6
Ġset ting
Ġpull s
Ġmem ories
Ġser ies
Ġfr ame
Ġsvoj im
_ H
ĠC he
ind eed
Ġacc ord
hum an
ĠE v
Ġthrow ing
Ġsupre me
Ġda red
ri gg
under stand
ot a
Ġsh ud
ĠC ON
Ġsort s
ĠIt s
Ġro lling
ĠC ynthia
ĠD ani
ell o
Ġt v
Ġrad i
d ifferent
ot hes
Ġpro spect
Ġpres ents
Ġatt ached
in ated
og rap
ĠA ust
ĠW ind
t om
Ġnever theless
Ġprot ection
it o
' n
Ġpro sper
Ġ( _
Ġr if
Ġa x
Ġdr own
Ġsp in
K E
Ġe re
ĠG reen
Ġsh ield
ies el
rem ember
ĠCar rie
Ġhither to
Ġrespon se
f aith
pro per
IT H
ĠHar old
Ġarrang ed
raw ley
ĠVer dur
ĠY abu
ĠAb ner
Ġl icense
Ġthere by
Ġend ure
Ġunf ortunate
Ġb ored
- of
oo h
ĠB oy
ven ue
ir on
ĠG L
- ku
ĠC heng
ąē Ă
- se
Ġoccup ied
ĠC risto
Ġevent ually
Ġdes cribe
- bl
ĠJ essica
of t
Ġk ra
Ġsha kes
d ig
Ã ±
ur ance
ĠU rsula
ĠMar iko
f ront
to ld
re ther
Ġpersu aded
r ick
L a
Ġs cient
Äį in
Ġte ar
Ġf asc
ĠV ery
ĠC hang
Ġown er
Ġreg ister
Ġlim ited
" Of
Ġlar ger
iv a
Ġinv estig
s us
Ġdisc overy
Ġdepart ure
t own
an ed
ĠH ugo
Äĩ er
On ce
S hall
Ġbel oved
Ġadvent ure
and a
Ã º
Ġor ange
c alled
ĠA gnes
m ark
sm all
; âĢĶ
Ġwid ow
ĠP ipp
ar u
Ġre aching
Ġfe ed
ob by
comfort able
s er
Ġthy self
qu ar
Ġlead er
- he
Ġl in
g iven
ol ic
16 0
Ă ĔĊ
Ġl un
oo ped
Ġthousand s
Ġbr anches
ĠIs us
om ena
Ġrep ent
ĠOs borne
or able
Ġbless ed
' l
âĢľA ll
Be fore
bet ter
- L
Ġexp osed
ĠN ee
t alk
Ġbel t
a ign
ĠW yn
um m
Ġ $
Ġde ck
Ġun expected
Ġtrain ing
Ġadmir ation
Ġfirm ly
Ġnot withstanding
for th
Ġmult itude
Ġbelong ed
Ġm ile
Ġth read
Ġsh ows
ct ober
A ny
B ryce
Ġm nog
Ã¨ s
a uthor
Ġfound ed
istr ation
Ġla wn
art s
Ġpur ple
Ġp ortion
Ġsu s
Ġor n
ē ě
g irl
um s
âĢľ Now
tow ard
li je
5 7
A IN
P R
ĠM ajesty
E m
ple asant
Ġbuild ings
Ġele v
Ġmore over
Ġdis posed
Ġtre asure
Ġbene fit
Ġcitiz ens
- night
Ġg led
âĢĺ Yes
cha rd
Ġbrill iant
ĠBe ck
con tr
con om
" R
Ġb ud
ound ing
Ġenv y
ĠM ir
S am
Ġo cean
Ġfro zen
ĠD iana
Ġreason able
Ġcontin ually
Ġprof ound
Ġobsc ure
ĠP ope
ĠH im
ĠS pe
ĠS erv
Ġman ufact
phe w
U G
Ġs way
Ġintellect ual
s aw
E l
ortun ately
a ver
o ise
Ġre new
Ġn urs
bur g
ĠM um
Ġr ational
Ġremark able
pher d
ĠB illy
Ġli qu
Ġt ap
ib by
Ġdesper ate
S ince
ĠS at
Ġspeak s
Ġarg uments
ĠBrit ain
ĠW ally
P lease
ang led
ĠWh ich
Ġd ivers
Ġsing ular
Ġhat red
Ġav ail
P aul
Ġdress ing
raw ford
e ach
ĠM os
Ġrem ote
Ġincl ination
Ġpl ants
Ġrun s
erv es
Ġgu ilt
Ġn et
ĠN ik
C OR
i pt
Ġne phew
ur ai
"W ho
Ġf rag
ĠMar ch
ĠDor rit
de c
Ġprin cess
ĠGray son
I X
th ousand
the w
Ġpursu ed
Ġas h
Ġteasp oon
ĠS now
in ian
ĠB E
Ġact ed
Ġmis chief
Ġb ay
âĢľ U
ut ive
Ġex ternal
ass ad
AR R
Ġdestroy ed
ą ěĂ
ï »
Ġdown stairs
ĠVal jean
or o
Ġtou ching
Ġpart ies
ĠEll en
Ġo ko
it us
Ġobserv ation
in st
Ġcom pelled
Ġgl orious
Ġclose ly
Ġrap idly
Äį a
an qu
ĠT yrion
enn am
nik ov
6 8
l eness
Ă ĚĊ
' .
ĠW art
Per haps
Ġmid night
m orning
Ġodgov ori
Ġg ifts
Ġmaster s
Ġd aughters
ĠN ap
quest ion
âĢĻ an
Ġdes cription
Ġrep ublic
Ġconce aled
Ġsch ol
Ġsh one
op s
n j
ĠH am
i est
ex peri
ce l
Ġstud ent
A V
Gr ady
Ġab und
Ġcl iff
Ġcrow ded
al ready
Ġch ose
ĠEvery one
acc ording
iz z
ran ny
Ġrecogn ize
Ġl ately
ĠH ung
ra ve
Ġconf ined
equ al
ur i
Ġr abb
Ġgl ow
Ġw ounded
fe el
ret ion
ĠHsi ang
m ans
ertain ly
19 1
b ers
Ġsc an
Ġkind ly
u je
ha lf
- S
ill ing
ĠMon te
IJ A
' F
_ A
ri ous
wh ose
Ġexp enses
Ġd war
ĠA ri
Ġimm ense
Ġp ad
Ġtight ly
Ġinterest s
Ġt in
Ġreturn ing
ĠWor ld
OO K
Ġh ollow
ri ly
Ġbl inked
l ord
Ġheaven s
Ġindust ry
Ġsw ell
Ġpain ful
A Y
w ord
îģ ¢
Ġdu ke
' No
Ġfl ood
Ġbut ton
Ġbl ond
Ġsearch ing
Ġo we
sequ ently
"W here
od or
Ġzeml ji
t ill
Ġconcl usion
- le
ose tte
ĠTom my
Ġindepend ent
iam ond
Ġn ik
Ġpan ic
Ġhe ir
ur is
ĠSp anish
Ġh ol
ĠFre men
ĠC amp
a pe
Ġsmall er
Ġfl ame
Ġmem ber
ĠPart y
ĠM ic
K ad
ĠA lyosha
Ġfe atures
Ġal tern
Ġang el
ĠN jeg
) ,Ċ
Ġfound ation
bel ieve
ĠÃ ł
ĠLuc a
ent er
ĠP amela
oub t
w ed
Ġst ub
ou g
Ġb ilo
Ġut tered
Ġur ged
Ġb ond
Ġour s
gr and
Ġf aced
J ul
s we
Ġl osing
A y
Ġman s
Ġag es
Ġrepl ace
FA CE
Ġnow here
ĠCap itol
I AN
b oth
th ou
Ã¼ n
ex am
Ġly ric
ĠP lease
ĠItal ian
em p
Ġexpect ing
N ay
ol ation
ortun es
Ġat mosphere
Ġshe ep
Ġres umed
Ġchild hood
ĠA my
Ġsu ite
te xt
ĠH agrid
Ġsmell ed
Ġo Êĥ
si a
ĠM ass
av y
D a
ne ath
Ġfoc us
' ang
p ublic
Ġleg al
Ġmisf ortune
sk y
L u
m ain
Ġm aj
Ġr ude
Ġr atio
ative ly
ĠSp ade
Ġn iÅ¡ta
M aster
M ur
- r
Ġloud ly
Ġoff ence
pos es
ony m
Ġt ie
ash ov
Ġswift ly
y ard
Ġto ler
ber te
-ch Ã¼eh
Ġadd ressed
Ġfair ly
........ ........
Ġp ipe
Ġan t
Ġbr anch
. Ā
Ġg own
am en
he m
so on
Ġcontem pl
ĠM any
Ġstr ing
Will iam
st ra
pl ed
Ġblank et
P ER
Ġle isure
ĠF OR
-by e
ha ir
Ġpl ane
Ġmar ble
Not hing
atr ick
ĠG us
c oll
p ol
Ġf ury
Ġrec over
Ġbre thren
Ġhuman ity
Ġg ang
Ġcol onel
al er
man n
Ġany how
Ġun iverse
Ġbeg ins
Ġna Å¡
b rought
ul ted
Ġdest ruction
GE ORGE
ĠT ada
Ġwr ath
Ġlive ly
Ġprevent ed
ĠConstant inople
Her bert
- B
h u
Ġte be
J ECT
ĠJ OHN
Ġtrans p
ĠX X
Ġf acing
im ney
ĠD un
Ġev idently
ĠVirgin ia
ĠRub ashov
z na
ĠCh icago
Ġstop s
Ġcon ceived
Ġst ern
Ġass ist
ĠMar ia
y a
ĠO liver
ll a
ĠM am
âĢĺ Oh
Ġste ep
r ain
âĢĻ am
othe a
Ġcrit ic
Ġridic ulous
Ġsix ty
m u
Ġm oje
âĢ¦ Ċ
ored a
pro p
Ġpray ers
Ġdistribut ed
Ġconqu est
% !
y es
Ġno on
Ġdec ent
ur t
er a
st ers
ĠE ach
iz a
Ġru ke
in v
ol ution
Ġb ang
Ġd ug
ac ross
Ġinv is
Ġc ure
Ġas cend
Ġconf irmed
eder al
"I n
Ġcoll ar
ĠB oga
s ign
he y
Ġbow l
l ars
bre ak
Ġg ross
Ġplain ly
Ġc ake
ĠA ra
ĠK at
Ġgu est
n et
ĠB ran
M om
Ġact ual
ĠDe ath
ro s
Ġproble ms
A d
k uru
Ġl ou
it led
un uch
IS S
ĠC andy
ĠBr un
Ġtech n
as per
aju Äĩi
Ġcamer a
h us
Ġdel ic
Ġanx iety
Ġsign ific
vere nd
Ġf og
ild ing
âĢ¦ âĢĿ
L Y
i ate
Ġquar rel
ĠS ire
ĠDick ie
Ġwip ed
iz zy
ot o
ag ing
Ġis sue
Ġthrough out
Ġid le
Ġb oss
eng er
Ġrabb its
Ġexha usted
in f
ĠM ill
ĠEll ie
le ft
Ġg ates
Ġmut ual
Ġinfer ior
Ġsam urai
im mer
Ġme Äĳu
Ġli kes
un a
Ġland ed
Ġmoj a
_ Enter
ĠS ister
Ġview s
Ġdom estic
Ġm ock
Ġr abbit
Ġlight ed
u ary
ĠT ao
Ġconcl ude
Ġd ried
ashing ton
p ing
ĠStep an
i able
Ġpossib ility
f elt
l on
ĠHol mes
o qu
ment ion
Ġsp ake
Ġint im
Ġwrit ers
oli Ã¨re
ĠN ed
Ġsatisf y
Ġprob able
ĠAg athe
Ġsh ips
S e
ol en
Ġchar ms
ĠF e
T wo
t able
Ġk icked
hi gh
ĠLin us
Ġpre tended
Ġmer ry
' Yes
g one
ĠM agnus
Ġdes ir
ach ment
Ġrep orted
Ġam id
Ġg ap
ro lled
ĠF er
Ġacc ustomed
Ġp isto
Ġw itch
Ġj ail
Ġc ir
Ġcur led
Ġm art
Ġe rect
ĠG overnment
shi ps
Ġp ine
Ġgr asp
ĠAg ain
' It
b ury
k ar
v ati
Ġsha red
Ġtr unk
te enth
Ġliter ature
Ġcom ment
"D id
"> âĢĺ
am per
Ġrest aur
_ V
m ount
Ġth ither
ĠN OT
ract ion
het t
out hern
Ġcut ting
pr ot
ĠTob ias
Ġde ceived
Ġind ifferent
St ates
an ke
Ġmyst ery
ha b
and s
ol in
Every one
Ġaud ience
Ġtun nel
ard ed
Ġdis claim
Ġdepend s
Ġtender ness
Ġcre pt
st ri
b in
ela ena
ĠVal entine
I ll
t ri
se ll
- but
Ġfe ather
Ġmoon light
Ġcott on
Ġb on
ĠC re
un ny
? ï¿½
ost Ã³v
I ES
Ġdis gu
Ġapp arent
com pl
Ġpri ests
m ond
Ġp ian
Ġ' Ċ
Ġcler k
Ġm ol
âĢĻ n
av Å¡i
Ġop ens
Ġmov ie
ink led
Ġwr iter
Ġtot al
su kuru
ĠâĢĶ âĢĿĊ
Ġinc hes
happ ened
Ġc her
ĠÉ¹ rst
Ġrail road
ĠSl othrop
Ġf ab
ĠJul ian
- out
or ba
il gar
qu ite
Ġcl aw
ĠâĢ¦ âĢĻĊ
Ġcast e
D E
Ġprot est
Ġconn ected
ĠAN Y
ĠP ort
Ġbr ush
ĠM onsieur
y ram
Ġsend ing
I P
W ould
p ic
ition al
Ġconsequ ences
LET TER
Ē Ă
Ġw ing
ĠN atÃ¡sha
5 2
D Y
b ation
Ġg ent
Ġdisplay ed
gg y
Ġpill ow
' Ã¼
P art
T R
n n
Ġas pect
Ġle af
Ġint ense
19 3
ĠI za
S omething
Ġstay ing
Ġan cest
ult ies
Ġer rors
Ġwarm th
Ġb ars
Äį u
u ated
Ġex tended
ue i
Ġimper fect
Ġconn ection
Ġpoem s
Ġcr acked
Ġhundred s
' ung
w ife
Ġtrous ers
ĠMe ggie
Ġfurn iture
so le
gr at
_ _
ĠB ur
Ġr ival
Ġdecl are
Ġwar ned
Ġabs or
Ġterri bly
Ġm ail
f ew
ity a
ĠR ock
Ġweap on
serv ant
Ġtor ment
ĠSop hia
19 7
ĠC rawley
ĠBo Å¾
-h o
Ġperpet ual
ĠSm ith
ĠT a
Ġcon j
ĠJ urgis
Ġexam ine
/ Dune
/ Herbert
H ar
Ġmust n
ay ing
Ġmod est
i ge
IC K
Ġ ?
ĠAn other
R S
_ :
Ġrest ored
Ġun like
it ors
ic ient
Ġpleas ing
ro ll
em ÃŃ
âĢľC an
Ġbe held
ĠO ri
Ġapp et
Ġinc ap
Ġattempt ed
ber ry
"A h
m ir
ĠC han
Ġass umed
Ġpock ets
Ġfor b
circ umst
ĠP age
are n
ve k
be gan
Ġdream ed
Ġfun eral
Ġwar n
Ġsurv ive
Ġfind s
Ġbur nt
Ġmot ive
Ġal arm
ed nes
ak ov
ednes day
it self
ĠSp irit
âĢľ K
Ġaband oned
ĠL ife
ĠRo ber
N I
Ġdo c
ĠG a
Ġye ah
ĠU nder
Ġsecret s
ĠuÄį ini
c row
ĠA B
Ġsh ih
Ġar d
S uddenly
Ġhar sh
as se
A meric
ĠB aba
Ġfig ured
H ad
Ġvill ain
Ġrequire ments
Ġhop eless
ĠB ro
ĠW H
ĠP encroft
ild e
ex pl
Ġres ist
ĠW ITH
Ġplat form
Ġmag az
m outh
âĢľ Just
ang lars
r ather
Ġb ade
Ġpo ver
Ġadm ire
ton i
Ġto re
Ġrest ed
Ā S
em s
n ar
itt oria
Ġbr id
OL OG
Ġper sec
vo ked
Ġpen etr
Ġutter ly
Ġpover ty
Ġm ental
Ġrevol ution
ur al
ĠC as
Ġtot ally
Ġall ey
ĠK ar
ĠV illefort
Ġdisappe ar
Ġc ogn
ustr ation
Ġdistr ict
Ġe h
ĠM ama
Ġpuzz led
Ġbut t
ĠO ctober
Ġg or
ac i
ĠM i
-ha ired
6 4
if ying
si p
Ġer r
Ġleap ed
Ġbe aring
c orn
Ġn je
Ġsve Å¡ten
Ġsum mon
d one
re ceived
Ġof t
Ġsu bl
Ġpray er
Ġinnoc ence
ĠCl arisse
ĠMe any
s al
Ġr ot
Ġh si
Ġint u
Ġcop ying
Ġstat ement
us ive
ol ence
ab ella
Ġvers es
Ġh ut
unt il
Äĳ oÅ¡e
Ġdro ps
Ġzeml ju
Ġl oving
Ġcon tain
p ack
Ġb one
âĢľW hen
f av
Ġab use
ĠĠĠĠĠĠ Ġ
h undred
t was
Ġper mit
% ě
Ġg ay
Ġguess ed
u ish
Ġmagn ific
Ġstir red
Ġprecise ly
Ġm alo
Ġcoll ap
ig ence
Ġgo ver
Ġplay s
nd s
Ġpress ure
" Yeah
Ġste am
T essa
is k
Ġfall s
po int
19 8
Ġl an
Ġreflect ed
âĢĶ to
d iv
es ar
ĠEm peror
hel m
ĠEl nora
ĠA lfred
ĠA z
ĠLyd ia
bl ance
Ġsuccess ion
ik ov
Ġstrong er
p ost
ir i
man ner
ĠĠĠĠĠĠĠĠĠĠĠĠĠĠĠĠĠĠĠĠĠĠĠĠ ĠĠ
-f our
ry a
Ġsc ra
Ġdeep er
Ġsuspect ed
Ġcar pet
' in
Ġprov isions
Ġtrou bled
agre ement
Ġresent ment
ress ing
Ġengine er
z i
Ġbe ings
Ġstrong ly
occ asion
ï¿½ I
Ġgl as
ĠPot ter
in qu
Ġwe ary
Ġme asures
if fic
qu ot
Ġvol unteers
Ġdistingu ish
Ġapp le
Ġbig ger
oli ko
Ġwar rant
% Ă
Ġc rou
Ġcl an
ĠAli ena
ĠâĢ ¢
Ġel bow
i ast
Ġrepe at
Ġbeast s
op es
ĠI gnatius
ĠF inally
ild a
m em
ĠL eg
Ąą !Ă
J ack
Ġw ool
ĠO ver
N e
Ġsh ower
Ġje ans
ĠV oldemort
d eterm
de ath
su ed
Ġhold er
Ġsolic it
ĠB on
nivers ity
p ull
ol t
Ġfl ames
ĠCl ennam
Ġt ucked
Ġign ored
Ġinvis ible
Ġwhere as
- be
abb itt
ĠH ats
Ġp es
Ġphot o
Ġrec overed
TH ER
Ġrepro ach
Ġsh r
y le
Ġke ys
oji h
Ġqu it
Ġpun ish
uff led
ud y
Ġ Â
M ore
Ġdistur b
Ġadopt ed
v y
man zo
Ġgod dam
Ā! ĀĊ
ig r
w ig
ĠEug ene
g ent
ing ers
âĢĶ you
ĠD ark
Ġfl ick
âĢ ¢
Ġequ ip
ĠT im
Ġher d
H unt
ĠĀ "Ā
S H
Ġper f
Ă Ě
C K
Ġin sect
Hen ry
M ay
n umber
Ġnar r
ĠP re
Ġche ap
Ġd umb
ĠP h
ĠAfric a
ou ch
Ġsh rug
ug s
Ġmed ical
Ġmass ive
Ġu seless
Ġcomp ared
uth ors
Ġreason ing
it ect
ic ide
Ġspe ll
M e
Ġbreast s
Ġsc ent
Ġhalf way
Ġaw ait
ot ing
Ġob li
Ġbr ings
ure ly
ĠO skar
Ġide al
^^ ^^
ot ty
ever ly
Ġto ol
al ong
Ġhum ans
Ġsin ovi
i que
16 5
Ġcor por
Ġspirit ual
Ġperfect ion
Ġpurcha se
Ġcommer ce
G eorge
ĠM us
ĠL ight
Ġrel ieved
friend s
ĠMos cow
ĠH oly
ĠB ook
Ġric hes
b an
ru ck
Phil ip
Ġv jer
Ġimp osed
Ġaffect ions
Ġto ile
ĠAlex and
Ġto ga
le ast
ĠK ate
Ġneigh b
hi re
head ed
Ġeat en
Ġc ough
s a
Ġclos ing
_ P
u able
Ġminister s
ĠW imsey
Ġfl ow
-- âĢľ
ĠHard ing
Ġhoriz on
Äĳ a
w ixt
Ġdisc har
Ġstand ard
Ġpro ject
Ġfl ag
ĠC elia
s en
Ġt um
Ġsur re
Ġve get
Ġt il
ĠU pon
agree able
Ġt ough
sh ine
Ġsmo king
j est
Ġh ood
Ġj ar
H ist
s es
Ġappre hend
Ġcler gy
ĠSe pt
âĢĺ But
est ab
Ġgovern or
Ġthe ory
... .Ċ
tic us
aph ira
T E
spe ak
Ġess ential
CON D
ĠAsh ley
Ġdes erted
âĢľT o
g ment
ver ted
um mer
Ġatt orney
O D
s chool
M AN
Ġf oul
st ate
am ents
Ġsh u
Ġserv ices
Ġsche me
Ġent hus
hed ral
Ġfoot steps
ĠRep ublic
Ġde arest
quis ite
Ġalt ar
ĠG al
N ever
ĠR ue
Ġback ward
s qu
en o
Ġhe els
T han
Ġw ars
ĠCh u
Ġfault s
Ġfl u
Ġknight s
Ġsupport ed
Ġoppos ition
Ġst or
Ġland ing
Ġd yn
IN C
Ġend less
Ġpract ical
Ġg ames
ĠSome one
. C
B r
ist ered
Ġpre par
Ġstr angers
alt ies
Ġmanif est
ĠH ill
ie utenant
ĠR hys
ĠB udd
ens ity
oun ter
Ġaston ished
Ã§ oise
ĠT ake
ĠP an
ree k
rons ky
e ke
Ġn ij
Ġvid i
Ġmain tained
Ġfact ory
ĠJ ude
Ġhun ting
Ġt ank
âĢĶ not
Ġsan ct
Ġn ic
ĠPo pp
Ġsu d
V ER
Ġtrou bles
know ledge
Ġbar n
Ġd art
Ġhand ful
er ity
Ġdif f
EN D
Ġke en
ĠHer r
ĠF ort
is u
id a
ri b
je vi
ĠZ ar
Ġwe bs
itt ee
Ġdet ect
Ġsymp athy
Ġmedic ine
Ä Ĳ
Ġv aÅ¡
Ġsh iver
Ġart ific
Ġdisp ute
ou cy
br other
Ġp ier
Ġmon ster
ĠÄĩe Å¡
Ġbox es
l iv
âĢĻ un
Ġsu st
ol ent
Ġal ike
str ong
Ġ_ (
oy d
ĠV an
Ġsong s
and om
cl ose
I E
Ġd iver
Ġn iece
ob ject
ĠPr ay
ĠC rawford
ĠIs land
Ġis p
ra z
se par
us ions
han t
Ġper man
Ġvol ume
ĠAn thony
N ew
ĠS n
ĠHow l
Ġ. âĢĿ
amer on
ANT OLOG
ANTOLOG IJA
ĠB ell
Ġcontin u
Ġemploy ment
UT EN
% ć
ĠF in
Ġla ï¬Ĩ
ol and
T ell
ĠMar ie
f in
er ies
ĠIn formation
lic ted
Ġtreat ment
nd ine
Ġf ant
u ine
Ġdo Å¡
g ement
Ġh sÃ¼an
Ġform at
Ġn onsense
ĠJ ubal
Ġw olf
re ck
s ays
Ġm ask
ad i
v ag
Ġins ult
Ġin ch
Ġisland s
Ġrespon sibility
Ġc ord
ost on
Ġcor p
Ġmount ed
ĠC am
ĠÄį e
sur pr
Ġpr udence
Ġs oup
ĠM AN
is le
âĢľT hank
would n
ĠRe becca
H T
ri ff
ĠCh ief
Ġc age
.. ."Ċ
Ġdet ail
Ġweap ons
ad o
Ġrespect s
Ġcelebr ated
Ġc am
ĠMel anie
Ġr at
Ġun l
s ke
g eneral
ĠW ARR
ge ance
com mand
pend ed
BER G
Ġcompre hend
ĠH ale
ich ikov
ĠB u
oth y
Ġid ol
Ġinher it
ĠWARR ANT
athe tic
ĠR uth
bo x
ĠuÄį in
g overnment
ph il
ĠJud ah
o ard
Ġs om
Ġtra p
Ġcorn ers
Ġpo Äį
t aking
Ġrem edy
with in
oc ity
Ġret ire
Ġland s
Ġf ed
Ġbe wild
ure li
ĠAra bs
ĠPopp ins
ĠN athan
Ġrub bed
Ġconf irm
ha st
Ġï¬Ĩ ill
ĠPer ry
Ġg y
ĠK night
Ġ ime
âĢĺ Well
Ġper cent
Ġpress ing
B OOK
Ġdis d
Ġcertain ty
Ġlim its
ĠBal bec
Ġwebs ite
ĠJul ia
Ġabrupt ly
Ġstair case
Ġwhis pers
5 3
Ġj est
ĠConstant ine
Ġe conom
Ġcr imin
Ġsex ual
ly ing
Ġun usual
ad en
Ġk ak
b ac
Ġr ash
Ġun just
Ġappe al
Ġdisg ust
b urn
aw ber
ĠE leanor
Ġad vers
Ġl oyal
Ġlight ning
ĠL aila
ĠR u
Ġdef initely
ĠP ower
ĠPro v
onym ous
ĠN ina
Ġnj im
T O
Ġm ing
ul ars
Ġrequ ires
Ġrec ently
ĠArk ady
[ h
at ar
Ġf rank
ĠPar liament
Ġsepar ated
R o
id o
th m
Ġplan et
in ny
ist e
uck ing
Ġspl it
d iffic
ĠJ up
pl ine
ĠFl ora
Ġprison er
el ic
ĠCh ou
let ter
Ġcere mony
Ġmotion less
ĠF air
id ents
qu et
pl ied
Ġjust ly
Ġcomp assion
Ġass ert
Ă ć
r ot
Ġh id
Ġrail way
Ġrespon sible
Ġb ark
Ġf ile
G RE
Ã ¤
Ġg ained
Ġqu i
Ġinf l
pass ed
w omen
Ġb omb
Ġbl owing
Ġplan ned
ĠLyd gate
Ġst re
ĠK Nj
19 9
A CT
se veral
under standing
Ġcommand s
Ă "
Ġinc ident
Ġtri es
t imes
Ġthe atre
Ġgreat ness
Ġsub mit
Ġlover s
M ary
Ġach ieve
ĠB astian
Ġn est
ĠAr t
us cript
be gin
ĠArab ella
ĠPRO JECT
ir o
ab lo
Ġp uff
Ġappro aching
.. .Ċ
Ġb ased
it he
ĠG UTEN
Ġcons ult
ĠGUTEN BERG
ee ves
Ġl ined
aj te
Ġhelp ing
vel ope
Ġ* Ċ
. ),
ex c
-ch ieh
ĠGil berte
ĠW hi
Ġbed s
pri l
Ġsadd le
K aladin
Ġon o
unt less
Ġport ra
Ġfortun es
ic ted
ĠH ay
ĠC oriolanus
Ġcl en
alf oy
ar ation
ĠJ u
OR T
br ance
Ġwret ch
iss y
J er
Ġp acked
Ġdepart ed
Ġfil m
as na
Ġfl ashed
A CH
âĢĻ i
Ġon line
Ġse ct
Ġartic les
Ġdise ase
m ad
ranc s
r at
âĢľM aybe
W as
Ġver se
inc re
Ġin ev
el p
Ġcheer ful
Ġp ace
Ġbab ies
e ff
âĢĻ .
ĠS hall
ĠSir ius
t ical
ĠMar quis
em ple
Ġs ke
ĠA thos
Ġre ceiving
Ġpro position
Ġmer chant
id i
ov an
com plete
Ġc unning
Ġf ulf
Ġf ederal
Ġse ver
Ġadv antages
Ġremain ing
Ġfac ulty
Ġphen omena
- one
rag orn
ĠFl ore
Ġg dje
Ġcar a
ole on
M ost
Ġp up
os oph
Ġcomm ission
É ½
Ġcr is
âĢľ For
wind ow
B ar
M A
S S
ĠY anke
Ġnewsp apers
ĠWyn and
Ġs hat
Ġra ising
Ġs ins
ĠV ill
Ġprev ail
ĠPers ian
e le
Ġm oves
ĠA st
ĠK o
Ġlaugh s
Ġs ie
ĠG entle
Ġacc ur
Ġbar bar
rid ge
ĠOd ette
Ġt an
âĢĶ in
Ġad just
Ġrelations hip
s in
Ġvis ited
Ġtal ents
ĠH ag
Ġshe ll
ĠC hild
Ġco al
Ġpick ing
of ty
sub ject
ĠLet o
ĠW ater
v othe
Ġex empt
Ġsp here
end s
Ġapplic able
Ġm at
ĠC ousin
ĠP ost
ance lot
ins on
Em ily
Ġle ans
Ġbu zz
Ġiz i
hel p
Ġvide o
ur ther
Ġprov iding
ĠCon stitution
Ġess ence
ĠS oon
ĠNew t
ĠĠĠĠĠĠĠĠĠĠĠĠĠĠĠĠ ĠĠĠĠ
Ġsim plicity
ĠSc ot
ud run
Char les
ĠB our
ame ha
ty ard
de ad
ene ath
ĠJos ie
Ġins en
Ġimm ort
Ġmill ions
Ġd anced
ch t
ĠB oss
Ġbeat en
Ġfaint ly
ĠMel ony
l ies
Ġb ub
Ġbr u
ĠRog er
U ST
Ġo mn
ĠH u
Ġtem por
Ġprofess ion
Ġvessel s
Ġartic le
Ġpreced ing
F ather
Ġl ect
UG O
he ar
Ġw iz
Ġb oj
âĢľHe y
u ced
Ġpre y
-ch uan
ĠA ureli
Ġchan ges
Ġsc rew
Ġc ared
Ġg rie
Ġat tain
ee ch
comp any
ĠAli a
g ie
ĠB oth
m aking
Ġk ri
ceiv es
il ight
Ġso il
Ġintellig ent
Ġsign al
Ġbl ag
Ġru ku
ĠI ng
ĠInd ia
Ġstead ily
m ah
Ġo ï¬Ģ
ĠAl bert
Ġtoss ed
B el
Ġun ity
cri bes
Ġgall ant
ĠMat thew
obl ig
iber ius
en z
ĠIn stitute
day s
al one
Ġun worthy
Ġhast ened
Ġr att
Ġlot s
Ġsav age
Ġb und
ut al
az ar
Ġvisit or
vent ually
Ġgu ide
Ġpost ed
hon our
immedi ately
ĠR oyal
Ġfail ure
ear th
men a
light s
ĠWith out
ĠC y
Ġpl ague
Ġban ks
ĠP avel
ĠR hett
st ro
M a
ol as
ĠL ibby
Ġper plex
Ġpos itive
ribut ing
Ġprov ision
Ġstri king
Ġvener able
or ce
ak ened
az a
Ġan k
Ġsh ift
for ward
ĠK ore
Ġbreat hed
Ġsurpr ising
V II
Ġmot ions
Ġdifficult ies
Ĉ Ċ
LA D
Ġmon ks
K A
ĠA x
Ġl at
Ġel oqu
Ă Ć
Ġu lt
Ġem otions
Ġroad s
Ġku Äĩi
ab led
- I
Ġprison ers
Ġtele vision
v as
un ned
Ġka Å¾e
H AR
Ġent itled
Ġrel ate
less ness
Ġbott les
b ott
Ġp ed
pro bably
âĢĻ Tis
Ġextra vag
p hy
Ġg ard
ps on
Ġbal ance
Ġh unt
Ġplan ning
St ill
m ag
Ġremark s
Ġaccomp any
Ġg igg
ay ed
Ġpain ting
v or
Ġk ol
ak le
1 12
Ġspe cul
oub ted
Ġentertain ed
U IL
at ically
Ġrel uct
at an
Ġst o
Ġset s
An other
Cl ary
Ġbree ze
it ations
st ock
ce ipt
Ġpres ume
Ġmur de
or ters
Ġth igh
ask ol
ann ister
rey u
Ġu ze
Ġshe ets
Ġsp un
Ġsl ammed
jed i
ple ased
Ĕ ĂĊ
] :
Ġmove ments
Ġexist ed
ĠM eg
Ġdef ense
j ela
fam ily
ĠS ub
ge on
fe rences
Ġcoun cil
Ġmot ives
Ġfol k
y an
Ġrec alled
Ġno v
Ġgaz ing
ĠM oliÃ¨re
17 8
will ing
Ġbeha lf
Ġcompar ison
ĠMah omet
an ing
askol nikov
ĠA ko
od i
ie v
Ġte en
me Äĳu
Ġb unch
gg otty
Ġball s
m aybe
Ġot ide
im m
Ġdes erved
Ġint imate
consider able
Ġincap able
Ġm as
Ġcur tains
Ġf ired
Ġag ent
ĠAr my
t ail
Ġw aving
Ġin k
ĠH or
should er
L ord
Ġw its
Ġre ception
Ġconsider ing
ĠVerdur in
R AG
ĠC ent
ĠAt l
ĠWill y
Ġwand ered
Ġcross ing
t rying
ĠC ould
Ġdo z
Ġsub du
Ġmagistr ate
bac co
Ġaut umn
Ġup ward
b ad
w hel
Every thing
Ġpro dig
Ġstru ct
iot ima
ĠKe ating
ĠW itch
os ure
ort hern
Ġflo ating
k ad
o ken
er ner
Ġre ass
ĠS aphira
Ġrest ing
Ġpra v
Ġim ages
unt ary
Ġarri ve
Ġstat us
Ġdis h
Ġsc attered
Ġdistur bed
- G
d le
Ġsc ow
m oney
Ġi bid
Ġhon ourable
ĠMon toni
C ar
ĠM oon
ĠN ancy
ĠPark er
Ġdis miss
cl osed
iz es
Ġid iot
n on
ĠB as
os o
Ġlord s
Ġcreat ing
ĠLove lace
suff icient
Ġemb race
if ully
ĠMax im
Ġsh ocked
ĠSt ark
Ġbrief ly
yram id
Ġpo ets
ĠK im
ens ions
bit r
ĠR am
Ġad ult
Ġtra ce
ĠI an
Ġwh ither
ĠF riend
ĠY e
Ġinst ances
ĠLe on
Ġdisplay ing
ot ic
od a
Ġar med
ĠStep hen
âĢĻ ,
ur ation
Ġse lect
ĠV I
Ġpract ically
Ġsuggest ion
Ġh oles
ĠMart ha
un ting
ge red
con vers
Per cy
Ġb ind
the e
ĠL ib
Ġtown s
Ġfif th
"A re
ĠD ep
ĠDor othea
Ġuneas y
ed ge
ĠP y
Ġbl ur
idd ing
ois elle
6 7
Ġcol onies
Ġexperi enced
lar ge
Ġb its
Ġra ft
Ġt ub
Ġl iterary
idel ity
l iness
ĠVal ancy
ĠĀ .Ā
ĠM itch
ĠRo ad
n ic
Ġch icken
adem oiselle
asna h
Ġv ir
Ġal armed
Ġhe ap
Ġpl ung
v est
at al
C ha
^ {
ĠW estern
Ġsp ort
Ġimp ressions
LA DY
ĠGl an
har t
IM IR
Ġcas ual
ĠHawai i
ĠH a
ĠC ham
Ġz av
jes to
F irst
erv ing
Ġdoubt less
id ers
Ġpen cil
ĠFrancis co
Ġpian o
LAD IMIR
- D
ĠD anglars
He y
gr ad
ĠRem my
R Y
Ġfe es
Ġoff ices
for mer
Ġcal am
V LADIMIR
f o
ex cept
Ġcigaret tes
ĠCor le
Ġs her
Ġb ald
pl an
Ġey el
ĠMar iam
Ġslee ve
Ġpur sue
ĠGlan ville
Ă #
Ġbr ass
n je
Ġn os
ĠP ri
ĠO b
Ġass ume
Ġru ined
ĠR ight
oy age
Ġcont ract
Ġdefect ive
A gain
Ġse ction
ĠK ings
y odor
Ġmen i
othe red
ĠSolom on
Ġb ount
Ġwhat soever
Ġbo ast
Ġinstr ument
.) _
Ġpot atoes
Ġc attle
ut ch
ĠL es
or ah
ï¬ ĥ
id able
Ġd usk
Ġe c
Ġpow der
ut y
ately n
Ġgrin ning
Ġgl oves
âĤ¬Åĵ I
s is
de v
Ġendeav oured
ĠAdam s
% ē
b ot
t ra
Ġhead ing
O F
Ġdis order
ĠW ashington
Ġstr ain
Ġsn iff
ĠWhi pple
ĠAureli ano
Ġbag s
? Ã¢
ut tered
room s
Ġkiss ing
Ġgas ped
con st
Ġmark s
" Let
Ġhe d
et ing
ĠD oc
and ing
ĠS a
row ing
ĠÅ¾iv ot
d in
AR G
Ġdr ama
Ġext rem
n in
Ġme as
ĠMat ty
Ġ <
ĠM ort
Ġsh ove
ol k
ĠR ostÃ³v
Ġbij aÅ¡e
Ġemer ged
S ec
u pt
Ġb orne
Ġyour selves
Ġopp osed
ĠT iberius
op ed
Ġsl ope
aph od
Ġtr ay
Ġed ges
think ing
ĠA ccording
Ġright eous
Ġsun k
Th ose
Ġtrave ll
G et
Ġout er
ind ed
ĠGer mans
ock s
Ġg asp
um ing
' en
d irect
m aid
Ġbe ars
Ġus ur
Ġmod esty
An ne
is y
Ġbr ood
"W hen
Ġcig ar
ĠI S
ass es
idd y
Ġembarrass ed
1 10
ĠSt rether
Ġreturn s
Ġinqu ire
H A
Ġp ul
Ġart ist
Ġmus cles
Ā z
ĠWilliam s
D es
Ġsin ova
Ġwe ep
Ġcons ists
ons on
ortun ities
comm un
ĠT ime
ĠP ooh
Ġexam ined
ĠM itya
âĢĺ And
be at
c ause
Ġv ile
16 2
Ġaff l
chan ge
ĠVen ice
Ġrecon c
Ġanti qu
Ġsee king
ĠC osette
ĠV ict
Ġtra ffic
Ġgl ancing
Ġpropos al
Ġrecoll ect
Ġst opping
ond ay
Ġarch itect
ĠB everly
P E
Ġp ious
ist ress
Ġover come
Ġabs ent
Ġsen ate
ĠGerman y
Ġinj ury
ĠMex ico
urst wood
0 3
ĠJ ody
ru gg
RO S
Ġor phan
Ġcorp se
Ġj ournal
Ġcha mp
V III
b est
Ġpart ial
Ġcont ented
There fore
ĠG eor
ag an
âĢľT h
Ġrare ly
6 5
m pt
ĠC ong
ul ations
Ġoper ation
Ġapprehens ion
" O
* Ċ
z er
ne cht
TH A
Ġpisto l
ĠU niversity
ĠAl though
ĠMic awber
ju red
Ġrestaur ant
Ġtr anqu
Ġind ignation
fl u
Ġincon ven
Ill ustration
com b
Ġcur tain
ĠJo ly
Ġcent uries
ĠCorle one
Ã ´
un ks
T ill
v irt
w it
and al
Ġind ifference
Ġacknow ledge
-f aced
Ġslight est
ag ged
st ition
Ġre ference
Ġre bell
ĠA mb
ĠN ote
Ġaddition al
Ġs ack
Ġm ouse
ĠR od
aler an
Ġ |
he e
Ġcar ved
Is abelle
ĠAb out
Ġshif ted
of ten
Ġoff ended
Ġrel ative
17 7
Ġg am
Ġsqu e
ĠRe verend
quar ters
ĠB ella
Ġsh rie
Ġt aj
Äį ini
Ġbr ushed
Äĩe Å¡
Ġnod ding
[ Illustration
Ġal as
Ġgra vity
Ġsens ation
Ā.Ā "ĀĊ
ĠCl aud
Ġp itch
ĠK en
? ï¿½?Ċ
k oj
l ist
in side
âĢľ Ex
Ġste al
Ġd owager
ĠR el
Con stant
Ġow ing
- M
Ġse ats
ĠD ob
Ġunder neath
Ġlung s
f our
i ation
x x
Ġd ict
ĠC hen
un to
Ġoff ers
Ġsc enes
Ġfee ble
ung le
Ġform al
ĠCarol ine
. T
ĠC oucy
Ġexpl os
Ġprofess ional
g ence
Ġhe ed
Ġde eds
Ġden ied
ĠJew kes
Ġvo id
ĠTur k
Ġam used
Ġtr acks
Ġbr ick
ĠJoly on
Ġst olen
ri al
-sh irt
- ts
Ġcre ation
Wh ose
Ġestablish ment
B ond
-t wo
h h
h ic
Ġf ires
ar o
Ġsail or
ĠP apa
li a
F AL
d aughter
Ġf ain
ight ed
pro ceed
i ents
Ġback s
c ut
mb led
Ġvict im
m itch
ĠH ence
Ġcon tains
Ġcon ceptions
17 6
Ġfool s
ą '
u zz
Ġshoot ing
Ġrhy thm
d ream
3 00
8 9
l our
s ometimes
t ies
Ġc aval
Ġpur poses
Ġann ual
Ġvent ured
Ġpersu ade
Ġthorough ly
ust er
oop ing
Ġan tic
ĠHe ad
ans a
Ġch ill
Ġm es
ar ched
Ġse bi
Ġwar ri
Ġterri fied
riet ta
Ġgen uine
ific ations
Ġhar mony
Ġf rancs
Ġsu ck
ĠU r
Ġcour tyard
Ġsix teen
s v
ĠT re
ant Ã¨s
c all
p oor
Ġbus hes
"C ome
Ā.Ā 'ĀĊ
ut i
ĠS eb
ĠL iesel
Ġfl ushed
IG A
ĠMoj si
d oubt
o ch
-hsi ang
Ġch imney
Ġmother s
qu iet
Ġne arest
nt il
ress ive
ld er
-h u
Ġdev oted
ĠTH IS
re te
Ġcom r
ean while
Ġgather ing
Ġre ko
âĢĺ S
sc ape
Ġnjeg ova
re ign
ir ies
ul ating
IN D
ish ly
il j
ne xt
Ġgl ances
& quot
Ġprev ailed
adv antage
Ġro le
Ġdeliber ately
ĠM iddle
ĠP oor
ps y
C ath
s n
ist a
had er
ump ing
Ġsve t
Ġgod ina
Ġl inks
ĠE X
Ġchar ity
ĠCa esar
le ts
ĠĂ #
Ġkn elt
ull iver
" .Ċ
ĠJ ess
ÃŃ s
does n
ĠF ra
" E
H UGO
ĠL ake
Ġsun set
Ġpatter n
ĠM ameha
Ġshel ter
ol ves
ĠAle c
re lig
ov al
li est
Ã¦ s
Ġfat ig
Ġsuccess ful
Ġcommun ity
l oyd
Ġoccasion ally
Ġham mer
ot r
el ja
Ġstud ying
amper ini
g ave
Ġcomm od
Ġcur se
ĠHsi ao
Ġbur den
Ġcow ard
am bi
Ġsecret ary
Ġnerv es
Ġrepl aced
Ġclot hing
ww w
occ up
Ġclaim ed
Ġh int
âĢĶ she
me ans
Ġaband on
it che
ĠN ob
Ġtoile t
s uddenly
Ġn iti
Ġu b
Ġen velope
ĠV anger
sk u
ĠMc Grady
6 3
Ġout ward
serv ants
Ġprop het
Ġphilosop her
ot el
ĠB ible
g ency
is ha
ĠT ex
âĢĺ We
ade as
every one
f ig
th r
su per
Ġaston ishment
prop ortion
Ġhapp ily
ĠL annister
Ġta pe
Ġcoff in
m ove
Ġst umbled
ij et
Ġfab ric
' i
c reat
em ploy
Ġpart ed
Ġsl ain
Ġchan ging
Ġref uge
Ġfro st
Ġcalm ly
ĠRober ta
Ġreve aled
Ġt att
ĠJ ared
Ġrele ased
C LE
ir s
Ġfor s
ĠCh ina
SE COND
Ġbelong s
ĠCons ul
L aura
od ay
ci ously
Ġtax i
Ġm ars
vi or
Ġz lo
r ous
Ġv ices
sp irit
eth inks
Ġinfinite ly
Ġg it
col m
Ġres c
b om
Ġab ility
Ġsl ide
Ġlet s
Ġpur se
Ġp ars
Ġno b
ne ither
Ġpass ages
Ġact ing
Ġjud ges
Ġmax im
m ical
re ls
ĠM ilo
ĠD om
ĠCh ichikov
-t ime
Ġo Äįi
Ġv amp
Ġsl ug
it ious
Ġl ofty
Ġname ly
Ġdistinct ly
LU C
ĠShe vek
any one
Ġin ward
Ġinsp ired
Ġcondem ned
Ġt el
um an
st ret
Ġun comfortable
or ation
em br
Ġrif le
Ġc y
Ġd at
Ġl ing
âĢĿ âĢĶ
os a
Ġsc ram
ĠGospod a
ĠM eng
Ġpron ounced
ur a
Ġday light
ors y
Ġsun shine
Ġjer ked
le ar
ĠP atrick
Ġd iamond
Ġsh oved
ull ah
Ġsc rap
H ER
ru ly
ĠTH AT
Ġexchan ge
ccles iast
-L oup
l ay
Ġbr ide
Ġvel vet
s leep
ĠV ar
eb ook
D ON
S gan
ĠS cript
Ġground s
c art
er haps
Ġg os
ra ir
oc olate
ave ment
Ġp ak
Ġre action
Ġwe pt
Ġdis sol
Ġob taining
Ġprop riet
Ġval uable
Ġrepresent ation
wr itten
Ć đ
b b
Ġro ots
ĠTy ler
Ġre aches
em en
rid ay
IL ITY
Ġsign ed
m us
ve ll
Ġde ed
ig ne
Ġro g
Ġinter nal
Ġobject ion
chan ts
Ġchief ly
Ġwh ites
est ine
ĠSt ilgar
ĠBl oom
ĠCast le
RAG ON
ĠT or
as ha
az ing
Ġsr ce
CH AR
Ġcirc um
Ġder ive
Ġo ak
ĠSm iley
it ar
ĠG ra
Ġun pleasant
Ġrec ent
Ġcare er
Ġlin en
ust ra
Ġside ways
6 1
ĠD E
Ġcont ro
Ġaccount s
ien cy
Ġdom inion
tow ards
ĠP ablo
Ġdoct ors
ĠA rya
ĠG race
Ġsk irt
Ġill ness
ik es
Ġ à¶
ro st
Ġantic ip
or al
ill ings
Ġprefer red
ĠÂ £
let on
ĠComm un
Ġbo ats
Ġran ge
k ne
exp ression
Ġdescend ed
Ġad orn
17 5
Ġcoll ected
Ġfurn ished
Ġeager ly
nex ion
Ġ. "
le e
am ine
ĠC ult
fe eling
Ġeyeb row
C ecilia
M ON
st ances
Ġoff end
angu age
Ġapplic ation
Ġshort ly
Ġdevelop ed
Ġvague ly
b ows
urn ham
AS IS
Ġvr ata
Ġass urance
Ġobserv ations
Ġing en
IG HT
- man
ick ly
ĠK i
ĠJew ish
all ow
R em
Ġta pped
Ġnjih ov
Ġsquee zed
) ;
j oice
Ġshe pherd
ĠFran Ã§oise
IV E
Ġven geance
Ġadmin istration
ith s
ĠB abbitt
ĠTh or
ri ve
ĠD ar
ĠM iles
h usband
ip h
Ġder iv
Ġta els
Ġphilosop hers
Ind eed
Ġnot ed
Ġpolic eman
Ġlan tern
imp se
Ġlad der
el se
ak i
Ġcha llen
Ġexist s
cont ent
in ine
ĠA ragorn
Ġup right
pha ba
u z
out side
av lj
ath ustra
ĠTh ird
Ġbes eech
Ġmad ness
cond ition
ic orn
ir kin
ĠA venue
EST RAGON
Ā ï¿½Ā
Ġso ot
Ġon aj
Ġgl owing
ever al
ĠAr ch
ĠVer loc
Ġpursu it
ě Ą
me red
ĠAn nie
Ġclose t
Ġeight een
ed e
Ġk ick
Ġamaz ing
Ġliqu id
ĠH o
all el
Ġde ceive
ĠJ acques
Ġdelight ful
Ġcrit ical
Ġbr isk
Ġtrem end
s ound
ni ka
Ġelev ator
8 8
ur ches
ĠBe hold
Ġl az
Ġback ground
Ġpolit ics
- off
em ar
ĠYou ng
eng ers
ĠH alf
fe et
J acques
_ S
o be
Ġa uthors
or ig
ra ge
ĠF ang
Ġcour ts
Ġarm ies
Ġexped ition
A unt
ĠWill ie
a ire
in er
Ġmass a
ĠT hank
âĢĺ Yeah
aj a
15 4
Ġgri ev
Ġperman ent
Ġbast ard
Ġd ial
ct ually
ĠA ech
ich olas
ĠW ednesday
op ened
istr ict
L ady
Ġtr ump
Ġbetray ed
Ġdep ths
ri ble
Ġfur ious
ĠJud ge
p arents
Ġst ab
ke red
ood y
^ d
Ġele ment
ĠCon nie
Ġro ar
ft s
Ġhung er
heart ed
S ometimes
ĠB rom
ĠR ad
ab ove
Ġwhere of
Ġvol s
reg ular
Ġparagraph s
Ġun conscious
Ġlong ing
Ġte aching
Ġp atch
do ing
re rs
16 4
Ġprom ises
ĠH olly
p x
ĠT odd
Ġpres ident
ĠAl so
de ep
Ġkoj u
th us
ĠJ ung
Ġbless ing
ĠHist ory
anc ourt
Ġuneas iness
Ġt ense
ĠV ronsky
Ġang le
Ġwhe els
O ST
a pping
âĢĶ for
Her mione
Ġkon ja
Sim on
c ity
ĠD iv
ĠN ight
de cl
Ġo ven
ĠW y
19 2
ĠA pril
Ġover head
Ġstrugg led
v ara
w onder
av o
Ġvr at
Ġreve al
ig er
Ġbest ow
Ġrejo ined
experi ence
Ġrub ber
Ġstrugg ling
Ġsevent y
u Å¾
ĠM alfoy
Ġse be
ist an
ist ry
ĠG ranny
ĠD oes
ĠK atherine
c ourt
g reg
ĠHar rel
ĠJOHN SON
ě ĄĊ
ac hi
Ġpart ner
Ġwand ering
c ival
Ġto mb
ĠNap oleon
erv ation
Ġhere after
Ġcomp ound
IT ED
Ġexam ples
Ġenjoy ment
Ġpat ron
Ġcomply ing
Ġdyn asty
e es
Ġtw ilight
Ġcount ed
Ġbo iling
Ġpe as
et ic
ĠMar x
Ġrep ose
Ġinv ite
Ġoblig ation
ixt ure
Ġag ony
old ed
f r
Ġr ows
Ġdo b
Å¾ u
ir ical
Ġv iz
ci an
Ġdis hes
Ġgloom y
-s ha
ĠÅ¾ rt
ĠPer cival
Ġmog u
Ġs han
ut ing
ord ers
Ġsqu ire
Ġdiv ision
ĠG ame
sh ido
Ġdrink s
Ġlo ad
ĠSar ah
ĠN urse
s ve
18 9
Ġth irst
Ġinqu iry
Ġspo il
Ġtum ult
w l
ar c
Ġha y
if er
om o
Ġr aw
Ġdirect ions
Ġpo nd
Ġacc ent
ĠGospod u
Ġvers ion
Ġgr acious
contin ued
Ġobli ge
b al
Ġb itch
Ġc ash
Ġst able
Ġavail able
Ġequip ment
k oji
ab riel
uck y
Ġstret ch
ĠDa untless
ust rious
Ġpr udent
com es
Ġvis its
- br
S ophie
er ick
Ġl ur
ĠS ue
if orn
ĠB aby
Ġpro sec
ove mber
Ġcol ors
ĠMat ilda
Ġo nd
y right
ag ues
Ġpl ot
ear ly
Ġobserv ing
Ġdoubt ful
Ġfortun ate
Ġimpati ence
Ġrecomm end
Ġwork ers
R ichard
Ġb order
Ġsp it
ĠSt ar
S hadow
ĠW inter
Ġpro gram
Ġgod ine
in ence
Ġbet wixt
sc ar
Ġne h
Ġclim bing
ĠCl oud
ĠPe ggotty
Ġgrou ps
p ast
Ġo Äį
st va
ev oj
Ġorigin ally
Ġsp ray
w his
Ġd un
al j
Ġna Å¡e
ĠÄį ove
Ġkr v
m el
Ġw oe
Ġbl oss
Ġconven ient
Ă ĒĊ
G er
l se
Ġm ob
Ġp aw
ĠF ern
Ġwait er
Ġperson ality
Ġless on
ĠSer geant
Ġcand les
ri k
Ġd ies
Ġv ow
ĠR ev
Ġca res
âĢĶâĢĶ Ċ
ĠC orn
ĠO mi
Ġmu ï¬Ĩ
Ġwe eping
by e
ĠMil ton
M adam
Ġimpati ent
bus iness
gentle man
Ġcry st
ell ow
Ġt voje
ĠO K
Ġs ore
ou st
ge nd
Ġre act
Ġsl iding
Ġdra wer
W ang
it udes
ist ent
fer red
Ġmans ion
Ġche ese
r um
ĠF a
Ġod mah
ĠShadow hun
Ġbij ahu
Ġsvak i
usal im
Ġt une
Ġa ug
âĢĻ ien
Ġe tern
Ġres idence
Ġdev otion
Ġdesign s
Ġperform ance
Ġprompt ly
ĠT ed
ĠP enny
Ġsw ing
Ġbus h
w est
ĠB ath
F inally
ĠL ily
uck s
======== ========
ĠAx l
C hia
ĠK u
Ġacknowled ged
MAR THA
ĠComp any
ĠToo hey
g led
Pro fessor
Ġlou der
ci ences
Ġent ering
Ġsecret ly
al ton
Ġpre gn
x y
Ġclass es
Ġv ii
are crow
Ġres our
ĠY en
Ġlux ury
ĠB oston
Ġfour teen
w all
Ġp iss
Ġspe ar
âĢľG o
I CE
L ove
Ġf arewell
Ġcon form
Ġman uscript
Ġjust ify
Ġcomp et
Ġbest owed
Ġb ust
Ġpe ered
Ġeven ings
- gr
pper field
ĠSept ember
O ut
R ight
Ã ¸
Ġli ed
Ġbull et
ĠTob y
Ġex quisite
Ġsupp lied
Ġb att
Ġn asty
Ġcur iously
Ġang rily
Ġlead ers
ĠNee ly
yr us
ĠT i
je va
Ġsed am
Ġcir cles
_ Mrs
ĠH ipp
Ġthere in
ci le
pass ion
Ġbelong ing
Ġobey ed
Ġgrave ly
Ġhealth y
ig o
gu ard
I z
Ġdro pping
Ġfoc used
Ġimp art
Ġinter pre
Ġamb assad
ach im
ĠEvery body
ĠNegro es
- sp
- white
am ily
Ġremember ing
Ġm ic
ĠWhat ever
M E
Ġw ounds
gr ant
Ġfear ful
ē ěĂ
n ut
Bl ack
M at
w atch
ĠZ ato
Ġclen ched
; âĢĿ
m oon
ĠT zu
Ġcomm it
Ġint r
Ġtre acher
Ġprodu ct
Ġmor ality
ograp hy
Ġappet ite
Ġf el
ĠF ore
Ġvisit ors
Ġst ares
rec ogn
Ġ =
V OL
ic ial
ri ety
ĠM ount
Ġex ert
um er
ĠR es
happ iness
Ġfru its
Ġcruel ty
Ġsubl ime
+ !Ă
Ġwh ip
Ġrep orts
Ġside walk
ĠGu y
Ġw ax
ĠC row
ien ne
ram er
Ġf ists
Ġu h
ĠH uck
Ġring ing
Ġw ages
Ġto bacco
de f
Ġrep r
11 1
Ġconfess ed
might y
ĠHon or
isto cr
Ă Ĕ
Ġn igger
Ġju ice
ĠT hing
Ġes c
Ġd ade
Ġg ut
Ġpre ko
con n
Ġshout s
ĠA sia
Ġfa ire
Ġadm ired
tr ue
Ġfavour ite
Ġrap id
Ġproc ure
ą ĘĄ
Ġf uss
ĠL ieutenant
Ġbitter ly
ĠMore l
c ra
Ġl imp
Ġj ack
. O
ro be
Ġv ama
ĠU m
eb orah
ans wer
ater nal
Ġexam ination
c ad
ĠT emple
Ġown ed
Ġme ad
itt ered
Ġdisapp ointed
Ġr ings
ov id
ĠK it
ĠNo emÃŃ
Ġarm or
Ġcard inal
ĠMor rel
Ġpark ing
rigg s
6 2
ex istence
cer ity
ĠX XX
Ġperform ing
Ă 'Ċ
ï º
Ġha w
ĠD addy
ĠMar ple
Ġrelax ed
-si x
Ġwe eke
t re
Ġgener ation
Ġacqu ire
Ġappro pri
possess ion
ĠB iff
Ġsw inging
gar ita
g un
Ġro be
aur ie
al og
al ted
app re
in tend
Ġya wn
' Well
ï¿½ and
Ġst ole
Th ree
d anger
Ġf al
ĠG ive
Ġcle aring
Ġsqu ad
ĠBig wig
Ġdesper ately
Ġst ew
ĠIn c
Ġconf ident
p aper
har p
use um
Ġdom a
t rou
ĠA v
ĠAnt on
g ic
Ġtr ained
Ġmo ist
d ers
z es
ĠC ass
od ed
ĠR ick
ĠJack son
7 2
G u
EN CE
Ġexpress ions
opp ortunity
Ġbell s
Ġrec ords
Ġdust y
S ad
m ur
le ave
ĠT sukuru
ĠAm elia
Ġspec ific
ate ful
hi bit
Ġearnest ly
Ġfun ction
Ġmir acle
Ġconv iction
Ġw i
am ond
Ġlim bs
get ting
âĢľA s
Ġnarod a
p ract
es se
Ġdis pos
Ġsub tle
Ġent ity
long er
Ġan aly
Ġ.. .Ċ
ĠT ate
-f l
iforn ia
Ġcatch ing
Ġtar get
Ġmnog o
v als
Ġnot ions
Ġal tered
Ġdisc retion
Ġcop ied
Ġele ction
Ġneg ro
Ġabst ract
ad ays
ĠS ut
Ġv ivid
Ġprot ested
Mur phy
itche ll
Ġm am
J ace
an ja
Ġh ug
et i
h ua
it ively
ĠA GRE
ĠE s
Ġper ception
17 1
Ġstro ke
hib ition
Ġsqu at
Ġhom es
ĠCount y
Ġrije Äįi
ĠHe ll
ian us
Ġheart ily
-m aid
ĠAlex ander
Ġdisci pline
Ġdepri ved
ĠW ild
p ress
Ġbl oom
Ġgl impse
land s
Ġsn ake
ĠAust ral
Ġl id
Ġspot ted
Ġzeml je
s ight
Ġcha st
Ġcomp osition
Ġembr aced
ĠSt one
Ġaw oke
ars hend
âĢľH ave
arshend i
We re
Ġang uish
Ġeng age
Ġinstr uments
Ġneighb ours
ĠM onday
ie g
Ġtu h
Ġw ha
au bon
J ason
n ell
u j
ĠH og
Ġbr and
Ġgest ured
ci us
Ġres erved
me re
Ġcourt es
Ġentertain ment
Ġmal ice
ĠD iotima
Ġec st
ĠD ro
Ġtre mbled
Ġcol ored
Ġhis sed
ri jem
Ġv re
ĠF yodor
ĠÄį in
Ġdam age
Is a
âĢľNot hing
Ġbas ement
Ġchuck led
ad ise
Ġpri ori
Ġderiv ative
Ġt ide
Ġcold ly
ox worth
Ġcr ushed
Ġdrift ed
ĠBro dy
L ou
Ġcar u
a ired
ĠS over
Ġres erve
sh ort
Ġinter pret
tr uth
athe mat
mention ed
Ġj ungle
Ġviol ently
ĠKat ie
cl ass
Ġcell ar
g od
fl oor
ĠIzrail jev
Ġign ore
breat h
ĠA ct
ĠD i
Ġrest ore
Ġcond es
Ġinter val
Ġreve rence
Ġmisf ortunes
ĠFour th
Ġreplace ment
Ġintu ition
te gr
Ġsle nder
Ġtri ump
Ġhy ster
l ain
Ġpe asant
Ġoccasion al
Ġcott age
âĢĶ or
âĢĶ âĢĻĊ
Ġportra it
d ated
Ġqu od
Ġconf ounded
Ġremem brance
say ing
g s
Ġthought fully
ett embr
ix on
Ġstrange ly
Ġst ack
ers burg
read ing
à¶ į
âĢľL ook
- me
p ire
Ġre jected
ul ting
ĠAl as
Ġsuffer ings
Ġoper ations
Ġadvent ures
convers ation
Ġal ert
ĠK necht
Ġgl it
Ġpo b
Ġpar ked
Ġcre ate
f red
pt ure
Ġcomm end
ĠCom mand
Ġshew ed
-ku o
ĠF ried
ged y
rou p
Ġrep orter
Ġve hic
ĠFrank lin
Ġro bes
Ġcommand er
Ġar ises
16 7
IL L
ĠP il
ure au
Ġbr andy
Ġwhere ver
Ġhum ili
ĠS chool
om a
H aving
or us
Ġcon ject
ĠG all
Ġcomp are
fe it
hib ited
Ġneglect ed
begin ning
P o
U lrich
ĠO k
Ġacc used
ane ously
Ġattract ive
Ġfl ies
Ġbu ff
ĠBr ad
st opped
ĠS hard
Ġlif ts
lau gh
F E
J U
Ġmaterial s
Ġprosper ity
ettembr ini
Ġbl ows
ĠÄįovje k
Ġr av
great er
Ġsepar ation
- C
Ġse ed
ie ux
ĠU ndine
LOW E
ĠC at
ĠW ay
P S
v iously
Ġt ro
ĠD istrict
ĠÅł ta
ic ian
red itary
res ist
ĠP E
Ġcol oured
How ever
Ġadmir able
ke l
Ġmin or
ore na
Ġp on
âĢĺ That
Ġtr ash
ĠRos a
P ray
Ġcon taining
ĠJ onson
Ġus er
-y Ã¼an
Ġexpect ation
circumst ances
Ă Ę
! !
ĠM itchell
ĠB an
ĠD alton
ink le
Ġaw fully
ĠLe amas
w on
Ġliter ally
ĠC oun
Ġlaw ful
Ġaff irm
Ġprop ose
Ġfurn ish
Ă "Ċ
Ġto oth
ĠB ru
nt on
Ġste pping
ĠX ander
Ġdrug i
G ER
am ation
-- --Ċ
con sequ
Ġprodu ces
ē ĂĊ
ĠSe a
Ġc ooking
Ġr oses
Ġsh oe
ince wind
D umbledore
Ġw atches
Ġn av
am n
ĠG en
ĠRo oney
Ġn un
Ġconf er
Al as
ĠJup iter
" Your
s un
Ġw il
Ġc ats
ĠAl manzo
Ġafter ward
Ġbo ot
Ġwild ly
ĠT ova
ĠB a
ĠN one
ĠHen chard
Ãª nal
d raw
Ġha z
Ġman ager
10 4
15 9
Ġinv itation
don ate
Ar chive
ob ie
Ġcol umn
upp ence
ĠT ulliver
p red
ĠJ eb
Ġcompl icated
Ġpal ms
I B
ĠYÃ¼ n
Ġwrit ings
omen on
appear ance
ashion ed
b age
y ers
Ġm ate
ĠB ishop
Ā! Ā
Ġsher iff
w are
ĠS ve
Ġshe lf
Ġble eding
Ġre ct
ĠD uchess
what ever
tr ademark
Ġoccasion ed
ĠG udrun
Ġmar ched
-th irty
ĠD ev
ĠR oland
old ing
oun cing
Ġwis hing
W all
ĠI d
Ġdo l
ĠDor ian
Ġneighbor hood
ĠG reg
Ġen abled
ĠAb ra
Ġl ion
iven ess
Ġcaut iously
Ġswim ming
Ġinf ant
Ġna ils
Ġfor bid
ister s
Ġty rant
Ġtransl ation
' Oh
- that
az ed
ĠAr cher
Ġsad ly
ce mber
Ġne m
Ġgrad u
Ġg oose
Ġj ade
un ction
18 8
ĠI shido
le v
ĠAs lan
Ġdest iny
ĠAng ela
T e
Ġm ent
âĢĶ as
Ġsk et
Ġfill ing
start ed
8 5
H AM
in ently
or ial
10 5
Ġindividual s
QU E
Ġtempt ed
Ġinherit ance
Ġbl own
Ġnerv ously
Ġsw itch
Ġinter ior
Ġk Äĩer
ul ed
rem em
âĢľHe re
it an
ĠDor othy
Ġaccompl ished
DU KE
U AL
Ġsu icide
ĠP M
Ġgo in
ĠAt ticus
Ġdef inite
"L ook
Ġgreet ed
Ġarrest ed
Ġchar ged
Ġsol itary
Ġvid je
leg no
be come
Ġco in
Ġland lord
Ġforth with
Ġtem p
Ġshe er
will y
Ġb acked
ĠC atelyn
Ġconc rete
ĠLong street
- E
ĠC elaena
Ġlead s
Pe ople
P AGE
Ġbe e
ir its
ast s
erv is
Ġmer c
Ġdeterm ination
ĠBar barians
ĠHon our
b ird
ĠL and
Ąą Ē
Ġstub born
Ġr ats
s itting
Ġd akle
ĠO ASIS
ne g
ism o
ĠP en
um a
ber ty
Ġbl ush
Ġcons isted
Ġcompl iment
Ġimper t
Ġreflect ions
ias m
Ġneighbour hood
Ġcan oe
ĠTh rough
" J
ak ers
Ġpil ot
ĠStan ley
f air
ĠI ll
Ġst unned
Ġs cept
Ġper ish
Ġgener ations
G UIL
Ġcraw led
er by
ĠT ako
Ġr ipped
ĠP or
Ġv je
ĠMar ianne
Ġclut ching
7 1
7 3
s ac
Ġwh ore
ĠK uan
Ġap ost
Ġtri b
-yÃ¼ n
-p en
ĠO l
ĠK ay
aw are
Ġpol ished
em pl
Ġb ila
Ġfro ze
dem ona
Ġecho ed
s ense
Ġin justice
Ġar bitr
ĠY u
- R
Ġr otten
Ġexp ensive
Ġstick s
o Å¡
p ain
to ire
Ġpass es
ĠIs a
Ġswall ow
p un
ide a
Ġbound s
Ġphysic ian
Ġr ushing
ail ing
Ġact ivity
Ġst ool
-e ight
w alked
ne v
ci a
Ġcha riot
Ġwhere by
Ġtreat y
dist ingu
ĠGree ce
ĠH oxworth
ĠR ing
Ġsens itive
im med
ab er
m ine
ĠS to
ul u
âĢĺ The
Ġsu itable
qu al
Ġliber al
Ġcost s
ĠF r
-cl ass
is er
S al
ĠL oreda
Å¾ n
ja Å¡e
Ġst ated
ĠCom mon
ĠRe ason
Ġsl ipp
Ġpolite ly
. </
ĠDun can
w arts
ed an
Ġh over
ĠH ass
ĠH illy
Ġare na
ĠN a
ĠJan uary
Ġv oyage
Ġfac ulties
Ġamuse ment
Ġl ane
un ter
Ġimp ulse
Ġhear th
ĠC oss
Ed ward
-------- --------
t reat
Ġre joice
Ġj uris
Ġabund ance
ic ott
ent in
ĠL ancelot
Ġpain ter
Ġdiscuss ion
S er
ĠI T
ĠHats um
Ġatt acked
ĠÅ¾ ena
hold ing
Ġstat ue
Ġwhisper ing
d iction
re ction
ver b
Ġas sembled
ĠE astern
ĠĠĠĠĠĠĠĠĠĠĠĠĠĠĠĠ ĠĠĠ
Ġprof its
sec ret
Ġenter pr
Ġexc iting
Ġcent ral
Ġsafe ly
ĠL am
Ġshud der
j el
Ġhe ars
el son
ĠZ amperini
Ġhonest ly
ĠShall an
w elt
Ġab ide
con cl
10 3
Ġter rit
reg ard
Ġpartic ulars
Christ ian
ĠG ene
Ġexperi ences
ĠD erry
Ġinstruct ions
ĠLes lie
w atching
ĠA f
ang ling
ju Äĩi
âĢľR ight
nd e
Ġc ub
ĠB art
un less
ĠGod s
Ġpret ence
Ġconduct ed
jo ined
ĠDav ies
Ġalter ation
Ġdesir ous
Ġimp ressed
ĠU p
Ġir re
Ġwas hing
Ġsha pes
ev itch
Ġprodu ction
Ġeight y
ĠN ora
Ġover whel
Ġro lls
Ġmur dered
ĠO ff
Ġbene vol
Ġprivile ge
Ġt act
Ġto es
Ġst ag
if ted
ĠD war
li ked
ĠIs n
Ġso ci
Ġstuff ed
- J
Ġm ix
Ġlif ting
.-- _
Ġcondem n
Ă ĘĊ
Ġperson ally
Ġones elf
ĠJim my
ĠAny way
Ġguard ian
c ima
st ep
ir k
ĠV as
Some one
Ġsec ured
Ġadv ised
Ġpay ment
Ġow ed
Ġexper iment
Ġprejud ice
Ġcrimin al
ĠD uring
ĠWil son
Ġy o
R ob
ha ge
ĠC ameron
âĢĺ So
Ġcan cer
Ġpretend ing
A b
Ġen able
ĠV II
ou ched
U p
Ġp all
ock et
f ingers
ĠO v
Ġsn ap
Ġshel ves
is p
as cal
Ġapp l
Ù Ģ
ĠO rd
ĠIr ish
ant on
Ġcl am
ĠEl phaba
Ġm lad
ĠD antÃ¨s
ab ing
Ġcont ents
Ġje z
Ġsvoj oj
Ġdesign ed
ĠRussi a
B esides
Ġd ine
Ġha bits
Ġam iable
IN A
Ġeld est
Ġt ension
Ġab oard
Ġresult s
Ġcult ure
Ġrep orters
OR A
Ġrag ged
b ooks
Ġcr um
had n
ĠBog u
âĢľR e
ur ious
Ġas sembly
Ġam bit
Ġdes cent
17 0
ĠBe ing
-p ao
ag ny
ĠWin ston
Ġp avement
Ġlo aded
Ġrout e
o Äį
Ġb om
Ġf ake
con y
your self
ul c
um erable
Ġle nd
ĠĂ ĖĄĊ
po ons
, --Ċ
ĠBl ue
ĠTr ue
as he
ĠV ianne
Ġsurv ived
Ġblock s
Ġstruct ure
: --
M an
m ons
Ġf est
Ġin vention
ĠS ara
ĠP R
Ġwill ingly
17 9
see ing
spect or
l ost
Ġgl ared
Ġrub bing
Ġcon nexion
pe are
od es
Ġappe aring
Ġstud ies
ĠĠĠĠĠĠĠĠĠĠĠĠĠĠĠĠĠĠĠĠĠĠĠĠ ĠĠĠ
Ġmour n
Ġwh ir
ul es
Ġlie utenant
ĠPipp in
oll en
Ä ´
Ġk ro
ĠG riff
Ġjed nu
Ġdan as
Ġconn ect
1 20
Ġf ri
fe ar
Ġtrans cend
" For
A dam
ĠP ig
ĠF orsy
Ġannoy ed
g ia
i at
k ers
k man
Ġwind s
Ġy an
Ġsp oon
Ġconv ince
stra ight
Ġc iv
Ġin cess
ĠH uang
ne igh
br ook
cha mber
Ġproceed ing
Ġexerc ised
Ġsie ge
Ġcon cept
%Ć ĔĂ
Ġro ared
ual ity
ĠAt reyu
z ov
bo at
it le
ing ham
ig nt
Ġdesp ise
Ġspeed ily
Ġl emon
"T hank
Ġmurde rer
oc he
Ġeleg ant
Ġs ip
ĠJ asnah
Ġsound ing
W ELL
d ess
Ġdoub ts
Ġrequ is
after wards
observ ed
K e
er p
ĠAm ory
ov iet
A bout
ĠG ale
ĠR Ãªnal
Ġte bi
Ġiz meÄĳu
M on
el est
Ġpr int
des p
Ġcorrespond ence
Ġresem blance
ĠSt r
p an
ĠA pp
f ac
in ement
Ġgener osity
Ġill ustr
ĠAbra ham
Ġv ic
udd led
ĠCath olic
Ġabsor bed
n is
ĠWe gg
Ġcol on
ĠWood ward
stro de
T hanks
sm ile
u ously
Ġh ind
ĠH ua
oll and
Ġelse where
Ġve il
Ġbas is
ĠLeg isl
Ġwh irl
ol ks
ĠQ ue
-col ored
J a
b og
en je
um i
ast i
atr ine
; )
con v
Ġsu itc
Ġcl ung
ēĔ ĂĊ
uls ion
ĠB eth
ul is
Ġhide ous
Ġcr imes
Ġdev ils
Ġsen ior
Ġjew els
Ġancest ors
Ġt id
ig an
Ġun icorn
ĠĂ -Ċ
ĠEd mund
Ġl obby
ic toire
id get
ĠP ip
ĠK al
ft y
Ġur ge
ĠÃ ¬
Ġappreci ate
f requ
Sh ould
" Very
oll um
Ġlast ed
Ġfar mer
ĠCon stance
enn icott
ĠHe idi
she ba
sm ond
adem y
Ġneat ly
v ije
ĠK a
air n
Ġdec or
Ġexha ust
Ġw en
Ġd angers
ĠG ould
Ġtheir s
_C ount
Ġrestr ain
ĠM ountain
ul ously
ĠGold en
ut tering
Ġcr ash
mon t
Ġcat hedral
ĠBern ard
N A
Ġv oll
9 9
Ġf ie
Ġd uration
ry s
AL L
Ġmoder ate
ĠS ay
low e
in or
ac ia
out s
ĠK ent
ĠV ern
.âĢĻ </
cher s
Ġbr at
ĠÄį ini
1 19
Ġopp ressed
pur pose
Ġcalcul ated
oubted ly
O ld
Ġind ign
ĠLy on
Ġwhist le
Ġas hes
ĠC atherine
ber lain
ĠCo pperfield
Ġdist racted
Ġkill er
s Ã¼eh
ic ating
Ġe unuch
Ġresol ve
Ġcitiz en
ĠAmeric ans
Ġr andom
Ġboy friend
ĠZar athustra
B UT
ĠD utch
ci pro
Ġcomp ass
Ġye a
ribut ions
Ġprop riety
Ġlord ship
Ġwithd raw
Ġimprove ment
ē ĂěĄĊ
Ġp iled
Ġsa uce
Ġde af
os h
ĠJ eeves
Ġsens ed
ĠMir iam
Ġplung ed
ĠB ul
Ġcamp aign
h ov
Ġh ips
ĠC inder
han s
iet ies
_ âĢĻ
il ion
ĠN O
Ġjud ged
ĠMex ic
Ġgo al
-f ashioned
ĠCal ifornia
h ot
Ġar row
ss on
Ġve ins
ĠDani ka
; "
ic ians
Ġpro se
Ġem bro
Ġinc ense
dist ance
Ġty ranny
OS O
ĠC ott
es us
ĠF riday
Ġbeha vior
ĠEve lyn
Ġre tain
15 5
Ġins ist
Ġele ments
ĠWil helm
Ġ :
/ Ċ
ĠZ orba
"G one
Ġcivil ization
Ġcount y
alth ough
co hol
ĠMc G
Ġsand w
wait ing
Ġtow el
l am
Ġw rought
it ating
qu it
Ġopp ortunities
Ġang els
even ing
Ġyield ed
- A
C ovid
j anus
m ates
Ġo ca
Ġnot ebook
Å¡ u
Ġcur sed
Ġtra pped
Ġc um
Ġre vel
Ġsupp osing
10 7
ĠAs sembly
Ġmult i
Ġthreat ened
" Just
Ġm ant
-m inded
Ġtables poons
Ġf ishing
Ġh ired
ĠAri za
. com
Ġm att
Ġiz b
Ġcirc us
Ġbi h
ĠHen rietta
Ġscar f
Ġmon k
Ġcompl aint
Ġtest imony
ĠL ater
ĠS ansa
Ġso ber
add les
Ġh its
ut or
ĠK hader
sh op
ĠHay mitch
Ġp arent
Ġsh illings
rem ain
_. ]
h ill
Ġse arched
ĠD own
gr im
Ġtremend ous
nt ino
Ġse al
Ġsm e
Äĳ i
olute ly
Ġust a
T ai
ĠG e
ĠG aul
Ġapp ointment
ĠSc arecrow
Ġsick ness
Ġdelic acy
Ġm ixture
ĠBl anche
is si
Ġless ons
Ġtool s
ut in
st op
ĠC e
ï¿½ d
âĢĺ He
ĠO ren
Ġav atar
Ġrib s
Ġrije Äį
j ac
Ġis sued
Ġsy mpt
ament al
ANT ON
Ġlegisl ative
ą ĔĂ
P a
Ġf ox
ĠJo achim
Ġval ues
ĠF ogg
op ing
k ov
or u
we ar
s oul
Ġattempt s
Ġche mical
Ġtalk s
Qu ite
ter y
Ġso ap
ĠAm ber
Ġpop ulation
ĠSm all
âĢľS t
beaut iful
B E
G AN
10 8
ribut es
Ġcap acity
ruct ed
Ġtal ent
Ġhonor able
Ġl ace
os y
Ġhum or
intend ent
Ġflo ated
. âĢľ
j ut
z d
Ġc ode
ĠS ed
ĠL ien
Ġno bl
Ġpar ish
Ġx v
ĠL o
-- -
Ġqu iver
ĠPal estine
erp ike
he el
ĠL IT
Ġp ounding
ĠC ad
Ġsp ine
ovi Äĩ
Ġtrust ed
Ġnarrow ed
ĠÄĳ evoj
1 13
ĠM ess
Ġun c
._ --
Ġcol ony
Ġsuper stition
Ġav ar
ignt y
% ĘĄ
im son
um fo
ĠL isten
ĠHow ard
Ġser geant
ĠJud ith
ĠMer ry
Ġscient ific
ĠT ri
Ġpri or
ĠP OW
iv Å¡i
rov na
Bl omkvist
I m
Ġha ught
ĠA c
ol ved
Ġdid st
-ch ien
Ġheaven ly
umfo ord
N ORA
Ġb atter
oub ob
ĠMass a
at ri
âĢĺ H
ĠâĢ¦ âĢĿ
- su
p ay
r ice
ri ved
Ġv ous
Ġexcept ion
chan ce
SE CT
đ ĂĊ
Ġl amps
ï¿½ a
à³¦ à³¦
B ill
et ies
Ġh ook
ĠG ames
Ġpre m
ĠJo han
Ġot ac
Mar ie
: --Ċ
it ia
Ġp ound
ven ant
act ions
-y ang
Ġgovern ments
-p an
Ġdisd ain
- for
ĠI lse
ham mad
ĠPolly anna
W ood
o at
ĠL ow
ĠF amily
ĠBar b
L inus
S il
d et
Ġg ore
Ġre lease
ĠP avl
ĠR amy
ab ul
Ġtight ened
ĠBor is
Wall ace
T ake
h ope
er ness
Ġall iance
Ġexp ort
-t zu
Ġpure ly
Ġpun ished
ĠB irkin
ĠN ic
oo ke
Ġ îģ¢
ĠN icholas
Ġz ato
ev ille
V AL
ic able
ĠA then
Ġex alted
per ors
10 6
" To
ĠP ut
Ġbr ains
Ġrest less
Ġpour ing
Ġst all
ĠH ester
ro ck
Ġneed le
j an
Ġu k
ans l
Ġgl obe
Ġown s
Ġa ver
ĠF uch
Ġcl um
Ġdwar ves
' H
Ġb room
ĠF itz
R on
âĢľ Very
Ġr ou
20 2
Ġzl at
G ive
S UB
Ġj olly
Ġ-- "Ċ
Ġpeace ful
em ulis
cl othes
1 15
ot ec
st reng
Ġas certain
Ġv ap
ast on
Ġcan st
ĠK uei
Ġcorrupt ion
Ġmagnific ent
J on
Ġp ip
ĠH and
ĠCas aubon
b bed
Ġd agger
ĠO nda
Ġsm rt
Ġknock ing
8 1
st ir
am in
ĠH urstwood
qu er
Ġen chan
Ġdes erves
16 8
Ġincre asing
CHAR LES
Ā -Ā-Ā
M other
ur ry
Ġstraight ened
Ġpassion ate
ĠPet rovitch
b bing
st range
ï¿½ re
âĢľS h
sk in
ĠAd olin
a very
u il
Ġn aught
hat h
ĠA u
ĠP ur
ans wered
Ġcons ented
com pre
ą !
- headed
Ġdr am
iff ord
ĠP ole
ĠR en
ĠR askolnikov
f ying
Ġjed no
ĠX aden
Ġsad ness
bro ken
ĠP ed
Ġatt racted
Ġdom ain
Ġfle et
Ġro ot
Ġho arse
or ms
Ġr ipp
8 6
U CH
^ t
r ison
Ġbl iss
Ġper ceiving
Ġgr ows
Ġatt ributed
Ġhor rid
Ġemp irical
ĠGoth s
Ġchild ish
ĠSte erpike
low ly
ĠL loyd
ĠR yan
Ġel bows
Ġlay ing
ĠRob b
Ġd je
Ġarg ue
R AN
ĠS el
Ġcon vent
Ġv irgin
Ġopp ose
Ġconcer ns
Ġmaid en
cond uct
Ġdisapp ointment
Ġc ents
ĠN arn
- glass
ĠSec ret
u v
Ġchallen ge
cript ions
AS S
ĠAm ong
Ġep ist
Ġtend ency
phil osop
ha w
iv ities
Ġch ocolate
Ġdiv orce
Ġbar rel
Ġmur ders
ĠEurope an
Ġbuck et
Ġmagaz ine
Ġc ob
Ġreal ised
Ġphot os
ĠSun ja
l est
l ab
in ch
Ġd welt
ot est
Ġth ief
Ġsol itude
Ġdemand s
Ġtrif ling
ą !Ă
Ġf ut
ret t
ax ter
ĠAr n
ĠMal colm
g iving
Ġw rest
ĠS oviet
ï¿½ ĀĊ
ĠNe ither
Ġp yramid
ol o
Ġnjeg ove
Ġab hor
Ġseem ing
Ġvel ocity
e ur
Ġha ts
ĠP ilar
Ġstr ained
Ġdead ly
Ġsurre nder
ĠB re
ge ois
t ried
âĢľS orry
Ġgri je
is se
ĠA uthor
Ġpro long
10 9
Ġpar allel
ĠAll worthy
Ġgall ery
Ġdream ing
igg ers
D oes
st ick
ent ire
Ġst ained
Ġsv a
wr iting
ĠDen na
S IM
es pecially
pe ace
ĠHe av
Ġproof s
fell ow
ĠW ait
ru p
"H ave
ąě ĄĂ
Ġdrown ed
st ream
M adame
Ġdo Äĩi
ĠSt ella
Ġsn orted
Ġcheck ing
S UR
Ġs ou
as much
Ġcha ins
Ġrep air
Ġadv ise
Ġadd ing
Ġval iant
comp an
Ġlim itation
Ġfalse hood
Ġwithd rew
author ity
ay ton
Ġmouth s
Ġb our
ĠM aine
Ġann ounce
re ached
Ġh ip
Ġst ane
Ġr ug
od in
Ġsl am
Ġz at
ĠAd die
âĢľB e
Ġf er
Ġp iety
Ġcon grat
Ġqu am
OR K
With out
Ġm orn
Ġsleep y
ĠEx cept
Ġdefe at
ĠM E
ĠLe ah
f ortunately
ack ing
ile m
ĠLev i
O SE
_ )
ĠP ha
att ention
CH ARD
necess arily
ĠGil bert
y uk
ĠR oy
D uring
c up
Ġg ig
ĠD ish
ĠMc D
y ear
Ġcontin ues
ĠIvan ovitch
ĠH y
Ġqu itted
Ġcustom s
đ %
d og
Ġex agger
Ġal ien
ĠJan ie
' He
- P
Ġa le
ĠB roud
av is
Ġmod el
uss ander
azar ov
in oc
il us
Ġcl ue
Ġanswer ing
rop hage
ĠGrand ma
Ġslu Å¾
Ġnij es
ĠF aith
Ġam ple
10 1
Ġappro bation
Ġimper ial
Ġcere mon
Ġencoura ged
and ers
ag ne
ĠBe hind
se a
io let
k oga
ĠB urnham
Ġsp at
up i
ronic ler
Ġtatt oo
en em
ac ies
ind e
part s
Ġrespect able
Ġappro ve
Ġnarr ative
Ġsha ken
Ġtr am
- down
ĠZ aphod
g reen
Ġb othered
ĠB ast
ĠF ive
sh ot
ĠPy otr
ec hes
ĠMore over
dest roy
Ġming led
l it
Ġsh rill
Ġdress es
Ġpati ents
ĠFred die
Ġtort ure
ĠL aurie
l ines
ĠT ro
ĠP arshendi
com be
Ġthir teen
- H
Ġse as
Ġcom edy
Ġod ious
Ġequ ality
Ġmer chants
what soever
Ġsword s
Ġartific ial
Ġpl ates
Ġsol ution
w enty
Ġplant ed
! ...
AC K
_ N
ar um
Ġre ferences
Ġas sem
ill es
ĠN E
Ġext ensive
Ġge ese
Ã¦s ar
Ġaug ment
Ġr ice
Ġk in
ĠH otel
Ġme als
Ġsk irts
Ġill usion
ĠFuch sia
ĠĀ ï¿½ĀĊ
ĠB ull
ĠHatsum omo
p ot
Ġgirl friend
âĢľS ure
Ġspin ning
A FF
R ESS
r ained
Ġwe igh
ĠD uc
Ġint ent
Ġtrick s
Ġtra gedy
onel iness
Ġrom antic
ĠM id
ĠW aleran
ĠN ovember
per t
Ġhun ter
l ju
ĠL ast
9 7
Ġfor bear
ĠR at
Ġdis agreeable
Ġpleas es
âĢĵ Ċ
Ă ćĊ
> ]Ċ
Ġd ashed
Ġst out
ĠS au
ĠN ext
ĠR illa
Ġ[ >]Ċ
ĠSc obie
ĠL is
ĠGl en
Ġtrave ling
g otten
r ati
s old
Ġn umb
ly mp
un ched
talk ing
Ġt ribute
Ġw ench
im possible
Ġcon vention
si x
ER V
Ġint entions
sp ring
Ġinter course
Ġmaid s
Ġborrow ed
Ġstock ings
G ar
Ġbund le
. m
f ight
p ict
Ġha lj
Ġr ises
am i
Ġsc hed
aut ilus
es qu
om y
ĠP aine
Ġv ows
Ġcomple ted
Ġpom p
Ġ :Ċ
Ġanx iously
Ġrig id
ĠG ro
osp ital
ma el
v ori
Ġd orm
Ġk amen
ĠS r
ile en
Ġgri pped
ĠMil ady
b able
Ġpro voked
Ġad apt
Ġdisc ern
15 2
Ġmet ap
Ġpri ze
Ġmer its
,) Ċ
Ġprob ability
Ġf itted
Ġbe nd
Ġwh im
Ġmar vel
Ġhal ted
Ġrespond ed
ĠVict or
ĠS of
Ġcr k
min utes
b ishop
Ġt ed
ine a
ĠBl och
Ġsal vation
Ġconfess ion
Ă #Ă
? \'
Ġc oo
Ġsl im
"G o
Ā H
un ts
ound erby
Ġthan ked
l og
Ġf uel
ĠS adeas
ro d
aw don
âĢľP lease
W u
re ceive
Ġin duce
Ġpre cept
Ġxx x
Ġcens ure
Ġcha plain
Ġsusp icious
c at
Ġrout ine
Ġv es
-- âĢĿĊ
ĠO x
OR E
Ġcontr ast
Ġchi h
ĠMan fred
Ġtrem ble
tw enty
Ġc ush
ĠT ony
ag les
k im
own ed
Ġkiss es
Ġblank ets
! _
e enth
g old
p ent
Ġm orrow
ĠP H
ĠL ai
certain ly
car ried
Ġgover ned
Ă !Ċ
om ing
Ġrevol ver
ard ier
sh mael
Ġat op
ĠB rian
el come
Ġkn uck
Ġpregn ant
ĠB ed
end eav
ĠU se
br ay
17 2
Ġwh ipped
ĠS ettembrini
Ġstir ring
Ġassist ant
Ġw aking
Ġb en
b are
c use
Ġm adame
ĠT urn
Ġkn j
Ġgl avu
ĠÄį et
Ġland scape
Ġre ceipt
Ġdo e
Ġdef in
Ġreign ed
- o
Ġsl ant
Ġtri be
asp ian
Ġphotograph s
ous ins
tt p
boy s
D ad
ke pt
ak on
Ġcur ls
Ġvi br
ĠPet ersburg
stret ched
ir g
ĠS aul
ĠM istress
ord ered
Ġmajor ity
Ġnob ility
" U
" ĂěĄĊ
ans as
-th ree
Ġinev itable
ĠB unny
Ġsh iny
D alinar
b one
b eneath
Ġr am
ĠB riggs
cl iff
it at
Ġin duced
Ġjust ified
Ġsub ord
Ġsw orn
10 2
-f u
Ġphil osoph
Ġsuperior ity
Ã± or
Ġsu llen
ra k
aw a
Ġpray ed
Êĥ e
"P erhaps
"Not hing
Ġtrad ition
Ġcomb at
ĠThor nton
al u
ak u
Ġdrag ons
run ning
on str
ĠH aving
Ġme e
us uma
Ġtit les
otec usuma
- she
Ġc ows
Ġbewild ered
ĠL inda
Ġtw ins
ĠBern stein
p iece
ĠB j
âĢĶ they
wr ong
Ġsigh s
-sha ped
ĠA rist
ch urch
Ġqu oth
Ġsc ri
ĠPr inces
ĠCon f
sec r
-w en
prov ided
Ġexceed ingly
Ġhistor ian
C hild
Ġind icated
Ġaw akened
ĠS um
ĠB ron
ell ing
ĠNo ah
Ġsum mit
ĠBour ne
n oga
Ġmon sters
uff s
wor king
Ġinvestig ation
er ic
Ġy en
Ġth o
ig ation
ĠF ortune
Ġinto ler
ĠSp ani
" As
Ġjob s
Ă! ĄĊ
kes peare
Ġimpati ently
ĠS andy
ust acia
ĠW erner
ĠV ittoria
Ġdra gging
Is us
Ġd aring
Ġn our
Ġsw ore
Ġmar quis
Ġsole ly
last ing
ing ton
Ġc ooked
ĠW on
Ġv oc
Ġreg iment
Ġmel ted
Ġs omet
Ġprep aring
Ġmurm ur
ut Ãº
el je
ol je
ĠG inny
Ġcan vas
Ġent ry
ĠÅł to
Ġnje z
remem bered
utÃº zov
Y e
Ã Ł
ad vent
ac ular
Ġv ine
Ġatt achment
sequ ent
OL D
Ġund one
" ,
C al
Ġst amp
Ġwhis ky
ĠDid n
ĠTs in
Ġforb idden
ĠK ramer
Ġm umbled
Ġp ulse
ar ant
ved e
chan ged
Ġcover s
need ed
Ġa ven
ĠS hang
ĠA C
ri ages
ĠD ec
ĠJ ervis
under stood
free ly
Ġsus pended
le m
ah o
ĠTh urs
ini que
Ġï¬ģ r
Ġdiscuss ed
F l
ump kin
Ġamaz ed
Ed die
l otte
ĠM as
ĠW ren
Ġcover ing
Ġcon tend
' &
Ġgr asped
Har riet
S te
ĠK um
n ice
Å¾ a
bes ide
op inion
ove reign
con tain
Ġmor als
Ġmonarch y
contr ary
ĠFra u
Ġb ob
Ġto ps
le af
Ġsh rew
Ġch ick
ĠCre b
n ici
es to
Ġin iti
ï¿½ ll
Ġz em
ĠMark o
Ġbal cony
Ġcamer legno
h r
Ġf idelity
Ġcomp ens
Ġev ils
Ġexc ite
Ġdesp ised
Ġcaut ion
N ICK
Ġter race
Ġswe ep
Ġneighb ors
L y
c us
ĠN ational
ĠAl an
bec ame
Ġdig ging
f im
m are
âĢĿ :
os l
rijem e
U C
Ġdis pleasure
ĠWe re
Ġappear ances
ĠPers ia
Ġcommer cial
ĠW r
Ġnow adays
ĠCl ub
ĠCal vin
ĠGold finger
L ittle
way ne
ke ys
Ġgrow led
Ã¶ m
Le o
G reat
M art
Ġw oo
ĠC and
Ġch urches
Ġem inent
Ġext ension
Ġpay ments
str ous
UL L
Eng land
he red
ey ond
udd le
ĠSh ort
ou che
ac ha
Ġda zz
Ġlaw yers
ices ter
Ġcro ps
A ugust
b ag
c old
Ġexchan ged
ĠM illy
ĠD em
per form
Ġtri bes
overn or
udden brook
Ġtong ues
ĠG ed
Ġsal es
v om
w atched
in ating
ci ly
Ġass ass
Ġsmell s
if th
ĠW oman
ĠV is
Ġintro duce
Ġrefer red
Eng lish
ĠProv idence
ĠM ason
ĠB ert
et tle
ï¿½ "Ċ
Ġfle e
Ġ icy
z asu
el u
Ġpre ma
ĠZ e
ĠâĢĵ Ċ
Ġmed ia
ĠSeb astian
L ORD
_ B
Ġhe reditary
ar ius
Ġwe e
ide as
con ce
Ġunder take
ĠBe aut
thought s
incl uding
ĠTao ist
D ER
c s
Ġsignific ance
ĠYanke es
th ouse
ind ing
ĠR a
Ar thur
Ġm um
ĠO t
Ġpo zn
Ġsc ore
âĢľA t
ĠâĢĵ âĢĻĊ
- hearted
Ġbe have
ill ity
qu es
Ġun willing
Ġus es
ple ase
Ġpar lour
ĠJust inian
ĠTheod os
Ġdisgu ise
Ġn erve
ĠL est
Ġtal es
Ġfem inine
f ax
eter y
rist ran
Ġmeant ime
Ġvr lo
Ġbol t
g ings
re pe
is ance
Ġsa le
we et
Ġhar bour
Ġsin cerity
Ġbount y
ï¬Ĩ er
IC A
ĠSu pp
Ġinvent ed
Ġris en
u Äį
u Äĩi
ĠS or
Ġfl ipped
ĠSqu are
d uring
Ġcons umed
cept ible
17 3
Ġcontin ual
eas y
ĠTur ks
Ġimpr ison
ĠMar garita
"P lease
un ken
... .âĢĿĊ
ĠNob u
J une
m ess
m oved
Ġplay er
should ers
bel ief
Ġflo ors
ĠUm bridge
Ġmatt ress
fim ovitch
_ The
en joy
ĠC had
Ġall eg
oth s
Ġass ent
Ġenthus iasm
Ġsp y
Ġneed n
Ġhigh way
nd y
ĠL orena
* J
ĠF il
âĢĺ A
Ġgro aned
ĠÄĩ emo
Ġr ivers
Ġdist ressed
pers ons
ocr ates
Ġrecomm ended
cclesiast ical
im on
et her
Ġst amped
ĠStu art
OO D
" Okay
Ġn orthern
ĠM ol
Ġdo ck
os is
Ġcourt room
inc ol
Ġexper t
Ġv ode
ib ileen
ĠFran z
str Ã¶m
Ġreko Å¡e
8 3
Ġl ent
osp el
att empt
pre p
arch y
Ġfast ened
ĠCong ress
Ġwas ted
ĠR h
ĠPro f
Ġbitter ness
ĠWil kins
ĠCath cart
s light
an ia
Ġkn ot
ĠN ast
Ġbr on
Ġpos la
act ually
ĠS ic
Ġdel icious
Ġass igned
Ġexec uted
Ġreward ed
TC D
ink ling
Ġtriump hant
ri ver
Ġgr an
ps es
Ġele phan
Ġli je
un i
uff ed
em n
op er
ci ed
Ġdoub ted
Ġstrict ly
elic ity
Ġsever ity
Sec ond
O US
Ġnot hin
ON E
ĠQ UAL
Ġjo kes
Ġtor ch
Ġshop s
ĠAnd y
Ġpap a
ĠDar cy
t ta
Ġd ar
av iti
not iced
1 14
Ġshe wn
Ġpro verb
Ġsc ale
de g
Ġind icate
gu er
Ġenc ounter
Ġclaim s
Ġindepend ence
C ol
ĠH as
ĠB ay
ĠG ot
ĠG alt
Ġdis aster
Ġgr ain
l ower
ĠS pr
ĠC yrus
ĠO smond
Ġatt ent
nd ry
ov ijeh
ab e
Ġteacher s
L ec
g rav
Ġre ject
ĠV III
Ġple ad
Ġpos itively
Ġhost ile
ĠVal ancourt
Am ong
Ġmax ims
Ġspec ified
Ġsubdu ed
Ġh oll
Ġn uts
ĠB ambi
Ġincred ible
B ern
m ith
incol n
âĢĶ what
ĠF inn
atter ing
Ġsv ijet
Ġins ane
ĠAb d
jed e
E X
b ie
u er
Ġone ly
Ġun gr
Ġpart ing
oy s
19 0
Ġaccom mod
Ġdisci ples
Ġschool s
ĠGold mund
ĠD oug
Ġenjoy ing
ĠHog warts
im er
Ġu bi
Ġsh ine
Ġsub mission
AR Y
Ġhon esty
return ed
Ch in
ĠSover aign
f ried
Ġtr ains
bl anche
IN S
roy d
Po irot
Ġs outhern
Ġd addy
op les
Ġse lling
ĠB ow
ud ite
ij ed
Ġpri je
Ġbreak s
Ġstri p
Ã³ n
Ġweeke nd
, -
B oth
C y
i bl
ent ertain
Ġme nd
Ġprophe ts
ri pp
Ġauthor ities
"C an
"B ecause
Sc arlett
Ġhob bit
- at
D ear
Ġlong ed
Ġso cks
âĢľW ill
4 00
re land
âĢĻ S
Ġexp ose
Ġmir acles
Ġted ious
Z Z
RO M
' A
Ġv om
J ames
c re
l as
s ka
Ġk oga
Ġbig gest
Ġpog led
ĠMin istry
Ġshud dered
M RS
Ġa u
our selves
16 9
Ġconf l
Ġind irect
Ġreg ards
Ġsmall est
iet h
supp ose
Ġaccompl ish
Ă ĆĊ
Ġsu l
Ġwor m
ĠJe ff
-bl ue
Ġliqu or
ag ers
O J
ĠM et
âĢĶ no
âĢľT hanks
ĠJer usalim
Ġtick et
at ured
." ]Ċ
ĠĠĠĠĠĠĠĠĠĠĠĠĠĠĠĠ ĠĠ
ĠCha o
Ġindul gence
Ġapprehens ions
Ġdimin ished
Ă ąē
Â °
ĠT ara
Ġsl apped
sl ow
atr ice
ĠCoun cil
r ust
ĠUn ion
Ġjew el
k ri
Ġm rt
Ġex it
ĠO g
Ġpo zna
Ġpe e
U D
V ol
Ġf ert
Ġpro ves
Ġsweet ness
Ġconvey ed
Ġantiqu ity
Ġr aid
ĠV alley
ĠGl oria
Ġgard ens
ĠK ill
count ered
issi pp
Ġf ountain
ov ati
âĢľO ne
Ġstro de
9 4
Ġa we
ĠT hy
ĠC are
ĠW hether
Ġen lar
acc ur
reason able
Ġrog ue
t ion
Ġsolemn ly
ĠTheod ora
Ġvamp ire
ĠThor in
Ġb ike
Ġbe nding
Ġchan ces
Ġwhis key
D an
i ants
w ide
Ġt asted
Ġsa ving
Ġret rie
âĢľT ell
âĢľL ike
Ġslu Å¡
8 2
C AST
l ength
p it
u ity
here nt
side red
Ġreg istered
13 0
Ġprom oting
.âĢĶ âĢĶ
Ġtrif le
on n
ĠN yuk
Ġstore s
pp ers
ann is
O K
n ost
t or
ra pped
ud ged
ĠDes demona
La ure
Ġcollap sed
u be
Ġo x
ar on
ac cess
ol is
Th omas
IT ION
Ġview ed
Ġdest ined
bour g
supp ort
Ġmethod s
Ġesteem ed
Ġtransl ated
" --
is al
Ġd ough
et een
Ġu mb
ob ile
Ġir r
ĠFried a
ach ine
Ġcount ing
Ġpeas ants
Ġp ov
Ġe vo
st ar
Å¡ ko
ĠD eborah
int on
Ġfing ert
Ġyell ing
Ġni ko
Ġsa ints
ĠW an
Ġth ri
ond or
Ġstill ness
Ġvis iting
Ġsu ng
O ve
v ari
Ġb unk
Ġse m
pri jat
T A
c arry
d ue
Ġsub stances
Ġill ustrious
Ġimmort al
l ater
Ġin ex
ĠT en
Ġle gend
ĠR abbit
Ġmon ot
Ġï¬Ĩ ood
Ġamaz ement
ĠHag en
ar ming
ĠA T
ĠW olf
ĠHe art
Ġno stri
Ġdr unken
Ġfoot ball
Ġ-- Ċ
ĠPe a
Ġcre ep
Ġvict ims
Ġpr ist
Å¾ em
Ġcount ess
Ġreve aling
5 00
P ers
ac it
and o
Ġbeg gar
-y in
Ġeloqu ence
ě ĂěĄĊ
Ã ĳ
im ately
ĠG ollum
ĠMer lyn
B en
ĠO N
we ed
-Ā-Ā-Ā-Ā-Ā-Ā-Ā-Ā -Ā-Ā-Ā-Ā-Ā-Ā-Ā-Ā
Ġh itting
st ud
Ġpri p
set t
Ġclean ing
- wealth
9 5
it ur
Ġc ured
Ġd ated
ĠT art
ig ent
Ġar istocr
Ġtre asures
Ġest ates
ane ous
-p ien
vis it
Ã¶ r
Ġaccord ance
Ġrenew ed
Ġpen ny
"He re
Ġdevelop ment
ĠF ield
Ġfl owing
O live
m ill
ion y
ĠS in
ĠB ag
od ge
ĠG abriel
Ġz ad
Ġpat ted
Ġshat tered
ĠF u
de ar
Ġchar ges
ST AFF
Ġprec aut
S ch
ar ity
ĠĂ #Ă
... ."Ċ
Ġsmo ked
Ġt ones
it ual
ĠD aza
Ġsw ollen
Ġvr ati
Ġtil ted
Ġwiz ard
L uc
ie ves
EN SE
serv ice
Ġeng agement
Ġdeb ts
Ġharm less
j iro
ic us
Ġsp ots
ĠTh ink
Ġcur ve
atur ally
Ġty p
ĠPig let
ĠS k
Ġpl us
Ġreg ion
Ch ris
ĠBul strode
issipp i
g han
Ġt ing
et ime
em a
od s
ath cliff
ĠRo om
some where
Ġcat ches
Ġright ly
." --
ict s
Ġ* **
Ġfav ours
Ġpropos itions
Ġc ant
ĠB axter
Ġhur rying
ĠCl ar
ĠGriff iths
ĠNarn ia
Ġto wers
eb ru
d ress
Ġm jesto
Ġst ot
pl ate
Ġac he
ho le
.S am
Ġdoc ument
ĠKore an
V er
Ġcon greg
Ġsc andal
int ro
Ġrel atives
17 4
Ġd itch
udd ing
- do
ener ated
Ġperf ume
n im
Ġs inking
Å¾ iv
ny a
Ġsvoj emu
Ġov aj
Ġfrown ing
supp osed
foll owed
pull ed
C le
Ġcomp ose
AN G
inter rupt
ĠJos hua
Ġschol ar
Ġpup il
esqu ieu
ing o
Ġc andy
Ġtele gram
ĠD any
ĠMin ister
ebru ary
Ġse lection
and ed
rab aker
ĠDes pite
Char lie
; --
M me
v ate
Ġex ting
pl aced
Ġper il
Ġpre cip
Ġwon t
Ġpost erity
it ality
Ġm ah
Ġch opped
Ġatt ic
L D
ĠVen us
Ġclut ched
Ġhed ge
l iving
on to
or ak
ĠO lymp
Ġiz v
ĠHall iday
Ġkro z
U nder
ac cept
Ġread ers
Ġran ks
Ġhusband s
ĠHs ing
Ġafford ed
PRO P
Ġavar ice
ess er
Ġple aded
ĠGl ass
! ï¿½
l ings
ven s
co e
Ġg de
le ad
Ġab be
Ġdire ctor
ot le
ĠD AM
ĠJ OUR
Ġwant on
ĠPro p
br ing
Ġfin est
vern acular
Ġsevere ly
_G er
ĠAr cad
Ġdetect ive
Ġf isher
ĠJo ff
Ġten nis
ĠDe cember
M c
k iss
t ie
Å¡ ta
Ġbr ows
Ġdark er
ta gh
gl aya
lu Å¡
Ġirrit ated
C a
si us
Ġbold ly
Ġcontrad iction
satisf ied
Ġdon t
Ġpe ar
Ġfil thy
Ġt oubob
Ġd ense
Ġd ata
ĠEnglish man
ĠCarl os
- F
n ji
Ġgl are
Ġmag ical
ĠDob bin
' ien
B R
P OL
p op
Ġse ize
ra ise
Ġde pos
Ġmean while
Ġval or
-l ou
foll owing
Ġconquer or
Ġcogn ition
' Ą
e ck
in arily
Ġsl ipping
h orn
Ġw estern
au de
ick er
ĠSt arling
Ġavo ided
ĠWil bur
Ġrag s
Ġfeather s
se at
ast ing
ne ar
up in
Ġed itor
Ã¡ n
,ï¿½ ?
D or
Ġm atr
act ory
Ġtruth s
Ġcompl iments
cell ent
Ġcontri ved
Ġerect ed
Ġcontro vers
f ish
Ġst im
Ġpre acher
ĠMar lowe
Ġorder ly
Ġlim it
' And
ĠH E
ĠG ran
ĠF ant
ile tt
Ġsub mar
Ġ ig
ha led
ve Äĩ
ĠM is
ĠE vo
Ġsp as
iss ue
ĠI ND
Ġex ile
Ġi x
ep aris
con sidered
ob ed
Ġinn umerable
Ġsuspic ions
Ġpars on
eparis is
ĠR umfoord
Ġcl asped
ĠK aren
ĠAtl anta
Ġbon net
s voj
Ġk ral
am is
Ġna Äĳe
Ġtre ba
ues day
Ġloc ation
Ġond je
8 4
U ND
Ġat tained
ie ces
Ġrel ates
Ġproportion al
Ġban quet
Ġtrave lling
Ġbill s
Ġambit ious
Ġsa iled
Ġsh ivered
Ġfl owed
Ġgrow th
Ġcheer fully
Ġsevent een
et ter
ĠS ethe
Ġter min
Ġscream s
ĠWest on
H azel
d an
in stead
Ġin jured
ĠD is
Ġnj oj
enn ie
Ġorgan ic
Ġizi Äĳe
ĠI nt
ĠS and
Ġcar ries
cri bing
Ġaddress es
iqu es
ĠGoth ic
Ġm ama
ets y
mar ried
Ġphr ases
ĠĀ 'Ā
ĠR us
Ġcl ient
ao ko
head s
Ġstick ing
P ark
ĠT am
ap art
Ġshall ow
Ġem ail
ĠÅ¡ t
empt y
H ath
V al
l ich
Ġc ove
Ġd iam
for ms
up reme
Ġopp ression
Ġtem ples
Ġsens uous
Ġrestr ictions
Ġlod ging
princi ples
W A
W y
Ġn ut
ust ace
ĠF le
ĠBar n
Ġhorn s
a us
ĠT ower
ĠC off
enn es
ight s
res hold
ans ki
Ġgl av
lj ed
Ġsurround ing
C A
f urther
in flu
Ġm it
Ġab ol
Ġhon ours
Ġattend ants
Ġsorrow s
imag ination
beaut y
vell ous
Ġl oneliness
if ty
ov ich
Ġbo il
Ġsn atched
Ġquestion ed
Ġemotion al
J ake
r ise
ĠL os
ĠAlex ey
Ġ Äĳe
S un
V ianne
Ġt isu
Ġp am
Ġon oga
ĠB ird
Ġrepl ies
.âĢĻ âĢĿĊ
Ġr ays
Ġsu cc
ul ent
Ġem perors
Ġrec urs
Ġinv al
Ġproceed s
sit uation
Ġbishop s
Ġlic ensed
Ġsyn the
ą ĔĊ
F ranc
ĠA hab
k r
st ory
ĠAnd en
ĠK vothe
Ġsupp lies
ear l
An nabeth
Pr ince
id ious
ĠH olland
ore m
ate g
He aven
for ced
Ġass ign
Ġarbitr ary
guer ite
, \'
e ld
ce iver
Ġpath s
Ġï¬ģr ï¬Ĩ
; Ā
ar re
Ġal cohol
ĠChar ley
ĠJon athan
Ġsummon ed
Ġse aled
ĠP itt
Ġback pack
bu ilding
g on
affect ed
Ġmour ning
Ġrequis ite
red ients
Ġar rog
ĠEm pire
Ġself ish
Ġ.. ."Ċ
w ine
ĠS ab
ĠD ur
ĠBr ooke
ĠCha ir
Ġghost s
N OST
b eth
k at
Ġsu its
us ually
ble m
Ġtw isting
âĢľW h
Ġti ps
che st
Iz rail
ĠPor thos
Rob in
M EN
e au
Ġa ught
ĠM em
ĠD IST
so ciety
Ġwr ites
com par
AT UR
Ġappro ved
Ġdecl aration
OU N
Ġproud ly
Ġfant astic
ĠH ome
Ġthought ful
Ġold est
S orry
b right
Ġpass enger
ĠMar co
bo ards
Ġtall er
Ġuz me
' am
. ,Ċ
Ġf are
Ġk ins
if ice
all a
elest ial
res pon
ru it
Ġpar lor
"S ure
enn ifer
ESS ICA
Ġscr atched
Ġcrou ched
ĠArcad io
Ġcompl ained
ĠRay mond
ĠArkady evitch
Ġresc ue
s ad
Ġhe s
Ġn au
Ġfor cing
ĠK ako
Ġbright ly
Ã¸ ed
C AR
re ve
Ġc og
ign ific
fic ial
Ġmod es
Ġfav ourable
L isten
v ich
ĠC aspian
Ġlog ic
zer ath
ar ndy
ĠAlexand rovitch
b ones
f ive
ĠS hat
Ġv rijeme
Ġserv ing
Ġdri pping
ï¬Ģ e
T ON
z ant
ĠC hih
pl aces
Ġper t
ĠSh ui
mean ing
FAL STAFF
or gan
Ġpl ump
ue nd
land o
ĠAr m
Ġgos sip
Ġwho ever
ĠMar io
Ġdep th
ĠKar ras
arndy ce
f ood
Ġis to
Ġsv ojih
sm o
ĠSy l
emp i
D AIN
P A
s aith
en cies
Ġin iqu
Ġli able
Ġv iv
Ġar ising
con ven
du cing
Ġinf irm
Ġvol untary
Ġfair y
Ġpat ri
Ġcommun icated
Ġcontem por
ĠScot land
Ĕ ĂěĄĊ
ĠD il
Ġro aring
ĠCl ifford
ou x
Ġbutt ons
Char lotte
C OM
P res
Ġh inder
em ed
Ġad equ
Ġsl avery
ple nd
Ġact ors
Ġco arse
Ġmain taining
Ġpra ises
ĠAnt ony
interest ed
ĠG re
Ġtra gic
ĠSam uel
Ġspread ing
ĠMu hammad
Ā ;Ā
N a
it ches
ch io
âĢľW ait
Ġna Äįini
Ġhur ts
gl as
Ġspend ing
on ius
Ġm athemat
Ġf oe
Ġqu oted
Ġdis pose
Ġhistor ical
ĠTurk ish
ĠPE TER
ĠJOUR DAIN
i ott
Ġb er
ĠC ross
Ġinter fe
Ġdepart ment
Ġur gent
Ġcas ually
ĠAfric an
Ġs ire
gh orn
Ġel abor
Ġalong side
Ġscar let
Ġnarod u
Ġmov ies
.D nev
K ing
S ect
m ph
s ister
Ġb od
se ver
ĠP om
Ġv ote
Ġform ula
seem s
Ġpurcha sed
ĠPal ace
aver house
Ġa pe
Ġun w
Ġunder ground
Ġopen ly
Ġsim pl
Ġwhist ling
- re
ent ered
em etery
ĠDe ets
d ire
n els
âĢĶ if
ĠV ictoire
olog ist
gu ing
Ġid i
Ġwarri or
Ġmic ro
ill o
pl icate
ĠĠĠĠĠĠĠĠĠĠĠĠĠĠĠĠ Ġ
Ġobject ions
Th rough
Ġrecogn ised
AG ES
Ġimpro ved
Ġbarbar ous
- so
urn ey
ĠK ennicott
Ġinter vals
Un cle
Ġpig s
Ġsuitc ase
ĠLe icester
ĠRos amond
Ġo ve
ha i
Ġcr ush
ĠBr idge
ik u
Ġcut s
Ġsa int
ĠP G
ol ph
Ġacc um
ĠPe ace
Ġmess enger
Ġsacrific ed
Ġcourtes y
ri en
ess ie
Ġpati ently
ieg fried
Ġb ou
ĠG age
ĠV ic
P iper
Ġw ipe
Ġwr ists
Ġcoll e
Ġku Äĩu
Ġpom o
omed ay
ĠBa iley
Ġbron ze
C LA
_ Don
x ter
ĠS ignor
Ġman agement
Ġun common
Ġcons olation
Ġdist ances
Ġbelie ving
12 5
Ġest im
Ġhast y
pres ence
ĠTer ms
ĠBudd hist
Ġstiff ly
A li
ĠB ounderby
alk ing
Ġsob bing
g ra
v ins
Ġp aces
ar io
st orm
Ġr asp
ĠB ack
Ġdr Å¾
Ġmis li
C ons
E ach
ent ious
ĠT ra
io ch
Ġdiv ide
des ire
Ġcapt ive
ĠSol mes
ĠRel ig
b ig
Ġst il
ĠMc Murphy
Ġcapt ured
Ġhurried ly
ĠBo ard
Ġlat est
ĠNic ole
Ġaver age
Ġw ag
Ġde y
Ġsur vey
-f oot
ledge by
w arm
Ġn ama
th ro
Ġgr ade
AR OD
Ġfire place
ĠHass an
N ER
l iter
Ġs ine
ĠB uddenbrook
Ġinst ruction
Ġapart ments
dist ribution
Ġwealth y
MA SC
( ĄĊ
ĠI rene
Ġk il
Ġlect ure
Ġr itual
Ġarri ving
w ond
Ġt ij
Ġco inc
âĢľA n
ĠBeck y
corn er
g race
pol it
ĠGreg ory
streng th
G AR
Ġp add
Ġcr ooked
Ġdoll ar
Ġhob bits
Ġelder ly
Ġpant ing
g oth
the ast
ĠD ora
ER E
Ġne bes
âĢĶ all
ĠK yle
Ġdoz ens
Ġvoll man
t ry
ĠAt t
Ġform idable
Ġsix th
OL A
Ġgod dess
Ġcrown s
Ġfra ud
ē 'Ċ
ĠL iv
gg er
m akes
ĠP os
Ġdev oj
c ried
Ġcon verse
ĠL ion
ĠD ie
ĠJ uan
Ġim itation
pro pri
contin ue
Ġphen omenon
ithe e
Ġcondes cend
- it
b by
ĠT uppence
Ġsm ashed
Ġumb re
L ong
Ġv est
Ġbu ying
W ait
ĠT hanks
ol ay
ĠR awdon
ĠE lect
ne ck
Ġ- âĢĺ
ĠGospod e
S pe
f its
ack now
su bs
Ġdec re
Ġrespect ive
Ġpract ised
Ġfan cied
othes is
Ġdischar ge
Ġg au
ĠF isher
Ġroof s
ĠDwar f
Ġlangu ages
Ġhu gged
Ġcommun ication
E ragon
g ers
Ġd ati
Ġl ice
ic kered
ce lyn
Ġsa bl
Ġpo Äĳe
Ġen cl
Ġdist ract
âĢľA ny
ĠJess amine
Ġpre ference
Ġsen sibility
ĠPers on
Ġwid est
satisf action
! ěĊ
Ġmu le
Ġbar r
MAR LOWE
Ġnew ly
Ġod or
ĠGrand et
AV E
ĠAB C
ĠE den
Ġint ently
Ġill umin
Ġodd ly
N OT
S u
f resh
it ably
or ic
ic ism
ad ded
ĠS ign
Ġde gr
be it
Ġrem orse
ult ure
ĠJust ice
Ġjudg ement
AB LE
Ġorn ament
T ar
ĠK or
Ġnovel s
Ġloyal ty
Ġshrew d
Ġbe ef
Ġdwar f
C inder
Ġr acing
ro ger
me ant
sh ow
Ġiz a
ĠPr im
îģĵ e
ĠSil ver
Ġslee ves
Ġbrid g
inoc chio
9 2
: âĢĶ
ĠB RE
Ġmon strous
.-- Ċ
Ġwild erness
itiz ens
Ġhaz ard
QUE EN
ą ĆĆ
Ġam using
Ġsp ice
Ġtr ot
Ġear n
CT OR
Ġofficial s
ĠRem ember
Ġsh opping
erm ina
T Y
Ġm jest
Ġdo d
Ġcha os
Americ an
complete ly
F O
n ant
ĠH EN
ĠN ab
Ġfoll owers
18 0
IR ECT
Ġcomplain ts
Ġtrib un
T LE
Ġc ousins
ĠD ussander
Ġyoung est
ĠDen ver
-se ven
Ali ena
Ġbe vins
ĠG irl
raw led
b ene
ia e
-ch ou
ĠIs abella
ĠSen ate
Ġaffl iction
scar ce
ĠM all
ĠG ondor
ĠB ear
ĠG rey
Ġshiver ing
ĠFlore ntino
as ia
ĠS R
Ġsu cked
Ġi Å¡
Ġswe ater
Ġclos es
Ġjump ing
Ġku Äĩe
Ġgar age
ĠDani el
Ġscan ned
M ust
he aven
Ġan onymous
are lle
Ġbr ook
Ġass erted
Ġpur ity
Ġchar itable
Ġvict orious
on er
Ġst am
ult aneously
ĠPort ug
Ġcomm ittee
Ġwitness es
Ġge isha
ĠIn side
ĠI X
ir ation
hen tic
ell er
te uil
Ġen light
Ġpre f
Ġhon ors
Ġexist ing
Ġglad ly
Ġroy alties
han ima
Ġpe ering
Ġcr imson
Ġfin an
IT IES
Ġorgan ized
Ġsway ing
Child ren
Ġreal m
D ay
V A
t ight
ĠJ ay
ĠO kay
Ġsur f
Ġread s
fra e
Ġhes itation
ĠP ress
13 7
ĠLet ters
AB ILITY
Ġtempt ation
Pl ain
in ney
ra gg
Ġj us
Ġgle aming
Ġhol iday
ĠLest at
u f
Ġm ute
all ing
ĠP emulis
Ġare as
ĠL incoln
ĠPr ice
ĠAunt ie
ĠTr addles
Ġcabin et
Ġ Å½
h ours
t el
Ġd ub
al je
Ġnot icing
ĠN AROD
ĠU ntil
Ġste aling
cont rol
Ġkne z
Ġstag gered
! )
x ious
Ġb ri
Ġc it
Ġli v
ars en
Ġfl ock
ex ec
Ġarrang ement
Ġcomplex ion
ĠScript ure
J ESSICA
Ġar range
Ġapp les
ĠCast al
Ġaware ness
Ġpolic emen
ĠM og
ĠJon as
Ġthreat ening
Ġthigh s
ĠChair man
Ġw olves
ak h
hi ps
âĢľS ome
ĠTe abing
PS KE
A lex
C hi
Ġb red
Ġv iii
Ġcont racted
ors hip
Ġaff licted
ĠĠĠĠĠĠĠĠĠĠĠĠĠĠĠĠĠĠĠĠĠĠĠĠ ĠĠĠĠ
Ġjoy s
Ġinstruct ed
affect ion
ĠRoyal ty
i É¹
th orp
Ġsqu ir
' But
. N
r us
r ade
occup ied
ĠWinter fell
N autilus
m ate
ad u
ag le
ĠN av
Ġbr ata
ĠCon nell
ĠSe janus
Ġemer gency
Ġknj ig
m ethod
Ġd urst
Ġhe e
ĠâĢľ _
ĠM AR
ĠG host
pro ve
lic ense
Ġpra ised
Ġgar ments
Ġcaval ry
re ides
ig s
Ġpl ac
Ġdra ft
ĠNever theless
Ġach ieved
ĠCont rol
ĠPipp i
ant al
ren ched
Ġap ron
ĠOr in
Al though
C ould
P sal
k itchen
m oving
in formation
and on
Ġne prijat
ĠE ric
Ġdark ened
ĠAl isa
ĠBl ake
Ġclos est
Ã³ nya
Gr and
Re ally
1 16
8 7
P ar
m ort
ĠL IM
Ġsp ared
Ġconst ruction
Ġhang ed
ĠEx ec
Ġconc ur
Ġvig il
ĠBer g
_H ip
-me i
P oor
Ġw reck
oo ster
cons ciously
rak is
f rey
h ouses
i ac
Ġh ttp
ĠA L
Ġgo at
ĠMiss issippi
R hys
Ġp unch
âĢĶ was
Ġpro d
oj in
Ġdec ades
Ġbar on
Ġcraw l
C ont
Ġan ch
Ġcon vert
Ġde w
ine as
Ġacc us
Ġrel ieve
-y en
AT E
ĠCom stock
che on
Ġjo int
cop ies
nes se
ord on
Ġte aring
ĠFl ay
ĠDep artment
Ġcryst al
ĠV in
ĠTom as
ĠCham berlain
Ġexplos ion
Ġwarri ors
c over
ĠM s
em b
os er
we aring
Ġpo le
Ġmus cle
( The
M ER
on so
ĠC H
ĠC L
ĠC ard
Ġab ilities
Ġch uan
ces ter
Ġsupp osition
Ġtra itor
pre vent
Ġdecl ined
Ġdread ed
Ġindul ged
determ ined
ĠBaby lon
Ć ĆĊ
# +
. K
Ġr oused
ĠBr ang
Ġprofess or
Ġprim itive
ĠOrd er
Ġcha mbers
Ġfor k
ĠH orn
Ġtw ist
Ġgood bye
itch ing
Ġmor a
Ġapolog ize
ĠStepan ovitch
C ortes
er ts
