{
    "Ā": 0,
    "ā": 1,
    "Ă": 2,
    "ă": 3,
    "Ą": 4,
    "ą": 5,
    "Ć": 6,
    "ć": 7,
    "Ĉ": 8,
    "ĉ": 9,
    "Ċ": 10,
    "ċ": 11,
    "Č": 12,
    "č": 13,
    "Ď": 14,
    "ď": 15,
    "Đ": 16,
    "đ": 17,
    "Ē": 18,
    "ē": 19,
    "Ĕ": 20,
    "ĕ": 21,
    "Ė": 22,
    "ė": 23,
    "Ę": 24,
    "ę": 25,
    "Ě": 26,
    "ě": 27,
    "Ĝ": 28,
    "ĝ": 29,
    "Ğ": 30,
    "ğ": 31,
    "Ġ": 32,
    "!": 33,
    "\"": 34,
    "#": 35,
    "$": 36,
    "%": 37,
    "&": 38,
    "'": 39,
    "(": 40,
    ")": 41,
    "*": 42,
    "+": 43,
    ",": 44,
    "-": 45,
    ".": 46,
    "/": 47,
    "0": 48,
    "1": 49,
    "2": 50,
    "3": 51,
    "4": 52,
    "5": 53,
    "6": 54,
    "7": 55,
    "8": 56,
    "9": 57,
    ":": 58,
    ";": 59,
    "<": 60,
    "=": 61,
    ">": 62,
    "?": 63,
    "@": 64,
    "A": 65,
    "B": 66,
    "C": 67,
    "D": 68,
    "E": 69,
    "F": 70,
    "G": 71,
    "H": 72,
    "I": 73,
    "J": 74,
    "K": 75,
    "L": 76,
    "M": 77,
    "N": 78,
    "O": 79,
    "P": 80,
    "Q": 81,
    "R": 82,
    "S": 83,
    "T": 84,
    "U": 85,
    "V": 86,
    "W": 87,
    "X": 88,
    "Y": 89,
    "Z": 90,
    "[": 91,
    "\\": 92,
    "]": 93,
    "^": 94,
    "_": 95,
    "`": 96,
    "a": 97,
    "b": 98,
    "c": 99,
    "d": 100,
    "e": 101,
    "f": 102,
    "g": 103,
    "h": 104,
    "i": 105,
    "j": 106,
    "k": 107,
    "l": 108,
    "m": 109,
    "n": 110,
    "o": 111,
    "p": 112,
    "q": 113,
    "r": 114,
    "s": 115,
    "t": 116,
    "u": 117,
    "v": 118,
    "w": 119,
    "x": 120,
    "y": 121,
    "z": 122,
    "{": 123,
    "|": 124,
    "}": 125,
    "~": 126,
    "ġ": 127,
    "Ģ": 128,
    "ģ": 129,
    "Ĥ": 130,
    "ĥ": 131,
    "Ħ": 132,
    "ħ": 133,
    "Ĩ": 134,
    "ĩ": 135,
    "Ī": 136,
    "ī": 137,
    "Ĭ": 138,
    "ĭ": 139,
    "Į": 140,
    "į": 141,
    "İ": 142,
    "ı": 143,
    "Ĳ": 144,
    "ĳ": 145,
    "Ĵ": 146,
    "ĵ": 147,
    "Ķ": 148,
    "ķ": 149,
    "ĸ": 150,
    "Ĺ": 151,
    "ĺ": 152,
    "Ļ": 153,
    "ļ": 154,
    "Ľ": 155,
    "ľ": 156,
    "Ŀ": 157,
    "ŀ": 158,
    "Ł": 159,
    "ł": 160,
    "¡": 161,
    "¢": 162,
    "£": 163,
    "¤": 164,
    "¥": 165,
    "¦": 166,
    "§": 167,
    "¨": 168,
    "©": 169,
    "ª": 170,
    "«": 171,
    "¬": 172,
    "Ń": 173,
    "®": 174,
    "¯": 175,
    "°": 176,
    "±": 177,
    "²": 178,
    "³": 179,
    "´": 180,
    "µ": 181,
    "¶": 182,
    "·": 183,
    "¸": 184,
    "¹": 185,
    "º": 186,
    "»": 187,
    "¼": 188,
    "½": 189,
    "¾": 190,
    "¿": 191,
    "À": 192,
    "Á": 193,
    "Â": 194,
    "Ã": 195,
    "Ä": 196,
    "Å": 197,
    "Æ": 198,
    "Ç": 199,
    "È": 200,
    "É": 201,
    "Ê": 202,
    "Ë": 203,
    "Ì": 204,
    "Í": 205,
    "Î": 206,
    "Ï": 207,
    "Ð": 208,
    "Ñ": 209,
    "Ò": 210,
    "Ó": 211,
    "Ô": 212,
    "Õ": 213,
    "Ö": 214,
    "×": 215,
    "Ø": 216,
    "Ù": 217,
    "Ú": 218,
    "Û": 219,
    "Ü": 220,
    "Ý": 221,
    "Þ": 222,
    "ß": 223,
    "à": 224,
    "á": 225,
    "â": 226,
    "ã": 227,
    "ä": 228,
    "å": 229,
    "æ": 230,
    "ç": 231,
    "è": 232,
    "é": 233,
    "ê": 234,
    "ë": 235,
    "ì": 236,
    "í": 237,
    "î": 238,
    "ï": 239,
    "ð": 240,
    "ñ": 241,
    "ò": 242,
    "ó": 243,
    "ô": 244,
    "õ": 245,
    "ö": 246,
    "÷": 247,
    "ø": 248,
    "ù": 249,
    "ú": 250,
    "û": 251,
    "ü": 252,
    "ý": 253,
    "þ": 254,
    "ÿ": 255,
    "Ġt": 256,
    "he": 257,
    "Ġa": 258,
    "in": 259,
    "Ġs": 260,
    "Ġthe": 261,
    "Ġw": 262,
    "âĢ": 263,
    "Ġo": 264,
    "re": 265,
    "nd": 266,
    "er": 267,
    "ou": 268,
    "ha": 269,
    "is": 270,
    "Ġb": 271,
    "ed": 272,
    "it": 273,
    "on": 274,
    "Ġm": 275,
    "en": 276,
    "Ġof": 277,
    "ing": 278,
    "Ġc": 279,
    "Ġf": 280,
    "Ġto": 281,
    "es": 282,
    "or": 283,
    "Ġand": 284,
    "Ġd": 285,
    "Ġp": 286,
    "ll": 287,
    "as": 288,
    "an": 289,
    "Ġhe": 290,
    "Ġl": 291,
    "Ġin": 292,
    "at": 293,
    "ar": 294,
    "Ġh": 295,
    "ĠI": 296,
    "âĢĻ": 297,
    "Ġn": 298,
    "Ġha": 299,
    ".Ċ": 300,
    "om": 301,
    "hat": 302,
    "Ġg": 303,
    "ic": 304,
    "le": 305,
    "âĢľ": 306,
    "ot": 307,
    "âĢĿ": 308,
    "ow": 309,
    "Ġbe": 310,
    "id": 311,
    "ut": 312,
    "se": 313,
    "ve": 314,
    "ld": 315,
    "ion": 316,
    "Ġe": 317,
    "Ġy": 318,
    "Ġwas": 319,
    "st": 320,
    "im": 321,
    "Ġth": 322,
    "ly": 323,
    "ent": 324,
    "ĠĠ": 325,
    "gh": 326,
    "ce": 327,
    "Ġon": 328,
    "Ġthat": 329,
    "Ġit": 330,
    "Ġyou": 331,
    "ĠĀ": 332,
    "et": 333,
    "ay": 334,
    "Ġre": 335,
    "al": 336,
    "Ġu": 337,
    "Ġwh": 338,
    "ir": 339,
    "ith": 340,
    "ad": 341,
    "ver": 342,
    "Ġst": 343,
    "ĠT": 344,
    "ct": 345,
    "Ġfor": 346,
    "ur": 347,
    "Ġhis": 348,
    "Ġas": 349,
    "ght": 350,
    "Ġwith": 351,
    "oo": 352,
    "Ġhad": 353,
    "Ġher": 354,
    "Ġr": 355,
    "âĢĿĊ": 356,
    "Ġk": 357,
    ",Ċ": 358,
    "Ġwe": 359,
    "her": 360,
    "Ġis": 361,
    "am": 362,
    "ac": 363,
    "Ġnot": 364,
    "ould": 365,
    "âĢĻs": 366,
    "ĠH": 367,
    "Ġan": 368,
    "Ġme": 369,
    "Ġsa": 370,
    "ĠS": 371,
    "ĠA": 372,
    "ro": 373,
    "ke": 374,
    "ch": 375,
    "ri": 376,
    "Ġat": 377,
    "ter": 378,
    "ĠâĢľ": 379,
    "ĠM": 380,
    "Ġse": 381,
    "Ġmy": 382,
    "if": 383,
    "ill": 384,
    "ich": 385,
    "ain": 386,
    "Ġhim": 387,
    "Ġshe": 388,
    "\"Ċ": 389,
    "Āe": 390,
    "ĠThe": 391,
    "and": 392,
    "ĠĠĠĠ": 393,
    "all": 394,
    "ight": 395,
    "il": 396,
    "ess": 397,
    "Ġsu": 398,
    "'s": 399,
    "Ġsaid": 400,
    "Ġby": 401,
    "ĠB": 402,
    "ore": 403,
    ".âĢĿĊ": 404,
    "th": 405,
    "Ġwhich": 406,
    "âĢĻt": 407,
    "Ġso": 408,
    "ĠC": 409,
    "Ġcon": 410,
    "us": 411,
    "el": 412,
    "qu": 413,
    "the": 414,
    "red": 415,
    "Ġhave": 416,
    "ation": 417,
    "rom": 418,
    "Ġ\"": 419,
    "Ġdo": 420,
    "Ġne": 421,
    "ra": 422,
    "Ġor": 423,
    "pe": 424,
    "Ġj": 425,
    "to": 426,
    "ome": 427,
    "Ġthis": 428,
    "ul": 429,
    "Ġall": 430,
    "res": 431,
    "ĠW": 432,
    "Ġde": 433,
    "Ġli": 434,
    "pp": 435,
    "Ġbut": 436,
    "em": 437,
    "est": 438,
    "ĠP": 439,
    "ked": 440,
    "ant": 441,
    "ĠHe": 442,
    ",âĢĿ": 443,
    "our": 444,
    "out": 445,
    "un": 446,
    "Ġup": 447,
    "Ġv": 448,
    "Ġfrom": 449,
    "ble": 450,
    "Ġex": 451,
    "'t": 452,
    "ge": 453,
    "ack": 454,
    "ust": 455,
    "Ġsh": 456,
    "Ġthey": 457,
    "Ġwere": 458,
    "ous": 459,
    "ist": 460,
    "âĢĶ": 461,
    "hen": 462,
    "ak": 463,
    "Ġkn": 464,
    "Ġout": 465,
    "one": 466,
    ".\"Ċ": 467,
    "os": 468,
    "ard": 469,
    "ind": 470,
    "ï¿": 471,
    "ï¿½": 472,
    "od": 473,
    "ect": 474,
    "um": 475,
    "sel": 476,
    "ate": 477,
    "art": 478,
    "ie": 479,
    "Ġwho": 480,
    "rou": 481,
    "Ġare": 482,
    "ers": 483,
    "ol": 484,
    "Āo": 485,
    "Ān": 486,
    "ry": 487,
    "Ġal": 488,
    "ell": 489,
    "Ġwould": 490,
    "Ġone": 491,
    "Ġthem": 492,
    "ood": 493,
    "ity": 494,
    "ĠG": 495,
    "ong": 496,
    "Ġab": 497,
    "Ġtheir": 498,
    "own": 499,
    "ĠL": 500,
    "han": 501,
    "ig": 502,
    "Ġno": 503,
    "Ġwor": 504,
    "Āa": 505,
    "very": 506,
    "ame": 507,
    "ast": 508,
    "Ġcom": 509,
    "ide": 510,
    "ive": 511,
    "The": 512,
    "Ġman": 513,
    "ook": 514,
    "Ġpro": 515,
    "Ġgo": 516,
    "Ġle": 517,
    "ure": 518,
    "nt": 519,
    "Ġthere": 520,
    "Å¡": 521,
    "Ġi": 522,
    "Āt": 523,
    "ĠF": 524,
    "pt": 525,
    "Ġlike": 526,
    ",\"": 527,
    "ck": 528,
    "ag": 529,
    "ĠD": 530,
    "ven": 531,
    "Ġwill": 532,
    "Ġcould": 533,
    "ort": 534,
    "Ār": 535,
    "ther": 536,
    "op": 537,
    "ov": 538,
    "je": 539,
    "self": 540,
    "Ġyour": 541,
    "hed": 542,
    "âĢĺ": 543,
    "itt": 544,
    "ies": 545,
    "Ġbeen": 546,
    "--": 547,
    "hing": 548,
    "reat": 549,
    "au": 550,
    "Ġwhat": 551,
    "Ġdid": 552,
    "ost": 553,
    "Āi": 554,
    "way": 555,
    "ace": 556,
    "Ġany": 557,
    "ĠN": 558,
    "ĠĠĠĠĠĠĠĠ": 559,
    "ose": 560,
    "Ġun": 561,
    "Ġag": 562,
    "Āh": 563,
    "You": 564,
    "Ġfe": 565,
    "ĠJ": 566,
    "Ġabout": 567,
    "ĠR": 568,
    "ake": 569,
    "ff": 570,
    "ence": 571,
    "Ġif": 572,
    "ep": 573,
    "Ġcl": 574,
    "Ġinto": 575,
    "Ġwhen": 576,
    "ine": 577,
    "ink": 578,
    "Ġthou": 579,
    "iv": 580,
    "Ġknow": 581,
    "Ġcan": 582,
    "other": 583,
    "ĠIt": 584,
    "ap": 585,
    "ime": 586,
    "ab": 587,
    "ally": 588,
    "are": 589,
    "Ġmore": 590,
    "pl": 591,
    "Ġback": 592,
    "ĠE": 593,
    "ber": 594,
    "ĠO": 595,
    "ice": 596,
    "Ġsay": 597,
    "Ġpl": 598,
    "Ġ(": 599,
    "ound": 600,
    "Ġsha": 601,
    "cc": 602,
    "te": 603,
    "ass": 604,
    "be": 605,
    "?âĢĿĊ": 606,
    "Ās": 607,
    "ĠShe": 608,
    "ud": 609,
    "ance": 610,
    "Ġother": 611,
    "per": 612,
    "able": 613,
    "Ġbl": 614,
    "av": 615,
    "hi": 616,
    "Ād": 617,
    "ĀĊ": 618,
    "Ġ.": 619,
    "urn": 620,
    "ment": 621,
    "Ġim": 622,
    "Ġqu": 623,
    "Ġsome": 624,
    "Ġhand": 625,
    "Ġ_": 626,
    "nder": 627,
    "Ġdis": 628,
    "Äį": 629,
    "ite": 630,
    "ci": 631,
    "of": 632,
    "Ġover": 633,
    "fore": 634,
    "Ġtoo": 635,
    "ions": 636,
    "Ġdown": 637,
    "Ġam": 638,
    "Ġus": 639,
    "Ġsp": 640,
    "ne": 641,
    "Ġour": 642,
    "Ġtr": 643,
    "Ġthan": 644,
    "here": 645,
    "ove": 646,
    "Ġtime": 647,
    "ĠBut": 648,
    "Ġro": 649,
    "âĢĻd": 650,
    "Ġnow": 651,
    "ord": 652,
    "Ġsee": 653,
    "Äĩ": 654,
    "Ġsm": 655,
    "og": 656,
    "ress": 657,
    "Āl": 658,
    "âĢľI": 659,
    "Ġagain": 660,
    "Ġtw": 661,
    "ick": 662,
    "Ġar": 663,
    "ĠAnd": 664,
    "ue": 665,
    "we": 666,
    "Ġthen": 667,
    "Ġjust": 668,
    "ject": 669,
    "Ġad": 670,
    "ittle": 671,
    "Ġper": 672,
    "ĠMr": 673,
    "Ġpr": 674,
    "Ġpo": 675,
    "fter": 676,
    "ade": 677,
    "ond": 678,
    "uch": 679,
    "Ġen": 680,
    "Ġhas": 681,
    "Āu": 682,
    "Ġupon": 683,
    "ings": 684,
    "Ġey": 685,
    "ang": 686,
    "ars": 687,
    "ish": 688,
    "ire": 689,
    "wn": 690,
    "Ġonly": 691,
    "He": 692,
    "Ġoff": 693,
    "ree": 694,
    "Ġfl": 695,
    "Ġlook": 696,
    "oj": 697,
    "?\"Ċ": 698,
    "ount": 699,
    "si": 700,
    "ull": 701,
    "Ġshould": 702,
    "ans": 703,
    "ather": 704,
    "Ġwant": 705,
    "led": 706,
    ";Ċ": 707,
    "Ġget": 708,
    "Ġmay": 709,
    "Ġlittle": 710,
    "Ġthink": 711,
    "Ġdon": 712,
    "Ġpart": 713,
    "Ġgreat": 714,
    "ary": 715,
    "Ġsuch": 716,
    "Ġvery": 717,
    "his": 718,
    "tain": 719,
    "Ġsl": 720,
    "ated": 721,
    "round": 722,
    "for": 723,
    "Ġshall": 724,
    "ĠK": 725,
    "Ġob": 726,
    "Ġday": 727,
    "ious": 728,
    "..": 729,
    "omet": 730,
    "erv": 731,
    "Ġbr": 732,
    "ise": 733,
    "cl": 734,
    "Ġpe": 735,
    "Ġz": 736,
    "Ġeven": 737,
    "age": 738,
    "ile": 739,
    "Ġgr": 740,
    "Ġlong": 741,
    "Ġway": 742,
    "ife": 743,
    "old": 744,
    "ng": 745,
    "oy": 746,
    "ps": 747,
    "ark": 748,
    "Ġthought": 749,
    "Ġmust": 750,
    "Ġbec": 751,
    "Ġte": 752,
    "ign": 753,
    "Ġpre": 754,
    "ness": 755,
    "Ġgood": 756,
    "Ġhow": 757,
    "Ġcame": 758,
    "ft": 759,
    "Ġsc": 760,
    "ew": 761,
    "ï¿½Ā": 762,
    "âĢĻĊ": 763,
    "Ġnever": 764,
    "Ġeyes": 765,
    "rough": 766,
    "Ġdes": 767,
    "ady": 768,
    "ru": 769,
    "ĠCh": 770,
    "Ġhead": 771,
    "?âĢĿ": 772,
    "ward": 773,
    "con": 774,
    "end": 775,
    "Ġafter": 776,
    "Ġwent": 777,
    "orn": 778,
    "Ã¼": 779,
    "ave": 780,
    "âĢĻm": 781,
    "Ġevery": 782,
    "ty": 783,
    "not": 784,
    "Ġold": 785,
    "Ġunder": 786,
    "ach": 787,
    "oll": 788,
    "iz": 789,
    "ause": 790,
    "Ġthese": 791,
    "so": 792,
    "Ġ'": 793,
    "ied": 794,
    "Ġgl": 795,
    "Ġbefore": 796,
    "Ġmuch": 797,
    "Å¾": 798,
    "ooked": 799,
    "?Ċ": 800,
    "\"I": 801,
    "irst": 802,
    "Ġtwo": 803,
    "Ġcome": 804,
    "thing": 805,
    "âĢľW": 806,
    ".âĢĿ": 807,
    "Ġgot": 808,
    "ï¿½Āï¿½Ā": 809,
    "Ġmade": 810,
    "iss": 811,
    "Ġcha": 812,
    "ĠYou": 813,
    "And": 814,
    "Ġhere": 815,
    "pped": 816,
    "ĠâĢ": 817,
    "Ġcont": 818,
    "Ġcomp": 819,
    "ried": 820,
    "de": 821,
    "Ġown": 822,
    "ough": 823,
    "ful": 824,
    "Ġturn": 825,
    "Ġdidn": 826,
    "ted": 827,
    "alk": 828,
    "ily": 829,
    "Ġrem": 830,
    "omething": 831,
    "ath": 832,
    "._": 833,
    "Ġthrough": 834,
    "that": 835,
    "fe": 836,
    "ĠThey": 837,
    "Ġwork": 838,
    "Ā.": 839,
    "ĠâĢĺ": 840,
    "Ġthose": 841,
    "ater": 842,
    "Ġch": 843,
    "Ġright": 844,
    "Ġda": 845,
    "Ġlooked": 846,
    "Ġwhere": 847,
    "Ġstill": 848,
    "Ġres": 849,
    "bl": 850,
    "ened": 851,
    "ations": 852,
    "Ġfa": 853,
    "ces": 854,
    "ouse": 855,
    "Ġits": 856,
    "She": 857,
    "Ġacc": 858,
    "ret": 859,
    "Ġseem": 860,
    "Ġmake": 861,
    "Ġbet": 862,
    "ody": 863,
    "Ġaway": 864,
    "Ġspe": 865,
    "Ġcons": 866,
    "li": 867,
    "âĢĻre": 868,
    "ever": 869,
    "Ġye": 870,
    "ople": 871,
    "ition": 872,
    "me": 873,
    "az": 874,
    "Ġface": 875,
    "wh": 876,
    "Ġbeg": 877,
    "Ġlet": 878,
    "oth": 879,
    "Ġmost": 880,
    "Ġwell": 881,
    "Ġje": 882,
    "ren": 883,
    "ting": 884,
    "Ġfirst": 885,
    "Ġimp": 886,
    "ens": 887,
    "ĠV": 888,
    "Ġop": 889,
    "man": 890,
    "na": 891,
    "Ġwithout": 892,
    "aw": 893,
    "ob": 894,
    "ves": 895,
    ":Ċ": 896,
    "ase": 897,
    ".\"": 898,
    "Ġpres": 899,
    "Ġna": 900,
    "Ġdoor": 901,
    "Ġke": 902,
    "Ġgoing": 903,
    "Ġaround": 904,
    "Ġmight": 905,
    "ĠY": 906,
    "ia": 907,
    "row": 908,
    "Ġsame": 909,
    "Ġtell": 910,
    "ian": 911,
    "Ġcomm": 912,
    "Ġem": 913,
    "'Ċ": 914,
    "Ġroom": 915,
    "Ġwom": 916,
    "]Ċ": 917,
    "Ġhimself": 918,
    "hes": 919,
    "pect": 920,
    "âĢĻll": 921,
    "Ġdist": 922,
    "Āy": 923,
    "Ġ[": 924,
    "ince": 925,
    "ons": 926,
    "Ġasked": 927,
    "Ġnight": 928,
    "Ġpeople": 929,
    "ways": 930,
    "ared": 931,
    "ran": 932,
    "Ġfeel": 933,
    "but": 934,
    "ple": 935,
    "with": 936,
    "Ġap": 937,
    "Ġput": 938,
    "Ġcar": 939,
    "ract": 940,
    "ss": 941,
    "Ġcall": 942,
    "Ġbeing": 943,
    "Ġsomething": 944,
    "Ġmen": 945,
    "-Ċ": 946,
    "ory": 947,
    "Āg": 948,
    "ced": 949,
    "'ll": 950,
    "gg": 951,
    "Ġwr": 952,
    "ï¬": 953,
    "Ġsaw": 954,
    "It": 955,
    "Ġlife": 956,
    "ched": 957,
    "ij": 958,
    "med": 959,
    "ĠIn": 960,
    "Ġpass": 961,
    "up": 962,
    "hy": 963,
    "ertain": 964,
    "\"W": 965,
    "ither": 966,
    "ĠSt": 967,
    "ved": 968,
    "But": 969,
    "ock": 970,
    "riend": 971,
    "?\"": 972,
    "!Ċ": 973,
    "elt": 974,
    "ER": 975,
    "Ġbecause": 976,
    "ĠĠĠĠĠĠĠĠĠĠĠĠĠĠĠĠ": 977,
    "side": 978,
    "ex": 979,
    "ors": 980,
    "rd": 981,
    "oc": 982,
    "Ġword": 983,
    "Ġapp": 984,
    "Ā,": 985,
    "ĠThere": 986,
    "ĠWe": 987,
    "âĢĻve": 988,
    "int": 989,
    "ving": 990,
    "Ġlove": 991,
    "Ġbel": 992,
    "less": 993,
    "Ġsub": 994,
    "les": 995,
    "ered": 996,
    "Ġsays": 997,
    "ener": 998,
    "Ġknew": 999,
    "Ġlast": 1000,
    "irl": 1001,
    "Ġple": 1002,
    "Ġyet": 1003,
    "aking": 1004,
    "Ġrep": 1005,
    "ï¿½Ċ": 1006,
    "ult": 1007,
    "su": 1008,
    "Ġhapp": 1009,
    "Ġtake": 1010,
    "uten": 1011,
    "Ġpers": 1012,
    "ron": 1013,
    "ks": 1014,
    "'m": 1015,
    "ents": 1016,
    "ĠU": 1017,
    "berg": 1018,
    "den": 1019,
    "Å¡e": 1020,
    "ms": 1021,
    "hild": 1022,
    "oice": 1023,
    "atter": 1024,
    "Ġneed": 1025,
    "Ā.Ā": 1026,
    "get": 1027,
    "ower": 1028,
    "cess": 1029,
    "lf": 1030,
    "Ġmom": 1031,
    "Ġent": 1032,
    "ĠPro": 1033,
    "Ġnat": 1034,
    "was": 1035,
    "ict": 1036,
    "ction": 1037,
    "my": 1038,
    "Ġnew": 1039,
    "com": 1040,
    "ished": 1041,
    "Ġhouse": 1042,
    "'d": 1043,
    "Ġod": 1044,
    "ason": 1045,
    "Ā,Ā": 1046,
    "Ġtook": 1047,
    "utenberg": 1048,
    "Ġalways": 1049,
    "ait": 1050,
    "arry": 1051,
    "ka": 1052,
    "Ġnothing": 1053,
    "Ġtold": 1054,
    "Ġleft": 1055,
    "over": 1056,
    "cept": 1057,
    "Ġsv": 1058,
    "uth": 1059,
    "Ġmind": 1060,
    "ross": 1061,
    "Ġgu": 1062,
    ".âĢĻĊ": 1063,
    "Ġchild": 1064,
    "Ġret": 1065,
    "Ām": 1066,
    "Äĳ": 1067,
    "atch": 1068,
    "ip": 1069,
    "Ġpos": 1070,
    "Ġac": 1071,
    "Ġcour": 1072,
    "'re": 1073,
    "ĠGod": 1074,
    "Ġlight": 1075,
    "Ġfelt": 1076,
    "Ġend": 1077,
    "_,": 1078,
    "Ġthing": 1079,
    "Ġexp": 1080,
    "ung": 1081,
    "Ġche": 1082,
    "aid": 1083,
    "Ġ-": 1084,
    "Ġthings": 1085,
    "ool": 1086,
    "igh": 1087,
    "'ve": 1088,
    "Ġmany": 1089,
    "uck": 1090,
    "ates": 1091,
    "aster": 1092,
    "Ġfriend": 1093,
    "Ġhands": 1094,
    "Ġmother": 1095,
    "Ġfound": 1096,
    "Ġthough": 1097,
    "ix": 1098,
    "ial": 1099,
    "Ġgive": 1100,
    "Ġseemed": 1101,
    "du": 1102,
    "16": 1103,
    "ild": 1104,
    "ah": 1105,
    "Āc": 1106,
    "Ġappe": 1107,
    "und": 1108,
    "air": 1109,
    "Ġrel": 1110,
    "Ġgirl": 1111,
    "Ġheart": 1112,
    "ffect": 1113,
    "Ġsec": 1114,
    "ense": 1115,
    "Ġwind": 1116,
    "Ġwhile": 1117,
    "ling": 1118,
    "Ġsk": 1119,
    "Ġsat": 1120,
    "Ġsupp": 1121,
    "Ġonce": 1122,
    "ical": 1123,
    "ream": 1124,
    "aj": 1125,
    "vers": 1126,
    "Ġthy": 1127,
    "ĠThen": 1128,
    "Ġever": 1129,
    "Ġcr": 1130,
    "you": 1131,
    "ĂĊ": 1132,
    "ently": 1133,
    "ning": 1134,
    "No": 1135,
    "!âĢĿ": 1136,
    "Ġturned": 1137,
    "Ġsw": 1138,
    "pos": 1139,
    "selves": 1140,
    "mer": 1141,
    "Ġfar": 1142,
    "OR": 1143,
    "Ġatt": 1144,
    "Ġanother": 1145,
    "Ġworld": 1146,
    "owed": 1147,
    "Ġdif": 1148,
    "ï¿½ï¿½": 1149,
    "ual": 1150,
    "ï¬Ĩ": 1151,
    "Ġvoice": 1152,
    "Ġdoes": 1153,
    "imes": 1154,
    "Ġboy": 1155,
    "its": 1156,
    "Ġplace": 1157,
    "Ġdark": 1158,
    "EN": 1159,
    "Ġyoung": 1160,
    "Äĩe": 1161,
    "Ġset": 1162,
    "ec": 1163,
    "Ġtalk": 1164,
    "ail": 1165,
    "sh": 1166,
    "Ġcount": 1167,
    "Ġfather": 1168,
    "Ġsur": 1169,
    "Ġconf": 1170,
    "had": 1171,
    "oon": 1172,
    "Ġyears": 1173,
    "Ġear": 1174,
    "most": 1175,
    "Ġalso": 1176,
    "Ġmoment": 1177,
    "Ġwoman": 1178,
    "Ġwhom": 1179,
    "Ġfind": 1180,
    "hind": 1181,
    "men": 1182,
    "Ġsil": 1183,
    "Ġagainst": 1184,
    "ny": 1185,
    "Ġstart": 1186,
    ",âĢĻ": 1187,
    "Ġwar": 1188,
    "Ġheard": 1189,
    "ott": 1190,
    "ined": 1191,
    "Ġfoll": 1192,
    "Ġfew": 1193,
    "ati": 1194,
    "aught": 1195,
    "Ġside": 1196,
    "Ġwait": 1197,
    "ee": 1198,
    "Ġthree": 1199,
    "ĠThis": 1200,
    "Āf": 1201,
    "Ġact": 1202,
    "tend": 1203,
    "Ġcle": 1204,
    "ĠâĢ¦": 1205,
    "Yes": 1206,
    "which": 1207,
    "Ġserv": 1208,
    "ĠProject": 1209,
    "AR": 1210,
    "aring": 1211,
    "Ġinst": 1212,
    "ited": 1213,
    "vent": 1214,
    "Ġbo": 1215,
    "right": 1216,
    "ular": 1217,
    "xt": 1218,
    "Ġanything": 1219,
    "rying": 1220,
    "Ġmyself": 1221,
    "body": 1222,
    "ĄĊ": 1223,
    "ceiv": 1224,
    ",'": 1225,
    "âĢľYou": 1226,
    "Ġhard": 1227,
    "IN": 1228,
    "Ġpleas": 1229,
    "Ġreal": 1230,
    "10": 1231,
    "any": 1232,
    "ON": 1233,
    "Ġbed": 1234,
    "ope": 1235,
    "Ġint": 1236,
    "Ġter": 1237,
    "ĠIf": 1238,
    "âĢľT": 1239,
    "Ġhel": 1240,
    "ije": 1241,
    "ner": 1242,
    "Ġstood": 1243,
    "Ġchan": 1244,
    "-ch": 1245,
    "ĠMrs": 1246,
    "iness": 1247,
    "Ġgre": 1248,
    "Ġbegan": 1249,
    "ub": 1250,
    "ged": 1251,
    "ĠWhat": 1252,
    "Ġstr": 1253,
    "Ġlaw": 1254,
    "ating": 1255,
    "Ġhome": 1256,
    "ĠGutenberg": 1257,
    "sp": 1258,
    "Ġmean": 1259,
    "Ġreally": 1260,
    "AN": 1261,
    "ween": 1262,
    "ows": 1263,
    "rest": 1264,
    "Ġcourse": 1265,
    "lect": 1266,
    "ned": 1267,
    "osp": 1268,
    "Ġind": 1269,
    "Ġenough": 1270,
    "ired": 1271,
    "Ġdisc": 1272,
    "Ġnor": 1273,
    "cy": 1274,
    "ised": 1275,
    "act": 1276,
    "day": 1277,
    "ĠThat": 1278,
    "Ġthee": 1279,
    "der": 1280,
    "ins": 1281,
    "ts": 1282,
    "Ġtoward": 1283,
    "Ġide": 1284,
    "Ġocc": 1285,
    "oved": 1286,
    "Ġreason": 1287,
    "To": 1288,
    "pro": 1289,
    "Ġreg": 1290,
    "Ġref": 1291,
    "Ġdel": 1292,
    "Ġrest": 1293,
    "ĠâĢĶ": 1294,
    "Ġel": 1295,
    "Ġcertain": 1296,
    "Ġass": 1297,
    "Ġkeep": 1298,
    "Ġwhole": 1299,
    "Ġkind": 1300,
    "ĠHer": 1301,
    "by": 1302,
    "Ġdr": 1303,
    "Ġhon": 1304,
    "ĠHis": 1305,
    "sible": 1306,
    "aut": 1307,
    "Ġeach": 1308,
    "ius": 1309,
    "Ġwhite": 1310,
    "Ġname": 1311,
    "Ġco": 1312,
    "Ġpur": 1313,
    "Ġbehind": 1314,
    "),": 1315,
    "Ġreturn": 1316,
    "pr": 1317,
    "Ġread": 1318,
    "ully": 1319,
    "Ã¢": 1320,
    "Ġgener": 1321,
    "ene": 1322,
    "Ġboth": 1323,
    "In": 1324,
    "Ġrec": 1325,
    "Ġunt": 1326,
    "outh": 1327,
    "Āp": 1328,
    "oor": 1329,
    "Ăě": 1330,
    "br": 1331,
    "Ġdra": 1332,
    "Ġwasn": 1333,
    "Ġblack": 1334,
    "Ġsmall": 1335,
    "Ġsure": 1336,
    "Oh": 1337,
    "Ġinf": 1338,
    ".'Ċ": 1339,
    "cri": 1340,
    "Ĥ¬": 1341,
    "âĤ¬": 1342,
    "eng": 1343,
    "now": 1344,
    "Ġtak": 1345,
    "ko": 1346,
    "ures": 1347,
    "iet": 1348,
    "Ġquite": 1349,
    "oke": 1350,
    "Ġlooking": 1351,
    "Ġwater": 1352,
    "Ġsle": 1353,
    "Ġcannot": 1354,
    "Ġsoon": 1355,
    "Ġopen": 1356,
    "stand": 1357,
    "haps": 1358,
    "king": 1359,
    "ubl": 1360,
    "ug": 1361,
    "ph": 1362,
    "ale": 1363,
    "Ġseen": 1364,
    "iti": 1365,
    "Ġhelp": 1366,
    "Ġstand": 1367,
    "Ġhum": 1368,
    "!âĢĿĊ": 1369,
    "ĠÄį": 1370,
    "ĠHarry": 1371,
    "Ġinde": 1372,
    "ities": 1373,
    "Ġmar": 1374,
    "ister": 1375,
    "ĠTh": 1376,
    "!\"": 1377,
    "Ġperson": 1378,
    "Āk": 1379,
    "Ġcare": 1380,
    "rent": 1381,
    "Ġsound": 1382,
    "Ġbetween": 1383,
    "Ġpower": 1384,
    "ded": 1385,
    "eth": 1386,
    "Ġans": 1387,
    "ĠÅ¡": 1388,
    "ĠFor": 1389,
    "Ġbelie": 1390,
    "Ġfam": 1391,
    "Ġwanted": 1392,
    "Ġpull": 1393,
    "vo": 1394,
    "io": 1395,
    "Ġlady": 1396,
    "iven": 1397,
    "ute": 1398,
    "We": 1399,
    "Ġbetter": 1400,
    "ï¿½Āï¿½Āï¿½Āï¿½Ā": 1401,
    "Ġhair": 1402,
    "Ġste": 1403,
    "Ġlau": 1404,
    "Ġmin": 1405,
    "ually": 1406,
    "ao": 1407,
    "Ġrun": 1408,
    "Ġless": 1409,
    "Ġpresent": 1410,
    "bed": 1411,
    "orning": 1412,
    "Ġsince": 1413,
    "read": 1414,
    "Ġhalf": 1415,
    "oney": 1416,
    "alked": 1417,
    "Ġbu": 1418,
    "oot": 1419,
    "They": 1420,
    "ier": 1421,
    "Ġcur": 1422,
    "ront": 1423,
    "Ġuse": 1424,
    "Ġdone": 1425,
    "Ġfin": 1426,
    "Ġwhy": 1427,
    "fect": 1428,
    "Ġhaving": 1429,
    "dden": 1430,
    "ider": 1431,
    "What": 1432,
    "Ġsent": 1433,
    "Ġalmost": 1434,
    "âĢľA": 1435,
    "Ġgave": 1436,
    "Ġdays": 1437,
    "ES": 1438,
    "âĦ": 1439,
    "Ġuntil": 1440,
    "âĦ¢": 1441,
    "There": 1442,
    "Ġnext": 1443,
    "ants": 1444,
    "Ġcalled": 1445,
    "ja": 1446,
    "reet": 1447,
    "ready": 1448,
    "gether": 1449,
    "Ġiz": 1450,
    "Ġsudden": 1451,
    "Ġbig": 1452,
    "mon": 1453,
    "ained": 1454,
    "vel": 1455,
    "osed": 1456,
    "she": 1457,
    "ĠAn": 1458,
    "entle": 1459,
    "ude": 1460,
    "ceived": 1461,
    "no": 1462,
    "iled": 1463,
    "Ġhour": 1464,
    "Ġmon": 1465,
    "serv": 1466,
    "Ġalong": 1467,
    "hil": 1468,
    "Ġremem": 1469,
    "ably": 1470,
    "ĠWhen": 1471,
    "Ġtherefore": 1472,
    "Ġsuff": 1473,
    "Ġext": 1474,
    "ments": 1475,
    "land": 1476,
    "Ġgone": 1477,
    "ima": 1478,
    "ribut": 1479,
    "15": 1480,
    "That": 1481,
    "20": 1482,
    "Ġfell": 1483,
    "Ġhold": 1484,
    "Ġcond": 1485,
    "unt": 1486,
    "Ġmatter": 1487,
    "ately": 1488,
    "har": 1489,
    "Ġprin": 1490,
    "Ġwords": 1491,
    "rew": 1492,
    "ĠMy": 1493,
    "ement": 1494,
    "Ġcouldn": 1495,
    "17": 1496,
    "Ġbus": 1497,
    "iver": 1498,
    "Ġart": 1499,
    "Ġnear": 1500,
    "ina": 1501,
    "ey": 1502,
    "Ã¼an": 1503,
    "Ġmorning": 1504,
    "Ġhear": 1505,
    "âĢľS": 1506,
    "Ġround": 1507,
    "Ġplay": 1508,
    "ĠJo": 1509,
    "Äįe": 1510,
    "Ġwall": 1511,
    "Ġtra": 1512,
    "ĠSo": 1513,
    "Ġsun": 1514,
    "form": 1515,
    "Ġsir": 1516,
    "-y": 1517,
    "Ġinter": 1518,
    "Ġadv": 1519,
    "fully": 1520,
    "Ġdec": 1521,
    "ten": 1522,
    "II": 1523,
    "Ġbook": 1524,
    "Ġair": 1525,
    "ceed": 1526,
    "Ġbreat": 1527,
    "oub": 1528,
    "room": 1529,
    "oul": 1530,
    "amp": 1531,
    "Ġprov": 1532,
    "Ġfact": 1533,
    "HE": 1534,
    "Ġfront": 1535,
    "rought": 1536,
    "shi": 1537,
    "umb": 1538,
    "Ġherself": 1539,
    "aven": 1540,
    "Ġacross": 1541,
    "cer": 1542,
    "Ġgiven": 1543,
    "ying": 1544,
    ".]Ċ": 1545,
    "Ġchar": 1546,
    "als": 1547,
    "owing": 1548,
    "âĢĵ": 1549,
    "Ġfeet": 1550,
    "Ġamong": 1551,
    "ĠAt": 1552,
    "used": 1553,
    "Ġthemselves": 1554,
    "eter": 1555,
    "Ġdiffe": 1556,
    "Ġwalk": 1557,
    "Ġnature": 1558,
    "Ġsecond": 1559,
    "Ġtre": 1560,
    "Ġwhose": 1561,
    "Ġcop": 1562,
    "Ġlay": 1563,
    "Ġev": 1564,
    "ird": 1565,
    "Ġdead": 1566,
    "Ġform": 1567,
    "ash": 1568,
    "Āv": 1569,
    "Ġobject": 1570,
    "-h": 1571,
    "âĢľWhat": 1572,
    "Äĩi": 1573,
    "itch": 1574,
    "12": 1575,
    "ju": 1576,
    "ĠMiss": 1577,
    "ĠNo": 1578,
    "Ġinc": 1579,
    "ention": 1580,
    "ger": 1581,
    "ank": 1582,
    "Ġmaster": 1583,
    "Ġhor": 1584,
    "Ġca": 1585,
    "Ġpol": 1586,
    "Ġdri": 1587,
    "Ġbody": 1588,
    "Ġhigh": 1589,
    "!\"Ċ": 1590,
    "Ġaw": 1591,
    "have": 1592,
    "oun": 1593,
    "Ġcountry": 1594,
    "ib": 1595,
    "Ġelse": 1596,
    "where": 1597,
    "jeg": 1598,
    "Ġunto": 1599,
    "ortun": 1600,
    "Ġwon": 1601,
    "Ġalready": 1602,
    "Ġbest": 1603,
    "him": 1604,
    "rist": 1605,
    "head": 1606,
    "Ġequ": 1607,
    "Ġquest": 1608,
    "ote": 1609,
    "return": 1610,
    "Ġson": 1611,
    "ai": 1612,
    "Ġbro": 1613,
    "ek": 1614,
    "Ġtable": 1615,
    "ized": 1616,
    "Ġtrue": 1617,
    "Ġve": 1618,
    "ublic": 1619,
    "ĠAs": 1620,
    "ĠĀĊ": 1621,
    "att": 1622,
    "Ġmet": 1623,
    "Ġindeed": 1624,
    "use": 1625,
    "Ġkill": 1626,
    "Ġspeak": 1627,
    "ution": 1628,
    "pping": 1629,
    "Āw": 1630,
    "ospod": 1631,
    "Ġunderstand": 1632,
    "empt": 1633,
    "Ġfull": 1634,
    "Ġdeath": 1635,
    "Ġfore": 1636,
    "Ġfour": 1637,
    "Ġsim": 1638,
    "ĠMar": 1639,
    "let": 1640,
    "Ġpain": 1641,
    "13": 1642,
    "ump": 1643,
    "Ġest": 1644,
    "Ġswe": 1645,
    "ides": 1646,
    "ni": 1647,
    "ines": 1648,
    "irc": 1649,
    "ached": 1650,
    "My": 1651,
    "14": 1652,
    "19": 1653,
    "Ġbre": 1654,
    "go": 1655,
    "Ġvis": 1656,
    "Ġed": 1657,
    "terest": 1658,
    "ility": 1659,
    "ives": 1660,
    "Ġthus": 1661,
    "Ġmoney": 1662,
    "Ġza": 1663,
    "wer": 1664,
    "Ġaff": 1665,
    "Ġ*": 1666,
    "Ġfing": 1667,
    "ressed": 1668,
    "ane": 1669,
    "Ġeverything": 1670,
    "ji": 1671,
    "ax": 1672,
    "Ġothers": 1673,
    "ield": 1674,
    "Ġarm": 1675,
    "Ġcontin": 1676,
    "Ġwife": 1677,
    "ances": 1678,
    "ěĂ": 1679,
    "Ġopp": 1680,
    "Ġpri": 1681,
    "ĔĂ": 1682,
    "Ġnod": 1683,
    "ĠOn": 1684,
    "hether": 1685,
    "pend": 1686,
    "Ġtill": 1687,
    "Ġdear": 1688,
    "opped": 1689,
    "This": 1690,
    "Ġrather": 1691,
    "uff": 1692,
    "erve": 1693,
    "cha": 1694,
    "Ġnecess": 1695,
    "Ġorder": 1696,
    "ctor": 1697,
    "Ġtogether": 1698,
    "Ġlist": 1699,
    "oud": 1700,
    "Ġhowever": 1701,
    "Āę": 1702,
    "Ġtrying": 1703,
    "Ġstate": 1704,
    "oji": 1705,
    "Ġsubject": 1706,
    "-s": 1707,
    "wor": 1708,
    "irt": 1709,
    "Ġleast": 1710,
    "Ġpoor": 1711,
    "Ġwatch": 1712,
    "Ġgentle": 1713,
    "peri": 1714,
    "ĠSir": 1715,
    "Ġgra": 1716,
    "-f": 1717,
    "fic": 1718,
    "Th": 1719,
    "Ġdro": 1720,
    "itting": 1721,
    "Ġfall": 1722,
    "Ġprom": 1723,
    "Ġclose": 1724,
    "Ġbit": 1725,
    "Ġspir": 1726,
    "ĠZ": 1727,
    "?âĢĻĊ": 1728,
    "ken": 1729,
    "onder": 1730,
    "Ġbeaut": 1731,
    "Ġtaken": 1732,
    "Ġti": 1733,
    "uc": 1734,
    "Ġsleep": 1735,
    "\"You": 1736,
    "ST": 1737,
    "mb": 1738,
    "Ġletter": 1739,
    "ĠHsi": 1740,
    "Ġexpl": 1741,
    "Ġvol": 1742,
    "Ġmer": 1743,
    "ident": 1744,
    "Ġpa": 1745,
    "iter": 1746,
    "Ġbad": 1747,
    "ided": 1748,
    "ĠBr": 1749,
    "Ġland": 1750,
    "ery": 1751,
    "uthor": 1752,
    "Ġph": 1753,
    "LE": 1754,
    "Ġslow": 1755,
    "what": 1756,
    "Ġinv": 1757,
    "Ġused": 1758,
    "Ġpoint": 1759,
    "Ġbrought": 1760,
    "icular": 1761,
    "Ġking": 1762,
    "Ġmeans": 1763,
    "ĠAr": 1764,
    "Ġcold": 1765,
    "Ġpast": 1766,
    "Ġlar": 1767,
    "va": 1768,
    "ets": 1769,
    "Ġcoming": 1770,
    "ĠAl": 1771,
    "Ġra": 1772,
    "ief": 1773,
    "Ġfire": 1774,
    "Ā.ĀĊ": 1775,
    "isf": 1776,
    "aint": 1777,
    "18": 1778,
    "Ġmouth": 1779,
    "from": 1780,
    "Ġtried": 1781,
    "Ġask": 1782,
    "ians": 1783,
    "Ġadm": 1784,
    "don": 1785,
    "Ġalone": 1786,
    "Ġill": 1787,
    "Ġins": 1788,
    "Ġitself": 1789,
    "Ġmu": 1790,
    "-t": 1791,
    "ages": 1792,
    "Ġchildren": 1793,
    "chool": 1794,
    "CH": 1795,
    "Ġblood": 1796,
    "Ġdoub": 1797,
    "uring": 1798,
    "Ġhur": 1799,
    "ats": 1800,
    "Ġheld": 1801,
    "gr": 1802,
    "-Ā": 1803,
    "gin": 1804,
    "ĠIs": 1805,
    "bit": 1806,
    "Ġred": 1807,
    "Ġstep": 1808,
    "ousand": 1809,
    "ev": 1810,
    "Ġsuddenly": 1811,
    "like": 1812,
    "âĢľH": 1813,
    "Ġpar": 1814,
    "oga": 1815,
    "Ġstay": 1816,
    "Ġinside": 1817,
    "As": 1818,
    "For": 1819,
    "Ġdeep": 1820,
    "Ġcap": 1821,
    "ought": 1822,
    "Ġcor": 1823,
    "ury": 1824,
    "iously": 1825,
    "Ġworks": 1826,
    "ught": 1827,
    "vern": 1828,
    "ches": 1829,
    "Ġbar": 1830,
    "part": 1831,
    "ĠAll": 1832,
    "Ġeither": 1833,
    "aces": 1834,
    "they": 1835,
    "Ġtri": 1836,
    "âĢ¦": 1837,
    "ĠâĢĵ": 1838,
    "Ġleave": 1839,
    "ta": 1840,
    "Ġhath": 1841,
    "them": 1842,
    "enty": 1843,
    "Ġleg": 1844,
    "âĢľD": 1845,
    "Ġbelieve": 1846,
    "Ġhope": 1847,
    "rence": 1848,
    "ho": 1849,
    "Ġfear": 1850,
    "Ġquick": 1851,
    "ili": 1852,
    "undred": 1853,
    "Ġjud": 1854,
    "Ġsomeone": 1855,
    "Ġes": 1856,
    "Ġsmile": 1857,
    "\\'": 1858,
    "Ġran": 1859,
    "Ġeas": 1860,
    "Ġconsider": 1861,
    "ames": 1862,
    "Ġperhaps": 1863,
    "âĢľIt": 1864,
    "ative": 1865,
    "ured": 1866,
    "Ġproper": 1867,
    "ĠHow": 1868,
    "ush": 1869,
    "Ġprop": 1870,
    "AL": 1871,
    "anger": 1872,
    "Ġquiet": 1873,
    "Ġfloor": 1874,
    "sess": 1875,
    "Ġdoesn": 1876,
    "Ġsort": 1877,
    "Ġfamily": 1878,
    "this": 1879,
    "ąē": 1880,
    "ards": 1881,
    "ĠÅ¾": 1882,
    "Ġoften": 1883,
    "Ġdoing": 1884,
    "Ġwomen": 1885,
    "ls": 1886,
    "Ġpap": 1887,
    "ead": 1888,
    "arent": 1889,
    "ination": 1890,
    "akes": 1891,
    "Ġkept": 1892,
    "-c": 1893,
    "ours": 1894,
    "ĠPr": 1895,
    "tered": 1896,
    "Ġcause": 1897,
    "Ġtrans": 1898,
    "Ġadd": 1899,
    "Ġwalked": 1900,
    "Ġcommon": 1901,
    "Ġnum": 1902,
    "Ġappear": 1903,
    "Ġarms": 1904,
    "Ġidea": 1905,
    "Ġmod": 1906,
    "Ġrequ": 1907,
    "ceive": 1908,
    "ii": 1909,
    "ĠCon": 1910,
    "veral": 1911,
    "aughter": 1912,
    "ific": 1913,
    "Ġconst": 1914,
    "ening": 1915,
    "dis": 1916,
    "asion": 1917,
    "Ġinterest": 1918,
    "Ġsn": 1919,
    "Ġsoul": 1920,
    "âĢľNo": 1921,
    "ton": 1922,
    "Ġremember": 1923,
    "Ġstreet": 1924,
    "there": 1925,
    "iff": 1926,
    "Ġabs": 1927,
    "Ġprodu": 1928,
    "ression": 1929,
    "Ġmanner": 1930,
    "ORD": 1931,
    "Ġdire": 1932,
    "racter": 1933,
    "Ġlater": 1934,
    "orry": 1935,
    "ording": 1936,
    "Ġcol": 1937,
    "resent": 1938,
    "Ġrepl": 1939,
    "Ġeffect": 1940,
    "iew": 1941,
    "Ġtimes": 1942,
    "Ġstop": 1943,
    "ole": 1944,
    "Ġstopped": 1945,
    "Mr": 1946,
    "Ġsing": 1947,
    "ĠTo": 1948,
    "idd": 1949,
    "ushed": 1950,
    "tern": 1951,
    "Ġcase": 1952,
    "itted": 1953,
    "ible": 1954,
    "Ġwindow": 1955,
    "Ġwonder": 1956,
    "Ġwouldn": 1957,
    "aim": 1958,
    "Ġbrother": 1959,
    "aced": 1960,
    "ering": 1961,
    "eb": 1962,
    "Ġsign": 1963,
    "ship": 1964,
    "light": 1965,
    "Ġsqu": 1966,
    "orrow": 1967,
    "hn": 1968,
    "Ġfree": 1969,
    "Ġlive": 1970,
    "When": 1971,
    "Ġfort": 1972,
    "ear": 1973,
    "Ġclear": 1974,
    "IT": 1975,
    "ĠNow": 1976,
    "their": 1977,
    "pre": 1978,
    "Ġstra": 1979,
    "ĠCl": 1980,
    "ley": 1981,
    "Ġsix": 1982,
    "ĠNot": 1983,
    "cial": 1984,
    "Then": 1985,
    "Ġdifferent": 1986,
    "Ġwhis": 1987,
    ".)": 1988,
    "band": 1989,
    "ĠQ": 1990,
    "Ġlear": 1991,
    ".--": 1992,
    "range": 1993,
    "Ġtruth": 1994,
    "oes": 1995,
    "sk": 1996,
    "Ġthousand": 1997,
    "Ġpay": 1998,
    "ĠEng": 1999,
    "sc": 2000,
    "\"A": 2001,
    "Ġroad": 2002,
    "Ġsve": 2003,
    "Ġimag": 2004,
    "ĠChrist": 2005,
    "Ġdev": 2006,
    "ety": 2007,
    "medi": 2008,
    "Ġ...": 2009,
    "ĠÄĩe": 2010,
    "ric": 2011,
    "rie": 2012,
    "ring": 2013,
    "Ġrespect": 2014,
    "Ġhot": 2015,
    "ako": 2016,
    "Ġcirc": 2017,
    "ality": 2018,
    "Ġfav": 2019,
    "Ġtown": 2020,
    "bert": 2021,
    "ĠBe": 2022,
    "ma": 2023,
    "Ġclass": 2024,
    "AT": 2025,
    "Ġdream": 2026,
    "arch": 2027,
    "Ġmil": 2028,
    "Ġaffect": 2029,
    "Ġwhether": 2030,
    "Ġmove": 2031,
    "Ġhundred": 2032,
    "Āb": 2033,
    "ĠBl": 2034,
    "Ġexc": 2035,
    "itude": 2036,
    "Ġnatur": 2037,
    "sequ": 2038,
    "Ġtou": 2039,
    "tr": 2040,
    "Ġmist": 2041,
    "airs": 2042,
    "Ġ&": 2043,
    "Not": 2044,
    "Ġobserv": 2045,
    "alth": 2046,
    "oss": 2047,
    "Ġfeeling": 2048,
    "ori": 2049,
    "ike": 2050,
    "Ġbring": 2051,
    "Ġschool": 2052,
    "Ġyear": 2053,
    "ored": 2054,
    "Ġnar": 2055,
    "oura": 2056,
    "Ġlarge": 2057,
    "aybe": 2058,
    "ama": 2059,
    "Ġsy": 2060,
    "Ġlost": 2061,
    "iling": 2062,
    "orm": 2063,
    "Ġstarted": 2064,
    "par": 2065,
    "11": 2066,
    "Ġcried": 2067,
    "Ġlot": 2068,
    "Ġbes": 2069,
    "Ġparticular": 2070,
    "Ġhast": 2071,
    "oly": 2072,
    "Ġgovern": 2073,
    "Äĩu": 2074,
    "ĠÅ¡to": 2075,
    "Ġmis": 2076,
    "Ġabove": 2077,
    "Ġaccount": 2078,
    "Ġlaugh": 2079,
    "Ġstud": 2080,
    "ometimes": 2081,
    "Ġdoubt": 2082,
    "Ġprinci": 2083,
    "Ġten": 2084,
    "Ġseveral": 2085,
    "Ġhappened": 2086,
    "ains": 2087,
    "Ġcopy": 2088,
    "fra": 2089,
    "Ġevening": 2090,
    "If": 2091,
    "son": 2092,
    "otion": 2093,
    "Ġground": 2094,
    "Ġable": 2095,
    "will": 2096,
    "usband": 2097,
    "would": 2098,
    "-yÃ¼": 2099,
    "Ġauthor": 2100,
    "Ġshort": 2101,
    "bably": 2102,
    "Ġsoft": 2103,
    ".âĢĶ": 2104,
    "....": 2105,
    "ically": 2106,
    "Ġgeneral": 2107,
    "Ġpassed": 2108,
    "ccess": 2109,
    "ledge": 2110,
    "eg": 2111,
    "Ġbreath": 2112,
    "app": 2113,
    "atched": 2114,
    "ature": 2115,
    "Ġsit": 2116,
    "Ġwish": 2117,
    "ik": 2118,
    "ien": 2119,
    "cle": 2120,
    "-p": 2121,
    "Ġga": 2122,
    "Ġpublic": 2123,
    "icked": 2124,
    "ison": 2125,
    "overed": 2126,
    "Ġprof": 2127,
    "Ġir": 2128,
    "Ġcut": 2129,
    "âĢĻing": 2130,
    "Ġpulled": 2131,
    "Ġhuman": 2132,
    "ĠPa": 2133,
    "Ġanswer": 2134,
    "Ġglass": 2135,
    "hand": 2136,
    "Ġexpect": 2137,
    "que": 2138,
    "ient": 2139,
    "ued": 2140,
    "Ġchair": 2141,
    "Ġwood": 2142,
    "ize": 2143,
    "ection": 2144,
    "ze": 2145,
    "Ġsister": 2146,
    "ĠCom": 2147,
    "Ġlord": 2148,
    "Äĳe": 2149,
    "utes": 2150,
    "adam": 2151,
    "Ġcoll": 2152,
    "Ġmoved": 2153,
    "Ġought": 2154,
    "\"Yes": 2155,
    "Ġincl": 2156,
    "Ġut": 2157,
    "Ġsurpr": 2158,
    "Ġgold": 2159,
    "ova": 2160,
    "ĠSee": 2161,
    "how": 2162,
    "anch": 2163,
    "Ġdef": 2164,
    "ped": 2165,
    "Ġacqu": 2166,
    "vi": 2167,
    "ĠUn": 2168,
    "Ġbur": 2169,
    "Ġquestion": 2170,
    "ones": 2171,
    "Ġru": 2172,
    "Ġmeet": 2173,
    "Ġfr": 2174,
    "Ġet": 2175,
    "Ġsaying": 2176,
    "che": 2177,
    "-b": 2178,
    "Ġvirt": 2179,
    "hold": 2180,
    "ĠLord": 2181,
    "aving": 2182,
    "fraid": 2183,
    "Ġterms": 2184,
    "É¹": 2185,
    "ĠLORD": 2186,
    "itions": 2187,
    "rem": 2188,
    "ĠDon": 2189,
    ".'": 2190,
    "Ġearth": 2191,
    "Ġcent": 2192,
    "ĠWill": 2193,
    "Ġfre": 2194,
    "Ġfriends": 2195,
    "Ġpleasure": 2196,
    "Ġbusiness": 2197,
    "Ġopened": 2198,
    "Ġang": 2199,
    "Ġsam": 2200,
    "lo": 2201,
    "Ġhar": 2202,
    "Ġmine": 2203,
    "fort": 2204,
    "==": 2205,
    "Ch": 2206,
    "-m": 2207,
    "US": 2208,
    "Ġbegin": 2209,
    "Ġjo": 2210,
    "Ġfair": 2211,
    "Ġfoot": 2212,
    "ĠOne": 2213,
    "Ġconcer": 2214,
    "ĠOF": 2215,
    "!Ă": 2216,
    "Ġexist": 2217,
    "Ġlonger": 2218,
    "Ġslowly": 2219,
    "âĢľYes": 2220,
    "ronic": 2221,
    "Ġsense": 2222,
    "How": 2223,
    "Ġcorn": 2224,
    "kay": 2225,
    "well": 2226,
    "uct": 2227,
    "were": 2228,
    "iful": 2229,
    "Ġfive": 2230,
    "pose": 2231,
    "lig": 2232,
    "lish": 2233,
    "ĠGospod": 2234,
    "Ġspirit": 2235,
    "Ġfur": 2236,
    "Ġval": 2237,
    "Ġlow": 2238,
    "wered": 2239,
    "Ġcreat": 2240,
    "ca": 2241,
    "OL": 2242,
    "Ġdiv": 2243,
    "\"What": 2244,
    "Ġhadn": 2245,
    "though": 2246,
    "Ġvi": 2247,
    "ging": 2248,
    "ues": 2249,
    "ĠDo": 2250,
    "ply": 2251,
    "Ġsum": 2252,
    "Ġpossess": 2253,
    "Ġwithin": 2254,
    "Ġthinking": 2255,
    "wise": 2256,
    "do": 2257,
    "Ġbi": 2258,
    "els": 2259,
    "\"S": 2260,
    "more": 2261,
    "Ġtop": 2262,
    "Ġyes": 2263,
    "ĠJohn": 2264,
    "Ġjed": 2265,
    "IS": 2266,
    "Ġmonth": 2267,
    "Ġplan": 2268,
    "ĠFran": 2269,
    "urch": 2270,
    "Ġperfect": 2271,
    "Ġlooks": 2272,
    "ĠâĢĻ": 2273,
    "Ġknown": 2274,
    "eterm": 2275,
    "UR": 2276,
    "Ġanyone": 2277,
    "Ġtrou": 2278,
    "Ġce": 2279,
    "ĠX": 2280,
    "ern": 2281,
    "oman": 2282,
    "Ġworth": 2283,
    "Ġstru": 2284,
    "eh": 2285,
    "ĂěĄĊ": 2286,
    "-l": 2287,
    "Ġforth": 2288,
    "'Ā": 2289,
    "ased": 2290,
    "Ġmiss": 2291,
    "cons": 2292,
    "ism": 2293,
    "ously": 2294,
    "ploy": 2295,
    "Ġexam": 2296,
    "Ġheav": 2297,
    "Å¾e": 2298,
    "Ġspoke": 2299,
    "Ġmaking": 2300,
    "ray": 2301,
    "Ġstrong": 2302,
    "arden": 2303,
    "lic": 2304,
    "?'Ċ": 2305,
    "rt": 2306,
    "ĠWhy": 2307,
    "Ġmere": 2308,
    "add": 2309,
    "Of": 2310,
    ".,": 2311,
    "Ġtalking": 2312,
    "ney": 2313,
    "ices": 2314,
    "Ġkoji": 2315,
    "Ġafraid": 2316,
    "Ġkad": 2317,
    "Ġreceived": 2318,
    "under": 2319,
    "tended": 2320,
    "Ġbecame": 2321,
    "Ġcomple": 2322,
    "Ġgod": 2323,
    "could": 2324,
    "une": 2325,
    "bo": 2326,
    "ert": 2327,
    "cul": 2328,
    "Ġexcept": 2329,
    "ots": 2330,
    "Ġreturned": 2331,
    "Ġï¿½": 2332,
    "meric": 2333,
    "inion": 2334,
    "Ġoccasion": 2335,
    "Ġnodded": 2336,
    "ony": 2337,
    "aby": 2338,
    "Ġstory": 2339,
    "aves": 2340,
    "Ġvar": 2341,
    "Ġview": 2342,
    "Ġcommand": 2343,
    "chan": 2344,
    "ples": 2345,
    "hile": 2346,
    "la": 2347,
    "Ġhonour": 2348,
    "Ġelect": 2349,
    "Ġlaws": 2350,
    "Ġdrink": 2351,
    "Ġtry": 2352,
    "Ġblue": 2353,
    "Ġnumber": 2354,
    "Ġcross": 2355,
    "hia": 2356,
    "Ġwaiting": 2357,
    "Ġtem": 2358,
    "IR": 2359,
    "Ġhusband": 2360,
    "oje": 2361,
    "25": 2362,
    "Ġser": 2363,
    "Ġ--": 2364,
    "Now": 2365,
    "ĠNew": 2366,
    "00": 2367,
    "Ġbott": 2368,
    "Ġappro": 2369,
    "ĠĂ": 2370,
    "inted": 2371,
    "Ġwrong": 2372,
    "Ġstanding": 2373,
    "Ġdest": 2374,
    "owers": 2375,
    "Ġforward": 2376,
    "rupt": 2377,
    "Ġisn": 2378,
    "Ġpray": 2379,
    "Ġgetting": 2380,
    "EL": 2381,
    "Ġoutside": 2382,
    "Ġago": 2383,
    "...": 2384,
    "Ġforg": 2385,
    "Ġprot": 2386,
    "rid": 2387,
    "oving": 2388,
    "ror": 2389,
    "ĠTom": 2390,
    "lled": 2391,
    "\"D": 2392,
    "iam": 2393,
    "Ġcompl": 2394,
    "Ġfingers": 2395,
    "RO": 2396,
    "Ġarri": 2397,
    "wo": 2398,
    "Ġpie": 2399,
    "off": 2400,
    "ters": 2401,
    "Ġpret": 2402,
    "ĠRo": 2403,
    "alm": 2404,
    "ler": 2405,
    "TER": 2406,
    "sib": 2407,
    "dom": 2408,
    "Ġreplied": 2409,
    "Ġfun": 2410,
    "\"No": 2411,
    "str": 2412,
    "Ġanswered": 2413,
    "ghed": 2414,
    "Ġï¬Ĩ": 2415,
    "ising": 2416,
    "Ġreached": 2417,
    "Ġsitting": 2418,
    "ĠPer": 2419,
    "idence": 2420,
    "Ġmus": 2421,
    "âĢľAnd": 2422,
    "Ġbecome": 2423,
    "ku": 2424,
    "some": 2425,
    "ĠTHE": 2426,
    "Ġdog": 2427,
    "ocked": 2428,
    "ĠSp": 2429,
    "eks": 2430,
    "Ġmur": 2431,
    "cont": 2432,
    "cious": 2433,
    "Ġshow": 2434,
    "Ġbreak": 2435,
    "Ġsight": 2436,
    "iting": 2437,
    "ĠGer": 2438,
    "With": 2439,
    "cing": 2440,
    "night": 2441,
    "irty": 2442,
    "olog": 2443,
    "joy": 2444,
    "urs": 2445,
    "Ġneither": 2446,
    "gged": 2447,
    "\"It": 2448,
    "ster": 2449,
    "ask": 2450,
    "Ġcontr": 2451,
    "On": 2452,
    "Ġminutes": 2453,
    "Ġfig": 2454,
    "Ġpossible": 2455,
    "ena": 2456,
    "âĢľWell": 2457,
    "Ġsmiled": 2458,
    "illed": 2459,
    "ified": 2460,
    "Ġlif": 2461,
    "Ġskin": 2462,
    "So": 2463,
    "itc": 2464,
    "Ġcra": 2465,
    "[_": 2466,
    "Ġgrand": 2467,
    "Ġdin": 2468,
    "Ġsecret": 2469,
    "Ġtwenty": 2470,
    "Ġimmedi": 2471,
    "wards": 2472,
    "Ġstrange": 2473,
    "Ġhung": 2474,
    "Ġshad": 2475,
    "Ġhat": 2476,
    "ara": 2477,
    "Ġeye": 2478,
    "-men": 2479,
    "aur": 2480,
    "Ġsuccess": 2481,
    "Ġhours": 2482,
    "umbled": 2483,
    "asure": 2484,
    "Ġlips": 2485,
    "Ġlead": 2486,
    "ini": 2487,
    "âĢľHe": 2488,
    "Ġbeside": 2489,
    "ĠLi": 2490,
    "ĠSc": 2491,
    "Ġliving": 2492,
    "agn": 2493,
    "Ġsorry": 2494,
    "Ġonto": 2495,
    "Ġgreater": 2496,
    "âĢľOh": 2497,
    "ĠĠĠĠĠĠ": 2498,
    "à¶": 2499,
    "come": 2500,
    "Ġaccording": 2501,
    "Ġstraight": 2502,
    "back": 2503,
    "Ġsin": 2504,
    "Ġforce": 2505,
    "Ġseems": 2506,
    "Ġdecl": 2507,
    "appe": 2508,
    "Ġsea": 2509,
    "gar": 2510,
    "athe": 2511,
    "ĠEd": 2512,
    "Ġimport": 2513,
    "Ġshook": 2514,
    "Ġdirect": 2515,
    "âĢľThe": 2516,
    "Ġtowards": 2517,
    "Ġkiss": 2518,
    "Ġsuppose": 2519,
    "Ġfaith": 2520,
    "about": 2521,
    "Ex": 2522,
    "ament": 2523,
    "=\"": 2524,
    "bs": 2525,
    "Ġsilence": 2526,
    "oof": 2527,
    "ĠĠĠĠĠĠĠĠĠĠĠĠĠĠĠĠĠĠĠĠĠĠĠĠ": 2528,
    "ĠGr": 2529,
    "Ġfight": 2530,
    "Ġcompany": 2531,
    "actly": 2532,
    "Ġdesp": 2533,
    "Ġprobably": 2534,
    "âĢĶâĢĶ": 2535,
    "âĢľM": 2536,
    "angu": 2537,
    "Ġemploy": 2538,
    "co": 2539,
    "Ġtaking": 2540,
    "ching": 2541,
    "Ġterri": 2542,
    "Ġlean": 2543,
    "sm": 2544,
    "--Ċ": 2545,
    "Ġsvoj": 2546,
    "Ġshout": 2547,
    "Ġmem": 2548,
    "ĠOr": 2549,
    "Ġgreen": 2550,
    "Ġheaven": 2551,
    "Ġmed": 2552,
    "vol": 2553,
    "inary": 2554,
    "Ġline": 2555,
    "anced": 2556,
    "Ġpeace": 2557,
    "ges": 2558,
    "Ġshoulder": 2559,
    "uous": 2560,
    "Ġideas": 2561,
    "Ġnj": 2562,
    "Ġdaughter": 2563,
    "Ġhorse": 2564,
    "itten": 2565,
    "oundation": 2566,
    "Ġcharacter": 2567,
    "iddle": 2568,
    "ĠAmeric": 2569,
    "Ġnecessary": 2570,
    "Ġpict": 2571,
    "Ġformer": 2572,
    "unk": 2573,
    "iding": 2574,
    ".âĢĻ": 2575,
    "Ġbuild": 2576,
    "Ġkid": 2577,
    "âĢĺI": 2578,
    "At": 2579,
    "ĠChar": 2580,
    ".E": 2581,
    "zz": 2582,
    "aged": 2583,
    "hall": 2584,
    "imp": 2585,
    "ĠWith": 2586,
    "Ġdesire": 2587,
    "Ġori": 2588,
    "Ġsatisf": 2589,
    "Ġburn": 2590,
    "Ġgaz": 2591,
    "ists": 2592,
    "antly": 2593,
    "noon": 2594,
    "Ġsky": 2595,
    "iced": 2596,
    ").": 2597,
    "Ġhappy": 2598,
    "AP": 2599,
    "Ġclosed": 2600,
    "miss": 2601,
    "Ġsweet": 2602,
    "Ġfine": 2603,
    "Ġdiffic": 2604,
    "ming": 2605,
    "Ġhall": 2606,
    "Ġage": 2607,
    "who": 2608,
    "Ġmaybe": 2609,
    "ĠRe": 2610,
    "pri": 2611,
    "Ġmakes": 2612,
    "Ġagre": 2613,
    "riage": 2614,
    "Ġlaughed": 2615,
    "ovi": 2616,
    "âĢľC": 2617,
    "Ġdut": 2618,
    "angdon": 2619,
    "Ġcity": 2620,
    "Ġtrees": 2621,
    "Ġdeterm": 2622,
    "Ġdoctor": 2623,
    "Ã¼eh": 2624,
    "23": 2625,
    "Ġer": 2626,
    "ength": 2627,
    "Ġbene": 2628,
    "ĠKing": 2629,
    "ries": 2630,
    "usion": 2631,
    "Ġtreat": 2632,
    "Ġchest": 2633,
    "Ġsmell": 2634,
    "Ġmi": 2635,
    "yond": 2636,
    "Ġnone": 2637,
    "Ġlate": 2638,
    "Ġcou": 2639,
    "Ġcaught": 2640,
    "ada": 2641,
    "ana": 2642,
    "Ġpaper": 2643,
    "Ġoblig": 2644,
    "ĠPar": 2645,
    "Ġmeant": 2646,
    "mand": 2647,
    "ĠEm": 2648,
    "ĠMary": 2649,
    "ĠLe": 2650,
    "SC": 2651,
    "val": 2652,
    "claim": 2653,
    "when": 2654,
    "Ġdress": 2655,
    "ĠStates": 2656,
    "Ġbeautiful": 2657,
    "Ġresol": 2658,
    "Ġeveryone": 2659,
    "Ġregard": 2660,
    "acked": 2661,
    "Ġpretty": 2662,
    "\"Oh": 2663,
    "Ġcrow": 2664,
    "Ġnjeg": 2665,
    "cend": 2666,
    "Ġproceed": 2667,
    "rug": 2668,
    "24": 2669,
    "Ġscream": 2670,
    "Ġnice": 2671,
    "ortion": 2672,
    "irm": 2673,
    "ĠDr": 2674,
    "Ġeat": 2675,
    "umst": 2676,
    "Ġoffic": 2677,
    "âĢĶâĢĿĊ": 2678,
    "cript": 2679,
    "rance": 2680,
    "hel": 2681,
    "Ġyourself": 2682,
    "gl": 2683,
    "oured": 2684,
    "._Ċ": 2685,
    "Ġsend": 2686,
    "Ġduring": 2687,
    "Ġentire": 2688,
    "cal": 2689,
    "?âĢĻ": 2690,
    "Ġdam": 2691,
    "Ġdanger": 2692,
    "oph": 2693,
    "tained": 2694,
    "âĢľThat": 2695,
    "Ġrose": 2696,
    "Ġlab": 2697,
    "rag": 2698,
    "ĠreÄįe": 2699,
    "Ġcast": 2700,
    "icha": 2701,
    "Ġnatural": 2702,
    "IL": 2703,
    "inter": 2704,
    "ecause": 2705,
    "Ġgun": 2706,
    "inct": 2707,
    "âĢľBut": 2708,
    "ected": 2709,
    "ĠFoundation": 2710,
    "Ġwarm": 2711,
    "Ġele": 2712,
    "Ġfool": 2713,
    "Ġorigin": 2714,
    "ĠHen": 2715,
    "Ġwit": 2716,
    "bling": 2717,
    "Ġfood": 2718,
    "Ġweek": 2719,
    "ories": 2720,
    "ont": 2721,
    "Ġquickly": 2722,
    "ris": 2723,
    "Ġknows": 2724,
    "itchen": 2725,
    "Ġyell": 2726,
    "Ġpriv": 2727,
    "Ġknowledge": 2728,
    "Ġneck": 2729,
    "ĠWell": 2730,
    "fl": 2731,
    "Ġgirls": 2732,
    "ipped": 2733,
    "Ġeng": 2734,
    "Ġrock": 2735,
    "Ġjob": 2736,
    "-Ā-Ā": 2737,
    "Ġcourt": 2738,
    "ilt": 2739,
    "Ġparts": 2740,
    "Ġbare": 2741,
    "Ġwis": 2742,
    "Ġdet": 2743,
    "cent": 2744,
    "upon": 2745,
    "Ġdraw": 2746,
    "Ġthr": 2747,
    "Ġapart": 2748,
    "ics": 2749,
    "Ġwild": 2750,
    "CT": 2751,
    "Ġsold": 2752,
    "Ġhist": 2753,
    "Ġjoy": 2754,
    "ĠDe": 2755,
    "Ġclot": 2756,
    "lj": 2757,
    "Ġviol": 2758,
    "can": 2759,
    "down": 2760,
    "//": 2761,
    "Ġkao": 2762,
    "AM": 2763,
    "rel": 2764,
    "eor": 2765,
    "Ġappeared": 2766,
    ",)": 2767,
    "âĢľL": 2768,
    "Ġinn": 2769,
    "Ġready": 2770,
    "pper": 2771,
    "ki": 2772,
    "ĆĊ": 2773,
    "ys": 2774,
    "Ġbright": 2775,
    "Ġboys": 2776,
    "Ġmount": 2777,
    "Ġenem": 2778,
    "Ġbeyond": 2779,
    "Ġself": 2780,
    "Ġempt": 2781,
    "Ġsen": 2782,
    "Ġwatched": 2783,
    "ĠPao": 2784,
    "Ġglad": 2785,
    "ises": 2786,
    "iny": 2787,
    "Ġfif": 2788,
    "pered": 2789,
    "Ġlived": 2790,
    "Ġshar": 2791,
    "ĠCar": 2792,
    "Ġcomes": 2793,
    "Well": 2794,
    "îģ": 2795,
    "Ġbear": 2796,
    "Ġhop": 2797,
    "amed": 2798,
    "iÅ¡": 2799,
    "des": 2800,
    "St": 2801,
    "Ġfurther": 2802,
    "âĢĶĊ": 2803,
    "22": 2804,
    "Ġconsequ": 2805,
    "Ġgentleman": 2806,
    "Ġpost": 2807,
    "ĠBy": 2808,
    "Ġfollowed": 2809,
    "bar": 2810,
    "ĠAd": 2811,
    "</": 2812,
    "Ġsal": 2813,
    "CE": 2814,
    "reng": 2815,
    "ĠPe": 2816,
    "ĠLet": 2817,
    "Ġholding": 2818,
    "APTER": 2819,
    "Ġdied": 2820,
    "Ġactually": 2821,
    "Ġmain": 2822,
    "Ġmor": 2823,
    "uss": 2824,
    "ĠSam": 2825,
    "Ġtight": 2826,
    "aÅ¡e": 2827,
    "Ġord": 2828,
    "reg": 2829,
    "ĠQu": 2830,
    "Ġpurpose": 2831,
    "Ġslight": 2832,
    "cell": 2833,
    "Ġchi": 2834,
    "oose": 2835,
    "Ġdeg": 2836,
    "ĠOf": 2837,
    "bered": 2838,
    "Ġclos": 2839,
    "aÅ¡": 2840,
    "Ġsometimes": 2841,
    "Is": 2842,
    "Ġafternoon": 2843,
    "gy": 2844,
    "een": 2845,
    "Ġdie": 2846,
    "SE": 2847,
    "Ġfinally": 2848,
    "Ġdistribut": 2849,
    "olly": 2850,
    "Ġguess": 2851,
    "Ġbox": 2852,
    "Ġtrouble": 2853,
    "lt": 2854,
    "bing": 2855,
    "Ġanim": 2856,
    "Ġlength": 2857,
    "idge": 2858,
    "Ġgovernment": 2859,
    "ogn": 2860,
    "CHAPTER": 2861,
    "ING": 2862,
    "Ġraised": 2863,
    "count": 2864,
    "ĠInd": 2865,
    "ils": 2866,
    "ham": 2867,
    "ume": 2868,
    "ĠEvery": 2869,
    "En": 2870,
    "Ġquar": 2871,
    "your": 2872,
    "Ġdeal": 2873,
    "Ġenjoy": 2874,
    "ĠOh": 2875,
    "Ġcomplete": 2876,
    "just": 2877,
    "itation": 2878,
    "Ġx": 2879,
    "iving": 2880,
    "ites": 2881,
    "Ġoffice": 2882,
    "enn": 2883,
    "teen": 2884,
    "Ġscar": 2885,
    "ĠPhil": 2886,
    "sec": 2887,
    "âĢľG": 2888,
    "uan": 2889,
    "Ġopinion": 2890,
    "âĢľB": 2891,
    "ciety": 2892,
    "Ā?": 2893,
    "Ġbaby": 2894,
    "Ġphone": 2895,
    "\"Well": 2896,
    "Ġund": 2897,
    "ium": 2898,
    "Ġrain": 2899,
    "ggest": 2900,
    "posed": 2901,
    "said": 2902,
    "Ġjer": 2903,
    "Ġequal": 2904,
    "âĤ¬âĦ¢": 2905,
    "ĠAfter": 2906,
    "ĠFather": 2907,
    "asp": 2908,
    "163": 2909,
    "\"But": 2910,
    "comp": 2911,
    "ivers": 2912,
    "Ġmention": 2913,
    "eah": 2914,
    "Ġsens": 2915,
    "His": 2916,
    "\">": 2917,
    "after": 2918,
    "ift": 2919,
    "even": 2920,
    "Ă!": 2921,
    "Ġtrain": 2922,
    "every": 2923,
    "illy": 2924,
    "been": 2925,
    "ED": 2926,
    "Ġcorner": 2927,
    "Ġaccept": 2928,
    "Ġliber": 2929,
    "tis": 2930,
    "Ġfield": 2931,
    "Ġkitchen": 2932,
    "Ġshut": 2933,
    "ï¿½ï¿½ï¿½ï¿½": 2934,
    "Ġdelight": 2935,
    "ires": 2936,
    "peror": 2937,
    "Ġhill": 2938,
    "arents": 2939,
    "Ġchance": 2940,
    "Ġexperi": 2941,
    "Ġchange": 2942,
    "Ġwatching": 2943,
    "Ġrelig": 2944,
    "Ġmess": 2945,
    "Ġagree": 2946,
    "Ġlegs": 2947,
    "Ġpassion": 2948,
    "Ġbird": 2949,
    "acy": 2950,
    "26": 2951,
    "Ġtree": 2952,
    "gan": 2953,
    "vere": 2954,
    "ager": 2955,
    "Ġthro": 2956,
    "ĠSome": 2957,
    "Ġver": 2958,
    "Ġot": 2959,
    "ĒĊ": 2960,
    "âĢľWe": 2961,
    "bor": 2962,
    "face": 2963,
    "Ġled": 2964,
    "Ġheavy": 2965,
    "Ġrunning": 2966,
    "Ġbeauty": 2967,
    "30": 2968,
    "fer": 2969,
    "Ġscene": 2970,
    "kes": 2971,
    "Ġsad": 2972,
    "ustom": 2973,
    "Ġriver": 2974,
    "Ġstared": 2975,
    "ione": 2976,
    "Ġcontinued": 2977,
    "Ġpock": 2978,
    "Ġaccom": 2979,
    "dist": 2980,
    "ooking": 2981,
    "happ": 2982,
    "Ġeight": 2983,
    "Ġexpression": 2984,
    "isted": 2985,
    "Ġsilent": 2986,
    "again": 2987,
    "Ġvisit": 2988,
    "race": 2989,
    "rang": 2990,
    "Ġneeded": 2991,
    "Ġstri": 2992,
    "ancy": 2993,
    "Ġlad": 2994,
    "ator": 2995,
    "ĠTess": 2996,
    "esty": 2997,
    "rank": 2998,
    "Ġexactly": 2999,
    "ĠHar": 3000,
    "ases": 3001,
    "âĢľY": 3002,
    "ĠEl": 3003,
    "iment": 3004,
    "than": 3005,
    "ptain": 3006,
    "formed": 3007,
    "Ġpract": 3008,
    "Åĵ": 3009,
    "Ġconvers": 3010,
    "unch": 3011,
    "Ġimpos": 3012,
    "van": 3013,
    "uation": 3014,
    "Ġsupport": 3015,
    "da": 3016,
    "play": 3017,
    "ora": 3018,
    "then": 3019,
    "Ġfollowing": 3020,
    "ram": 3021,
    "Ġthoughts": 3022,
    "28": 3023,
    "stant": 3024,
    "aret": 3025,
    "Ġsick": 3026,
    "ences": 3027,
    "Åł": 3028,
    "Äįi": 3029,
    "ork": 3030,
    "Ġbag": 3031,
    "po": 3032,
    "Ġstone": 3033,
    "ua": 3034,
    "Ġdecided": 3035,
    "Ġadded": 3036,
    "onel": 3037,
    "Ġsac": 3038,
    "ital": 3039,
    "Ġeff": 3040,
    "set": 3041,
    "Ġpaid": 3042,
    "span": 3043,
    "?'": 3044,
    "Ġfast": 3045,
    "Ġplease": 3046,
    "Ġmonths": 3047,
    "Ġbound": 3048,
    "Pro": 3049,
    "Ġsuffic": 3050,
    "Ġfellow": 3051,
    "ision": 3052,
    "iles": 3053,
    "should": 3054,
    "ivid": 3055,
    "ald": 3056,
    "ception": 3057,
    "ica": 3058,
    "ĠEven": 3059,
    "ĠGar": 3060,
    "aju": 3061,
    "roy": 3062,
    "Ġcry": 3063,
    "'ing": 3064,
    "adem": 3065,
    "ĠMa": 3066,
    "Ġthin": 3067,
    "27": 3068,
    "olute": 3069,
    "Ġminute": 3070,
    "ibre": 3071,
    "Ġkne": 3072,
    "Be": 3073,
    "Ġsol": 3074,
    "Ġvill": 3075,
    "âĤ¬Åĵ": 3076,
    "gu": 3077,
    "ĠLu": 3078,
    "acks": 3079,
    "ference": 3080,
    "ĔĊ": 3081,
    "Ġsimply": 3082,
    "Ġcre": 3083,
    "Ā'Ā": 3084,
    ")Ċ": 3085,
    "mione": 3086,
    "Her": 3087,
    "Ġpred": 3088,
    "Ġbeneath": 3089,
    "Ġwritten": 3090,
    "kind": 3091,
    "Ġsuggest": 3092,
    "Ġsteps": 3093,
    "pers": 3094,
    "hys": 3095,
    "\"G": 3096,
    "raph": 3097,
    "ijem": 3098,
    "ěĊ": 3099,
    "calibre": 3100,
    "ean": 3101,
    "did": 3102,
    "reen": 3103,
    "Wh": 3104,
    "time": 3105,
    "mother": 3106,
    "Ġrepe": 3107,
    "Ġimmediately": 3108,
    "spect": 3109,
    "Å¡i": 3110,
    "ining": 3111,
    "Ġelectronic": 3112,
    "âĢĶand": 3113,
    "An": 3114,
    "Ġconcl": 3115,
    "Ġearly": 3116,
    "uses": 3117,
    "ingly": 3118,
    "Ġfollow": 3119,
    "Ġpen": 3120,
    "----": 3121,
    "Ġclean": 3122,
    "Ġrepresent": 3123,
    "ignor": 3124,
    "Ġprep": 3125,
    "Ġservant": 3126,
    "rief": 3127,
    "Ġder": 3128,
    "LI": 3129,
    "ational": 3130,
    "TH": 3131,
    "ky": 3132,
    "uture": 3133,
    "Ġclim": 3134,
    "Ġden": 3135,
    "ĠPaul": 3136,
    "Ġdu": 3137,
    "Ġempty": 3138,
    "Ġcircumst": 3139,
    "ĠJul": 3140,
    "Ġstreng": 3141,
    "Ġobserved": 3142,
    "Ġlim": 3143,
    "attle": 3144,
    "Ġpot": 3145,
    "Ġremain": 3146,
    "ode": 3147,
    "rich": 3148,
    "âĤ¬Ā": 3149,
    "resh": 3150,
    "Ġhaven": 3151,
    "Ġwaited": 3152,
    "Ġemp": 3153,
    "hap": 3154,
    "Ġtax": 3155,
    "Ġlie": 3156,
    "ĠRon": 3157,
    "something": 3158,
    "Ġpersons": 3159,
    "Ġpra": 3160,
    "Ġlo": 3161,
    "Ġbell": 3162,
    "Ġweak": 3163,
    "ĠÉ¹": 3164,
    "ĠAunt": 3165,
    "pon": 3166,
    "Ġtears": 3167,
    "ĠEnglish": 3168,
    "Ġcup": 3169,
    "Ġclothes": 3170,
    "ourse": 3171,
    "rench": 3172,
    "into": 3173,
    "zy": 3174,
    "ophie": 3175,
    "Ġhell": 3176,
    "aded": 3177,
    "Ġmir": 3178,
    "ĠLady": 3179,
    "Ġhang": 3180,
    "-d": 3181,
    "Ġseeing": 3182,
    "ND": 3183,
    "otten": 3184,
    "Ġdarkness": 3185,
    "69": 3186,
    "LA": 3187,
    "ĠĊ": 3188,
    "nu": 3189,
    "atur": 3190,
    "arm": 3191,
    "cient": 3192,
    "Ġsingle": 3193,
    "know": 3194,
    "RE": 3195,
    "iction": 3196,
    "Ġbooks": 3197,
    "Ġball": 3198,
    "uded": 3199,
    "\"The": 3200,
    "bec": 3201,
    "ĠBig": 3202,
    "Ġfortune": 3203,
    "iety": 3204,
    "reme": 3205,
    "Ġvirtue": 3206,
    "Enter": 3207,
    "-w": 3208,
    "Ġloved": 3209,
    "Ġthick": 3210,
    "Ġliked": 3211,
    "Ġmo": 3212,
    "Ġmut": 3213,
    "ĠMan": 3214,
    "stood": 3215,
    "Ġlangu": 3216,
    "af": 3217,
    "Ġinstead": 3218,
    "inite": 3219,
    "ĠMom": 3220,
    "Ġconduct": 3221,
    "hood": 3222,
    "Ã¦": 3223,
    "antage": 3224,
    "eav": 3225,
    "Ġwide": 3226,
    "lu": 3227,
    "alse": 3228,
    "ĠAb": 3229,
    "osop": 3230,
    "Ġimportant": 3231,
    "Ġbra": 3232,
    "'I": 3233,
    "ĠJack": 3234,
    "adame": 3235,
    "\"That": 3236,
    "Ġmiddle": 3237,
    "Ġfright": 3238,
    "house": 3239,
    "jed": 3240,
    "mp": 3241,
    "tic": 3242,
    "eorge": 3243,
    "ĠFl": 3244,
    "ĠTr": 3245,
    "cribed": 3246,
    "Ġconv": 3247,
    "Ġpick": 3248,
    "Ã¡": 3249,
    "Ġstar": 3250,
    "duced": 3251,
    "Ġmag": 3252,
    "Ġhurt": 3253,
    "Ġgrass": 3254,
    "Ġgov": 3255,
    "udd": 3256,
    "Ġbelow": 3257,
    "elle": 3258,
    "Ġnearly": 3259,
    "ĠNe": 3260,
    "great": 3261,
    "Ġcig": 3262,
    "Ġeasy": 3263,
    "Ġsmo": 3264,
    "ga": 3265,
    "Ġbroken": 3266,
    "ify": 3267,
    "ela": 3268,
    "âĢľO": 3269,
    "Ġmarried": 3270,
    "Ġbeginning": 3271,
    "Ġdinner": 3272,
    "anny": 3273,
    "erc": 3274,
    "ively": 3275,
    "Ġcertainly": 3276,
    "Ġcarried": 3277,
    "ENE": 3278,
    "Ġmoon": 3279,
    "Ġincre": 3280,
    "leep": 3281,
    "ander": 3282,
    "ata": 3283,
    "Ġrad": 3284,
    "rit": 3285,
    "iant": 3286,
    "cially": 3287,
    "ior": 3288,
    "ĠChia": 3289,
    "Ġsnow": 3290,
    "Ġain": 3291,
    "amer": 3292,
    "kn": 3293,
    "voj": 3294,
    "certain": 3295,
    "Ġgoes": 3296,
    "Ġcrowd": 3297,
    "Ġfavour": 3298,
    "zen": 3299,
    "rop": 3300,
    "mission": 3301,
    "29": 3302,
    "Ġforget": 3303,
    "Ġtoday": 3304,
    "Ġhit": 3305,
    "Ġinqu": 3306,
    "position": 3307,
    "sed": 3308,
    "-and": 3309,
    "orses": 3310,
    "Ġwhispered": 3311,
    ",ï¿½": 3312,
    "Ġcoun": 3313,
    "Ġattempt": 3314,
    "ixed": 3315,
    "Ġtired": 3316,
    "ashed": 3317,
    "hip": 3318,
    "through": 3319,
    "eness": 3320,
    "Ġmel": 3321,
    "ĠAnne": 3322,
    "Ġuncle": 3323,
    "sy": 3324,
    "Ġsett": 3325,
    "Ġthroat": 3326,
    "ann": 3327,
    "Ġmid": 3328,
    "stit": 3329,
    "Ġsi": 3330,
    "Ġhu": 3331,
    "iterary": 3332,
    "Ġgrew": 3333,
    "Ġhardly": 3334,
    "Ġdepend": 3335,
    "21": 3336,
    "Ġcomfort": 3337,
    "Ġcat": 3338,
    "Ġspent": 3339,
    "eml": 3340,
    "\"And": 3341,
    "ovitch": 3342,
    "Ġpure": 3343,
    "AS": 3344,
    "Ġkilled": 3345,
    "îģĵ": 3346,
    "has": 3347,
    "ĠUnited": 3348,
    "Ġï¬": 3349,
    "ĠJust": 3350,
    "ests": 3351,
    "ingu": 3352,
    "Ġpun": 3353,
    "Ġfat": 3354,
    "iber": 3355,
    "Ġscarce": 3356,
    "ĠYes": 3357,
    "Ġparents": 3358,
    "ĠLou": 3359,
    "Ġsole": 3360,
    "Ġwrite": 3361,
    "Ġmark": 3362,
    "Ġcopyright": 3363,
    "Ġplain": 3364,
    "Ġtall": 3365,
    "Ġfuture": 3366,
    "Ġbroke": 3367,
    "ĠEngland": 3368,
    "Ġpress": 3369,
    "âĢĶthe": 3370,
    "Ġchurch": 3371,
    "Ġwhe": 3372,
    "uted": 3373,
    "50": 3374,
    "Why": 3375,
    "ral": 3376,
    "Ġov": 3377,
    "aura": 3378,
    "Book": 3379,
    "Ġpoet": 3380,
    "Ġremained": 3381,
    "Ġshot": 3382,
    "Ġservice": 3383,
    "By": 3384,
    "Ġexpress": 3385,
    "ēĊ": 3386,
    "Ġpath": 3387,
    "Harry": 3388,
    "Ġlatter": 3389,
    "Ġmad": 3390,
    "Ġni": 3391,
    "ĠNor": 3392,
    "Ġdom": 3393,
    "aste": 3394,
    "ulty": 3395,
    "._]Ċ": 3396,
    "formation": 3397,
    "Ġmoving": 3398,
    "eed": 3399,
    "ĠMaybe": 3400,
    "Ġsociety": 3401,
    "Ġfilled": 3402,
    "âĢľP": 3403,
    "ĠMe": 3404,
    "Ġdan": 3405,
    "Ġcal": 3406,
    "Ġtalked": 3407,
    "Ġeasily": 3408,
    "wood": 3409,
    "Ġta": 3410,
    "Ġleaving": 3411,
    "abeth": 3412,
    "ĠThese": 3413,
    "Ġsilver": 3414,
    "new": 3415,
    "Ġwalking": 3416,
    "ille": 3417,
    "rail": 3418,
    "Al": 3419,
    "Ġattention": 3420,
    "mit": 3421,
    "acing": 3422,
    "Ġintell": 3423,
    "wen": 3424,
    "Ġphil": 3425,
    "ijeh": 3426,
    "Ġmotion": 3427,
    "Ġwond": 3428,
    "OU": 3429,
    "Ġones": 3430,
    "Ġsword": 3431,
    "\"He": 3432,
    "ï¿½ï¿½ï¿½ï¿½ï¿½": 3433,
    "Ġann": 3434,
    "work": 3435,
    "Ġnoticed": 3436,
    "orts": 3437,
    ",âĢĶ": 3438,
    "without": 3439,
    "min": 3440,
    "Ġcharge": 3441,
    "Ġhappen": 3442,
    "Ġdistance": 3443,
    "mn": 3444,
    "rol": 3445,
    "Ġagreement": 3446,
    "ivil": 3447,
    "Ā-Ā": 3448,
    "Ġteeth": 3449,
    "yn": 3450,
    "Ġspo": 3451,
    "Ġnoble": 3452,
    "Ġmusic": 3453,
    "Ġedge": 3454,
    "All": 3455,
    "Ġseat": 3456,
    "ĠBlack": 3457,
    "pass": 3458,
    "lling": 3459,
    "iers": 3460,
    "Ġyouth": 3461,
    "idered": 3462,
    "Ġremembered": 3463,
    "Ġrich": 3464,
    "Ġgame": 3465,
    "Ġahead": 3466,
    "gn": 3467,
    "Ġship": 3468,
    "Ġvan": 3469,
    "Ġloud": 3470,
    "đĂ": 3471,
    "Ġla": 3472,
    "oses": 3473,
    "Ġduty": 3474,
    "cies": 3475,
    "Ġpiece": 3476,
    "Ġrecogn": 3477,
    "Ġturning": 3478,
    "ounds": 3479,
    "Ġ[_": 3480,
    "ĠPeter": 3481,
    "Ġnose": 3482,
    "Ġstaring": 3483,
    "Ġwalls": 3484,
    "andy": 3485,
    "Ġgri": 3486,
    "Ġneg": 3487,
    "lsa": 3488,
    "jih": 3489,
    "rs": 3490,
    "Ġremark": 3491,
    "Ġtom": 3492,
    "Ġlj": 3493,
    "hadow": 3494,
    "Ġprevent": 3495,
    "ague": 3496,
    "rap": 3497,
    "Ġsupposed": 3498,
    "Ġtit": 3499,
    "Ġwine": 3500,
    "Ġpale": 3501,
    "ĠBar": 3502,
    "bour": 3503,
    "Ġtele": 3504,
    "Ġshoulders": 3505,
    "Ġlaid": 3506,
    "ija": 3507,
    "ese": 3508,
    "Ġrealized": 3509,
    "Ġdrew": 3510,
    "Ġworked": 3511,
    "thy": 3512,
    "ividual": 3513,
    "omer": 3514,
    "Ġtu": 3515,
    "40": 3516,
    "ience": 3517,
    "Ġsand": 3518,
    "odies": 3519,
    "Ġstrength": 3520,
    "Ġsafe": 3521,
    "Ġgrou": 3522,
    "ables": 3523,
    "ĠSe": 3524,
    "Ġchief": 3525,
    "Ġimpossible": 3526,
    "Ġestab": 3527,
    "Ġtakes": 3528,
    "Ġservants": 3529,
    "Ġthird": 3530,
    "ĠWh": 3531,
    "die": 3532,
    "Ġtrust": 3533,
    "ANT": 3534,
    "âĢľWhy": 3535,
    "ichard": 3536,
    "Ġlying": 3537,
    "Ġtelling": 3538,
    "ĠLangdon": 3539,
    "jem": 3540,
    "friend": 3541,
    "ION": 3542,
    "action": 3543,
    "Ġjudg": 3544,
    "Ġbrown": 3545,
    "rep": 3546,
    "Ġcondition": 3547,
    "before": 3548,
    "bet": 3549,
    "Ġokay": 3550,
    "Ġspot": 3551,
    "Let": 3552,
    "aled": 3553,
    "Ġdoll": 3554,
    "ĠCol": 3555,
    "Ġparty": 3556,
    "Ġprev": 3557,
    "acher": 3558,
    "roud": 3559,
    "pecially": 3560,
    "ips": 3561,
    "Ġfrequ": 3562,
    "Ġfalse": 3563,
    "Ġgarden": 3564,
    "ĠSim": 3565,
    "hapter": 3566,
    "Ġcru": 3567,
    "ĠWilliam": 3568,
    "lease": 3569,
    "ĠĠĠ": 3570,
    "ĠAm": 3571,
    "ays": 3572,
    "Ġworking": 3573,
    "Ġwhatever": 3574,
    "RI": 3575,
    "Ġnote": 3576,
    "oom": 3577,
    "Ġfit": 3578,
    "lrich": 3579,
    "Ġattend": 3580,
    "Ġstepped": 3581,
    "Ġsummer": 3582,
    "rect": 3583,
    "stem": 3584,
    "ĠHermione": 3585,
    "cience": 3586,
    "ila": 3587,
    "Ġflat": 3588,
    "bi": 3589,
    "Ġnarod": 3590,
    "Ġring": 3591,
    "ĠHeaven": 3592,
    "ruct": 3593,
    "Ġhappiness": 3594,
    "ĠPl": 3595,
    "fess": 3596,
    "ushing": 3597,
    "ston": 3598,
    "Ġtouch": 3599,
    "Ġcell": 3600,
    "SCENE": 3601,
    "Ġarrived": 3602,
    "Ġdrug": 3603,
    "Ġgreatest": 3604,
    "Ġpocket": 3605,
    "Ġpal": 3606,
    "ēĂ": 3607,
    "THE": 3608,
    "Ġblind": 3609,
    "bel": 3610,
    "Ġty": 3611,
    "Ġmiles": 3612,
    "itary": 3613,
    "âĢĶI": 3614,
    "Ġexperience": 3615,
    "Ġimm": 3616,
    "Ġdesk": 3617,
    "Ġvain": 3618,
    "Ġpicked": 3619,
    "ĠJer": 3620,
    "Ġconfess": 3621,
    "ani": 3622,
    "Ġjustice": 3623,
    "Ġauthority": 3624,
    "Ġpleased": 3625,
    "Ġshowed": 3626,
    "jega": 3627,
    "ĠSh": 3628,
    "raw": 3629,
    "_]Ċ": 3630,
    "Ġstick": 3631,
    "ĠMme": 3632,
    "Ġcontrary": 3633,
    "Ġmaid": 3634,
    "Ġfle": 3635,
    "ba": 3636,
    "aken": 3637,
    "icate": 3638,
    "ourage": 3639,
    "Ġmerely": 3640,
    "Ġtor": 3641,
    "ĠFrance": 3642,
    ".ï¿½Ċ": 3643,
    "33": 3644,
    "Ġfigure": 3645,
    "Ġmistress": 3646,
    "Ġsong": 3647,
    "Ġdepart": 3648,
    "imin": 3649,
    "together": 3650,
    "erved": 3651,
    "Ġthrow": 3652,
    "Ġnews": 3653,
    "Ġpresence": 3654,
    "Ġproble": 3655,
    "mber": 3656,
    "stairs": 3657,
    "Ġobliged": 3658,
    "ouses": 3659,
    "rey": 3660,
    "comm": 3661,
    "ishing": 3662,
    "Ġenc": 3663,
    "dered": 3664,
    "Ġgrad": 3665,
    "ortunity": 3666,
    "³¦": 3667,
    "à³¦": 3668,
    "father": 3669,
    "Ġterrible": 3670,
    "Ġja": 3671,
    "only": 3672,
    "bro": 3673,
    "Ġpod": 3674,
    "Just": 3675,
    "Ġraz": 3676,
    "Ġfinished": 3677,
    "ye": 3678,
    "aching": 3679,
    "Ġdread": 3680,
    "ĠĀï¿½Āï¿½Āï¿½Āï¿½Ā": 3681,
    "âĢľHow": 3682,
    "Ġhorses": 3683,
    "Ġmass": 3684,
    "Ġlearned": 3685,
    "ato": 3686,
    "Ġdemand": 3687,
    "Ġneigh": 3688,
    "Ġbeat": 3689,
    "ąēĘ": 3690,
    "Do": 3691,
    "Ġid": 3692,
    "ech": 3693,
    "jo": 3694,
    "long": 3695,
    "Ġdropped": 3696,
    "ĠHenry": 3697,
    "gov": 3698,
    "sha": 3699,
    "ĠFrench": 3700,
    "oves": 3701,
    "ĠGree": 3702,
    "Ġstruck": 3703,
    "alous": 3704,
    "ari": 3705,
    "Ġglanced": 3706,
    "Ġpicture": 3707,
    "ÃŃ": 3708,
    "Ġendeav": 3709,
    "ĠHs": 3710,
    "Ġtender": 3711,
    "ument": 3712,
    "Ġreceive": 3713,
    "Ġweeks": 3714,
    "\"M": 3715,
    "ĠPo": 3716,
    "Ġourselves": 3717,
    "ĠSophie": 3718,
    "Ġstuff": 3719,
    "Ġfaint": 3720,
    "Ġfro": 3721,
    "Ġreven": 3722,
    "Ġbelong": 3723,
    "eless": 3724,
    "Ġfly": 3725,
    "Ġalthough": 3726,
    "see": 3727,
    "_Ċ": 3728,
    "istance": 3729,
    "Ġmill": 3730,
    "Ġcatch": 3731,
    "Ġpolice": 3732,
    "iance": 3733,
    "Ġrub": 3734,
    "====": 3735,
    "upid": 3736,
    "Gutenberg": 3737,
    "Ġabsolute": 3738,
    "Ġwearing": 3739,
    "icense": 3740,
    "istr": 3741,
    "atic": 3742,
    "Ġdisappe": 3743,
    "riet": 3744,
    "Ġarg": 3745,
    "Ġwants": 3746,
    "Ġyellow": 3747,
    "ounded": 3748,
    "Ġcloud": 3749,
    "thought": 3750,
    "Ġjump": 3751,
    "ugust": 3752,
    "illa": 3753,
    "por": 3754,
    "Ġsuffer": 3755,
    "Chapter": 3756,
    "ĠeBook": 3757,
    "ENT": 3758,
    "Ġworse": 3759,
    "iod": 3760,
    "ĠGeorge": 3761,
    "!âĢĻ": 3762,
    "Ġboat": 3763,
    "Ġshadow": 3764,
    "Ġchanged": 3765,
    "Ġmot": 3766,
    "ĠLy": 3767,
    "Ġbuilding": 3768,
    "Ġquietly": 3769,
    "ĠGu": 3770,
    "Ġwondered": 3771,
    "Ġreading": 3772,
    "Ġladies": 3773,
    "Ġgrow": 3774,
    "ented": 3775,
    "ĠMother": 3776,
    "Ġwin": 3777,
    "Ġih": 3778,
    "Ġconversation": 3779,
    "standing": 3780,
    "rael": 3781,
    "One": 3782,
    "Ġvr": 3783,
    "Ġpointed": 3784,
    "Mrs": 3785,
    "Ġunf": 3786,
    "ency": 3787,
    "ēĔĂ": 3788,
    "Ġnobody": 3789,
    "Ġfresh": 3790,
    "ĠâĢł": 3791,
    "cap": 3792,
    "lett": 3793,
    "ishment": 3794,
    "aries": 3795,
    "After": 3796,
    "bes": 3797,
    "Ġalive": 3798,
    "ĠRoman": 3799,
    "Ġcoff": 3800,
    "Ġdep": 3801,
    "rill": 3802,
    "Ã¨": 3803,
    "Ġcouple": 3804,
    "Ġcarry": 3805,
    "Ġfinger": 3806,
    "arily": 3807,
    "AG": 3808,
    "iments": 3809,
    "Ġrail": 3810,
    "want": 3811,
    "\"C": 3812,
    "uly": 3813,
    "mitted": 3814,
    "umed": 3815,
    "Ġdesign": 3816,
    "ĠDick": 3817,
    "Ġuz": 3818,
    "Ġdegree": 3819,
    "think": 3820,
    "ĠChin": 3821,
    "Ġvict": 3822,
    "agg": 3823,
    "Or": 3824,
    "Ġevil": 3825,
    "-g": 3826,
    "Ġmoj": 3827,
    "Ġpati": 3828,
    "ali": 3829,
    "Ġcost": 3830,
    "ondon": 3831,
    "Ġwindows": 3832,
    "Ġsuper": 3833,
    "ï¿½Āï¿½Āï¿½Āï¿½Āï¿½Āï¿½Ā": 3834,
    "Ġappre": 3835,
    "bur": 3836,
    "ï¿½Āï¿½Āï¿½Āï¿½Āï¿½Āï¿½Āï¿½Ā": 3837,
    "za": 3838,
    "Ġsepar": 3839,
    "ĠĀï¿½Āï¿½Āï¿½Āï¿½Āï¿½Āï¿½Āï¿½Āï¿½Āï¿½Āï¿½Āï¿½Ā": 3840,
    "anna": 3841,
    "ĠGarp": 3842,
    "Ġprivate": 3843,
    "\"H": 3844,
    "iliar": 3845,
    "Ġconce": 3846,
    "Ġentered": 3847,
    "pond": 3848,
    "ĠchÃ¼an": 3849,
    "Ġnerv": 3850,
    "Ġsurprised": 3851,
    "quis": 3852,
    "Ġposition": 3853,
    "ĠYork": 3854,
    "Ġgrab": 3855,
    "ĠSw": 3856,
    ",Ă": 3857,
    "\"We": 3858,
    "Ġtiny": 3859,
    "Ġdust": 3860,
    "ĠSer": 3861,
    "Ġbless": 3862,
    "Ġproduce": 3863,
    "Ġvillage": 3864,
    "ĠCast": 3865,
    "Ġpu": 3866,
    "Ġaccess": 3867,
    "Ġshouted": 3868,
    "overn": 3869,
    "ĚĊ": 3870,
    "Ġfaces": 3871,
    "ĠJew": 3872,
    "agraph": 3873,
    "Every": 3874,
    "Ġasks": 3875,
    "such": 3876,
    "cceed": 3877,
    "alad": 3878,
    "ĠEx": 3879,
    "Ġcover": 3880,
    "orted": 3881,
    "Ġoffer": 3882,
    "Ġnjih": 3883,
    "Ġhig": 3884,
    "ĠMon": 3885,
    "Ġafterwards": 3886,
    "ived": 3887,
    "rant": 3888,
    "ternal": 3889,
    "Ġliberty": 3890,
    "Ġcalm": 3891,
    "Ġdry": 3892,
    "ĠBill": 3893,
    ",--": 3894,
    "UT": 3895,
    "-in": 3896,
    "Ġloc": 3897,
    "Ġcovered": 3898,
    "aff": 3899,
    "ox": 3900,
    "ancholy": 3901,
    "Ġignor": 3902,
    "Ġvid": 3903,
    "Ġfol": 3904,
    "Ġko": 3905,
    "Êĥ": 3906,
    "Ġbow": 3907,
    "ding": 3908,
    "Ġdoth": 3909,
    "From": 3910,
    "Ġspread": 3911,
    "udden": 3912,
    "Ġble": 3913,
    "'T": 3914,
    "IC": 3915,
    "Ġdifficult": 3916,
    "ighed": 3917,
    "Ġcab": 3918,
    "view": 3919,
    "Ġspring": 3920,
    "ades": 3921,
    "Ġremind": 3922,
    "itable": 3923,
    "Ġindividual": 3924,
    "IM": 3925,
    "ajor": 3926,
    "sit": 3927,
    "Ġdrag": 3928,
    "Ġemperor": 3929,
    "_.": 3930,
    "Ġstret": 3931,
    "Ġspecial": 3932,
    "Ġwrote": 3933,
    "Ġwise": 3934,
    "-room": 3935,
    "cher": 3936,
    "Ġgiving": 3937,
    "tering": 3938,
    "ĠYet": 3939,
    "Ġcheck": 3940,
    "ala": 3941,
    "Ġobjects": 3942,
    "Ġgrace": 3943,
    "Ġexistence": 3944,
    "ĠParis": 3945,
    "Ġlifted": 3946,
    "Your": 3947,
    "ĠWang": 3948,
    "sem": 3949,
    "Ġconsidered": 3950,
    "ĠChristian": 3951,
    "alled": 3952,
    "OS": 3953,
    "ipp": 3954,
    "irth": 3955,
    "Ġcoat": 3956,
    "Ġusual": 3957,
    "Ġvalue": 3958,
    "Ġhistory": 3959,
    "ĠCa": 3960,
    "ĠMadam": 3961,
    "35": 3962,
    "Ġconqu": 3963,
    "Ġexec": 3964,
    "Ġleaves": 3965,
    "yr": 3966,
    "Ġplaces": 3967,
    "!--": 3968,
    "acc": 3969,
    "-st": 3970,
    "Ġluck": 3971,
    "aga": 3972,
    "Ġsimple": 3973,
    "ilia": 3974,
    "Ġgro": 3975,
    "pet": 3976,
    "Ġextreme": 3977,
    "kin": 3978,
    "zed": 3979,
    "ĠAg": 3980,
    "Ġadvantage": 3981,
    "Ġpushed": 3982,
    "ĠMc": 3983,
    "much": 3984,
    "Ġextra": 3985,
    "ĠRome": 3986,
    "Ġpat": 3987,
    "Ąą": 3988,
    "isc": 3989,
    "Ġdisp": 3990,
    "Ġsomewhere": 3991,
    "Ġdoors": 3992,
    "Ġappearance": 3993,
    "ĠBog": 3994,
    "Ġsituation": 3995,
    "Ã³": 3996,
    "Ġaction": 3997,
    "ĠHere": 3998,
    "Ġspeaking": 3999,
    "Ġzeml": 4000,
    "Ġphot": 4001,
    "alley": 4002,
    "Ġfault": 4003,
    "Who": 4004,
    "Ġnames": 4005,
    "Ġcand": 4006,
    "top": 4007,
    "idden": 4008,
    "Ġlives": 4009,
    "Ġcred": 4010,
    "ï¿½s": 4011,
    "bles": 4012,
    "Ġmadam": 4013,
    "Ġgaze": 4014,
    "37": 4015,
    "Ġshirt": 4016,
    "Ġentirely": 4017,
    "Ġdad": 4018,
    "Ġprince": 4019,
    "Ġangry": 4020,
    "ĠCharles": 4021,
    "Ġguard": 4022,
    "Ġpan": 4023,
    "eneral": 4024,
    "Ġturns": 4025,
    "ardon": 4026,
    "Ġwriting": 4027,
    "Ġ\\'": 4028,
    "icious": 4029,
    "Ġentertain": 4030,
    "Ġpossib": 4031,
    "ethod": 4032,
    "fast": 4033,
    "ashing": 4034,
    "ford": 4035,
    "ĠLouis": 4036,
    "ĠVer": 4037,
    "omach": 4038,
    "ui": 4039,
    "Ġkoj": 4040,
    "Ġeverybody": 4041,
    "Ġlearn": 4042,
    "Ġphys": 4043,
    "ula": 4044,
    "\"T": 4045,
    "Ġstore": 4046,
    "Ġtone": 4047,
    "sub": 4048,
    "Ġnotice": 4049,
    "Ġbarely": 4050,
    "Ġspace": 4051,
    "acqu": 4052,
    "Ġperiod": 4053,
    "clock": 4054,
    "Ġbeha": 4055,
    "Ġii": 4056,
    "ĠDa": 4057,
    "ourt": 4058,
    "ashion": 4059,
    "Ġcamp": 4060,
    "39": 4061,
    "Ġaut": 4062,
    "hank": 4063,
    "-san": 4064,
    "Ġleaned": 4065,
    "Ġreign": 4066,
    "Ġost": 4067,
    "Ġdiscover": 4068,
    "field": 4069,
    "keep": 4070,
    "ahu": 4071,
    "Ġmarry": 4072,
    "Ġexcell": 4073,
    "sl": 4074,
    "ĠLaura": 4075,
    "ĠAmerican": 4076,
    "Ġiron": 4077,
    "ĠDad": 4078,
    "ĠCharl": 4079,
    "habit": 4080,
    "Ġimper": 4081,
    "ĠDu": 4082,
    "cked": 4083,
    "Ġenter": 4084,
    "Ġwore": 4085,
    "ąě": 4086,
    "Ġpride": 4087,
    "Ġphilosop": 4088,
    "34": 4089,
    "ćĊ": 4090,
    "Ġreach": 4091,
    "Ġblank": 4092,
    "himself": 4093,
    "Ġanx": 4094,
    "spe": 4095,
    "ĠPerhaps": 4096,
    "Ġletters": 4097,
    "Ġprison": 4098,
    "Ġallow": 4099,
    "âĢľSo": 4100,
    "Ġgives": 4101,
    "ĠHomer": 4102,
    "Ġgrin": 4103,
    "LO": 4104,
    "ĠPhilip": 4105,
    "Ġenemy": 4106,
    "Ġanybody": 4107,
    "ĠOnly": 4108,
    "aladin": 4109,
    "Ġseven": 4110,
    "ortes": 4111,
    "Ġroof": 4112,
    "Ġstairs": 4113,
    "ĠLike": 4114,
    "might": 4115,
    "Ġsomebody": 4116,
    "Ġmeaning": 4117,
    "because": 4118,
    "Ġquestions": 4119,
    "Ġstat": 4120,
    "Ġtrem": 4121,
    "36": 4122,
    "ulous": 4123,
    "Ġoppos": 4124,
    "Ġlanguage": 4125,
    "Äĳu": 4126,
    "ĠTessa": 4127,
    "Ġsave": 4128,
    "little": 4129,
    "Ġdistingu": 4130,
    "Ġborn": 4131,
    "Ġcigaret": 4132,
    "umbledore": 4133,
    "fessor": 4134,
    "arlett": 4135,
    "Ġexpected": 4136,
    "Ġur": 4137,
    "perior": 4138,
    ":_": 4139,
    "chive": 4140,
    "uddenly": 4141,
    "Ġknees": 4142,
    "claimed": 4143,
    "ĠâĢŀ": 4144,
    "ember": 4145,
    "Ġthrew": 4146,
    "Ġsharp": 4147,
    "lex": 4148,
    "uding": 4149,
    "Ġmarriage": 4150,
    "Ġnorth": 4151,
    "Ġpop": 4152,
    "Ġproportion": 4153,
    "âĢľNot": 4154,
    "Ġpolit": 4155,
    "ĠIsrael": 4156,
    "ĠThus": 4157,
    "oe": 4158,
    "Ġban": 4159,
    "bertine": 4160,
    "Ġparagraph": 4161,
    "Ġaware": 4162,
    "III": 4163,
    "Ġhost": 4164,
    "Ġhun": 4165,
    "Ġcivil": 4166,
    "Ġwand": 4167,
    "Ġbodies": 4168,
    "Sir": 4169,
    "Ġsufficient": 4170,
    "those": 4171,
    "urope": 4172,
    "ilar": 4173,
    "Ġhonest": 4174,
    "Ġvo": 4175,
    "Ġdeb": 4176,
    "ademark": 4177,
    "ousin": 4178,
    "Ġsake": 4179,
    "Ġgray": 4180,
    "Ġsmiling": 4181,
    "Ġancient": 4182,
    "Ġshew": 4183,
    "lin": 4184,
    "may": 4185,
    "Ġton": 4186,
    "Don": 4187,
    "good": 4188,
    "Ġgen": 4189,
    "Ġproperty": 4190,
    "Ġlisten": 4191,
    "Ġtea": 4192,
    "Ġfee": 4193,
    "Ġaffection": 4194,
    "Ġsurprise": 4195,
    "Ġsystem": 4196,
    "Ġegg": 4197,
    "Ġbottom": 4198,
    "Ġinflu": 4199,
    "Ġdi": 4200,
    "Ġtaste": 4201,
    "place": 4202,
    "Ġku": 4203,
    "Ġslightly": 4204,
    "Ġgrave": 4205,
    "Ġimagine": 4206,
    "Ġwished": 4207,
    "key": 4208,
    "soci": 4209,
    "IO": 4210,
    "jud": 4211,
    "bu": 4212,
    "49": 4213,
    "Ġexplained": 4214,
    "ords": 4215,
    "Ġforgotten": 4216,
    "Ġnarrow": 4217,
    "hang": 4218,
    "war": 4219,
    "Ġbank": 4220,
    "ĠUlrich": 4221,
    "Ġears": 4222,
    "Ġstupid": 4223,
    "Ġkids": 4224,
    "Ġdisplay": 4225,
    "ourney": 4226,
    "-day": 4227,
    "ĠMadame": 4228,
    "Ġbesides": 4229,
    "ĠOwen": 4230,
    "Ġserve": 4231,
    "orious": 4232,
    "Ġthirty": 4233,
    "Ġbath": 4234,
    "Ġcloser": 4235,
    "Ġexplain": 4236,
    "Ġloss": 4237,
    "avi": 4238,
    "Ġdrive": 4239,
    ",âĢĿĊ": 4240,
    "Ġprinciples": 4241,
    "Ġimpro": 4242,
    "Ġshop": 4243,
    "Ġvent": 4244,
    "Ġmemory": 4245,
    "\"P": 4246,
    "Ġcompan": 4247,
    "Ġfold": 4248,
    "Ġgroup": 4249,
    "Ġbelieved": 4250,
    "around": 4251,
    "ilo": 4252,
    "cr": 4253,
    "Ġhate": 4254,
    "Ġwet": 4255,
    "38": 4256,
    "oran": 4257,
    "Ġgrant": 4258,
    "âĢĶa": 4259,
    "Ġfrown": 4260,
    "must": 4261,
    "ners": 4262,
    "while": 4263,
    "Ġconstit": 4264,
    "Ġexample": 4265,
    "ĠAnt": 4266,
    "Ġsoftly": 4267,
    "ĠRichard": 4268,
    "Ġhuge": 4269,
    "Ġreligion": 4270,
    "equ": 4271,
    "Ġrul": 4272,
    "ĠuÄį": 4273,
    "ï¿½?Ċ": 4274,
    "Ġguy": 4275,
    "ĠGerman": 4276,
    "Ġfac": 4277,
    "ti": 4278,
    "Ġespecially": 4279,
    "shall": 4280,
    "osity": 4281,
    "ĠAng": 4282,
    "Ġtong": 4283,
    "Ġworthy": 4284,
    "Ġcircumstances": 4285,
    "Ġsucceed": 4286,
    "Ġcrown": 4287,
    "ĠAugust": 4288,
    "Ġpity": 4289,
    "sing": 4290,
    "Ġvarious": 4291,
    "ĠPet": 4292,
    "Where": 4293,
    "\"Why": 4294,
    "edom": 4295,
    "Ġdetermined": 4296,
    "inu": 4297,
    "Ġseek": 4298,
    "Ġtako": 4299,
    "nal": 4300,
    "asons": 4301,
    "alf": 4302,
    "Ġdiscovered": 4303,
    "wind": 4304,
    "Ġexerc": 4305,
    "ĠBen": 4306,
    "Ġlaughing": 4307,
    "ĠCha": 4308,
    "away": 4309,
    "ĠĠĠĠĠĠĠĠĠĠĠĠĠĠĠĠĠĠĠĠĠĠ": 4310,
    "Ġmort": 4311,
    "Ġfru": 4312,
    "ĠFranc": 4313,
    "mbers": 4314,
    "road": 4315,
    "ĠIz": 4316,
    "vu": 4317,
    "Ġanyway": 4318,
    "aly": 4319,
    "ĠLondon": 4320,
    "Ġkako": 4321,
    "ĠDor": 4322,
    "ragon": 4323,
    "velop": 4324,
    ".M": 4325,
    "ÄĮ": 4326,
    "Ġcarefully": 4327,
    "ryce": 4328,
    "ĠDav": 4329,
    "Ġcreature": 4330,
    "ĠEll": 4331,
    "Ġplaced": 4332,
    "Ġunderstood": 4333,
    "eem": 4334,
    "ella": 4335,
    "ĠCan": 4336,
    "never": 4337,
    "Ġfish": 4338,
    "semb": 4339,
    "ajesty": 4340,
    "ĠWhere": 4341,
    "Ġcompletely": 4342,
    "mar": 4343,
    "serve": 4344,
    "Ġweight": 4345,
    "ĠJud": 4346,
    "ĠFrom": 4347,
    "Ġsearch": 4348,
    "ĠĠĠĠĠ": 4349,
    "Ġodd": 4350,
    "Ġheads": 4351,
    "inc": 4352,
    "imate": 4353,
    "Ġdistinct": 4354,
    "iffe": 4355,
    "Ġcommun": 4356,
    "Ġbitter": 4357,
    "Ġrepeated": 4358,
    "known": 4359,
    "Ġinnoc": 4360,
    "Ġcard": 4361,
    "Ġess": 4362,
    "Ġdonations": 4363,
    "Ġsorrow": 4364,
    "brary": 4365,
    "orne": 4366,
    "ext": 4367,
    "Ġshru": 4368,
    "Ġknowing": 4369,
    "Ġpack": 4370,
    "abelle": 4371,
    "ainted": 4372,
    "Ġplaying": 4373,
    "uments": 4374,
    "abb": 4375,
    "Ġcentury": 4376,
    "urred": 4377,
    "IV": 4378,
    "Ġisland": 4379,
    "eas": 4380,
    "ĂěĊ": 4381,
    "Ġstation": 4382,
    "Ġcruel": 4383,
    "Ġasking": 4384,
    "ĠÅ¾iv": 4385,
    "É»": 4386,
    ">Ċ": 4387,
    "Ġperform": 4388,
    "cribe": 4389,
    "Ġburst": 4390,
    "Ġstro": 4391,
    "Ġtest": 4392,
    "Ġunderstanding": 4393,
    "ker": 4394,
    "ste": 4395,
    "stead": 4396,
    "ussi": 4397,
    "GE": 4398,
    "Ġobv": 4399,
    "Ġstomach": 4400,
    "Ġsmoke": 4401,
    "met": 4402,
    "supp": 4403,
    "Ġtouched": 4404,
    "Ġdrawn": 4405,
    "bey": 4406,
    "Ġï¬ģ": 4407,
    "ortune": 4408,
    "Ġsacri": 4409,
    "atr": 4410,
    "ĠCal": 4411,
    "!'": 4412,
    "Ġbreast": 4413,
    "ĠDid": 4414,
    "ruction": 4415,
    "Ġdestroy": 4416,
    "Ġasleep": 4417,
    "hens": 4418,
    "Ġdirection": 4419,
    "âĢľShe": 4420,
    "phe": 4421,
    "wr": 4422,
    "âĦ¢Ċ": 4423,
    "ĠSte": 4424,
    "Å¾i": 4425,
    "Ġnon": 4426,
    "Ġspeech": 4427,
    "thur": 4428,
    "Ġcustom": 4429,
    "ĠTe": 4430,
    "Mar": 4431,
    "Ġproblem": 4432,
    "Ġreflect": 4433,
    "Ġapartment": 4434,
    "Ġshame": 4435,
    "Ġappears": 4436,
    "AND": 4437,
    "Ġgest": 4438,
    "Ġroy": 4439,
    "ESS": 4440,
    "ĠIvan": 4441,
    "âĢľR": 4442,
    "Ar": 4443,
    "Ġallowed": 4444,
    "ias": 4445,
    "Âł": 4446,
    "ĠSm": 4447,
    "ĠJim": 4448,
    "Ġjudge": 4449,
    "'S": 4450,
    "Ġconn": 4451,
    "these": 4452,
    "Ġwinter": 4453,
    "ested": 4454,
    "Ġproof": 4455,
    "Ġrespon": 4456,
    "ĠYour": 4457,
    "PH": 4458,
    "Ġshalt": 4459,
    "astic": 4460,
    "Äĩa": 4461,
    "Ġbull": 4462,
    "rab": 4463,
    "Ġmerit": 4464,
    "Ġdiscuss": 4465,
    "turn": 4466,
    "âĢľF": 4467,
    "Ġstrugg": 4468,
    "oÅ¡e": 4469,
    "Ġgentlemen": 4470,
    "Ġgrey": 4471,
    "Ġtot": 4472,
    "ville": 4473,
    "Ġbent": 4474,
    "Ġprove": 4475,
    "ĠWho": 4476,
    "://": 4477,
    "Ġlock": 4478,
    "Con": 4479,
    "Ġconcerning": 4480,
    "chief": 4481,
    "Ġfarm": 4482,
    "alt": 4483,
    "ooks": 4484,
    "emu": 4485,
    "Ġdrove": 4486,
    "OT": 4487,
    "hon": 4488,
    "ĘĊ": 4489,
    "oranaga": 4490,
    "_]": 4491,
    "fact": 4492,
    "ails": 4493,
    "Ġassoci": 4494,
    "Ġveli": 4495,
    "IA": 4496,
    "iar": 4497,
    "eyes": 4498,
    "Ġmetal": 4499,
    "itty": 4500,
    "Ġnego": 4501,
    "Ġpursu": 4502,
    "Ġlistened": 4503,
    "Ġpressed": 4504,
    "Ġcoffee": 4505,
    "Ġcool": 4506,
    "ability": 4507,
    "Ġhy": 4508,
    "Ġrid": 4509,
    "bon": 4510,
    "nie": 4511,
    "aith": 4512,
    "ww": 4513,
    "inces": 4514,
    "Ġnation": 4515,
    "Ġgrief": 4516,
    "ival": 4517,
    "ns": 4518,
    "Ġzap": 4519,
    "Ġoper": 4520,
    "Ġlover": 4521,
    "Ġpersu": 4522,
    "Ā?ĀĊ": 4523,
    ".g": 4524,
    "taining": 4525,
    "Ġproduced": 4526,
    "Ġoriginal": 4527,
    "Ġspirits": 4528,
    "Ġreve": 4529,
    "Ġmach": 4530,
    "ĠShadow": 4531,
    "Ġbuy": 4532,
    "ira": 4533,
    "itive": 4534,
    "Ġsighed": 4535,
    "Ġav": 4536,
    "ĠMer": 4537,
    "Ġavo": 4538,
    "jer": 4539,
    "ended": 4540,
    "Ġtomorrow": 4541,
    "Ġintro": 4542,
    "Ġdifference": 4543,
    "Ġmoral": 4544,
    "Ġgar": 4545,
    "Ġbirth": 4546,
    "ification": 4547,
    "Ġgate": 4548,
    "aked": 4549,
    "ĠPrince": 4550,
    "Ġdare": 4551,
    "Ġtonight": 4552,
    "Ġkey": 4553,
    "Which": 4554,
    "Ġproud": 4555,
    "Ġspl": 4556,
    "Ġtrade": 4557,
    "#Ă": 4558,
    "orp": 4559,
    "ĠSch": 4560,
    "Ġplayed": 4561,
    "80": 4562,
    "nce": 4563,
    "ĠWu": 4564,
    "Ġchap": 4565,
    "esh": 4566,
    "ichael": 4567,
    "Ġtemper": 4568,
    "Ġlabour": 4569,
    "people": 4570,
    "Ġworry": 4571,
    "ĠIm": 4572,
    "AD": 4573,
    "necess": 4574,
    "erm": 4575,
    "Ġfeels": 4576,
    "Ġsusp": 4577,
    "coming": 4578,
    "ounced": 4579,
    "Ġdue": 4580,
    "Ġpriest": 4581,
    "Ġlose": 4582,
    "ĠTH": 4583,
    "Ġinfinite": 4584,
    "seem": 4585,
    "Ġsons": 4586,
    "ieve": 4587,
    "rows": 4588,
    "isl": 4589,
    "Ġlikewise": 4590,
    "Ġmelancholy": 4591,
    "Ġrevol": 4592,
    "bled": 4593,
    "unta": 4594,
    "sur": 4595,
    "inting": 4596,
    "cape": 4597,
    "Ġnamed": 4598,
    "ï¬Ģ": 4599,
    "ĠII": 4600,
    "Ġhosp": 4601,
    "Ġpapers": 4602,
    "oint": 4603,
    "ĠHouse": 4604,
    "Ġmult": 4605,
    "Ġforest": 4606,
    "EM": 4607,
    "ordinary": 4608,
    "Ġhabit": 4609,
    "Ġpoem": 4610,
    "ĠUncle": 4611,
    "Ġgets": 4612,
    "Ġfirm": 4613,
    "\"L": 4614,
    "Ġfifty": 4615,
    "Ġflo": 4616,
    "Ġwra": 4617,
    "Ġwonderful": 4618,
    "ĠEddie": 4619,
    "Ġrolled": 4620,
    "Ġbrief": 4621,
    "Ġopportunity": 4622,
    "Ġcapital": 4623,
    "ĠÅł": 4624,
    "ecilia": 4625,
    "ule": 4626,
    "aling": 4627,
    "heart": 4628,
    "Ġhesit": 4629,
    "Ġpet": 4630,
    "AB": 4631,
    "Ġrap": 4632,
    "Ġcontrol": 4633,
    "Ġnas": 4634,
    "board": 4635,
    "Ġrequire": 4636,
    "ĠEurope": 4637,
    "aper": 4638,
    "Ġserious": 4639,
    "made": 4640,
    "rees": 4641,
    "Ġweren": 4642,
    "Ġfavor": 4643,
    "Ġlit": 4644,
    "leg": 4645,
    "Ġpersonal": 4646,
    "live": 4647,
    "ĠFeng": 4648,
    "Ġnoise": 4649,
    "Ġpromise": 4650,
    "aterial": 4651,
    "Ġhouses": 4652,
    ".F": 4653,
    "Ġprovide": 4654,
    "plic": 4655,
    "Ġlights": 4656,
    "alo": 4657,
    "Ġmentioned": 4658,
    "Ġwealth": 4659,
    "ĠPers": 4660,
    "exp": 4661,
    "lyde": 4662,
    "Ġlovely": 4663,
    "Ġinformation": 4664,
    "Ġprofess": 4665,
    "Ġperfectly": 4666,
    "car": 4667,
    "elve": 4668,
    "ĠLiterary": 4669,
    "Ġaunt": 4670,
    "-Ā-Ā-Ā-Ā": 4671,
    "ground": 4672,
    "Ġprinciple": 4673,
    "say": 4674,
    "31": 4675,
    "Ġpair": 4676,
    "Ġris": 4677,
    "Ġwret": 4678,
    "character": 4679,
    "Ġpor": 4680,
    "ąĊ": 4681,
    "Ġorgan": 4682,
    "Ġsna": 4683,
    "Ġfurn": 4684,
    "ĠState": 4685,
    "ĠGrand": 4686,
    "Ġqual": 4687,
    "inger": 4688,
    "line": 4689,
    "Ġnije": 4690,
    "Ġlines": 4691,
    "Ġrise": 4692,
    "Ġshoes": 4693,
    "Ġbecom": 4694,
    "Ġknife": 4695,
    "-er": 4696,
    "Ġotherwise": 4697,
    "file": 4698,
    "Ġunless": 4699,
    "Ġlistening": 4700,
    "ago": 4701,
    "gress": 4702,
    "Ġpill": 4703,
    "Ġcolor": 4704,
    "Ġgall": 4705,
    "Ġrelation": 4706,
    "ointed": 4707,
    "using": 4708,
    "Ġamb": 4709,
    "Project": 4710,
    "Ġbread": 4711,
    "Ġdressed": 4712,
    "ĠWil": 4713,
    "Ġdim": 4714,
    "Ġtitle": 4715,
    "ĠSund": 4716,
    "Ġseconds": 4717,
    "Ġquant": 4718,
    "Ġgrat": 4719,
    "45": 4720,
    "ĠYÃ¼": 4721,
    "Ġmatters": 4722,
    "Ġfuck": 4723,
    "Ġjourney": 4724,
    "Ġband": 4725,
    "pal": 4726,
    "happy": 4727,
    "ĆĆ": 4728,
    "Ġsounds": 4729,
    "Ġsan": 4730,
    "Ġsoldiers": 4731,
    "lied": 4732,
    "ĠSimon": 4733,
    "nothing": 4734,
    "Ġjudgment": 4735,
    "Ġfamiliar": 4736,
    "Ġglory": 4737,
    "rav": 4738,
    "Ġmeeting": 4739,
    "arian": 4740,
    "Ġconscious": 4741,
    "nda": 4742,
    "Ġfixed": 4743,
    "Ġagreed": 4744,
    "!âĢĻĊ": 4745,
    "erable": 4746,
    "Ġbas": 4747,
    "Ġbedroom": 4748,
    "Ġeffort": 4749,
    "urse": 4750,
    "Ġîģĵ": 4751,
    "Ġsounded": 4752,
    "Ġholy": 4753,
    "Here": 4754,
    "Ġmurm": 4755,
    "Ġshare": 4756,
    "ĠCortes": 4757,
    "itiz": 4758,
    "Ġlap": 4759,
    "Tis": 4760,
    "eder": 4761,
    "Ġport": 4762,
    "enth": 4763,
    "racted": 4764,
    "Ġutter": 4765,
    "Ġaccomp": 4766,
    "âĢľYeah": 4767,
    "oned": 4768,
    "eta": 4769,
    "Ġbottle": 4770,
    "Ġcousin": 4771,
    "ĠAh": 4772,
    "lad": 4773,
    "igg": 4774,
    "Ġsurv": 4775,
    ".[": 4776,
    "note": 4777,
    "ĠClary": 4778,
    "Ġnecessity": 4779,
    "ĠWest": 4780,
    "antes": 4781,
    "Ġimagination": 4782,
    "Ġhide": 4783,
    "Ġwhisper": 4784,
    "Ġglance": 4785,
    "Ġice": 4786,
    "usted": 4787,
    "being": 4788,
    "Ġyours": 4789,
    "Ġdevil": 4790,
    "utation": 4791,
    "Ġhealth": 4792,
    "Ġkingdom": 4793,
    "ifferent": 4794,
    "Ġfil": 4795,
    "Ġ-Ċ": 4796,
    "hest": 4797,
    "ĠCount": 4798,
    "Ġadmir": 4799,
    "Ġbold": 4800,
    "ĠMart": 4801,
    "occ": 4802,
    "acle": 4803,
    "Ġgenerally": 4804,
    "Ġstreets": 4805,
    "ĠLove": 4806,
    "Ġthank": 4807,
    "Ġwicked": 4808,
    "ĠConstant": 4809,
    "Ġcourage": 4810,
    "ixote": 4811,
    "ĠMaster": 4812,
    "|/": 4813,
    ":///": 4814,
    "bly": 4815,
    "cond": 4816,
    "Ġstiff": 4817,
    "tle": 4818,
    "first": 4819,
    "omin": 4820,
    "suff": 4821,
    "ids": 4822,
    "ĠRob": 4823,
    "Ġ.Ċ": 4824,
    "oted": 4825,
    "arer": 4826,
    "dy": 4827,
    "ester": 4828,
    "ĠElsa": 4829,
    "Ġslu": 4830,
    "mal": 4831,
    "........": 4832,
    "iper": 4833,
    "hor": 4834,
    "Ġaddress": 4835,
    "cription": 4836,
    "ĠBond": 4837,
    "Ġoffered": 4838,
    "ĠRose": 4839,
    "ĠStreet": 4840,
    "Ġforeign": 4841,
    "Ġinfluence": 4842,
    "take": 4843,
    "Ġsuit": 4844,
    "arently": 4845,
    "60": 4846,
    "cks": 4847,
    "ĠJake": 4848,
    "Ġmilk": 4849,
    "Ġsouth": 4850,
    "Ġhither": 4851,
    "Ġmanaged": 4852,
    "Exit": 4853,
    "Ġemployed": 4854,
    "Ġhotel": 4855,
    "nest": 4856,
    "47": 4857,
    "acious": 4858,
    "Ġstream": 4859,
    "ĠScarlett": 4860,
    "amb": 4861,
    "Ġsple": 4862,
    "Ġgrown": 4863,
    "eds": 4864,
    "Ġshaking": 4865,
    "_C": 4866,
    "verse": 4867,
    "Ġsvoje": 4868,
    "Ġjealous": 4869,
    "ola": 4870,
    "Ġpubl": 4871,
    "ita": 4872,
    "aka": 4873,
    "ĠAlbertine": 4874,
    "Ġstir": 4875,
    "Ġbuilt": 4876,
    "âĢľDo": 4877,
    "urg": 4878,
    "asc": 4879,
    "Ġprice": 4880,
    "Ġcrying": 4881,
    "Ġbegun": 4882,
    "istic": 4883,
    "ishop": 4884,
    "ARD": 4885,
    "host": 4886,
    "Ġprotect": 4887,
    "opt": 4888,
    "Ġclaim": 4889,
    "Ġempire": 4890,
    "Ġqueen": 4891,
    "eling": 4892,
    "culiar": 4893,
    "Ġtongue": 4894,
    "âĢľThere": 4895,
    "acket": 4896,
    "dam": 4897,
    "ĠMark": 4898,
    "Ġolder": 4899,
    "ierre": 4900,
    "ancho": 4901,
    "Ġmethod": 4902,
    "\"Ā": 4903,
    "Ġsex": 4904,
    "ĠOld": 4905,
    "ĠMor": 4906,
    "Art": 4907,
    "reason": 4908,
    "Ġfreedom": 4909,
    "Ġfallen": 4910,
    "&Ċ": 4911,
    "Ġmeasure": 4912,
    "ĠJon": 4913,
    "attered": 4914,
    "hard": 4915,
    "ĠÄĩu": 4916,
    "Ġclearly": 4917,
    "Ġpassage": 4918,
    "Ġrule": 4919,
    "hale": 4920,
    "Ġspend": 4921,
    "olf": 4922,
    "bre": 4923,
    "Ġfancy": 4924,
    "vey": 4925,
    "Ġwear": 4926,
    "ĠBrit": 4927,
    ".Moj": 4928,
    "Ġformed": 4929,
    "ĠEmily": 4930,
    "kv": 4931,
    "ĠJace": 4932,
    "Ġcheek": 4933,
    "Ġshrugged": 4934,
    "Ġequally": 4935,
    "habitants": 4936,
    "ĠMike": 4937,
    "ĠGray": 4938,
    "udi": 4939,
    "Ġbehold": 4940,
    "aker": 4941,
    "Ġarmy": 4942,
    "\"How": 4943,
    "pa": 4944,
    "Ġpark": 4945,
    "inking": 4946,
    "ĠToranaga": 4947,
    "Ġbrain": 4948,
    "Ġthine": 4949,
    "ĠAny": 4950,
    "stone": 4951,
    "org": 4952,
    "Ġescape": 4953,
    "Ġstock": 4954,
    "Ġfashion": 4955,
    "looked": 4956,
    "Ġbij": 4957,
    "oop": 4958,
    "Ġvoices": 4959,
    "-law": 4960,
    "ĠLaw": 4961,
    "Ġwa": 4962,
    "Ġintellig": 4963,
    "/In": 4964,
    "othe": 4965,
    "Ġfrightened": 4966,
    "inci": 4967,
    "lly": 4968,
    "Ġstories": 4969,
    "Ġfail": 4970,
    "lier": 4971,
    "XX": 4972,
    "irgin": 4973,
    "order": 4974,
    "phone": 4975,
    "Ġresolved": 4976,
    "mas": 4977,
    "oh": 4978,
    "emo": 4979,
    "Ġinstance": 4980,
    "Ġoccup": 4981,
    "Ġka": 4982,
    "ulation": 4983,
    "Ġconsent": 4984,
    "Ġcolour": 4985,
    "eps": 4986,
    "Ġfate": 4987,
    "iah": 4988,
    "Ġpassing": 4989,
    "Ġbje": 4990,
    "ĠPercy": 4991,
    "ĠHaw": 4992,
    "Ġbattle": 4993,
    "ucked": 4994,
    "Ġali": 4995,
    "ĠJames": 4996,
    "Ġfalling": 4997,
    "Ġdifficulty": 4998,
    "Ġways": 4999,
    "ĠArchive": 5000,
    "Ġpog": 5001,
    "things": 5002,
    "Ġho": 5003,
    "Ġnap": 5004,
    "âĢľN": 5005,
    "Ġoccurs": 5006,
    "duce": 5007,
    "idly": 5008,
    "ĠCaptain": 5009,
    "aved": 5010,
    "stance": 5011,
    "ux": 5012,
    "Ġheat": 5013,
    "Ġforced": 5014,
    "Ġcapt": 5015,
    "Ġobserve": 5016,
    "Ġresult": 5017,
    "worthy": 5018,
    "hend": 5019,
    "Ġpowers": 5020,
    "Ġcauses": 5021,
    "addy": 5022,
    "ET": 5023,
    "respond": 5024,
    "Ġdrawing": 5025,
    "Ġsomehow": 5026,
    "Ġeld": 5027,
    "Ġgently": 5028,
    "jev": 5029,
    "ĠIzrail": 5030,
    "Ġbroad": 5031,
    "ĠVal": 5032,
    "oops": 5033,
    "ĠCome": 5034,
    "48": 5035,
    "ĠJap": 5036,
    "Ġsuperior": 5037,
    "ĠRussi": 5038,
    "obody": 5039,
    "Ġthinks": 5040,
    "Ġaren": 5041,
    "Ġwrit": 5042,
    "eni": 5043,
    "Ġbreakfast": 5044,
    "mom": 5045,
    "omen": 5046,
    "Ġputting": 5047,
    "Ġswall": 5048,
    "Ġtrademark": 5049,
    "Ġblock": 5050,
    "âĢĻu": 5051,
    "Ġcomply": 5052,
    "lessly": 5053,
    "anson": 5054,
    "Ġkeeping": 5055,
    "Ġbal": 5056,
    "Ġep": 5057,
    "ĠMay": 5058,
    "Ġminister": 5059,
    "agon": 5060,
    "ipe": 5061,
    "ĠSal": 5062,
    "\"B": 5063,
    "Ġdamn": 5064,
    "Ġcrossed": 5065,
    "ĠMolly": 5066,
    "ĠÄįu": 5067,
    "ĠHall": 5068,
    "ĠDumbledore": 5069,
    "Ġpaused": 5070,
    "Ġtal": 5071,
    "ustr": 5072,
    "Ġflowers": 5073,
    "ĠYÃ¼an": 5074,
    "ĠClyde": 5075,
    "Ġactions": 5076,
    "ĠBecause": 5077,
    "Ġexclaimed": 5078,
    "Ġlower": 5079,
    "Ġrestr": 5080,
    "Ġconsiderable": 5081,
    "child": 5082,
    "âĢľMy": 5083,
    "uts": 5084,
    "Ġbol": 5085,
    "Ġdollars": 5086,
    "iju": 5087,
    "Ġyield": 5088,
    "same": 5089,
    "Ġhole": 5090,
    "Ġprec": 5091,
    "Ġfeelings": 5092,
    "'ai": 5093,
    "Ġeduc": 5094,
    "âĢĺYou": 5095,
    "didn": 5096,
    "Aside": 5097,
    "het": 5098,
    "Hsi": 5099,
    "-by": 5100,
    "Ġfunny": 5101,
    "Ġguns": 5102,
    "mes": 5103,
    "Ġlikely": 5104,
    "âĢľThey": 5105,
    "Ġinstant": 5106,
    "Ġlog": 5107,
    "Ġleap": 5108,
    "oles": 5109,
    "Ġfill": 5110,
    "Ġsaith": 5111,
    "Some": 5112,
    "Ġinterrupt": 5113,
    "Ġcrit": 5114,
    "ĠQuixote": 5115,
    "Ġarrang": 5116,
    "Ġboard": 5117,
    "ĠFrank": 5118,
    "Ġdv": 5119,
    "Å¡to": 5120,
    "Ġforty": 5121,
    "inally": 5122,
    "**": 5123,
    "Ġmal": 5124,
    "enance": 5125,
    "Ġcomb": 5126,
    "ĠSu": 5127,
    "Ġstars": 5128,
    "Ġsquare": 5129,
    "consider": 5130,
    "Ġmovement": 5131,
    "achel": 5132,
    "De": 5133,
    "osing": 5134,
    "Ġtend": 5135,
    "Ġhonor": 5136,
    "Ġnaturally": 5137,
    "Â·": 5138,
    "going": 5139,
    "Ġsomewhat": 5140,
    "Ġchoice": 5141,
    "run": 5142,
    "Ġunivers": 5143,
    "iot": 5144,
    "Ġcontent": 5145,
    "ĠSec": 5146,
    "expect": 5147,
    "cil": 5148,
    "Ġexcellent": 5149,
    "ĠGl": 5150,
    "âĢľIf": 5151,
    "Ġneka": 5152,
    "rodo": 5153,
    "Ġaside": 5154,
    "\"><": 5155,
    "ograph": 5156,
    "Ġevent": 5157,
    "Per": 5158,
    "ĠAND": 5159,
    "^^": 5160,
    "Ġanimal": 5161,
    "lean": 5162,
    "Ġsty": 5163,
    "ĠLa": 5164,
    "ĠTO": 5165,
    "ceiving": 5166,
    "arling": 5167,
    "Ġthreat": 5168,
    "Ġeyeb": 5169,
    "ĠSunday": 5170,
    "46": 5171,
    "Ġbeast": 5172,
    "Ġcapable": 5173,
    "Ġshoot": 5174,
    "Ġnewsp": 5175,
    "Ġmankind": 5176,
    "ĠEr": 5177,
    "Ġminds": 5178,
    "ava": 5179,
    "edy": 5180,
    "Ġfond": 5181,
    "Ġscarcely": 5182,
    "Ġfem": 5183,
    "></": 5184,
    "Ġpom": 5185,
    "ĠTai": 5186,
    "Ġcredit": 5187,
    "ette": 5188,
    "ID": 5189,
    "ĠLev": 5190,
    "Ġow": 5191,
    "esides": 5192,
    "essel": 5193,
    "ores": 5194,
    "Ġdoct": 5195,
    "32": 5196,
    "Ġrepro": 5197,
    "Ġusing": 5198,
    "Ġpardon": 5199,
    "\"Ă": 5200,
    "ĠGeneral": 5201,
    "Ġsurround": 5202,
    "opp": 5203,
    "Ġforehead": 5204,
    "Ġing": 5205,
    "pres": 5206,
    "ĠJes": 5207,
    "Ġassu": 5208,
    "gypt": 5209,
    "ization": 5210,
    "nog": 5211,
    "ĠProfessor": 5212,
    "enced": 5213,
    "lished": 5214,
    "Ġordered": 5215,
    "Ġbought": 5216,
    "ĠPark": 5217,
    "ĠGood": 5218,
    "_.Ċ": 5219,
    "alin": 5220,
    "Ġvers": 5221,
    "OM": 5222,
    "Ġdesired": 5223,
    "sey": 5224,
    "ĠTheir": 5225,
    "Ġslipped": 5226,
    "Ġrode": 5227,
    "aming": 5228,
    "Ġgrowing": 5229,
    "Ġcigarette": 5230,
    "Ġacquaint": 5231,
    "Ġemer": 5232,
    "ae": 5233,
    "another": 5234,
    "Ġcow": 5235,
    "Ġengine": 5236,
    "Ġtwice": 5237,
    "Ġaston": 5238,
    "Ġhopes": 5239,
    "ĠGold": 5240,
    "Ġstayed": 5241,
    "Ġlibrary": 5242,
    "Ġnations": 5243,
    "Ġdance": 5244,
    "Ġnovel": 5245,
    "Ġbiti": 5246,
    "Ġusually": 5247,
    "ading": 5248,
    "Ġnjegov": 5249,
    "Ġstates": 5250,
    "heng": 5251,
    "ĠKe": 5252,
    "Ġhelped": 5253,
    "Ġshape": 5254,
    "iring": 5255,
    "ĠDel": 5256,
    "Å¡t": 5257,
    "Ġcalling": 5258,
    "fit": 5259,
    "Ġknight": 5260,
    "Ġtrave": 5261,
    "ĠdoÄĳe": 5262,
    "tains": 5263,
    "Are": 5264,
    "Ġwheel": 5265,
    "Ġroyal": 5266,
    "Ġhurried": 5267,
    "lls": 5268,
    "athered": 5269,
    "Ġkr": 5270,
    "Ġdign": 5271,
    "izing": 5272,
    "ēĔ": 5273,
    ".S": 5274,
    "âĢľDon": 5275,
    "Ġmagn": 5276,
    "disc": 5277,
    "Ġaffected": 5278,
    "Ġgas": 5279,
    "Phil": 5280,
    "Ġsplend": 5281,
    "enny": 5282,
    "Will": 5283,
    "Ġfriendship": 5284,
    "Ġsooner": 5285,
    "Ġloose": 5286,
    "Foot": 5287,
    "Ġsour": 5288,
    "Ġstudy": 5289,
    "Ġreply": 5290,
    "Ġreality": 5291,
    "Ġrising": 5292,
    "-chi": 5293,
    "Ġprovided": 5294,
    "Ġspite": 5295,
    "Ġdrop": 5296,
    "IG": 5297,
    "Ġsocial": 5298,
    "make": 5299,
    "overnment": 5300,
    "alph": 5301,
    "ino": 5302,
    "hih": 5303,
    "Ġma": 5304,
    "Ġcastle": 5305,
    "irot": 5306,
    "izabeth": 5307,
    "IST": 5308,
    "Ġsuspect": 5309,
    "Ġexha": 5310,
    "Ġconsequence": 5311,
    "Ġsettled": 5312,
    "ints": 5313,
    "ims": 5314,
    "Ġtwelve": 5315,
    "cles": 5316,
    "Ġpraise": 5317,
    "ĠJan": 5318,
    "Ġdrunk": 5319,
    "natur": 5320,
    "Ġhearing": 5321,
    "aud": 5322,
    "Ġsubjects": 5323,
    "Ġfrequently": 5324,
    "cip": 5325,
    "Ġanimals": 5326,
    "antic": 5327,
    "rec": 5328,
    "ĠDes": 5329,
    "ĠKunta": 5330,
    "ouble": 5331,
    "Ġsigh": 5332,
    "Ġdisg": 5333,
    "Gr": 5334,
    "Ġmonarch": 5335,
    "Yet": 5336,
    "Ġpleasant": 5337,
    "eping": 5338,
    "Ġslept": 5339,
    "gen": 5340,
    "urity": 5341,
    "Ġpromised": 5342,
    "ĠColonel": 5343,
    "icated": 5344,
    "elect": 5345,
    "world": 5346,
    "Ġadvent": 5347,
    "ĠCath": 5348,
    "Ġfollows": 5349,
    "Ġprepared": 5350,
    "These": 5351,
    "ibus": 5352,
    "Ġhorri": 5353,
    "Ġmuttered": 5354,
    "Ġdivine": 5355,
    "Ġbirds": 5356,
    "inging": 5357,
    "ench": 5358,
    "oli": 5359,
    "Com": 5360,
    "Ġtrick": 5361,
    "Ġpeculiar": 5362,
    "ĠTar": 5363,
    "ĠArthur": 5364,
    "Ġtruck": 5365,
    "ianne": 5366,
    "aul": 5367,
    "Ġdying": 5368,
    "Ġaffairs": 5369,
    "ĠTwo": 5370,
    "Ġwed": 5371,
    "ĠSancho": 5372,
    "Ġsimilar": 5373,
    "Ġspoken": 5374,
    "asant": 5375,
    "Ġnine": 5376,
    "ĠHist": 5377,
    "vention": 5378,
    "ĠDuke": 5379,
    "Ġwooden": 5380,
    "Ġwid": 5381,
    "ĠGo": 5382,
    "ĠJapan": 5383,
    "elia": 5384,
    "against": 5385,
    "Ġrum": 5386,
    "Ġobey": 5387,
    "Footnote": 5388,
    "Ġsugar": 5389,
    "Ġcases": 5390,
    "-erh": 5391,
    "inder": 5392,
    "Ġrealize": 5393,
    "100": 5394,
    "God": 5395,
    "Ġpermission": 5396,
    "themselves": 5397,
    "\"There": 5398,
    "yer": 5399,
    "Ġsleeping": 5400,
    "Ġrelations": 5401,
    "Ġpalace": 5402,
    "Ġemotion": 5403,
    "Ġcamer": 5404,
    "Ġanymore": 5405,
    "Ġpulling": 5406,
    "Ġtruly": 5407,
    "Cl": 5408,
    "Ġlaughter": 5409,
    "Ġign": 5410,
    "rije": 5411,
    "ĠHans": 5412,
    "del": 5413,
    "egro": 5414,
    "Ġmurder": 5415,
    "mony": 5416,
    "Ā?Ā": 5417,
    "Ġworship": 5418,
    "Ġblow": 5419,
    "rov": 5420,
    "Ġsav": 5421,
    "ĠKaladin": 5422,
    "omas": 5423,
    "acob": 5424,
    "Ġimpression": 5425,
    "ï¿½Āï¿½Āï¿½Ā": 5426,
    "\"Not": 5427,
    "oyal": 5428,
    "ĠRich": 5429,
    "ology": 5430,
    "ĠSy": 5431,
    "Ġdistur": 5432,
    "garet": 5433,
    "ĠĀï¿½Āï¿½Āï¿½Ā": 5434,
    "ĠJason": 5435,
    "Ġexcl": 5436,
    "Ġpossession": 5437,
    "ĠCor": 5438,
    "Ġdescend": 5439,
    "Ġhospital": 5440,
    "alinar": 5441,
    "Ġdreams": 5442,
    "rass": 5443,
    "AST": 5444,
    "Ġcarrying": 5445,
    "asures": 5446,
    "ĠWall": 5447,
    "bid": 5448,
    "import": 5449,
    "Ġcheer": 5450,
    "Ġbridge": 5451,
    "Ġinvol": 5452,
    "Ġgods": 5453,
    "arest": 5454,
    ".org": 5455,
    "apt": 5456,
    "ĠSaint": 5457,
    "Ġlies": 5458,
    "Ġpropos": 5459,
    "Ġsenses": 5460,
    "%Ċ": 5461,
    "Ġdawn": 5462,
    "Ġinterested": 5463,
    "Ġrod": 5464,
    "cknow": 5465,
    "ĠJa": 5466,
    "Ġwisdom": 5467,
    "anus": 5468,
    "itor": 5469,
    "Ġsides": 5470,
    "Ġfighting": 5471,
    "Ġhidden": 5472,
    "Ġkissed": 5473,
    "Ġpresented": 5474,
    "Ġbez": 5475,
    "Ġtext": 5476,
    "ĠMichael": 5477,
    "azel": 5478,
    "Ġemb": 5479,
    "Ġended": 5480,
    "âĢľIs": 5481,
    "Ġsurface": 5482,
    "inks": 5483,
    "Ġchoose": 5484,
    "Ġbutter": 5485,
    "Ġprefer": 5486,
    "Ġchamber": 5487,
    "Ġenemies": 5488,
    "ĠAdam": 5489,
    "Ġswift": 5490,
    "ici": 5491,
    "ĠKad": 5492,
    "-hsi": 5493,
    "Ġgreatly": 5494,
    "Ġrob": 5495,
    "rors": 5496,
    ".gutenberg": 5497,
    "Ġdevelop": 5498,
    "Ġfoc": 5499,
    "ugo": 5500,
    "therefore": 5501,
    "Ġpossessed": 5502,
    "ĠAlex": 5503,
    "-up": 5504,
    "Ġspecies": 5505,
    "arn": 5506,
    "Ġcrazy": 5507,
    "door": 5508,
    "aps": 5509,
    "Ġcheeks": 5510,
    "Ġintended": 5511,
    "Ġfruit": 5512,
    "Ġbusy": 5513,
    "Ġofficial": 5514,
    "water": 5515,
    "ski": 5516,
    "hib": 5517,
    "ona": 5518,
    "aches": 5519,
    "ieh": 5520,
    "ĠAmerica": 5521,
    "Ġworried": 5522,
    "Ġindul": 5523,
    "Ġsed": 5524,
    "Ġsatisfied": 5525,
    "gging": 5526,
    "Ġneeds": 5527,
    "hum": 5528,
    "Ġvessel": 5529,
    "BER": 5530,
    "While": 5531,
    "Dune": 5532,
    "Ġpieces": 5533,
    "ĠJoe": 5534,
    "Ġreasons": 5535,
    "arther": 5536,
    "Ġcontempt": 5537,
    "ball": 5538,
    "Ġattack": 5539,
    "Ġlevel": 5540,
    "sue": 5541,
    "Maybe": 5542,
    "Ġacknow": 5543,
    "Ġperceived": 5544,
    "Ġsovere": 5545,
    "ĠâĢ¦Ċ": 5546,
    "agnan": 5547,
    "Re": 5548,
    "ivered": 5549,
    "Ġengaged": 5550,
    "Ġate": 5551,
    "Ġenv": 5552,
    "Ġwel": 5553,
    "Ġhanging": 5554,
    "Ġweather": 5555,
    "ĠCo": 5556,
    "70": 5557,
    ".)Ċ": 5558,
    "Ġflesh": 5559,
    "QU": 5560,
    "Ġharm": 5561,
    "Ġque": 5562,
    "Ġdozen": 5563,
    "adv": 5564,
    "ĠBo": 5565,
    "Ġrank": 5566,
    "Bl": 5567,
    "Ġquantity": 5568,
    "Ġesteem": 5569,
    "rsula": 5570,
    "conf": 5571,
    "Ġadvice": 5572,
    "Ġplant": 5573,
    "Ġearnest": 5574,
    "Ġmoments": 5575,
    "jes": 5576,
    "ete": 5577,
    "Ġkon": 5578,
    "âĢľThis": 5579,
    "Ġmedium": 5580,
    "ĂĄĊ": 5581,
    ".ï¿½?Ċ": 5582,
    "Ġll": 5583,
    "ĠHon": 5584,
    "ulated": 5585,
    "isten": 5586,
    "Ġclimbed": 5587,
    "Ġanger": 5588,
    "Ġdesper": 5589,
    "ĠMat": 5590,
    "utions": 5591,
    "Ġsvak": 5592,
    "anc": 5593,
    "Nor": 5594,
    "Ġinj": 5595,
    "ribute": 5596,
    "Ġfortun": 5597,
    "comfort": 5598,
    "Ġburning": 5599,
    "Ġcorrupt": 5600,
    "ĠSwann": 5601,
    "ĠWas": 5602,
    "âĢĻArt": 5603,
    "rig": 5604,
    "Ġpresently": 5605,
    "Ġeager": 5606,
    "ovje": 5607,
    "!âĢĶ": 5608,
    "erous": 5609,
    "thorne": 5610,
    "Ġopening": 5611,
    "Ġpin": 5612,
    "âĢĻArtagnan": 5613,
    "ĠMil": 5614,
    "âĢĶthat": 5615,
    "Ġchin": 5616,
    "ixt": 5617,
    "Ġrequired": 5618,
    "ĠSad": 5619,
    "Ġcounter": 5620,
    "ĠIN": 5621,
    "ĠIII": 5622,
    "Ġproceeded": 5623,
    "Ġride": 5624,
    "theless": 5625,
    "nel": 5626,
    "-hua": 5627,
    "prov": 5628,
    "Ġsolemn": 5629,
    "LES": 5630,
    "iece": 5631,
    "Ġcaptain": 5632,
    "Thou": 5633,
    "otte": 5634,
    "ensive": 5635,
    "-th": 5636,
    "Ġassured": 5637,
    "alter": 5638,
    "Ġdisapp": 5639,
    "ĠLarch": 5640,
    "Ġorders": 5641,
    "Ġvague": 5642,
    "Ġdirectly": 5643,
    "Ġconc": 5644,
    "Ġpassions": 5645,
    "terday": 5646,
    "asing": 5647,
    "Ġphr": 5648,
    "Ġshouldn": 5649,
    "ĠHel": 5650,
    "[Footnote": 5651,
    "ere": 5652,
    "Ġident": 5653,
    "Ġbill": 5654,
    "ÄĨ": 5655,
    "hal": 5656,
    "Ġnaj": 5657,
    "fall": 5658,
    "ĠJune": 5659,
    "Ġpok": 5660,
    "Ġreader": 5661,
    "igned": 5662,
    "Ġfet": 5663,
    "Ġrend": 5664,
    "Ġgolden": 5665,
    "omkv": 5666,
    "omkvist": 5667,
    "AC": 5668,
    "Ġreward": 5669,
    "Ġtables": 5670,
    "Ġreport": 5671,
    "sw": 5672,
    "atching": 5673,
    "low": 5674,
    "barrass": 5675,
    "Ġmessage": 5676,
    "Ġlunch": 5677,
    "Ġrooms": 5678,
    "Ġaud": 5679,
    "Ġmaterial": 5680,
    "Ġaffair": 5681,
    "ĠFre": 5682,
    "jen": 5683,
    "amm": 5684,
    "Ġcurious": 5685,
    "Ġpolic": 5686,
    "Ġsr": 5687,
    "ailed": 5688,
    "Ġconfidence": 5689,
    "Ġordinary": 5690,
    "Ġkoje": 5691,
    "ĠÃ": 5692,
    "Ġexpense": 5693,
    "umbers": 5694,
    "too": 5695,
    "Ġhanded": 5696,
    "Ġspeed": 5697,
    "Ġtaught": 5698,
    "aining": 5699,
    "-li": 5700,
    "amo": 5701,
    "41": 5702,
    "Ġawful": 5703,
    "onna": 5704,
    "two": 5705,
    "ĠBigger": 5706,
    "Ġwest": 5707,
    "Ġscreamed": 5708,
    "75": 5709,
    "Ġobsc": 5710,
    "Ġartic": 5711,
    "Ġprocess": 5712,
    "Ġdangerous": 5713,
    "ĠBritish": 5714,
    "Ġweap": 5715,
    "ĠEragon": 5716,
    "acity": 5717,
    "Ġcott": 5718,
    "Ġanywhere": 5719,
    "ĠWhite": 5720,
    "Ġpage": 5721,
    "Ġhated": 5722,
    "Ġshock": 5723,
    "eunt": 5724,
    "irit": 5725,
    "Ġextent": 5726,
    "ĠEar": 5727,
    "ok": 5728,
    "Ġparticularly": 5729,
    "ege": 5730,
    "Ġdirty": 5731,
    "Āx": 5732,
    "isa": 5733,
    "Ġcenter": 5734,
    "Ġserved": 5735,
    "Ġvalley": 5736,
    "pelled": 5737,
    "Ġwitness": 5738,
    "Miss": 5739,
    "worth": 5740,
    "Ġwoods": 5741,
    "Ġshadows": 5742,
    "Ġfields": 5743,
    "erted": 5744,
    "hern": 5745,
    ".Ã¢": 5746,
    "case": 5747,
    "Ġstare": 5748,
    "ĠÅ¡ta": 5749,
    "Ġgrabbed": 5750,
    "inced": 5751,
    "ĠFrodo": 5752,
    "Ġdeclared": 5753,
    "ĠRos": 5754,
    "Ġclo": 5755,
    "Ġhoped": 5756,
    "isto": 5757,
    "Ġtroops": 5758,
    "ĠHarriet": 5759,
    "Ġsmooth": 5760,
    "Ġsolic": 5761,
    "contin": 5762,
    "icu": 5763,
    "gate": 5764,
    "port": 5765,
    "Ġfinal": 5766,
    "incess": 5767,
    "ĠSuch": 5768,
    "Did": 5769,
    "ĠMing": 5770,
    "vet": 5771,
    "udence": 5772,
    "ension": 5773,
    "'You": 5774,
    "ĠCall": 5775,
    "Ġvoj": 5776,
    "Ġdefect": 5777,
    "ermantes": 5778,
    "Ġhills": 5779,
    "Ġstage": 5780,
    "ĠLittle": 5781,
    "Ġcler": 5782,
    "ref": 5783,
    "ldom": 5784,
    "Gospod": 5785,
    "Pr": 5786,
    "sol": 5787,
    "Ġindepend": 5788,
    "Ġpictures": 5789,
    "itz": 5790,
    "ĠWood": 5791,
    "hanks": 5792,
    "Ġworst": 5793,
    "Ġinhabitants": 5794,
    "._]": 5795,
    "tt": 5796,
    "Ġradio": 5797,
    "_,Ċ": 5798,
    "Ġjacket": 5799,
    "KING": 5800,
    "Ġlest": 5801,
    "white": 5802,
    "anything": 5803,
    "inions": 5804,
    "ĠManson": 5805,
    "Ġdisappeared": 5806,
    "Ġrag": 5807,
    "Ġmountain": 5808,
    "annah": 5809,
    "umph": 5810,
    "ĠLee": 5811,
    "ĠChris": 5812,
    "important": 5813,
    "still": 5814,
    "real": 5815,
    "Ġfinding": 5816,
    "ĠChurch": 5817,
    "Ġpit": 5818,
    "Come": 5819,
    "Our": 5820,
    "umn": 5821,
    "-five": 5822,
    "Ġopposite": 5823,
    "win": 5824,
    "ĠJos": 5825,
    "ĠAN": 5826,
    "ĠEgypt": 5827,
    "Ġsecure": 5828,
    "Ġassociated": 5829,
    "came": 5830,
    "Ġnaked": 5831,
    "Ġexpressed": 5832,
    "Ġneighbour": 5833,
    "Tr": 5834,
    "Ġpreced": 5835,
    "Ġpink": 5836,
    "Ġfolks": 5837,
    "ĠAli": 5838,
    "Ġextraordinary": 5839,
    "rine": 5840,
    "udes": 5841,
    "ico": 5842,
    "urd": 5843,
    "Ġceiling": 5844,
    "Ġdespair": 5845,
    "Ġsuggested": 5846,
    "Ġcrack": 5847,
    "Ġtail": 5848,
    "abel": 5849,
    "Langdon": 5850,
    "Ġlip": 5851,
    "withstanding": 5852,
    "Ġpossibly": 5853,
    "Ġenorm": 5854,
    "Ġeating": 5855,
    "amps": 5856,
    "Yeah": 5857,
    "Ġknock": 5858,
    "lar": 5859,
    "arked": 5860,
    "Ġyard": 5861,
    "Ġdig": 5862,
    "Ġinterview": 5863,
    "Ġprob": 5864,
    "Ġstuck": 5865,
    "Ġdogs": 5866,
    "Ġsuffered": 5867,
    "IJ": 5868,
    "Ġrare": 5869,
    "Ġearlier": 5870,
    "ĠMore": 5871,
    "Ġbeer": 5872,
    "Ġlod": 5873,
    "Ġaltogether": 5874,
    "166": 5875,
    "ĠMax": 5876,
    "icking": 5877,
    "Ġrough": 5878,
    "ilst": 5879,
    "000": 5880,
    "Ġum": 5881,
    "ĠMin": 5882,
    "Ġdistress": 5883,
    "Ġaddition": 5884,
    "fric": 5885,
    "ĠSher": 5886,
    "Ġlocked": 5887,
    "Ġener": 5888,
    "Ġextremely": 5889,
    "Ġtempt": 5890,
    "ĠOnce": 5891,
    "ĠEdward": 5892,
    "lection": 5893,
    "lebr": 5894,
    "omb": 5895,
    "Ġhence": 5896,
    "Ġremoved": 5897,
    "Ġruin": 5898,
    "ĠLouie": 5899,
    "Un": 5900,
    "soever": 5901,
    "Ġterror": 5902,
    "uls": 5903,
    "Ġoccurred": 5904,
    "Ġdescribed": 5905,
    "Ġdistant": 5906,
    "Ġrefund": 5907,
    "Ġeffects": 5908,
    "Ġavoid": 5909,
    "Qu": 5910,
    "SIR": 5911,
    "angers": 5912,
    "athan": 5913,
    "EV": 5914,
    "Ġdeliver": 5915,
    "Ġafford": 5916,
    "Ġaccepted": 5917,
    "Ġmachine": 5918,
    "put": 5919,
    "Ġjumped": 5920,
    "Ġdwell": 5921,
    "Ġlib": 5922,
    "ĠTob": 5923,
    "Ġshit": 5924,
    "uk": 5925,
    "give": 5926,
    "ĠSol": 5927,
    "Sc": 5928,
    "LET": 5929,
    "Ġmagic": 5930,
    "ĠDay": 5931,
    "Ġscr": 5932,
    "FA": 5933,
    "Ġimage": 5934,
    "irect": 5935,
    "last": 5936,
    "Ġwrapped": 5937,
    "Ġsatisfaction": 5938,
    "cho": 5939,
    "Ġcult": 5940,
    "Ġcountries": 5941,
    "Ġmountains": 5942,
    "ĠJam": 5943,
    "ourable": 5944,
    "Ġrefused": 5945,
    "bow": 5946,
    "look": 5947,
    "inate": 5948,
    "ĠSha": 5949,
    "ĠNothing": 5950,
    "Exeunt": 5951,
    "Ġdrum": 5952,
    "Ġgle": 5953,
    "Ġtransl": 5954,
    "Ġsweat": 5955,
    "vis": 5956,
    "atives": 5957,
    "Ġtelephone": 5958,
    "ĠÉ»": 5959,
    "Ġeast": 5960,
    "Ġstands": 5961,
    "Ġinsp": 5962,
    "Ġ..": 5963,
    "pes": 5964,
    "59": 5965,
    "Ġheight": 5966,
    "quest": 5967,
    "itement": 5968,
    "aba": 5969,
    "ilty": 5970,
    "walk": 5971,
    "Ġstranger": 5972,
    "Ġviolent": 5973,
    "Ġ\"Ċ": 5974,
    "ators": 5975,
    "ental": 5976,
    "ĠIsabelle": 5977,
    "Ġvast": 5978,
    "got": 5979,
    "ĠClare": 5980,
    "ĠPres": 5981,
    "Ġtun": 5982,
    "sat": 5983,
    "Ġcook": 5984,
    "-n": 5985,
    "ĠRem": 5986,
    "electronic": 5987,
    "Ġpretend": 5988,
    "ishes": 5989,
    "ĠMarilla": 5990,
    "-morrow": 5991,
    "Ġcaused": 5992,
    "ĂěĄ": 5993,
    "Ġmembers": 5994,
    "Ġmercy": 5995,
    "enough": 5996,
    "Ġbreathing": 5997,
    "atio": 5998,
    "ams": 5999,
    "Ġglasses": 6000,
    "Ġgiant": 6001,
    "Ġdouble": 6002,
    "Ġham": 6003,
    "iÅ¡e": 6004,
    "ĠJean": 6005,
    "ĠRom": 6006,
    "ĠMel": 6007,
    "âĢĶbut": 6008,
    "-year": 6009,
    "asions": 6010,
    "ĠCecilia": 6011,
    "Ġobst": 6012,
    "Ġbog": 6013,
    "Ġbathroom": 6014,
    "-ni": 6015,
    "ĠLicense": 6016,
    "Ġcart": 6017,
    "Ġcarriage": 6018,
    "Ġsurely": 6019,
    "<p": 6020,
    "found": 6021,
    "ĠArab": 6022,
    "Ġfifteen": 6023,
    "Ġforever": 6024,
    "racters": 6025,
    "Ġpurcha": 6026,
    "Ġmyst": 6027,
    "ĠOR": 6028,
    "Ġcontem": 6029,
    "Ġhearts": 6030,
    "Ġadmit": 6031,
    "mo": 6032,
    "ĠHowever": 6033,
    "Ġfaithful": 6034,
    "ĠJem": 6035,
    "Ġiii": 6036,
    "ĠVen": 6037,
    "\"N": 6038,
    "ĠPierre": 6039,
    "vile": 6040,
    "Ġcontinue": 6041,
    "-sh": 6042,
    "Ġamaz": 6043,
    "Ġshake": 6044,
    "woman": 6045,
    "ements": 6046,
    "ĠSil": 6047,
    "Ġ-âĢĿĊ": 6048,
    "Ġsought": 6049,
    "Ġ`": 6050,
    "Ġslid": 6051,
    "always": 6052,
    "Ġwishes": 6053,
    "Ġreck": 6054,
    "Ġcareful": 6055,
    "âĢĻer": 6056,
    "Ġkings": 6057,
    "tw": 6058,
    "atherine": 6059,
    "Ġmisf": 6060,
    "-\"Ċ": 6061,
    "Ġlack": 6062,
    "ollow": 6063,
    "Ġofficer": 6064,
    "ĠLeo": 6065,
    "iqu": 6066,
    "Ġnormal": 6067,
    "Ġrang": 6068,
    "Ġjedan": 6069,
    "ĠRalph": 6070,
    "âĢľThen": 6071,
    "Ġsinging": 6072,
    "everything": 6073,
    "ĠJones": 6074,
    "Ġnervous": 6075,
    "ĠRed": 6076,
    "ĠOs": 6077,
    "âĢĻÃ¼an": 6078,
    "Ġperpet": 6079,
    "Ġmission": 6080,
    "Ġevidence": 6081,
    "Ġhers": 6082,
    "ilies": 6083,
    "Ġmodern": 6084,
    "Ġincluding": 6085,
    "Ġdemanded": 6086,
    "Ġsail": 6087,
    "OUR": 6088,
    "ĠTur": 6089,
    "rences": 6090,
    "ECT": 6091,
    "Ġunknown": 6092,
    "ĠYing": 6093,
    "ĠCity": 6094,
    "Even": 6095,
    "boy": 6096,
    "Ġcircle": 6097,
    "Ġfier": 6098,
    "Ġfarther": 6099,
    "Ġexceed": 6100,
    "mod": 6101,
    "Ġadopt": 6102,
    "ortunate": 6103,
    "Ġobed": 6104,
    "Ġexcited": 6105,
    "Ġnad": 6106,
    "Ã¶": 6107,
    "ueen": 6108,
    "Ġprinces": 6109,
    "zan": 6110,
    "fa": 6111,
    "ĠLin": 6112,
    "Ġcitiz": 6113,
    "Ġfan": 6114,
    "orous": 6115,
    "Ġyesterday": 6116,
    "44": 6117,
    "Ġaccident": 6118,
    "Jo": 6119,
    "Ġtrial": 6120,
    "Ġrace": 6121,
    "ĠNegro": 6122,
    "Ġimpati": 6123,
    "Ġcorrect": 6124,
    "iii": 6125,
    "Ġdrift": 6126,
    "ieur": 6127,
    "Ġscreen": 6128,
    "Ġburned": 6129,
    "iana": 6130,
    "ĠJesus": 6131,
    "Ġleather": 6132,
    "sure": 6133,
    "inction": 6134,
    "anied": 6135,
    "mist": 6136,
    "Ġthrown": 6137,
    "Ġapplic": 6138,
    "Ġmilitary": 6139,
    "Ġsensible": 6140,
    "Ġabsolutely": 6141,
    "Ġsuspic": 6142,
    "seless": 6143,
    "\"If": 6144,
    "ĠOve": 6145,
    "interest": 6146,
    "Ġrender": 6147,
    "ĠLat": 6148,
    "umber": 6149,
    "looking": 6150,
    "erson": 6151,
    "ĠRobin": 6152,
    "circ": 6153,
    "MAR": 6154,
    "kom": 6155,
    "ĠWar": 6156,
    "Ġsupper": 6157,
    "tow": 6158,
    "ĠĀï¿½Āï¿½Āï¿½Āï¿½Āï¿½Āï¿½Āï¿½Āï¿½Āï¿½Āï¿½Āï¿½Ā\"Ā": 6159,
    "Ġsize": 6160,
    "Ġvod": 6161,
    "Ā,ĀĊ": 6162,
    "sim": 6163,
    "Ġwake": 6164,
    "Ġmissing": 6165,
    "Ġpractice": 6166,
    "Ġphysical": 6167,
    "ett": 6168,
    "ĠAugustus": 6169,
    "search": 6170,
    "ĠOur": 6171,
    "\"Then": 6172,
    "Ġmood": 6173,
    "zu": 6174,
    "Ġshown": 6175,
    "agger": 6176,
    "atures": 6177,
    "Ġbowed": 6178,
    "ĠFred": 6179,
    "mind": 6180,
    "isions": 6181,
    "Ġgathered": 6182,
    "eding": 6183,
    "Ġease": 6184,
    "Ġmanners": 6185,
    "ĠDavid": 6186,
    "onsieur": 6187,
    "hands": 6188,
    "Ġmeat": 6189,
    "ĠHol": 6190,
    "Ġmistake": 6191,
    "zing": 6192,
    "ĠRobert": 6193,
    "ieved": 6194,
    "thos": 6195,
    "Ġmirror": 6196,
    "Thus": 6197,
    "Ġwondering": 6198,
    "Ġobtain": 6199,
    "Ġconsequently": 6200,
    "\"ĀĊ": 6201,
    "iosity": 6202,
    "present": 6203,
    "ĠTs": 6204,
    "ĠTer": 6205,
    "Ġsymp": 6206,
    "Ġamount": 6207,
    "Ġstretched": 6208,
    "Ġghost": 6209,
    "Ġmog": 6210,
    "Ġhousehold": 6211,
    "ĠChristmas": 6212,
    "Le": 6213,
    "OV": 6214,
    "Ġunhappy": 6215,
    "Ġwave": 6216,
    "Ġassure": 6217,
    "Ġnurse": 6218,
    "Ġjoj": 6219,
    "Ġsch": 6220,
    "black": 6221,
    "Ġinfer": 6222,
    "stitution": 6223,
    "Ġscared": 6224,
    "Ġjaw": 6225,
    "Ġtravel": 6226,
    "moment": 6227,
    "ĠWor": 6228,
    "ancing": 6229,
    "Ġstyle": 6230,
    "đĊ": 6231,
    "ĠAre": 6232,
    "ï¿½t": 6233,
    "ĠJe": 6234,
    "ĠItaly": 6235,
    "Ġcharming": 6236,
    "ĠYOU": 6237,
    "dr": 6238,
    "Ġplate": 6239,
    "Ġcorrespond": 6240,
    "Ġrelief": 6241,
    "Ġtent": 6242,
    "Ġestablished": 6243,
    "Ġbeard": 6244,
    "Ġteacher": 6245,
    "ĠbjeÅ¡e": 6246,
    "Ġcabin": 6247,
    "-de": 6248,
    "lje": 6249,
    "Ġbuck": 6250,
    "expected": 6251,
    "aters": 6252,
    "fice": 6253,
    "law": 6254,
    "Ġevident": 6255,
    "ĠBel": 6256,
    "ĠGreat": 6257,
    "Ġspect": 6258,
    "nom": 6259,
    "nabeth": 6260,
    "aze": 6261,
    "ares": 6262,
    "fied": 6263,
    "Ġako": 6264,
    "Ġsquee": 6265,
    "Ġwholly": 6266,
    "Ġshif": 6267,
    "Ġprincipal": 6268,
    "ĠSpain": 6269,
    "Ġqualities": 6270,
    "-to": 6271,
    "ĠneÄĩe": 6272,
    "ĠJulien": 6273,
    "Ġflew": 6274,
    "myself": 6275,
    "llen": 6276,
    "ĠNever": 6277,
    "Ġrib": 6278,
    "ĠCons": 6279,
    "umpt": 6280,
    "ributed": 6281,
    "Ġthrone": 6282,
    "ĠAy": 6283,
    "Ġregular": 6284,
    "Ġleaning": 6285,
    "cop": 6286,
    "Ġbetray": 6287,
    "Ġmidst": 6288,
    "Ġcollection": 6289,
    "Ġcream": 6290,
    "Ġpause": 6291,
    "ras": 6292,
    "char": 6293,
    "ups": 6294,
    "Ġamongst": 6295,
    "Ġtur": 6296,
    "ĠCarl": 6297,
    "Ġjun": 6298,
    "78": 6299,
    "ero": 6300,
    "Ġarea": 6301,
    "ĠLuc": 6302,
    "Ġze": 6303,
    "Ġsteel": 6304,
    "ĠPot": 6305,
    "prom": 6306,
    "held": 6307,
    "Ġproved": 6308,
    "Ġfoolish": 6309,
    "country": 6310,
    "ÂŃ": 6311,
    "Ġquarter": 6312,
    "went": 6313,
    "oring": 6314,
    "pur": 6315,
    "ĠMoses": 6316,
    "Ġquality": 6317,
    "inese": 6318,
    "Ġtvoj": 6319,
    "enses": 6320,
    "Ġsentence": 6321,
    "ĠLook": 6322,
    "ÂŃĊ": 6323,
    "gain": 6324,
    "rose": 6325,
    "-the": 6326,
    "Ġfailed": 6327,
    "yet": 6328,
    "Ġclock": 6329,
    "usan": 6330,
    "Ġplenty": 6331,
    "opping": 6332,
    "zn": 6333,
    "Ġiv": 6334,
    "uel": 6335,
    "anje": 6336,
    "ammed": 6337,
    "oms": 6338,
    "Ġapprehens": 6339,
    "Ġdrinking": 6340,
    "âĢľAh": 6341,
    "Ã¨re": 6342,
    "ĠSouth": 6343,
    "fam": 6344,
    "Ġseldom": 6345,
    "Ġwhilst": 6346,
    "\"They": 6347,
    "andalf": 6348,
    "Å¡ten": 6349,
    "Ġpig": 6350,
    "igger": 6351,
    "Ġhigher": 6352,
    "LU": 6353,
    "uches": 6354,
    "Ġignorant": 6355,
    "Ġili": 6356,
    "Ġpounds": 6357,
    "Ġinstruct": 6358,
    "Good": 6359,
    "col": 6360,
    "ĠJane": 6361,
    "wers": 6362,
    "Ġestablish": 6363,
    "Ā!": 6364,
    "elo": 6365,
    "âĢĶâĢľ": 6366,
    "Ġdoorway": 6367,
    "Ġsevent": 6368,
    "ĠRachel": 6369,
    "Ġgotten": 6370,
    "âĢľAre": 6371,
    "Ġabsurd": 6372,
    "osen": 6373,
    "Ġjoin": 6374,
    "ĠCastorp": 6375,
    "55": 6376,
    "Ġacquainted": 6377,
    "-looking": 6378,
    "tell": 6379,
    "Ġhoping": 6380,
    "Ġsevere": 6381,
    "Ġremains": 6382,
    "Ġsubs": 6383,
    "Ġlamp": 6384,
    "many": 6385,
    "ĠYÃ¼eh": 6386,
    "Ġdrank": 6387,
    "Ġwaist": 6388,
    "Ġalter": 6389,
    "ěĂĊ": 6390,
    "ĠÂ·": 6391,
    "hers": 6392,
    "osition": 6393,
    "Ġevents": 6394,
    "Ġwhist": 6395,
    "ache": 6396,
    "âĢĻclock": 6397,
    "Ġgospod": 6398,
    "Ġgoods": 6399,
    "Ġutmost": 6400,
    "person": 6401,
    "Ġsilly": 6402,
    "Ġgather": 6403,
    "Ġescap": 6404,
    "ilbo": 6405,
    "Ġnights": 6406,
    "Ġgloom": 6407,
    "Ġembarrass": 6408,
    "Ġpoints": 6409,
    "\"Do": 6410,
    "ĠLawrence": 6411,
    "ĠBryce": 6412,
    "Ġboots": 6413,
    "sibility": 6414,
    "Ġtrack": 6415,
    "iently": 6416,
    "Very": 6417,
    "icken": 6418,
    "Ġunable": 6419,
    "Ġvel": 6420,
    "Am": 6421,
    "Ġpermitted": 6422,
    "Ġlone": 6423,
    "Ġcities": 6424,
    "Ġaband": 6425,
    "Ġremarked": 6426,
    "aph": 6427,
    "uang": 6428,
    "Ġhighest": 6429,
    "utenant": 6430,
    "ulf": 6431,
    "Ġexercise": 6432,
    "apers": 6433,
    "Ġentrance": 6434,
    "cor": 6435,
    "Ġdull": 6436,
    "Because": 6437,
    "Ġstorm": 6438,
    "Ġrage": 6439,
    "200": 6440,
    "Ġupstairs": 6441,
    "ĠThou": 6442,
    "ĠÃ¢": 6443,
    "life": 6444,
    "ĠGil": 6445,
    "Ġraise": 6446,
    "Ġhistor": 6447,
    "abbit": 6448,
    "ĠSl": 6449,
    "Ġimagined": 6450,
    "Ġconception": 6451,
    "oseph": 6452,
    "Ġcountenance": 6453,
    ".A": 6454,
    "atches": 6455,
    "Ġmissed": 6456,
    "seemed": 6457,
    "ivity": 6458,
    "rah": 6459,
    "\"Don": 6460,
    "enc": 6461,
    "Ġoni": 6462,
    "âĢĺWhat": 6463,
    "Ġcorrid": 6464,
    "79": 6465,
    "possess": 6466,
    "Ġimportance": 6467,
    "Ġlocated": 6468,
    "Ġcro": 6469,
    "UN": 6470,
    "Ġcomposed": 6471,
    "Ġrequest": 6472,
    "Ġviolence": 6473,
    "Ġmyster": 6474,
    "Ġestate": 6475,
    "Ġgrate": 6476,
    "master": 6477,
    "Ġcondem": 6478,
    "Ġxx": 6479,
    "ĠÄĳ": 6480,
    "need": 6481,
    "ĠjoÅ¡": 6482,
    "ĠCharlie": 6483,
    "Ġproposed": 6484,
    "ē+": 6485,
    "Ġgrim": 6486,
    "Ġperceive": 6487,
    "ĠDoctor": 6488,
    "Ġodgov": 6489,
    "Ġloves": 6490,
    "ĠSung": 6491,
    "Ġadvanced": 6492,
    "Ġsovereign": 6493,
    "conscious": 6494,
    "Ġgrandmother": 6495,
    "asted": 6496,
    "ĠJohnny": 6497,
    "'clock": 6498,
    "Ġhom": 6499,
    "essica": 6500,
    "Ġgreet": 6501,
    "asket": 6502,
    "Ġkindness": 6503,
    "ĠStep": 6504,
    "pleasure": 6505,
    "ĠComp": 6506,
    "icks": 6507,
    "Ġbrothers": 6508,
    "hamed": 6509,
    "avannah": 6510,
    "between": 6511,
    "Ġofficers": 6512,
    ",\"Ċ": 6513,
    "ĠAfric": 6514,
    "asy": 6515,
    "Ġcas": 6516,
    "Ġtim": 6517,
    "Ġstones": 6518,
    "Ġimmediate": 6519,
    "Ġclouds": 6520,
    "common": 6521,
    "umped": 6522,
    "ĠElizabeth": 6523,
    "anation": 6524,
    "Ġrejo": 6525,
    "ceptions": 6526,
    "Ġconstant": 6527,
    "aris": 6528,
    "Ġrushed": 6529,
    "ĠStu": 6530,
    "Ġnam": 6531,
    "ĠSen": 6532,
    "Ġridic": 6533,
    "Å½": 6534,
    "ication": 6535,
    "ĠGreek": 6536,
    "ential": 6537,
    "Ġfriendly": 6538,
    "Ġshel": 6539,
    "Ġzn": 6540,
    "var": 6541,
    "Ġprompt": 6542,
    "aggie": 6543,
    "ounce": 6544,
    "Ġtrip": 6545,
    "Ġug": 6546,
    "ĠÄįovje": 6547,
    "Ġona": 6548,
    "Ġdisci": 6549,
    "Ġgonna": 6550,
    "Ġpowerful": 6551,
    "risto": 6552,
    "ĠChi": 6553,
    "Ġconsist": 6554,
    "Ġhumble": 6555,
    "ĠJohnson": 6556,
    "ĠPol": 6557,
    "Ġarch": 6558,
    "book": 6559,
    "Ġgain": 6560,
    "Ġconscience": 6561,
    "Ġintention": 6562,
    "Ġcere": 6563,
    "uh": 6564,
    "ths": 6565,
    "Ġtoss": 6566,
    "bell": 6567,
    "pless": 6568,
    "Ġmillion": 6569,
    "Ġenormous": 6570,
    "Ġyounger": 6571,
    "Ġsaved": 6572,
    "rian": 6573,
    "ĠPiper": 6574,
    "Ġren": 6575,
    "Ġbase": 6576,
    "Ġwilling": 6577,
    "Ġwhenever": 6578,
    "Ġbother": 6579,
    "Ġagreeable": 6580,
    "Ġbrave": 6581,
    "Ġbecomes": 6582,
    "unte": 6583,
    "Ġvig": 6584,
    "mund": 6585,
    "Ġwip": 6586,
    "Ġstarting": 6587,
    "Ġefforts": 6588,
    "Ġclut": 6589,
    "Ġsnapped": 6590,
    "Ġinteresting": 6591,
    "force": 6592,
    "Ġconsideration": 6593,
    "Ġhurry": 6594,
    "lan": 6595,
    "Ġstair": 6596,
    "ĠNature": 6597,
    "Ġrow": 6598,
    "inda": 6599,
    "Ġcalls": 6600,
    "Ġtz": 6601,
    "Ġwhence": 6602,
    "Ġconcerned": 6603,
    "Ġpoured": 6604,
    "Ġfreely": 6605,
    "Ġjoined": 6606,
    "!'Ċ": 6607,
    "ĠeBooks": 6608,
    "ĠMal": 6609,
    "sent": 6610,
    "Ġconven": 6611,
    "Ġprogress": 6612,
    "Ġindust": 6613,
    "Ġdeeply": 6614,
    "?--": 6615,
    "love": 6616,
    "itated": 6617,
    "Ġunif": 6618,
    "ossarian": 6619,
    "Ġprecious": 6620,
    "Ġexcuse": 6621,
    "viour": 6622,
    "Ġrules": 6623,
    "Ġcaut": 6624,
    "seen": 6625,
    "ĠMargaret": 6626,
    "Ġpointing": 6627,
    "acles": 6628,
    "assion": 6629,
    "Ġsne": 6630,
    "Å¡a": 6631,
    "Ġaccompl": 6632,
    "Ġmov": 6633,
    "-old": 6634,
    "nes": 6635,
    "76": 6636,
    "bus": 6637,
    "pret": 6638,
    "âĢĻst": 6639,
    "Ġimpl": 6640,
    "Ġmighty": 6641,
    "Ġforgot": 6642,
    "Ġtells": 6643,
    "ĠLuke": 6644,
    "IUS": 6645,
    "ĠQueen": 6646,
    "Ġdignity": 6647,
    "Ġhorror": 6648,
    "========": 6649,
    "eous": 6650,
    "Ġtype": 6651,
    "ĠNorth": 6652,
    "eline": 6653,
    "Ġforms": 6654,
    "Ġmarked": 6655,
    "Ġvas": 6656,
    "Ġletting": 6657,
    "42": 6658,
    "osti": 6659,
    "Ġuneas": 6660,
    "Ġregret": 6661,
    "Ġdesert": 6662,
    "Ġexcitement": 6663,
    "ojega": 6664,
    "lle": 6665,
    "Ġsaf": 6666,
    "Ġoccur": 6667,
    "Ġshining": 6668,
    "ĠRep": 6669,
    "Ġphrase": 6670,
    "Ġsees": 6671,
    "Ġtreated": 6672,
    "Ġwww": 6673,
    "Ġlust": 6674,
    "-e": 6675,
    "stvo": 6676,
    "ĠIV": 6677,
    "INE": 6678,
    "194": 6679,
    "Ġcontact": 6680,
    "ĠâĢĶĊ": 6681,
    "Ġfully": 6682,
    "Ġapproached": 6683,
    "Ġcraw": 6684,
    "agre": 6685,
    "Ġthanks": 6686,
    "Ġcelebr": 6687,
    "Ġattitude": 6688,
    "Ġhungry": 6689,
    "Can": 6690,
    "Ġflatter": 6691,
    "iao": 6692,
    "Ġneglect": 6693,
    "Ġpsy": 6694,
    "Ġhappens": 6695,
    "ĀĔ": 6696,
    "inked": 6697,
    "UL": 6698,
    "ulgar": 6699,
    "Ġhob": 6700,
    "Ġdriver": 6701,
    "Ġwound": 6702,
    "Ġteach": 6703,
    "Ġdistinguished": 6704,
    "Ġcars": 6705,
    "trans": 6706,
    "Ġincrease": 6707,
    "ąēĘĂ": 6708,
    "Ġsmiles": 6709,
    "ĠJameson": 6710,
    "ĠIr": 6711,
    "Ġmud": 6712,
    "acon": 6713,
    "ĠThomas": 6714,
    "dem": 6715,
    "uter": 6716,
    "Ġfrowned": 6717,
    "Ġrecall": 6718,
    "Ġsits": 6719,
    "Ġzak": 6720,
    "Ġguys": 6721,
    "_D": 6722,
    "aine": 6723,
    "Though": 6724,
    "ĘĄ": 6725,
    "weik": 6726,
    "Ġacquaintance": 6727,
    "Ġhandsome": 6728,
    "Ġopet": 6729,
    "wanted": 6730,
    "does": 6731,
    "knew": 6732,
    "turned": 6733,
    "ocr": 6734,
    "Ġrecoll": 6735,
    "Ġconcern": 6736,
    "Ġdreadful": 6737,
    "bra": 6738,
    "kward": 6739,
    "phan": 6740,
    "Ġbab": 6741,
    "Ġchat": 6742,
    "since": 6743,
    "Ġvision": 6744,
    "Ġvide": 6745,
    "aks": 6746,
    "Ġarts": 6747,
    "Ġfamous": 6748,
    "ointment": 6749,
    "Ġpool": 6750,
    "steps": 6751,
    "Ġinformed": 6752,
    "Ġproc": 6753,
    "udent": 6754,
    "Ġpron": 6755,
    "ĠLiu": 6756,
    "lady": 6757,
    "ipping": 6758,
    "Ġinnocent": 6759,
    "natural": 6760,
    "atory": 6761,
    "Ġqueer": 6762,
    "Ġguilty": 6763,
    "ads": 6764,
    "ĠChinese": 6765,
    "EST": 6766,
    "Ġdate": 6767,
    "ĠMost": 6768,
    "58": 6769,
    "Ġgoodness": 6770,
    "-like": 6771,
    "mary": 6772,
    "âĢĻang": 6773,
    "Ġhero": 6774,
    "Ġprotected": 6775,
    "vert": 6776,
    "Ġburied": 6777,
    "ovna": 6778,
    "dur": 6779,
    "Ġliter": 6780,
    "ĠSometimes": 6781,
    "ĠHigh": 6782,
    "CON": 6783,
    "ĠPoirot": 6784,
    "street": 6785,
    "Ġendeavour": 6786,
    "ĠBet": 6787,
    ",[": 6788,
    ").Ċ": 6789,
    "course": 6790,
    "lie": 6791,
    "Ġeverywhere": 6792,
    "ĠEast": 6793,
    "Ġabsence": 6794,
    "alem": 6795,
    "Ġuseful": 6796,
    "Ġpatience": 6797,
    "-cl": 6798,
    "âĢĺNo": 6799,
    "iji": 6800,
    "Ġcommer": 6801,
    "Ġterm": 6802,
    "rer": 6803,
    "Ġflying": 6804,
    "Ġanxious": 6805,
    "Ġbones": 6806,
    "mis": 6807,
    "ovima": 6808,
    "ĠAlice": 6809,
    "inations": 6810,
    "chant": 6811,
    "Ġapparently": 6812,
    "-a": 6813,
    "inal": 6814,
    "Sh": 6815,
    "Ġdisposition": 6816,
    "Ġge": 6817,
    "vr": 6818,
    "Ġpalm": 6819,
    "overy": 6820,
    "sper": 6821,
    "Ġinstr": 6822,
    "Ġenergy": 6823,
    "-character": 6824,
    "ĠCarol": 6825,
    "idently": 6826,
    "Ġconfusion": 6827,
    "orough": 6828,
    "ĠâĢ¦âĢĿĊ": 6829,
    "ĠJord": 6830,
    "ĠRichie": 6831,
    "requ": 6832,
    "IRST": 6833,
    "ugg": 6834,
    "Ġthereof": 6835,
    "Ġexped": 6836,
    "Ġconvinced": 6837,
    "Ġseated": 6838,
    "Ġpages": 6839,
    "Ġsob": 6840,
    "Ġach": 6841,
    "âĢĲ": 6842,
    "Ġdemon": 6843,
    "oos": 6844,
    "inn": 6845,
    "Ġpush": 6846,
    "power": 6847,
    "Ġapproach": 6848,
    "Ġduties": 6849,
    "Ġrout": 6850,
    "Ġmurmured": 6851,
    "RA": 6852,
    "ĠTy": 6853,
    "centr": 6854,
    "respect": 6855,
    "Ġpartic": 6856,
    "eman": 6857,
    "Ġreligious": 6858,
    "Ġcandle": 6859,
    "ĠviÅ¡e": 6860,
    "-k": 6861,
    "jects": 6862,
    "acques": 6863,
    "ĠPeople": 6864,
    "Ġbid": 6865,
    "Ġdelivered": 6866,
    "Ġhumour": 6867,
    "Ġinstinct": 6868,
    "Ġrije": 6869,
    "OO": 6870,
    "Ġstrict": 6871,
    "Ġgenius": 6872,
    "ĠMartin": 6873,
    "chair": 6874,
    "agree": 6875,
    "Ġdaily": 6876,
    "Ġcopies": 6877,
    "ĠÄĩ": 6878,
    "Ġresem": 6879,
    "Ġswung": 6880,
    ".D": 6881,
    "either": 6882,
    "Ġpublished": 6883,
    "ĠSun": 6884,
    "-niang": 6885,
    "ional": 6886,
    "Ġnjega": 6887,
    "Ġtied": 6888,
    "Ġinner": 6889,
    "ĠAp": 6890,
    "ITY": 6891,
    "ĠFar": 6892,
    "ĠHawai": 6893,
    "inent": 6894,
    "Ġnumbers": 6895,
    "Ġexcess": 6896,
    "concer": 6897,
    "Ġwings": 6898,
    "Ġhesitated": 6899,
    "itate": 6900,
    "Ġconstitution": 6901,
    "ifference": 6902,
    "osom": 6903,
    "Ġdiscourse": 6904,
    "Ġpoison": 6905,
    "ĠNay": 6906,
    "ĠJen": 6907,
    "Ġphysic": 6908,
    "Ġintellect": 6909,
    "ĠJapanese": 6910,
    "Ġrear": 6911,
    "âĢĶâĢĿ": 6912,
    "Ġzna": 6913,
    "ĠGerald": 6914,
    "ĠTheod": 6915,
    "estic": 6916,
    "Ġlearning": 6917,
    "Ġbul": 6918,
    "Ġust": 6919,
    "Ġhallway": 6920,
    "Ġworn": 6921,
    "ĠBern": 6922,
    "ĠJuly": 6923,
    "rog": 6924,
    "Ġsubstance": 6925,
    "ĠGuermantes": 6926,
    "lor": 6927,
    "open": 6928,
    "ountain": 6929,
    "ggie": 6930,
    "mi": 6931,
    "Ġflower": 6932,
    "\"So": 6933,
    "Ġrights": 6934,
    "anche": 6935,
    "Ġguards": 6936,
    "Ġexchan": 6937,
    "Ġdimin": 6938,
    "ĠPeeta": 6939,
    "Ed": 6940,
    "Ġven": 6941,
    "possible": 6942,
    "Ġleading": 6943,
    "dje": 6944,
    "start": 6945,
    "Ġmale": 6946,
    "Ġsalt": 6947,
    "ĠJacob": 6948,
    "necessary": 6949,
    "Ġsource": 6950,
    "iko": 6951,
    "ĠWin": 6952,
    "Ġdamned": 6953,
    "Ġrate": 6954,
    "cannot": 6955,
    "abu": 6956,
    "behind": 6957,
    "Ġded": 6958,
    "Ġshore": 6959,
    "whom": 6960,
    "ĠDan": 6961,
    "ills": 6962,
    "Ġprim": 6963,
    "Ġreminded": 6964,
    "Pl": 6965,
    "ĠPal": 6966,
    "Ġexper": 6967,
    "voje": 6968,
    "DU": 6969,
    "having": 6970,
    "Ġnotes": 6971,
    "Ġwithd": 6972,
    "sembly": 6973,
    "ĠEn": 6974,
    "Ġscreaming": 6975,
    "Ġnods": 6976,
    "âĢľGood": 6977,
    "ĠHan": 6978,
    "Ġapply": 6979,
    "Ġnumerous": 6980,
    "anta": 6981,
    "Ġgovore": 6982,
    "idity": 6983,
    "Ġupper": 6984,
    "irmed": 6985,
    "ĠBesides": 6986,
    "Ġcreated": 6987,
    "iry": 6988,
    "ĠCr": 6989,
    "gener": 6990,
    "ĠBer": 6991,
    "ĠHunt": 6992,
    "umin": 6993,
    "54": 6994,
    "ria": 6995,
    "Ġgenerous": 6996,
    "Ġattract": 6997,
    "umble": 6998,
    "PRO": 6999,
    "Ġcharacters": 7000,
    "ĠmoÅ¾e": 7001,
    "ĠPart": 7002,
    "pha": 7003,
    "Ġtar": 7004,
    "Ġwire": 7005,
    "\"My": 7006,
    "Ġclever": 7007,
    "otted": 7008,
    "oup": 7009,
    "ulate": 7010,
    "ĠGandalf": 7011,
    "ĠStill": 7012,
    "âĢľWho": 7013,
    "bridge": 7014,
    "anim": 7015,
    "ĠTw": 7016,
    "fire": 7017,
    "heard": 7018,
    "Ġsoldier": 7019,
    "jected": 7020,
    "elly": 7021,
    "Ġpolite": 7022,
    "Ġgesture": 7023,
    "Ġtip": 7024,
    "Section": 7025,
    "istence": 7026,
    "Ġsilk": 7027,
    "gram": 7028,
    "Ġjury": 7029,
    "athy": 7030,
    "ois": 7031,
    "ĠLevin": 7032,
    "born": 7033,
    "Ġpreserve": 7034,
    "Ġsafety": 7035,
    "tes": 7036,
    "Ġneat": 7037,
    "hol": 7038,
    "ĠMex": 7039,
    "ĠYang": 7040,
    "Ġproperly": 7041,
    "Ġderived": 7042,
    "Ġrope": 7043,
    "stein": 7044,
    "Ġresolution": 7045,
    "ĠFanny": 7046,
    "Ġtrembling": 7047,
    "ĠDalinar": 7048,
    "onies": 7049,
    "perial": 7050,
    "Ġcommanded": 7051,
    "Ġquarters": 7052,
    "Ġsvojega": 7053,
    "_M": 7054,
    "Ġprecise": 7055,
    "usalem": 7056,
    "Ġlegisl": 7057,
    "Ġwelcome": 7058,
    "Ġsisters": 7059,
    "blood": 7060,
    "Ġweakness": 7061,
    "Ġaim": 7062,
    "ika": 7063,
    "ĠMo": 7064,
    "agnus": 7065,
    ".]": 7066,
    "Ġblew": 7067,
    "Ġlonely": 7068,
    "Ġwoke": 7069,
    "nape": 7070,
    "kerchief": 7071,
    "Ġmatch": 7072,
    "ĠIndians": 7073,
    "Ġsuffering": 7074,
    "ĠFord": 7075,
    "jin": 7076,
    "Ġmeal": 7077,
    "borne": 7078,
    "Ġfought": 7079,
    "Ġconceive": 7080,
    "perhaps": 7081,
    "Ġreputation": 7082,
    "Ġwash": 7083,
    "90": 7084,
    "_F": 7085,
    "âĢľYour": 7086,
    "--------": 7087,
    "HN": 7088,
    "OW": 7089,
    "Ġchosen": 7090,
    "Ġtrif": 7091,
    "Ġpaying": 7092,
    "Ġteam": 7093,
    "shih": 7094,
    "Ġ,": 7095,
    "Ġsink": 7096,
    "oria": 7097,
    "ĠAnna": 7098,
    "Ġwedding": 7099,
    "Ġric": 7100,
    "Ġabroad": 7101,
    "appro": 7102,
    "Ġflight": 7103,
    "Ġrocks": 7104,
    "Ġphen": 7105,
    "umes": 7106,
    "ignation": 7107,
    "Ġcreatures": 7108,
    "Ġrecognized": 7109,
    "Ġecho": 7110,
    "Ġfolded": 7111,
    "56": 7112,
    "Ġabst": 7113,
    "Christ": 7114,
    "geant": 7115,
    "ĠBilbo": 7116,
    "_L": 7117,
    "cest": 7118,
    "urst": 7119,
    "Ġsentiments": 7120,
    "Ġdancing": 7121,
    "ĠEst": 7122,
    "Ġflash": 7123,
    "^r": 7124,
    "ĠItal": 7125,
    "ĠVirgin": 7126,
    "ĠHazel": 7127,
    "Ġmanif": 7128,
    "liament": 7129,
    "offin": 7130,
    "Ġobvious": 7131,
    "ĠPrincess": 7132,
    "Ġarrival": 7133,
    "ĠHave": 7134,
    "Ġswim": 7135,
    "ĠDean": 7136,
    "Ġhandle": 7137,
    "Ġsharply": 7138,
    "Ġcave": 7139,
    "Ġlawyer": 7140,
    "ĠHad": 7141,
    "Ġcrime": 7142,
    "ĠMoj": 7143,
    "âĢĺIt": 7144,
    "Ġrevenge": 7145,
    "Ġsucceeded": 7146,
    "estig": 7147,
    "Ġmostly": 7148,
    "Ġmax": 7149,
    "ĠKitty": 7150,
    "Ġpatient": 7151,
    "Ġonda": 7152,
    "Ġdem": 7153,
    "Ġrefuse": 7154,
    "Ġedition": 7155,
    "Ġinterrupted": 7156,
    "asley": 7157,
    "Ġmagistr": 7158,
    "Ġaccompanied": 7159,
    "Ġyards": 7160,
    "Ġpuzz": 7161,
    "omed": 7162,
    "Ġcloth": 7163,
    "Ġspr": 7164,
    "Ġdistributing": 7165,
    "Ġclub": 7166,
    "ĠLong": 7167,
    "Ġbio": 7168,
    "Ġvam": 7169,
    "wealth": 7170,
    "Ġinstantly": 7171,
    "Ġbadly": 7172,
    "ĠEnder": 7173,
    "Char": 7174,
    "bits": 7175,
    "Ġacts": 7176,
    "Ġprinted": 7177,
    "Ġcommonly": 7178,
    "ĠĠĠĠĠĠĠĠĠĠĠĠĠĠĠĠĠĠĠĠĠĠĠ": 7179,
    "ĂĄ": 7180,
    "Ġplat": 7181,
    "ĠFirst": 7182,
    "\"F": 7183,
    "Ġfix": 7184,
    "estern": 7185,
    "Ġfears": 7186,
    "!ĂĊ": 7187,
    "-lien": 7188,
    "ĠAnn": 7189,
    "Ġsolid": 7190,
    "Ġcalcul": 7191,
    "sect": 7192,
    "Ġrust": 7193,
    "Ġrecord": 7194,
    "Ġrev": 7195,
    "sil": 7196,
    "ĠHsÃ¼eh": 7197,
    "Ġashamed": 7198,
    "iley": 7199,
    "aggart": 7200,
    "Ġdriving": 7201,
    "Ġconfused": 7202,
    "Ġgranted": 7203,
    "Ġsell": 7204,
    "'un": 7205,
    "Ġalt": 7206,
    ".\\'": 7207,
    ",Ã¢": 7208,
    "entine": 7209,
    "FF": 7210,
    "imag": 7211,
    "Ġrecon": 7212,
    "Ġvirtues": 7213,
    "ĠTV": 7214,
    "Ġrisk": 7215,
    "uries": 7216,
    "fell": 7217,
    "ĠWallace": 7218,
    "Ġfolly": 7219,
    "ufact": 7220,
    "incl": 7221,
    "Ġtriumph": 7222,
    "Ġincreased": 7223,
    "Ă'": 7224,
    "Ġ.\"Ċ": 7225,
    "Ġnin": 7226,
    "ĠWould": 7227,
    "ethe": 7228,
    "Ġstarts": 7229,
    "Ġcuriosity": 7230,
    "Ġmisery": 7231,
    "Ġignorance": 7232,
    "Ġarrest": 7233,
    "Ġdirt": 7234,
    "Ġrespond": 7235,
    "Ġdespite": 7236,
    "ĠRub": 7237,
    "ĠEarth": 7238,
    "ĠClara": 7239,
    "orum": 7240,
    "ĠJews": 7241,
    "ĠĀï¿½Āï¿½Āï¿½Ā'Ā": 7242,
    "cean": 7243,
    "Ġstudents": 7244,
    "Ġapplied": 7245,
    "princi": 7246,
    "Ġtask": 7247,
    "Ġargument": 7248,
    "Ġphilosophy": 7249,
    "Ġmajor": 7250,
    "irts": 7251,
    "Ġbude": 7252,
    "Ġdru": 7253,
    "Ind": 7254,
    "Ġawake": 7255,
    "Nj": 7256,
    "74": 7257,
    "ĠPat": 7258,
    "Ġkaz": 7259,
    "Ġsupply": 7260,
    "ially": 7261,
    "Ġeggs": 7262,
    "affect": 7263,
    "ilities": 7264,
    "Ġdise": 7265,
    "Ġrelated": 7266,
    "195": 7267,
    "ĠFrancis": 7268,
    "ĠOther": 7269,
    ".ï¿½": 7270,
    "cast": 7271,
    "Ġseized": 7272,
    "ĠRog": 7273,
    "Ġseason": 7274,
    "cu": 7275,
    "thia": 7276,
    "Ġmour": 7277,
    "âĢĻai": 7278,
    "Ġrecomm": 7279,
    "whole": 7280,
    "161": 7281,
    "Ġdeny": 7282,
    "Ġeducation": 7283,
    "Ġoil": 7284,
    "Pe": 7285,
    "vin": 7286,
    "ovu": 7287,
    "Ġfavorite": 7288,
    "Ġaid": 7289,
    "Ćą": 7290,
    "iverse": 7291,
    "Hen": 7292,
    "ĠSadie": 7293,
    "essa": 7294,
    "apa": 7295,
    "âĢľWhere": 7296,
    "Ġcens": 7297,
    "Ġwretched": 7298,
    "ĠWalter": 7299,
    "mbol": 7300,
    "Ġattended": 7301,
    "Ġobtained": 7302,
    ".)]Ċ": 7303,
    "\"Now": 7304,
    "ĠFrancie": 7305,
    "lock": 7306,
    "inople": 7307,
    "âĢĻÃ¼": 7308,
    "Ġrevenue": 7309,
    "Ġju": 7310,
    "ĠCap": 7311,
    "ĠBefore": 7312,
    "Ġsufficiently": 7313,
    "Ġbrill": 7314,
    "ĠBob": 7315,
    "Ġtick": 7316,
    "Ġsmart": 7317,
    "Ġok": 7318,
    "riel": 7319,
    "ï¬ģ": 7320,
    "ĠErh": 7321,
    "ĠLyd": 7322,
    "Ġentreat": 7323,
    "Ġconditions": 7324,
    "umbling": 7325,
    "See": 7326,
    "Ġhelpless": 7327,
    "atÃ¡": 7328,
    "âĢĶit": 7329,
    "Ġspark": 7330,
    "ĠDonne": 7331,
    "Ġforgive": 7332,
    "Ġdelighted": 7333,
    "wing": 7334,
    "Ġgift": 7335,
    "young": 7336,
    "Ġfever": 7337,
    "ĠEve": 7338,
    "rane": 7339,
    "Ġholds": 7340,
    "ynthia": 7341,
    "ĠCle": 7342,
    "Ġadmitted": 7343,
    "Ġcontrad": 7344,
    "dark": 7345,
    "far": 7346,
    "ĠEp": 7347,
    "Ġblame": 7348,
    "Ġenqu": 7349,
    "Ġmarch": 7350,
    "avel": 7351,
    "ĠBrother": 7352,
    "Ġfra": 7353,
    "Ġfame": 7354,
    "Ġcompanion": 7355,
    "Ġapolog": 7356,
    "Ġmajesty": 7357,
    "Ġdirected": 7358,
    "ĠTaggart": 7359,
    "ĠMur": 7360,
    "plain": 7361,
    "ĠHard": 7362,
    "ĠÄĮ": 7363,
    "âĢľDid": 7364,
    "leanor": 7365,
    "foll": 7366,
    "riot": 7367,
    "ATION": 7368,
    "Ġerror": 7369,
    "Ġtower": 7370,
    "Ġsacred": 7371,
    "ĠBlackthorne": 7372,
    "Ġknocked": 7373,
    "Ġincon": 7374,
    "Ġzeal": 7375,
    "%ěĂ": 7376,
    "Ġnek": 7377,
    "Ġsche": 7378,
    "orter": 7379,
    "yrion": 7380,
    "ĠJamie": 7381,
    "ĠInstead": 7382,
    "however": 7383,
    "Ġpil": 7384,
    "Ġroll": 7385,
    "ĖĄĊ": 7386,
    "',": 7387,
    "Ġhorn": 7388,
    "âĢľE": 7389,
    "mean": 7390,
    "Ġfinish": 7391,
    "Ġcounsel": 7392,
    "ĠPolly": 7393,
    "Ġreduced": 7394,
    "Ġhorrible": 7395,
    "?ï¿½Ċ": 7396,
    "Ġinvited": 7397,
    "appear": 7398,
    "Ġprepare": 7399,
    "Ġdecision": 7400,
    "Ġinsisted": 7401,
    "Ġfigures": 7402,
    "nex": 7403,
    "ĠIndian": 7404,
    "once": 7405,
    "Ġmap": 7406,
    "asu": 7407,
    "azi": 7408,
    "Ġeternal": 7409,
    "Ġprovinces": 7410,
    "Ġcolours": 7411,
    "years": 7412,
    "Ġforces": 7413,
    "works": 7414,
    "ashes": 7415,
    "ĠSomething": 7416,
    "alls": 7417,
    "ovo": 7418,
    "inus": 7419,
    "Ġthence": 7420,
    "pple": 7421,
    "Ġgrandfather": 7422,
    "rad": 7423,
    "lace": 7424,
    "Ġbeach": 7425,
    "arewell": 7426,
    "Ġassistance": 7427,
    "osha": 7428,
    "'an": 7429,
    "Ġfatal": 7430,
    "Ġdining": 7431,
    "arse": 7432,
    "Ġvex": 7433,
    "Ġexplanation": 7434,
    "ĠMajor": 7435,
    "hin": 7436,
    "lyn": 7437,
    "ĠStan": 7438,
    "Ġweird": 7439,
    "cca": 7440,
    "ibson": 7441,
    "Pao": 7442,
    "Ġdelay": 7443,
    "Ġconcluded": 7444,
    "ĠRiver": 7445,
    "Only": 7446,
    "onia": 7447,
    "ccles": 7448,
    "Ġslave": 7449,
    "Ġdefence": 7450,
    "Ġlift": 7451,
    "Ġamuse": 7452,
    "âĢľOf": 7453,
    "ribution": 7454,
    "Ġsang": 7455,
    "Ġoh": 7456,
    "Ġsilently": 7457,
    "Ġpolitical": 7458,
    "John": 7459,
    "lyosha": 7460,
    "Ġwashed": 7461,
    "ushes": 7462,
    "ĠBal": 7463,
    "agement": 7464,
    "satisf": 7465,
    "gnes": 7466,
    "Ġlocal": 7467,
    "olanus": 7468,
    "Ġcho": 7469,
    "oriolanus": 7470,
    "etr": 7471,
    "ictions": 7472,
    "Frank": 7473,
    "Page": 7474,
    "wild": 7475,
    "-ha": 7476,
    "ĠSqu": 7477,
    "Ġdecide": 7478,
    "couldn": 7479,
    "VI": 7480,
    "took": 7481,
    "Ġbegged": 7482,
    "Ġbore": 7483,
    "aval": 7484,
    "zo": 7485,
    "utter": 7486,
    "Ġswept": 7487,
    "Ġchain": 7488,
    "ĠIsabel": 7489,
    "ĠSix": 7490,
    "FIRST": 7491,
    "ressions": 7492,
    "ĠIndeed": 7493,
    "olate": 7494,
    "ĠJoseph": 7495,
    "Ġnative": 7496,
    "Ġvariety": 7497,
    "onsense": 7498,
    "dri": 7499,
    "eli": 7500,
    "Ġawkward": 7501,
    "Ġannoy": 7502,
    "gest": 7503,
    "armed": 7504,
    "aï¬Ĩ": 7505,
    "Ġwagon": 7506,
    "Ġbecoming": 7507,
    "ĠPresident": 7508,
    "asked": 7509,
    "Ġcorridor": 7510,
    "_G": 7511,
    "Ġoccasions": 7512,
    "Ġcentre": 7513,
    "ĠLyra": 7514,
    "Ġspec": 7515,
    ".t": 7516,
    "Ġelder": 7517,
    "Ġwaves": 7518,
    "Ġthrust": 7519,
    "Ġvanished": 7520,
    "ĠEug": 7521,
    "taken": 7522,
    "Ġcommitted": 7523,
    "ĂĒ": 7524,
    "Ġwaved": 7525,
    "Ġnjima": 7526,
    "ante": 7527,
    "Ġends": 7528,
    "Ġchairs": 7529,
    "ĠThough": 7530,
    "represent": 7531,
    "ĠMac": 7532,
    "Ġarise": 7533,
    "Ġappointed": 7534,
    "Ġreadily": 7535,
    "Ġwaste": 7536,
    "Ġhasn": 7537,
    "'What": 7538,
    "Ġprofit": 7539,
    "Ġobviously": 7540,
    "âĢľâĢĺ": 7541,
    "Upon": 7542,
    "Ġsacrifice": 7543,
    "Ġpant": 7544,
    "Ġflung": 7545,
    "ĠEverything": 7546,
    "inity": 7547,
    "enes": 7548,
    "Ġcompar": 7549,
    "uce": 7550,
    "Ġknee": 7551,
    "Okay": 7552,
    "Ġseriously": 7553,
    "uddy": 7554,
    "ĠJenny": 7555,
    "three": 7556,
    "elj": 7557,
    "Ġcurrent": 7558,
    "Ġdragon": 7559,
    "Ġslee": 7560,
    "Ġbreathe": 7561,
    "Ġdetails": 7562,
    "43": 7563,
    "Ġscorn": 7564,
    "Ġceased": 7565,
    "Ġencoura": 7566,
    "Ġpaint": 7567,
    "Ġpp": 7568,
    "Tom": 7569,
    "Ġnational": 7570,
    "Ġwherein": 7571,
    "Ġswear": 7572,
    "care": 7573,
    "Ġsvi": 7574,
    "nik": 7575,
    "Ġsouls": 7576,
    "Ġvictory": 7577,
    "icy": 7578,
    "enu": 7579,
    "jeÅ¡": 7580,
    "Ġblade": 7581,
    "201": 7582,
    "full": 7583,
    "ĠRearden": 7584,
    "Ġhiding": 7585,
    "ĠCharlotte": 7586,
    "Ġdistr": 7587,
    "Ġupset": 7588,
    "cur": 7589,
    "âĢľJ": 7590,
    "Ġwalks": 7591,
    "Ġslaves": 7592,
    "Ġugly": 7593,
    "-ey": 7594,
    "glass": 7595,
    "Ġsamo": 7596,
    "duction": 7597,
    "justice": 7598,
    "udge": 7599,
    "ĠWen": 7600,
    "Ġcomplain": 7601,
    "ĠAnjin": 7602,
    "ĠJordan": 7603,
    "ĠDanny": 7604,
    "Ġsteady": 7605,
    "Ġbosom": 7606,
    "ĠBrown": 7607,
    "almost": 7608,
    "Ġnema": 7609,
    "abor": 7610,
    "Ġheaded": 7611,
    "Sp": 7612,
    "vation": 7613,
    "ĠChing": 7614,
    "sembled": 7615,
    "Ġtech": 7616,
    "Ġdefend": 7617,
    "agrid": 7618,
    "Ġexact": 7619,
    "Ġdebt": 7620,
    "ĠMen": 7621,
    "Ġjoke": 7622,
    "Ġteasp": 7623,
    "ranc": 7624,
    "amy": 7625,
    "why": 7626,
    "Ġnecessarily": 7627,
    "Ġpunishment": 7628,
    "ąĔ": 7629,
    "ĠSavannah": 7630,
    "Ġvac": 7631,
    "Ġpile": 7632,
    "ĠGospodn": 7633,
    "someone": 7634,
    "Ġfucking": 7635,
    "Ġcries": 7636,
    "Ġbehaviour": 7637,
    "ĠComm": 7638,
    "Ġphotograph": 7639,
    "Ġriding": 7640,
    "Ġeyebrows": 7641,
    "Ã§": 7642,
    "Ġmiserable": 7643,
    "Ġgratitude": 7644,
    "aturday": 7645,
    "Ġnewspaper": 7646,
    "eral": 7647,
    "ppy": 7648,
    "rovitch": 7649,
    "Ġsvoju": 7650,
    "Ġfathers": 7651,
    "Ġast": 7652,
    "Ġkod": 7653,
    "ĠRussian": 7654,
    "Ġretreat": 7655,
    "amas": 7656,
    "Ġbishop": 7657,
    "Ġlic": 7658,
    "Ġcoach": 7659,
    "%Ć": 7660,
    "ĠMaggie": 7661,
    "ĠLarry": 7662,
    "gentle": 7663,
    "Ġprejud": 7664,
    "Ġresent": 7665,
    "Ġtemple": 7666,
    "Ġdeliber": 7667,
    "atÃ¡sha": 7668,
    "Ġay": 7669,
    "Ġcompre": 7670,
    "Ġkeeps": 7671,
    "Such": 7672,
    "anish": 7673,
    "tte": 7674,
    "Ġzl": 7675,
    "Ġsupre": 7676,
    "observ": 7677,
    "success": 7678,
    "Ġrefer": 7679,
    "Ġobedience": 7680,
    "Go": 7681,
    "Ġdok": 7682,
    "nor": 7683,
    "ĠĠĠĠĠĠĠĠĠĠĠĠĠĠĠĠĠĠĠĠĠĠĠĠĠĠĠĠĠĠĠĠ": 7684,
    "ĠSar": 7685,
    "Ġpsych": 7686,
    "rin": 7687,
    "orney": 7688,
    "ĠGately": 7689,
    "Ġcrew": 7690,
    "esti": 7691,
    "ih": 7692,
    "Ġtrad": 7693,
    "iday": 7694,
    "ĠBlomkvist": 7695,
    "-shih": 7696,
    "Ġoath": 7697,
    "atre": 7698,
    "Ġtour": 7699,
    "imo": 7700,
    "ibly": 7701,
    "Ġyelled": 7702,
    "others": 7703,
    "Ġ.âĢĿĊ": 7704,
    "Ġscru": 7705,
    "Ġcontri": 7706,
    "-si": 7707,
    "home": 7708,
    "atus": 7709,
    "ĠPRO": 7710,
    "Ġbelief": 7711,
    "ĠLatin": 7712,
    "OG": 7713,
    "ange": 7714,
    "-i": 7715,
    "hist": 7716,
    "Ġhaste": 7717,
    "-hand": 7718,
    "Ġclimb": 7719,
    "Ġfamilies": 7720,
    "\"She": 7721,
    "Ġvisible": 7722,
    "ĠAndrew": 7723,
    "Ġlucky": 7724,
    "ht": 7725,
    "Ġrelax": 7726,
    "Ġcoast": 7727,
    "ĠDen": 7728,
    "avu": 7729,
    "Ġcleared": 7730,
    "oused": 7731,
    "Ġ!": 7732,
    "roft": 7733,
    "wait": 7734,
    "Ġcollect": 7735,
    "Ġapt": 7736,
    "immedi": 7737,
    "--\"Ċ": 7738,
    "aca": 7739,
    "Ġoffering": 7740,
    "Ġannounced": 7741,
    "Ġautom": 7742,
    "cipit": 7743,
    "arl": 7744,
    "aÄį": 7745,
    "ez": 7746,
    "Ġsofa": 7747,
    "Ġima": 7748,
    "Ġtwisted": 7749,
    "ĠveÄĩ": 7750,
    "66": 7751,
    "Ġbree": 7752,
    "Ġporch": 7753,
    "Ġopt": 7754,
    "whether": 7755,
    "plex": 7756,
    "Ġvanity": 7757,
    "ĠRomans": 7758,
    "lau": 7759,
    "voice": 7760,
    "ustomed": 7761,
    "Ġrepresented": 7762,
    "'ĀĊ": 7763,
    "iture": 7764,
    "astian": 7765,
    "Ġincred": 7766,
    "Ġnay": 7767,
    "imony": 7768,
    "Ġintelligence": 7769,
    "Ġdistinction": 7770,
    "Ġconceal": 7771,
    "rst": 7772,
    "Ġsettle": 7773,
    "nding": 7774,
    "ĠHelen": 7775,
    "ĠShih": 7776,
    "ags": 7777,
    "ĠAyla": 7778,
    ".txt": 7779,
    "Ġscience": 7780,
    "Ġborrow": 7781,
    "Ġsigns": 7782,
    "Ġrendered": 7783,
    "ĠMars": 7784,
    "name": 7785,
    "ifts": 7786,
    "Ġeditions": 7787,
    "Ġdivided": 7788,
    "Ġstudied": 7789,
    "Ġcomfortable": 7790,
    "ĠHawthorne": 7791,
    "free": 7792,
    "Ġconvey": 7793,
    "ĠMarius": 7794,
    "Ġcomputer": 7795,
    "otions": 7796,
    "Scene": 7797,
    "Ġpatter": 7798,
    "Ġfacts": 7799,
    "beaut": 7800,
    "mosp": 7801,
    "Ġmene": 7802,
    "Ġbreaking": 7803,
    "asped": 7804,
    "anie": 7805,
    "Ġya": 7806,
    "bout": 7807,
    "Ġintend": 7808,
    "ission": 7809,
    "-%": 7810,
    "Ġshowing": 7811,
    "hun": 7812,
    "ĠSalander": 7813,
    "ulse": 7814,
    "Ġsincere": 7815,
    "ĠSan": 7816,
    "odd": 7817,
    "Ġbringing": 7818,
    "âĢĻen": 7819,
    "Ġdoctrine": 7820,
    "\"Good": 7821,
    "itched": 7822,
    "Ġvice": 7823,
    "Ġstove": 7824,
    "\"Is": 7825,
    "loc": 7826,
    "'u": 7827,
    "Ah": 7828,
    "herself": 7829,
    "anu": 7830,
    "ales": 7831,
    "ĠRoark": 7832,
    "150": 7833,
    "particular": 7834,
    "Ġstraw": 7835,
    "\"All": 7836,
    "Ġcock": 7837,
    "Ġpainted": 7838,
    "âĢĶhe": 7839,
    "ĠVol": 7840,
    "Look": 7841,
    "Ġfierce": 7842,
    "liver": 7843,
    "SON": 7844,
    "ĠRE": 7845,
    "Ġpolicy": 7846,
    "Ġconcentr": 7847,
    "Ġdobro": 7848,
    "âĢĻung": 7849,
    "aughters": 7850,
    "Ġud": 7851,
    "96": 7852,
    "Ġacquired": 7853,
    "Ġinquired": 7854,
    "mm": 7855,
    "initely": 7856,
    "Tob": 7857,
    "sÃ¼an": 7858,
    "entions": 7859,
    "Ġdepri": 7860,
    "Ġpains": 7861,
    "Ġpushing": 7862,
    "Ġgovori": 7863,
    "OHN": 7864,
    "Ġwilt": 7865,
    "Ġly": 7866,
    "urgis": 7867,
    "ĠSecond": 7868,
    "ogg": 7869,
    "ĠNick": 7870,
    "ĠMah": 7871,
    "Ġdesires": 7872,
    "-house": 7873,
    "Ġfetch": 7874,
    "Ġpour": 7875,
    "Ġnearer": 7876,
    "ubal": 7877,
    "Ġcollege": 7878,
    "Ġstrike": 7879,
    "ffic": 7880,
    "Ġunion": 7881,
    "Ġuniversal": 7882,
    "ĠTell": 7883,
    "ĠSusan": 7884,
    "foot": 7885,
    "words": 7886,
    "uns": 7887,
    "ĠDelvile": 7888,
    "upp": 7889,
    "Ġtort": 7890,
    "really": 7891,
    "77": 7892,
    "Ġsentiment": 7893,
    "Ġcircumstance": 7894,
    "Ġdriven": 7895,
    "Ġthunder": 7896,
    "Ġprevious": 7897,
    "Ġrele": 7898,
    "otes": 7899,
    "Ġpreserved": 7900,
    "Ġinclined": 7901,
    "ournal": 7902,
    "Ġplastic": 7903,
    "Ġwrist": 7904,
    "Ġneighbor": 7905,
    "Ġescaped": 7906,
    "ĠMont": 7907,
    "ĠBoffin": 7908,
    "Like": 7909,
    "Ġlung": 7910,
    "Thy": 7911,
    "Ġambition": 7912,
    "lot": 7913,
    "Ġdelicate": 7914,
    "Have": 7915,
    "nora": 7916,
    "Ġdarling": 7917,
    "ĠWhile": 7918,
    "cow": 7919,
    "Ġsyn": 7920,
    "Ġbat": 7921,
    "Ġheavily": 7922,
    "Ġsadd": 7923,
    "Ġbelly": 7924,
    "yl": 7925,
    "ĠLucy": 7926,
    "Ġgrinned": 7927,
    "elf": 7928,
    "Ġtorn": 7929,
    "ĠWeasley": 7930,
    "Ġcells": 7931,
    "Ġwives": 7932,
    "ĠSon": 7933,
    "Ġenjoyed": 7934,
    "ē+ěĂ": 7935,
    "rons": 7936,
    "Ġbench": 7937,
    "ĠSammy": 7938,
    "nature": 7939,
    "thren": 7940,
    "Ġdeserve": 7941,
    "Ġopinions": 7942,
    "umption": 7943,
    "Ġdemonstr": 7944,
    "emort": 7945,
    "oldemort": 7946,
    "emper": 7947,
    "Ġmechan": 7948,
    "erry": 7949,
    "Ġprovince": 7950,
    "Ġvirtuous": 7951,
    "Ġpopular": 7952,
    "ĠMu": 7953,
    "Ġthumb": 7954,
    "OP": 7955,
    "also": 7956,
    "ĠTherefore": 7957,
    "\"'": 7958,
    "'D": 7959,
    "Ġinspect": 7960,
    "Ġmarket": 7961,
    "Ġputs": 7962,
    "dest": 7963,
    "Ġadmin": 7964,
    "Ġexecution": 7965,
    "Ġovo": 7966,
    "Ġwanting": 7967,
    "effect": 7968,
    "ĠSuddenly": 7969,
    "anches": 7970,
    "âĢľIn": 7971,
    "Ġconstantly": 7972,
    "Ġsymbol": 7973,
    "ĠEmma": 7974,
    "Ġslip": 7975,
    "aila": 7976,
    "Ġdil": 7977,
    "Ġrom": 7978,
    "Ġretired": 7979,
    "--\"": 7980,
    "Ġstruggle": 7981,
    "Ġmild": 7982,
    "Ġaloud": 7983,
    "Ġresearch": 7984,
    "Ġharder": 7985,
    "ĠCharlus": 7986,
    "Ġtrail": 7987,
    "ĠMcC": 7988,
    "ĠAngel": 7989,
    "icago": 7990,
    "imus": 7991,
    "uge": 7992,
    "heim": 7993,
    "ĠNobody": 7994,
    "ĠRay": 7995,
    "Ġbloody": 7996,
    "dra": 7997,
    "Ġfaded": 7998,
    "ĠGibson": 7999,
    "ĠOlive": 8000,
    ",%": 8001,
    "breat": 8002,
    "amela": 8003,
    "uchess": 8004,
    "idel": 8005,
    "lers": 8006,
    "ooper": 8007,
    "Ġcloak": 8008,
    "second": 8009,
    ".e": 8010,
    "resses": 8011,
    "Ġstaff": 8012,
    "ober": 8013,
    "uit": 8014,
    "account": 8015,
    "ĠChristians": 8016,
    "Ġetc": 8017,
    "vision": 8018,
    "ĠWells": 8019,
    "Ġbite": 8020,
    "Ġchuck": 8021,
    "-an": 8022,
    "dep": 8023,
    "Ġarose": 8024,
    "ĠGoth": 8025,
    "Ġaccordingly": 8026,
    "arisse": 8027,
    "Ġrent": 8028,
    "Ġdistribute": 8029,
    "Ġfrequent": 8030,
    "Ġrig": 8031,
    ":âĢĶĊ": 8032,
    "ault": 8033,
    "ĠAss": 8034,
    "plicity": 8035,
    "ĄĂ": 8036,
    "linger": 8037,
    "Ġgrateful": 8038,
    "lim": 8039,
    "Ġflour": 8040,
    "uda": 8041,
    "wasn": 8042,
    "âĢľOkay": 8043,
    "Ġstartled": 8044,
    "ĠSoames": 8045,
    "pir": 8046,
    "Li": 8047,
    "Ġcultiv": 8048,
    "ĠSchweik": 8049,
    "jet": 8050,
    "nivers": 8051,
    "Ġtaxes": 8052,
    "IÄĨ": 8053,
    "Ġist": 8054,
    "Ġswallowed": 8055,
    "ĠChung": 8056,
    "ml": 8057,
    "Ġabrupt": 8058,
    "ĠYossarian": 8059,
    "ĠArk": 8060,
    "ĠFour": 8061,
    "âĢľBecause": 8062,
    "Their": 8063,
    "ĠAsh": 8064,
    "Ġdamp": 8065,
    "Ġdana": 8066,
    "artment": 8067,
    "Ġgrip": 8068,
    "ĠgovoreÄĩi": 8069,
    "Ġunited": 8070,
    "ĠJerusalem": 8071,
    "Ġconquer": 8072,
    "unted": 8073,
    "ĠJill": 8074,
    "Ġskull": 8075,
    "Ġhoriz": 8076,
    "di": 8077,
    "Ġnjemu": 8078,
    "Ġanti": 8079,
    "Ġfellows": 8080,
    "Ġfo": 8081,
    "ĠBor": 8082,
    "Ġljudi": 8083,
    "Ġspare": 8084,
    "ĠOd": 8085,
    "'M": 8086,
    "kins": 8087,
    "othrop": 8088,
    "Ġgovor": 8089,
    "UM": 8090,
    "unning": 8091,
    "Ġactive": 8092,
    "Ġgradually": 8093,
    "Ġventure": 8094,
    "Toby": 8095,
    "ological": 8096,
    "mosphere": 8097,
    "apped": 8098,
    "à¨": 8099,
    "lfred": 8100,
    "pite": 8101,
    "ĠAle": 8102,
    "Ġskill": 8103,
    "ĠĠĠĠĠĠĠĠĠĠĠĠĠĠĠĠĠĠĠĠĠĠĠĠĠ": 8104,
    "Ġshouting": 8105,
    "usual": 8106,
    "children": 8107,
    "Ġlake": 8108,
    "uru": 8109,
    "Ġhappening": 8110,
    "Ġljub": 8111,
    "obl": 8112,
    "Ġinher": 8113,
    "ĠCourt": 8114,
    "ccording": 8115,
    "Ġchapter": 8116,
    "atoes": 8117,
    "ĠOut": 8118,
    "Ġsre": 8119,
    "Ġprophe": 8120,
    "Ġmode": 8121,
    "Ġlament": 8122,
    "Ġhighly": 8123,
    "Ġcompliance": 8124,
    "unteers": 8125,
    "Ġdefe": 8126,
    "Ġhandkerchief": 8127,
    "Ġbirthday": 8128,
    "Ġpleasures": 8129,
    "Ġincluded": 8130,
    "Ġformerly": 8131,
    "barians": 8132,
    "Ġimprove": 8133,
    "iÄį": 8134,
    "eled": 8135,
    "Ġuniform": 8136,
    "rene": 8137,
    "Elsa": 8138,
    "?âĢĶ": 8139,
    "Ġwaters": 8140,
    "isure": 8141,
    "orse": 8142,
    "aya": 8143,
    "Ġlowered": 8144,
    "Ġinvent": 8145,
    "Ġladyship": 8146,
    "arly": 8147,
    "ĠMad": 8148,
    "abs": 8149,
    "fulness": 8150,
    "Ġreflection": 8151,
    "Ġprivile": 8152,
    "Ġintroduced": 8153,
    "Ġnearby": 8154,
    "Ġnotion": 8155,
    ".ht": 8156,
    "pen": 8157,
    "Ġlabor": 8158,
    "ĠRosemary": 8159,
    "ĠSherman": 8160,
    "itol": 8161,
    "âĢľCome": 8162,
    "find": 8163,
    "Ġfled": 8164,
    "matter": 8165,
    "pher": 8166,
    "ĪĴ": 8167,
    "Ġimpr": 8168,
    "intell": 8169,
    "TC": 8170,
    "Ãª": 8171,
    "Ġjew": 8172,
    "jean": 8173,
    "ĠThose": 8174,
    "Ġbrow": 8175,
    "Ġgazed": 8176,
    "âĢľLet": 8177,
    "mat": 8178,
    "âĪĴ": 8179,
    "Ġlux": 8180,
    "Ġcomplex": 8181,
    "Ġmaintain": 8182,
    "Ġward": 8183,
    "-Ā-Ā-Ā-Ā-Ā-Ā-Ā-Ā": 8184,
    "usal": 8185,
    "AGE": 8186,
    "Liber": 8187,
    "ĠGet": 8188,
    "Ġsurrounded": 8189,
    "vity": 8190,
    "Ġvener": 8191,
    "Ġelectric": 8192,
    "ĠTarzan": 8193,
    "Ġpartly": 8194,
    "Ġmistaken": 8195,
    "Ġhastily": 8196,
    "ELL": 8197,
    "!ě": 8198,
    "Ġmixed": 8199,
    "ĠSince": 8200,
    "ĠMed": 8201,
    "Ġfeast": 8202,
    "Ġadvance": 8203,
    "Ġacknowled": 8204,
    "Ġpow": 8205,
    "Ġbeating": 8206,
    "Ġguests": 8207,
    "Ġwarning": 8208,
    "Ġdece": 8209,
    "ART": 8210,
    "-chÃ¼": 8211,
    "Ġpoetry": 8212,
    "Ġfence": 8213,
    "usk": 8214,
    "amped": 8215,
    ".html": 8216,
    "Ġkilling": 8217,
    "iÅ¡ta": 8218,
    "stitute": 8219,
    "'Ã¼an": 8220,
    "ĠSop": 8221,
    "ĠImperial": 8222,
    "Ġsplendid": 8223,
    "Ġpust": 8224,
    "Ġeasier": 8225,
    "Eng": 8226,
    "ĠMei": 8227,
    "Ġdisgrace": 8228,
    "Ġstead": 8229,
    "-col": 8230,
    "Ġï¬Ĥ": 8231,
    "ĠBuck": 8232,
    "Ġremove": 8233,
    "Ġcompanions": 8234,
    "Dr": 8235,
    "Ġbast": 8236,
    "ĠHal": 8237,
    "Ġsheet": 8238,
    "ĠST": 8239,
    "perfect": 8240,
    "Ġseparate": 8241,
    "isher": 8242,
    "Ġfist": 8243,
    "51": 8244,
    "ctions": 8245,
    "Ġregarded": 8246,
    "Ġfemale": 8247,
    "Ġrhy": 8248,
    "thony": 8249,
    "Ġwhale": 8250,
    "Ġrush": 8251,
    "Ġdragged": 8252,
    "Ġsacrific": 8253,
    "ĠHerbert": 8254,
    "Sim": 8255,
    "Thank": 8256,
    "angle": 8257,
    "Ġhyp": 8258,
    "finger": 8259,
    "umps": 8260,
    "Ã³v": 8261,
    "antages": 8262,
    "appeared": 8263,
    "Ġkinds": 8264,
    "Ġreckon": 8265,
    "atius": 8266,
    "jat": 8267,
    "sibly": 8268,
    "Ġtrous": 8269,
    "ĠGrant": 8270,
    "ĠMag": 8271,
    "Ġinform": 8272,
    "owager": 8273,
    "Ġthorough": 8274,
    "Ġuncertain": 8275,
    "Ġfourth": 8276,
    "ĠĂĊ": 8277,
    "Ġinvolved": 8278,
    "Ġos": 8279,
    "isting": 8280,
    "ĠThree": 8281,
    "Ġappreci": 8282,
    "'er": 8283,
    "uo": 8284,
    "Ġfund": 8285,
    "Ġvulgar": 8286,
    "version": 8287,
    "ĠBaron": 8288,
    "arms": 8289,
    "rier": 8290,
    "ifies": 8291,
    "Ġcharm": 8292,
    "Ġjealousy": 8293,
    "Ġmotor": 8294,
    "Ġconsciousness": 8295,
    "dro": 8296,
    "ano": 8297,
    "_;": 8298,
    "Ġts": 8299,
    "Ġplans": 8300,
    "Ġmortal": 8301,
    "skar": 8302,
    "icing": 8303,
    "kao": 8304,
    "keeper": 8305,
    "bear": 8306,
    "Ġresistance": 8307,
    "Ġsprang": 8308,
    "NE": 8309,
    "Ġsecurity": 8310,
    "\"This": 8311,
    "Ġsank": 8312,
    "avl": 8313,
    "among": 8314,
    "Ġextend": 8315,
    "ogue": 8316,
    "Ġinstit": 8317,
    "imsey": 8318,
    "Ġshy": 8319,
    "ĠSnape": 8320,
    "Ġcouch": 8321,
    "Ġthir": 8322,
    "Ġfeared": 8323,
    "ĠGreeks": 8324,
    "Ġshade": 8325,
    "Ġmedic": 8326,
    "Ġmanage": 8327,
    "Ġjedn": 8328,
    "illefort": 8329,
    "ĠSolom": 8330,
    "Ġdegrees": 8331,
    "gnatius": 8332,
    "Ġirrit": 8333,
    "Ġcontained": 8334,
    "asty": 8335,
    "Ġeleg": 8336,
    "ORGE": 8337,
    "Ġcards": 8338,
    "Ġpants": 8339,
    "Ġgunslinger": 8340,
    "cross": 8341,
    "Ġhal": 8342,
    "ĠReg": 8343,
    "coat": 8344,
    "âĢ¦âĢĿĊ": 8345,
    "&Ă": 8346,
    "Mule": 8347,
    "Ġcups": 8348,
    "Ġhoney": 8349,
    "ĠToo": 8350,
    "ĠSaturday": 8351,
    "Ġshed": 8352,
    "ĠColl": 8353,
    "Ġdva": 8354,
    "astern": 8355,
    "Ġcease": 8356,
    "Ġsina": 8357,
    "Ġtow": 8358,
    "Ġembr": 8359,
    "plete": 8360,
    "ĠĠĠĠĠĠĠĠĠĠĠĠĠĠĠĠĠĠĠĠĠ": 8361,
    "-\"": 8362,
    "Ġlightly": 8363,
    "Ġeleven": 8364,
    "Ġzapov": 8365,
    "Ġtale": 8366,
    "LOW": 8367,
    "Ġsuspicion": 8368,
    "eMule": 8369,
    "/Incoming": 8370,
    "-eyed": 8371,
    "becca": 8372,
    "ĠAnnabeth": 8373,
    "Ġdost": 8374,
    "Ġperformed": 8375,
    "ensed": 8376,
    "Ġdetermine": 8377,
    "Ġmysterious": 8378,
    "Ġfaster": 8379,
    "Ġanswers": 8380,
    "Ġkoja": 8381,
    "ieu": 8382,
    "ĠCont": 8383,
    "Ġdistribution": 8384,
    "ef": 8385,
    "encroft": 8386,
    "Ġchecked": 8387,
    "UB": 8388,
    "Ġmoder": 8389,
    "Ġsunlight": 8390,
    "/Incipit": 8391,
    "Ġbasket": 8392,
    "emon": 8393,
    "196": 8394,
    "Ġsetting": 8395,
    "Ġpulls": 8396,
    "Ġmemories": 8397,
    "Ġseries": 8398,
    "Ġframe": 8399,
    "Ġsvojim": 8400,
    "_H": 8401,
    "ĠChe": 8402,
    "indeed": 8403,
    "Ġaccord": 8404,
    "human": 8405,
    "ĠEv": 8406,
    "Ġthrowing": 8407,
    "Ġsupreme": 8408,
    "Ġdared": 8409,
    "rigg": 8410,
    "understand": 8411,
    "ota": 8412,
    "Ġshud": 8413,
    "ĠCON": 8414,
    "Ġsorts": 8415,
    "ĠIts": 8416,
    "Ġrolling": 8417,
    "ĠCynthia": 8418,
    "ĠDani": 8419,
    "ello": 8420,
    "Ġtv": 8421,
    "Ġradi": 8422,
    "different": 8423,
    "othes": 8424,
    "Ġprospect": 8425,
    "Ġpresents": 8426,
    "Ġattached": 8427,
    "inated": 8428,
    "ograp": 8429,
    "ĠAust": 8430,
    "ĠWind": 8431,
    "tom": 8432,
    "Ġnevertheless": 8433,
    "Ġprotection": 8434,
    "ito": 8435,
    "'n": 8436,
    "Ġprosper": 8437,
    "Ġ(_": 8438,
    "Ġrif": 8439,
    "Ġax": 8440,
    "Ġdrown": 8441,
    "Ġspin": 8442,
    "KE": 8443,
    "Ġere": 8444,
    "ĠGreen": 8445,
    "Ġshield": 8446,
    "iesel": 8447,
    "remember": 8448,
    "ĠCarrie": 8449,
    "Ġhitherto": 8450,
    "Ġresponse": 8451,
    "faith": 8452,
    "proper": 8453,
    "ITH": 8454,
    "ĠHarold": 8455,
    "Ġarranged": 8456,
    "rawley": 8457,
    "ĠVerdur": 8458,
    "ĠYabu": 8459,
    "ĠAbner": 8460,
    "Ġlicense": 8461,
    "Ġthereby": 8462,
    "Ġendure": 8463,
    "Ġunfortunate": 8464,
    "Ġbored": 8465,
    "-of": 8466,
    "ooh": 8467,
    "ĠBoy": 8468,
    "venue": 8469,
    "iron": 8470,
    "ĠGL": 8471,
    "-ku": 8472,
    "ĠCheng": 8473,
    "ąēĂ": 8474,
    "-se": 8475,
    "Ġoccupied": 8476,
    "ĠCristo": 8477,
    "Ġeventually": 8478,
    "Ġdescribe": 8479,
    "-bl": 8480,
    "ĠJessica": 8481,
    "oft": 8482,
    "Ġkra": 8483,
    "Ġshakes": 8484,
    "dig": 8485,
    "Ã±": 8486,
    "urance": 8487,
    "ĠUrsula": 8488,
    "ĠMariko": 8489,
    "front": 8490,
    "told": 8491,
    "rether": 8492,
    "Ġpersuaded": 8493,
    "rick": 8494,
    "La": 8495,
    "Ġscient": 8496,
    "Äįin": 8497,
    "Ġtear": 8498,
    "Ġfasc": 8499,
    "ĠVery": 8500,
    "ĠChang": 8501,
    "Ġowner": 8502,
    "Ġregister": 8503,
    "Ġlimited": 8504,
    "\"Of": 8505,
    "Ġlarger": 8506,
    "iva": 8507,
    "Ġinvestig": 8508,
    "sus": 8509,
    "Ġdiscovery": 8510,
    "Ġdeparture": 8511,
    "town": 8512,
    "aned": 8513,
    "ĠHugo": 8514,
    "Äĩer": 8515,
    "Once": 8516,
    "Shall": 8517,
    "Ġbeloved": 8518,
    "Ġadventure": 8519,
    "anda": 8520,
    "Ãº": 8521,
    "Ġorange": 8522,
    "called": 8523,
    "ĠAgnes": 8524,
    "mark": 8525,
    "small": 8526,
    ";âĢĶ": 8527,
    "Ġwidow": 8528,
    "ĠPipp": 8529,
    "aru": 8530,
    "Ġreaching": 8531,
    "Ġfeed": 8532,
    "obby": 8533,
    "comfortable": 8534,
    "ser": 8535,
    "Ġthyself": 8536,
    "quar": 8537,
    "Ġleader": 8538,
    "-he": 8539,
    "Ġlin": 8540,
    "given": 8541,
    "olic": 8542,
    "160": 8543,
    "ĂĔĊ": 8544,
    "Ġlun": 8545,
    "ooped": 8546,
    "Ġthousands": 8547,
    "Ġbranches": 8548,
    "ĠIsus": 8549,
    "omena": 8550,
    "Ġrepent": 8551,
    "ĠOsborne": 8552,
    "orable": 8553,
    "Ġblessed": 8554,
    "'l": 8555,
    "âĢľAll": 8556,
    "Before": 8557,
    "better": 8558,
    "-L": 8559,
    "Ġexposed": 8560,
    "ĠNee": 8561,
    "talk": 8562,
    "Ġbelt": 8563,
    "aign": 8564,
    "ĠWyn": 8565,
    "umm": 8566,
    "Ġ$": 8567,
    "Ġdeck": 8568,
    "Ġunexpected": 8569,
    "Ġtraining": 8570,
    "Ġadmiration": 8571,
    "Ġfirmly": 8572,
    "Ġnotwithstanding": 8573,
    "forth": 8574,
    "Ġmultitude": 8575,
    "Ġbelonged": 8576,
    "Ġmile": 8577,
    "Ġthread": 8578,
    "Ġshows": 8579,
    "ctober": 8580,
    "Any": 8581,
    "Bryce": 8582,
    "Ġmnog": 8583,
    "Ã¨s": 8584,
    "author": 8585,
    "Ġfounded": 8586,
    "istration": 8587,
    "Ġlawn": 8588,
    "arts": 8589,
    "Ġpurple": 8590,
    "Ġportion": 8591,
    "Ġsus": 8592,
    "Ġorn": 8593,
    "ēě": 8594,
    "girl": 8595,
    "ums": 8596,
    "âĢľNow": 8597,
    "toward": 8598,
    "lije": 8599,
    "57": 8600,
    "AIN": 8601,
    "PR": 8602,
    "ĠMajesty": 8603,
    "Em": 8604,
    "pleasant": 8605,
    "Ġbuildings": 8606,
    "Ġelev": 8607,
    "Ġmoreover": 8608,
    "Ġdisposed": 8609,
    "Ġtreasure": 8610,
    "Ġbenefit": 8611,
    "Ġcitizens": 8612,
    "-night": 8613,
    "Ġgled": 8614,
    "âĢĺYes": 8615,
    "chard": 8616,
    "Ġbrilliant": 8617,
    "ĠBeck": 8618,
    "contr": 8619,
    "conom": 8620,
    "\"R": 8621,
    "Ġbud": 8622,
    "ounding": 8623,
    "Ġenvy": 8624,
    "ĠMir": 8625,
    "Sam": 8626,
    "Ġocean": 8627,
    "Ġfrozen": 8628,
    "ĠDiana": 8629,
    "Ġreasonable": 8630,
    "Ġcontinually": 8631,
    "Ġprofound": 8632,
    "Ġobscure": 8633,
    "ĠPope": 8634,
    "ĠHim": 8635,
    "ĠSpe": 8636,
    "ĠServ": 8637,
    "Ġmanufact": 8638,
    "phew": 8639,
    "UG": 8640,
    "Ġsway": 8641,
    "Ġintellectual": 8642,
    "saw": 8643,
    "El": 8644,
    "ortunately": 8645,
    "aver": 8646,
    "oise": 8647,
    "Ġrenew": 8648,
    "Ġnurs": 8649,
    "burg": 8650,
    "ĠMum": 8651,
    "Ġrational": 8652,
    "Ġremarkable": 8653,
    "pherd": 8654,
    "ĠBilly": 8655,
    "Ġliqu": 8656,
    "Ġtap": 8657,
    "ibby": 8658,
    "Ġdesperate": 8659,
    "Since": 8660,
    "ĠSat": 8661,
    "Ġspeaks": 8662,
    "Ġarguments": 8663,
    "ĠBritain": 8664,
    "ĠWally": 8665,
    "Please": 8666,
    "angled": 8667,
    "ĠWhich": 8668,
    "Ġdivers": 8669,
    "Ġsingular": 8670,
    "Ġhatred": 8671,
    "Ġavail": 8672,
    "Paul": 8673,
    "Ġdressing": 8674,
    "rawford": 8675,
    "each": 8676,
    "ĠMos": 8677,
    "Ġremote": 8678,
    "Ġinclination": 8679,
    "Ġplants": 8680,
    "Ġruns": 8681,
    "erves": 8682,
    "Ġguilt": 8683,
    "Ġnet": 8684,
    "ĠNik": 8685,
    "COR": 8686,
    "ipt": 8687,
    "Ġnephew": 8688,
    "urai": 8689,
    "\"Who": 8690,
    "Ġfrag": 8691,
    "ĠMarch": 8692,
    "ĠDorrit": 8693,
    "dec": 8694,
    "Ġprincess": 8695,
    "ĠGrayson": 8696,
    "IX": 8697,
    "thousand": 8698,
    "thew": 8699,
    "Ġpursued": 8700,
    "Ġash": 8701,
    "Ġteaspoon": 8702,
    "ĠSnow": 8703,
    "inian": 8704,
    "ĠBE": 8705,
    "Ġacted": 8706,
    "Ġmischief": 8707,
    "Ġbay": 8708,
    "âĢľU": 8709,
    "utive": 8710,
    "Ġexternal": 8711,
    "assad": 8712,
    "ARR": 8713,
    "Ġdestroyed": 8714,
    "ąěĂ": 8715,
    "ï»": 8716,
    "Ġdownstairs": 8717,
    "ĠValjean": 8718,
    "oro": 8719,
    "Ġtouching": 8720,
    "Ġparties": 8721,
    "ĠEllen": 8722,
    "Ġoko": 8723,
    "itus": 8724,
    "Ġobservation": 8725,
    "inst": 8726,
    "Ġcompelled": 8727,
    "Ġglorious": 8728,
    "Ġclosely": 8729,
    "Ġrapidly": 8730,
    "Äįa": 8731,
    "anqu": 8732,
    "ĠTyrion": 8733,
    "ennam": 8734,
    "nikov": 8735,
    "68": 8736,
    "leness": 8737,
    "ĂĚĊ": 8738,
    "'.": 8739,
    "ĠWart": 8740,
    "Perhaps": 8741,
    "Ġmidnight": 8742,
    "morning": 8743,
    "Ġodgovori": 8744,
    "Ġgifts": 8745,
    "Ġmasters": 8746,
    "Ġdaughters": 8747,
    "ĠNap": 8748,
    "question": 8749,
    "âĢĻan": 8750,
    "Ġdescription": 8751,
    "Ġrepublic": 8752,
    "Ġconcealed": 8753,
    "Ġschol": 8754,
    "Ġshone": 8755,
    "ops": 8756,
    "nj": 8757,
    "ĠHam": 8758,
    "iest": 8759,
    "experi": 8760,
    "cel": 8761,
    "Ġstudent": 8762,
    "AV": 8763,
    "Grady": 8764,
    "Ġabund": 8765,
    "Ġcliff": 8766,
    "Ġcrowded": 8767,
    "already": 8768,
    "Ġchose": 8769,
    "ĠEveryone": 8770,
    "according": 8771,
    "izz": 8772,
    "ranny": 8773,
    "Ġrecognize": 8774,
    "Ġlately": 8775,
    "ĠHung": 8776,
    "rave": 8777,
    "Ġconfined": 8778,
    "equal": 8779,
    "uri": 8780,
    "Ġrabb": 8781,
    "Ġglow": 8782,
    "Ġwounded": 8783,
    "feel": 8784,
    "retion": 8785,
    "ĠHsiang": 8786,
    "mans": 8787,
    "ertainly": 8788,
    "191": 8789,
    "bers": 8790,
    "Ġscan": 8791,
    "Ġkindly": 8792,
    "uje": 8793,
    "half": 8794,
    "-S": 8795,
    "illing": 8796,
    "ĠMonte": 8797,
    "IJA": 8798,
    "'F": 8799,
    "_A": 8800,
    "rious": 8801,
    "whose": 8802,
    "Ġexpenses": 8803,
    "Ġdwar": 8804,
    "ĠAri": 8805,
    "Ġimmense": 8806,
    "Ġpad": 8807,
    "Ġtightly": 8808,
    "Ġinterests": 8809,
    "Ġtin": 8810,
    "Ġreturning": 8811,
    "ĠWorld": 8812,
    "OOK": 8813,
    "Ġhollow": 8814,
    "rily": 8815,
    "Ġblinked": 8816,
    "lord": 8817,
    "Ġheavens": 8818,
    "Ġindustry": 8819,
    "Ġswell": 8820,
    "Ġpainful": 8821,
    "AY": 8822,
    "word": 8823,
    "îģ¢": 8824,
    "Ġduke": 8825,
    "'No": 8826,
    "Ġflood": 8827,
    "Ġbutton": 8828,
    "Ġblond": 8829,
    "Ġsearching": 8830,
    "Ġowe": 8831,
    "sequently": 8832,
    "\"Where": 8833,
    "odor": 8834,
    "Ġzemlji": 8835,
    "till": 8836,
    "Ġconclusion": 8837,
    "-le": 8838,
    "osette": 8839,
    "ĠTommy": 8840,
    "Ġindependent": 8841,
    "iamond": 8842,
    "Ġnik": 8843,
    "Ġpanic": 8844,
    "Ġheir": 8845,
    "uris": 8846,
    "ĠSpanish": 8847,
    "Ġhol": 8848,
    "ĠFremen": 8849,
    "ĠCamp": 8850,
    "ape": 8851,
    "Ġsmaller": 8852,
    "Ġflame": 8853,
    "Ġmember": 8854,
    "ĠParty": 8855,
    "ĠMic": 8856,
    "Kad": 8857,
    "ĠAlyosha": 8858,
    "Ġfeatures": 8859,
    "Ġaltern": 8860,
    "Ġangel": 8861,
    "ĠNjeg": 8862,
    "),Ċ": 8863,
    "Ġfoundation": 8864,
    "believe": 8865,
    "ĠÃł": 8866,
    "ĠLuca": 8867,
    "enter": 8868,
    "ĠPamela": 8869,
    "oubt": 8870,
    "wed": 8871,
    "Ġstub": 8872,
    "oug": 8873,
    "Ġbilo": 8874,
    "Ġuttered": 8875,
    "Ġurged": 8876,
    "Ġbond": 8877,
    "Ġours": 8878,
    "grand": 8879,
    "Ġfaced": 8880,
    "Jul": 8881,
    "swe": 8882,
    "Ġlosing": 8883,
    "Ay": 8884,
    "Ġmans": 8885,
    "Ġages": 8886,
    "Ġreplace": 8887,
    "FACE": 8888,
    "Ġnowhere": 8889,
    "ĠCapitol": 8890,
    "IAN": 8891,
    "both": 8892,
    "thou": 8893,
    "Ã¼n": 8894,
    "exam": 8895,
    "Ġlyric": 8896,
    "ĠPlease": 8897,
    "ĠItalian": 8898,
    "emp": 8899,
    "Ġexpecting": 8900,
    "Nay": 8901,
    "olation": 8902,
    "ortunes": 8903,
    "Ġatmosphere": 8904,
    "Ġsheep": 8905,
    "Ġresumed": 8906,
    "Ġchildhood": 8907,
    "ĠAmy": 8908,
    "Ġsuite": 8909,
    "text": 8910,
    "ĠHagrid": 8911,
    "Ġsmelled": 8912,
    "ĠoÊĥ": 8913,
    "sia": 8914,
    "ĠMass": 8915,
    "avy": 8916,
    "Da": 8917,
    "neath": 8918,
    "Ġfocus": 8919,
    "'ang": 8920,
    "public": 8921,
    "Ġlegal": 8922,
    "Ġmisfortune": 8923,
    "sky": 8924,
    "Lu": 8925,
    "main": 8926,
    "Ġmaj": 8927,
    "Ġrude": 8928,
    "Ġratio": 8929,
    "atively": 8930,
    "ĠSpade": 8931,
    "ĠniÅ¡ta": 8932,
    "Master": 8933,
    "Mur": 8934,
    "-r": 8935,
    "Ġloudly": 8936,
    "Ġoffence": 8937,
    "poses": 8938,
    "onym": 8939,
    "Ġtie": 8940,
    "ashov": 8941,
    "Ġswiftly": 8942,
    "yard": 8943,
    "Ġtoler": 8944,
    "berte": 8945,
    "-chÃ¼eh": 8946,
    "Ġaddressed": 8947,
    "Ġfairly": 8948,
    "................": 8949,
    "Ġpipe": 8950,
    "Ġant": 8951,
    "Ġbranch": 8952,
    ".Ā": 8953,
    "Ġgown": 8954,
    "amen": 8955,
    "hem": 8956,
    "soon": 8957,
    "Ġcontempl": 8958,
    "ĠMany": 8959,
    "Ġstring": 8960,
    "William": 8961,
    "stra": 8962,
    "pled": 8963,
    "Ġblanket": 8964,
    "PER": 8965,
    "Ġleisure": 8966,
    "ĠFOR": 8967,
    "-bye": 8968,
    "hair": 8969,
    "Ġplane": 8970,
    "Ġmarble": 8971,
    "Nothing": 8972,
    "atrick": 8973,
    "ĠGus": 8974,
    "coll": 8975,
    "pol": 8976,
    "Ġfury": 8977,
    "Ġrecover": 8978,
    "Ġbrethren": 8979,
    "Ġhumanity": 8980,
    "Ġgang": 8981,
    "Ġcolonel": 8982,
    "aler": 8983,
    "mann": 8984,
    "Ġanyhow": 8985,
    "Ġuniverse": 8986,
    "Ġbegins": 8987,
    "ĠnaÅ¡": 8988,
    "brought": 8989,
    "ulted": 8990,
    "Ġdestruction": 8991,
    "GEORGE": 8992,
    "ĠTada": 8993,
    "Ġwrath": 8994,
    "Ġlively": 8995,
    "Ġprevented": 8996,
    "ĠConstantinople": 8997,
    "Herbert": 8998,
    "-B": 8999,
    "hu": 9000,
    "Ġtebe": 9001,
    "JECT": 9002,
    "ĠJOHN": 9003,
    "Ġtransp": 9004,
    "ĠXX": 9005,
    "Ġfacing": 9006,
    "imney": 9007,
    "ĠDun": 9008,
    "Ġevidently": 9009,
    "ĠVirginia": 9010,
    "ĠRubashov": 9011,
    "zna": 9012,
    "ĠChicago": 9013,
    "Ġstops": 9014,
    "Ġconceived": 9015,
    "Ġstern": 9016,
    "Ġassist": 9017,
    "ĠMaria": 9018,
    "ya": 9019,
    "ĠOliver": 9020,
    "lla": 9021,
    "ĠMam": 9022,
    "âĢĺOh": 9023,
    "Ġsteep": 9024,
    "rain": 9025,
    "âĢĻam": 9026,
    "othea": 9027,
    "Ġcritic": 9028,
    "Ġridiculous": 9029,
    "Ġsixty": 9030,
    "mu": 9031,
    "Ġmoje": 9032,
    "âĢ¦Ċ": 9033,
    "oreda": 9034,
    "prop": 9035,
    "Ġprayers": 9036,
    "Ġdistributed": 9037,
    "Ġconquest": 9038,
    "%!": 9039,
    "yes": 9040,
    "Ġnoon": 9041,
    "Ġdecent": 9042,
    "urt": 9043,
    "era": 9044,
    "sters": 9045,
    "ĠEach": 9046,
    "iza": 9047,
    "Ġruke": 9048,
    "inv": 9049,
    "olution": 9050,
    "Ġbang": 9051,
    "Ġdug": 9052,
    "across": 9053,
    "Ġinvis": 9054,
    "Ġcure": 9055,
    "Ġascend": 9056,
    "Ġconfirmed": 9057,
    "ederal": 9058,
    "\"In": 9059,
    "Ġcollar": 9060,
    "ĠBoga": 9061,
    "sign": 9062,
    "hey": 9063,
    "Ġbowl": 9064,
    "lars": 9065,
    "break": 9066,
    "Ġgross": 9067,
    "Ġplainly": 9068,
    "Ġcake": 9069,
    "ĠAra": 9070,
    "ĠKat": 9071,
    "Ġguest": 9072,
    "net": 9073,
    "ĠBran": 9074,
    "Mom": 9075,
    "Ġactual": 9076,
    "ĠDeath": 9077,
    "ros": 9078,
    "Ġproblems": 9079,
    "Ad": 9080,
    "kuru": 9081,
    "Ġlou": 9082,
    "itled": 9083,
    "unuch": 9084,
    "ISS": 9085,
    "ĠCandy": 9086,
    "ĠBrun": 9087,
    "Ġtechn": 9088,
    "asper": 9089,
    "ajuÄĩi": 9090,
    "Ġcamera": 9091,
    "hus": 9092,
    "Ġdelic": 9093,
    "Ġanxiety": 9094,
    "Ġsignific": 9095,
    "verend": 9096,
    "Ġfog": 9097,
    "ilding": 9098,
    "âĢ¦âĢĿ": 9099,
    "LY": 9100,
    "iate": 9101,
    "Ġquarrel": 9102,
    "ĠSire": 9103,
    "ĠDickie": 9104,
    "Ġwiped": 9105,
    "izzy": 9106,
    "oto": 9107,
    "aging": 9108,
    "Ġissue": 9109,
    "Ġthroughout": 9110,
    "Ġidle": 9111,
    "Ġboss": 9112,
    "enger": 9113,
    "Ġrabbits": 9114,
    "Ġexhausted": 9115,
    "inf": 9116,
    "ĠMill": 9117,
    "ĠEllie": 9118,
    "left": 9119,
    "Ġgates": 9120,
    "Ġmutual": 9121,
    "Ġinferior": 9122,
    "Ġsamurai": 9123,
    "immer": 9124,
    "ĠmeÄĳu": 9125,
    "Ġlikes": 9126,
    "una": 9127,
    "Ġlanded": 9128,
    "Ġmoja": 9129,
    "_Enter": 9130,
    "ĠSister": 9131,
    "Ġviews": 9132,
    "Ġdomestic": 9133,
    "Ġmock": 9134,
    "Ġrabbit": 9135,
    "Ġlighted": 9136,
    "uary": 9137,
    "ĠTao": 9138,
    "Ġconclude": 9139,
    "Ġdried": 9140,
    "ashington": 9141,
    "ping": 9142,
    "ĠStepan": 9143,
    "iable": 9144,
    "Ġpossibility": 9145,
    "felt": 9146,
    "lon": 9147,
    "ĠHolmes": 9148,
    "oqu": 9149,
    "mention": 9150,
    "Ġspake": 9151,
    "Ġintim": 9152,
    "Ġwriters": 9153,
    "oliÃ¨re": 9154,
    "ĠNed": 9155,
    "Ġsatisfy": 9156,
    "Ġprobable": 9157,
    "ĠAgathe": 9158,
    "Ġships": 9159,
    "Se": 9160,
    "olen": 9161,
    "Ġcharms": 9162,
    "ĠFe": 9163,
    "Two": 9164,
    "table": 9165,
    "Ġkicked": 9166,
    "high": 9167,
    "ĠLinus": 9168,
    "Ġpretended": 9169,
    "Ġmerry": 9170,
    "'Yes": 9171,
    "gone": 9172,
    "ĠMagnus": 9173,
    "Ġdesir": 9174,
    "achment": 9175,
    "Ġreported": 9176,
    "Ġamid": 9177,
    "Ġgap": 9178,
    "rolled": 9179,
    "ĠFer": 9180,
    "Ġaccustomed": 9181,
    "Ġpisto": 9182,
    "Ġwitch": 9183,
    "Ġjail": 9184,
    "Ġcir": 9185,
    "Ġcurled": 9186,
    "Ġmart": 9187,
    "Ġerect": 9188,
    "ĠGovernment": 9189,
    "ships": 9190,
    "Ġpine": 9191,
    "Ġgrasp": 9192,
    "ĠAgain": 9193,
    "'It": 9194,
    "bury": 9195,
    "kar": 9196,
    "vati": 9197,
    "Ġshared": 9198,
    "Ġtrunk": 9199,
    "teenth": 9200,
    "Ġliterature": 9201,
    "Ġcomment": 9202,
    "\"Did": 9203,
    "\">âĢĺ": 9204,
    "amper": 9205,
    "Ġrestaur": 9206,
    "_V": 9207,
    "mount": 9208,
    "Ġthither": 9209,
    "ĠNOT": 9210,
    "raction": 9211,
    "hett": 9212,
    "outhern": 9213,
    "Ġcutting": 9214,
    "prot": 9215,
    "ĠTobias": 9216,
    "Ġdeceived": 9217,
    "Ġindifferent": 9218,
    "States": 9219,
    "anke": 9220,
    "Ġmystery": 9221,
    "hab": 9222,
    "ands": 9223,
    "olin": 9224,
    "Everyone": 9225,
    "Ġaudience": 9226,
    "Ġtunnel": 9227,
    "arded": 9228,
    "Ġdisclaim": 9229,
    "Ġdepends": 9230,
    "Ġtenderness": 9231,
    "Ġcrept": 9232,
    "stri": 9233,
    "bin": 9234,
    "elaena": 9235,
    "ĠValentine": 9236,
    "Ill": 9237,
    "tri": 9238,
    "sell": 9239,
    "-but": 9240,
    "Ġfeather": 9241,
    "Ġmoonlight": 9242,
    "Ġcotton": 9243,
    "Ġbon": 9244,
    "ĠCre": 9245,
    "unny": 9246,
    "?ï¿½": 9247,
    "ostÃ³v": 9248,
    "IES": 9249,
    "Ġdisgu": 9250,
    "Ġapparent": 9251,
    "compl": 9252,
    "Ġpriests": 9253,
    "mond": 9254,
    "Ġpian": 9255,
    "Ġ'Ċ": 9256,
    "Ġclerk": 9257,
    "Ġmol": 9258,
    "âĢĻn": 9259,
    "avÅ¡i": 9260,
    "Ġopens": 9261,
    "Ġmovie": 9262,
    "inkled": 9263,
    "Ġwriter": 9264,
    "Ġtotal": 9265,
    "sukuru": 9266,
    "ĠâĢĶâĢĿĊ": 9267,
    "Ġinches": 9268,
    "happened": 9269,
    "Ġcher": 9270,
    "ĠÉ¹rst": 9271,
    "Ġrailroad": 9272,
    "ĠSlothrop": 9273,
    "Ġfab": 9274,
    "ĠJulian": 9275,
    "-out": 9276,
    "orba": 9277,
    "ilgar": 9278,
    "quite": 9279,
    "Ġclaw": 9280,
    "ĠâĢ¦âĢĻĊ": 9281,
    "Ġcaste": 9282,
    "DE": 9283,
    "Ġprotest": 9284,
    "Ġconnected": 9285,
    "ĠANY": 9286,
    "ĠPort": 9287,
    "Ġbrush": 9288,
    "ĠMonsieur": 9289,
    "yram": 9290,
    "Ġsending": 9291,
    "IP": 9292,
    "Would": 9293,
    "pic": 9294,
    "itional": 9295,
    "Ġconsequences": 9296,
    "LETTER": 9297,
    "ĒĂ": 9298,
    "Ġwing": 9299,
    "ĠNatÃ¡sha": 9300,
    "52": 9301,
    "DY": 9302,
    "bation": 9303,
    "Ġgent": 9304,
    "Ġdisplayed": 9305,
    "ggy": 9306,
    "Ġpillow": 9307,
    "'Ã¼": 9308,
    "Part": 9309,
    "TR": 9310,
    "nn": 9311,
    "Ġaspect": 9312,
    "Ġleaf": 9313,
    "Ġintense": 9314,
    "193": 9315,
    "ĠIza": 9316,
    "Something": 9317,
    "Ġstaying": 9318,
    "Ġancest": 9319,
    "ulties": 9320,
    "Ġerrors": 9321,
    "Ġwarmth": 9322,
    "Ġbars": 9323,
    "Äįu": 9324,
    "uated": 9325,
    "Ġextended": 9326,
    "uei": 9327,
    "Ġimperfect": 9328,
    "Ġconnection": 9329,
    "Ġpoems": 9330,
    "Ġcracked": 9331,
    "Ġhundreds": 9332,
    "'ung": 9333,
    "wife": 9334,
    "Ġtrousers": 9335,
    "ĠMeggie": 9336,
    "Ġfurniture": 9337,
    "sole": 9338,
    "grat": 9339,
    "__": 9340,
    "ĠBur": 9341,
    "Ġrival": 9342,
    "Ġdeclare": 9343,
    "Ġwarned": 9344,
    "Ġabsor": 9345,
    "Ġterribly": 9346,
    "Ġmail": 9347,
    "few": 9348,
    "itya": 9349,
    "ĠRock": 9350,
    "Ġweapon": 9351,
    "servant": 9352,
    "Ġtorment": 9353,
    "ĠSophia": 9354,
    "197": 9355,
    "ĠCrawley": 9356,
    "ĠBoÅ¾": 9357,
    "-ho": 9358,
    "Ġperpetual": 9359,
    "ĠSmith": 9360,
    "ĠTa": 9361,
    "Ġconj": 9362,
    "ĠJurgis": 9363,
    "Ġexamine": 9364,
    "/Dune": 9365,
    "/Herbert": 9366,
    "Har": 9367,
    "Ġmustn": 9368,
    "aying": 9369,
    "Ġmodest": 9370,
    "ige": 9371,
    "ICK": 9372,
    "Ġ?": 9373,
    "ĠAnother": 9374,
    "RS": 9375,
    "_:": 9376,
    "Ġrestored": 9377,
    "Ġunlike": 9378,
    "itors": 9379,
    "icient": 9380,
    "Ġpleasing": 9381,
    "roll": 9382,
    "emÃŃ": 9383,
    "âĢľCan": 9384,
    "Ġbeheld": 9385,
    "ĠOri": 9386,
    "Ġappet": 9387,
    "Ġincap": 9388,
    "Ġattempted": 9389,
    "berry": 9390,
    "\"Ah": 9391,
    "mir": 9392,
    "ĠChan": 9393,
    "Ġassumed": 9394,
    "Ġpockets": 9395,
    "Ġforb": 9396,
    "circumst": 9397,
    "ĠPage": 9398,
    "aren": 9399,
    "vek": 9400,
    "began": 9401,
    "Ġdreamed": 9402,
    "Ġfuneral": 9403,
    "Ġwarn": 9404,
    "Ġsurvive": 9405,
    "Ġfinds": 9406,
    "Ġburnt": 9407,
    "Ġmotive": 9408,
    "Ġalarm": 9409,
    "ednes": 9410,
    "akov": 9411,
    "ednesday": 9412,
    "itself": 9413,
    "ĠSpirit": 9414,
    "âĢľK": 9415,
    "Ġabandoned": 9416,
    "ĠLife": 9417,
    "ĠRober": 9418,
    "NI": 9419,
    "Ġdoc": 9420,
    "ĠGa": 9421,
    "Ġyeah": 9422,
    "ĠUnder": 9423,
    "Ġsecrets": 9424,
    "ĠuÄįini": 9425,
    "crow": 9426,
    "ĠAB": 9427,
    "Ġshih": 9428,
    "Ġard": 9429,
    "Suddenly": 9430,
    "Ġharsh": 9431,
    "asse": 9432,
    "Americ": 9433,
    "ĠBaba": 9434,
    "Ġfigured": 9435,
    "Had": 9436,
    "Ġvillain": 9437,
    "Ġrequirements": 9438,
    "Ġhopeless": 9439,
    "ĠBro": 9440,
    "ĠWH": 9441,
    "ĠPencroft": 9442,
    "ilde": 9443,
    "expl": 9444,
    "Ġresist": 9445,
    "ĠWITH": 9446,
    "Ġplatform": 9447,
    "Ġmagaz": 9448,
    "mouth": 9449,
    "âĢľJust": 9450,
    "anglars": 9451,
    "rather": 9452,
    "Ġbade": 9453,
    "Ġpover": 9454,
    "Ġadmire": 9455,
    "toni": 9456,
    "Ġtore": 9457,
    "Ġrested": 9458,
    "ĀS": 9459,
    "ems": 9460,
    "nar": 9461,
    "ittoria": 9462,
    "Ġbrid": 9463,
    "OLOG": 9464,
    "Ġpersec": 9465,
    "voked": 9466,
    "Ġpenetr": 9467,
    "Ġutterly": 9468,
    "Ġpoverty": 9469,
    "Ġmental": 9470,
    "Ġrevolution": 9471,
    "ural": 9472,
    "ĠCas": 9473,
    "Ġtotally": 9474,
    "Ġalley": 9475,
    "ĠKar": 9476,
    "ĠVillefort": 9477,
    "Ġdisappear": 9478,
    "Ġcogn": 9479,
    "ustration": 9480,
    "Ġdistrict": 9481,
    "Ġeh": 9482,
    "ĠMama": 9483,
    "Ġpuzzled": 9484,
    "Ġbutt": 9485,
    "ĠOctober": 9486,
    "Ġgor": 9487,
    "aci": 9488,
    "ĠMi": 9489,
    "-haired": 9490,
    "64": 9491,
    "ifying": 9492,
    "sip": 9493,
    "Ġerr": 9494,
    "Ġleaped": 9495,
    "Ġbearing": 9496,
    "corn": 9497,
    "Ġnje": 9498,
    "ĠsveÅ¡ten": 9499,
    "Ġsummon": 9500,
    "done": 9501,
    "received": 9502,
    "Ġoft": 9503,
    "Ġsubl": 9504,
    "Ġprayer": 9505,
    "Ġinnocence": 9506,
    "ĠClarisse": 9507,
    "ĠMeany": 9508,
    "sal": 9509,
    "Ġrot": 9510,
    "Ġhsi": 9511,
    "Ġintu": 9512,
    "Ġcopying": 9513,
    "Ġstatement": 9514,
    "usive": 9515,
    "olence": 9516,
    "abella": 9517,
    "Ġverses": 9518,
    "Ġhut": 9519,
    "until": 9520,
    "ÄĳoÅ¡e": 9521,
    "Ġdrops": 9522,
    "Ġzemlju": 9523,
    "Ġloving": 9524,
    "Ġcontain": 9525,
    "pack": 9526,
    "Ġbone": 9527,
    "âĢľWhen": 9528,
    "fav": 9529,
    "Ġabuse": 9530,
    "ĠĠĠĠĠĠĠ": 9531,
    "hundred": 9532,
    "twas": 9533,
    "Ġpermit": 9534,
    "%ě": 9535,
    "Ġgay": 9536,
    "Ġguessed": 9537,
    "uish": 9538,
    "Ġmagnific": 9539,
    "Ġstirred": 9540,
    "Ġprecisely": 9541,
    "Ġmalo": 9542,
    "Ġcollap": 9543,
    "igence": 9544,
    "Ġgover": 9545,
    "Ġplays": 9546,
    "nds": 9547,
    "Ġpressure": 9548,
    "\"Yeah": 9549,
    "Ġsteam": 9550,
    "Tessa": 9551,
    "isk": 9552,
    "Ġfalls": 9553,
    "point": 9554,
    "198": 9555,
    "Ġlan": 9556,
    "Ġreflected": 9557,
    "âĢĶto": 9558,
    "div": 9559,
    "esar": 9560,
    "ĠEmperor": 9561,
    "helm": 9562,
    "ĠElnora": 9563,
    "ĠAlfred": 9564,
    "ĠAz": 9565,
    "ĠLydia": 9566,
    "blance": 9567,
    "Ġsuccession": 9568,
    "ikov": 9569,
    "Ġstronger": 9570,
    "post": 9571,
    "iri": 9572,
    "manner": 9573,
    "ĠĠĠĠĠĠĠĠĠĠĠĠĠĠĠĠĠĠĠĠĠĠĠĠĠĠ": 9574,
    "-four": 9575,
    "rya": 9576,
    "Ġscra": 9577,
    "Ġdeeper": 9578,
    "Ġsuspected": 9579,
    "Ġcarpet": 9580,
    "'in": 9581,
    "Ġprovisions": 9582,
    "Ġtroubled": 9583,
    "agreement": 9584,
    "Ġresentment": 9585,
    "ressing": 9586,
    "Ġengineer": 9587,
    "zi": 9588,
    "Ġbeings": 9589,
    "Ġstrongly": 9590,
    "occasion": 9591,
    "ï¿½I": 9592,
    "Ġglas": 9593,
    "ĠPotter": 9594,
    "inqu": 9595,
    "Ġweary": 9596,
    "Ġmeasures": 9597,
    "iffic": 9598,
    "quot": 9599,
    "Ġvolunteers": 9600,
    "Ġdistinguish": 9601,
    "Ġapple": 9602,
    "Ġbigger": 9603,
    "oliko": 9604,
    "Ġwarrant": 9605,
    "%Ă": 9606,
    "Ġcrou": 9607,
    "Ġclan": 9608,
    "ĠAliena": 9609,
    "ĠâĢ¢": 9610,
    "Ġelbow": 9611,
    "iast": 9612,
    "Ġrepeat": 9613,
    "Ġbeasts": 9614,
    "opes": 9615,
    "ĠIgnatius": 9616,
    "ĠFinally": 9617,
    "ilda": 9618,
    "mem": 9619,
    "ĠLeg": 9620,
    "Ąą!Ă": 9621,
    "Jack": 9622,
    "Ġwool": 9623,
    "ĠOver": 9624,
    "Ne": 9625,
    "Ġshower": 9626,
    "Ġjeans": 9627,
    "ĠVoldemort": 9628,
    "determ": 9629,
    "death": 9630,
    "sued": 9631,
    "Ġholder": 9632,
    "Ġsolicit": 9633,
    "ĠBon": 9634,
    "niversity": 9635,
    "pull": 9636,
    "olt": 9637,
    "Ġflames": 9638,
    "ĠClennam": 9639,
    "Ġtucked": 9640,
    "Ġignored": 9641,
    "Ġinvisible": 9642,
    "Ġwhereas": 9643,
    "-be": 9644,
    "abbitt": 9645,
    "ĠHats": 9646,
    "Ġpes": 9647,
    "Ġphoto": 9648,
    "Ġrecovered": 9649,
    "THER": 9650,
    "Ġreproach": 9651,
    "Ġshr": 9652,
    "yle": 9653,
    "Ġkeys": 9654,
    "ojih": 9655,
    "Ġquit": 9656,
    "Ġpunish": 9657,
    "uffled": 9658,
    "udy": 9659,
    "ĠÂ": 9660,
    "More": 9661,
    "Ġdisturb": 9662,
    "Ġadopted": 9663,
    "vy": 9664,
    "manzo": 9665,
    "Ġgoddam": 9666,
    "Ā!ĀĊ": 9667,
    "igr": 9668,
    "wig": 9669,
    "ĠEugene": 9670,
    "gent": 9671,
    "ingers": 9672,
    "âĢĶyou": 9673,
    "ĠDark": 9674,
    "Ġflick": 9675,
    "âĢ¢": 9676,
    "Ġequip": 9677,
    "ĠTim": 9678,
    "Ġherd": 9679,
    "Hunt": 9680,
    "ĠĀ\"Ā": 9681,
    "SH": 9682,
    "Ġperf": 9683,
    "ĂĚ": 9684,
    "CK": 9685,
    "Ġinsect": 9686,
    "Henry": 9687,
    "May": 9688,
    "number": 9689,
    "Ġnarr": 9690,
    "ĠPre": 9691,
    "Ġcheap": 9692,
    "Ġdumb": 9693,
    "ĠPh": 9694,
    "ĠAfrica": 9695,
    "ouch": 9696,
    "Ġshrug": 9697,
    "ugs": 9698,
    "Ġmedical": 9699,
    "Ġmassive": 9700,
    "Ġuseless": 9701,
    "Ġcompared": 9702,
    "uthors": 9703,
    "Ġreasoning": 9704,
    "itect": 9705,
    "icide": 9706,
    "Ġspell": 9707,
    "Me": 9708,
    "Ġbreasts": 9709,
    "Ġscent": 9710,
    "Ġhalfway": 9711,
    "Ġawait": 9712,
    "oting": 9713,
    "Ġobli": 9714,
    "Ġbrings": 9715,
    "urely": 9716,
    "ĠOskar": 9717,
    "Ġideal": 9718,
    "^^^^": 9719,
    "otty": 9720,
    "everly": 9721,
    "Ġtool": 9722,
    "along": 9723,
    "Ġhumans": 9724,
    "Ġsinovi": 9725,
    "ique": 9726,
    "165": 9727,
    "Ġcorpor": 9728,
    "Ġspiritual": 9729,
    "Ġperfection": 9730,
    "Ġpurchase": 9731,
    "Ġcommerce": 9732,
    "George": 9733,
    "ĠMus": 9734,
    "ĠLight": 9735,
    "Ġrelieved": 9736,
    "friends": 9737,
    "ĠMoscow": 9738,
    "ĠHoly": 9739,
    "ĠBook": 9740,
    "Ġriches": 9741,
    "ban": 9742,
    "ruck": 9743,
    "Philip": 9744,
    "Ġvjer": 9745,
    "Ġimposed": 9746,
    "Ġaffections": 9747,
    "Ġtoile": 9748,
    "ĠAlexand": 9749,
    "Ġtoga": 9750,
    "least": 9751,
    "ĠKate": 9752,
    "Ġneighb": 9753,
    "hire": 9754,
    "headed": 9755,
    "Ġeaten": 9756,
    "Ġcough": 9757,
    "sa": 9758,
    "Ġclosing": 9759,
    "_P": 9760,
    "uable": 9761,
    "Ġministers": 9762,
    "ĠWimsey": 9763,
    "Ġflow": 9764,
    "--âĢľ": 9765,
    "ĠHarding": 9766,
    "Ġhorizon": 9767,
    "Äĳa": 9768,
    "wixt": 9769,
    "Ġdischar": 9770,
    "Ġstandard": 9771,
    "Ġproject": 9772,
    "Ġflag": 9773,
    "ĠCelia": 9774,
    "sen": 9775,
    "Ġtum": 9776,
    "Ġsurre": 9777,
    "Ġveget": 9778,
    "Ġtil": 9779,
    "ĠUpon": 9780,
    "agreeable": 9781,
    "Ġtough": 9782,
    "shine": 9783,
    "Ġsmoking": 9784,
    "jest": 9785,
    "Ġhood": 9786,
    "Ġjar": 9787,
    "Hist": 9788,
    "ses": 9789,
    "Ġapprehend": 9790,
    "Ġclergy": 9791,
    "ĠSept": 9792,
    "âĢĺBut": 9793,
    "estab": 9794,
    "Ġgovernor": 9795,
    "Ġtheory": 9796,
    "....Ċ": 9797,
    "ticus": 9798,
    "aphira": 9799,
    "TE": 9800,
    "speak": 9801,
    "Ġessential": 9802,
    "COND": 9803,
    "ĠAshley": 9804,
    "Ġdeserted": 9805,
    "âĢľTo": 9806,
    "gment": 9807,
    "verted": 9808,
    "ummer": 9809,
    "Ġattorney": 9810,
    "OD": 9811,
    "school": 9812,
    "MAN": 9813,
    "Ġfoul": 9814,
    "state": 9815,
    "aments": 9816,
    "Ġshu": 9817,
    "Ġservices": 9818,
    "Ġscheme": 9819,
    "Ġenthus": 9820,
    "hedral": 9821,
    "Ġfootsteps": 9822,
    "ĠRepublic": 9823,
    "Ġdearest": 9824,
    "quisite": 9825,
    "Ġaltar": 9826,
    "ĠGal": 9827,
    "Never": 9828,
    "ĠRue": 9829,
    "Ġbackward": 9830,
    "squ": 9831,
    "eno": 9832,
    "Ġheels": 9833,
    "Than": 9834,
    "Ġwars": 9835,
    "ĠChu": 9836,
    "Ġfaults": 9837,
    "Ġflu": 9838,
    "Ġknights": 9839,
    "Ġsupported": 9840,
    "Ġopposition": 9841,
    "Ġstor": 9842,
    "Ġlanding": 9843,
    "Ġdyn": 9844,
    "INC": 9845,
    "Ġendless": 9846,
    "Ġpractical": 9847,
    "Ġgames": 9848,
    "ĠSomeone": 9849,
    ".C": 9850,
    "Br": 9851,
    "istered": 9852,
    "Ġprepar": 9853,
    "Ġstrangers": 9854,
    "alties": 9855,
    "Ġmanifest": 9856,
    "ĠHill": 9857,
    "ieutenant": 9858,
    "ĠRhys": 9859,
    "ĠBudd": 9860,
    "ensity": 9861,
    "ounter": 9862,
    "Ġastonished": 9863,
    "Ã§oise": 9864,
    "ĠTake": 9865,
    "ĠPan": 9866,
    "reek": 9867,
    "ronsky": 9868,
    "eke": 9869,
    "Ġnij": 9870,
    "Ġvidi": 9871,
    "Ġmaintained": 9872,
    "Ġfactory": 9873,
    "ĠJude": 9874,
    "Ġhunting": 9875,
    "Ġtank": 9876,
    "âĢĶnot": 9877,
    "Ġsanct": 9878,
    "Ġnic": 9879,
    "ĠPopp": 9880,
    "Ġsud": 9881,
    "VER": 9882,
    "Ġtroubles": 9883,
    "knowledge": 9884,
    "Ġbarn": 9885,
    "Ġdart": 9886,
    "Ġhandful": 9887,
    "erity": 9888,
    "Ġdiff": 9889,
    "END": 9890,
    "Ġkeen": 9891,
    "ĠHerr": 9892,
    "ĠFort": 9893,
    "isu": 9894,
    "ida": 9895,
    "rib": 9896,
    "jevi": 9897,
    "ĠZar": 9898,
    "Ġwebs": 9899,
    "ittee": 9900,
    "Ġdetect": 9901,
    "Ġsympathy": 9902,
    "Ġmedicine": 9903,
    "ÄĲ": 9904,
    "ĠvaÅ¡": 9905,
    "Ġshiver": 9906,
    "Ġartific": 9907,
    "Ġdispute": 9908,
    "oucy": 9909,
    "brother": 9910,
    "Ġpier": 9911,
    "Ġmonster": 9912,
    "ĠÄĩeÅ¡": 9913,
    "Ġboxes": 9914,
    "liv": 9915,
    "âĢĻun": 9916,
    "Ġsust": 9917,
    "olent": 9918,
    "Ġalike": 9919,
    "strong": 9920,
    "Ġ_(": 9921,
    "oyd": 9922,
    "ĠVan": 9923,
    "Ġsongs": 9924,
    "andom": 9925,
    "close": 9926,
    "IE": 9927,
    "Ġdiver": 9928,
    "Ġniece": 9929,
    "object": 9930,
    "ĠPray": 9931,
    "ĠCrawford": 9932,
    "ĠIsland": 9933,
    "Ġisp": 9934,
    "raz": 9935,
    "separ": 9936,
    "usions": 9937,
    "hant": 9938,
    "Ġperman": 9939,
    "Ġvolume": 9940,
    "ĠAnthony": 9941,
    "New": 9942,
    "ĠSn": 9943,
    "ĠHowl": 9944,
    "Ġ.âĢĿ": 9945,
    "ameron": 9946,
    "ANTOLOG": 9947,
    "ANTOLOGIJA": 9948,
    "ĠBell": 9949,
    "Ġcontinu": 9950,
    "Ġemployment": 9951,
    "UTEN": 9952,
    "%ć": 9953,
    "ĠFin": 9954,
    "Ġlaï¬Ĩ": 9955,
    "oland": 9956,
    "Tell": 9957,
    "ĠMarie": 9958,
    "fin": 9959,
    "eries": 9960,
    "ĠInformation": 9961,
    "licted": 9962,
    "Ġtreatment": 9963,
    "ndine": 9964,
    "Ġfant": 9965,
    "uine": 9966,
    "ĠdoÅ¡": 9967,
    "gement": 9968,
    "ĠhsÃ¼an": 9969,
    "Ġformat": 9970,
    "Ġnonsense": 9971,
    "ĠJubal": 9972,
    "Ġwolf": 9973,
    "reck": 9974,
    "says": 9975,
    "Ġmask": 9976,
    "adi": 9977,
    "vag": 9978,
    "Ġinsult": 9979,
    "Ġinch": 9980,
    "Ġislands": 9981,
    "Ġresponsibility": 9982,
    "Ġcord": 9983,
    "oston": 9984,
    "Ġcorp": 9985,
    "Ġmounted": 9986,
    "ĠCam": 9987,
    "ĠÄįe": 9988,
    "surpr": 9989,
    "Ġprudence": 9990,
    "Ġsoup": 9991,
    "ĠMAN": 9992,
    "isle": 9993,
    "âĢľThank": 9994,
    "wouldn": 9995,
    "ĠRebecca": 9996,
    "HT": 9997,
    "riff": 9998,
    "ĠChief": 9999,
    "Ġcage": 10000,
    "...\"Ċ": 10001,
    "Ġdetail": 10002,
    "Ġweapons": 10003,
    "ado": 10004,
    "Ġrespects": 10005,
    "Ġcelebrated": 10006,
    "Ġcam": 10007,
    "ĠMelanie": 10008,
    "Ġrat": 10009,
    "Ġunl": 10010,
    "ske": 10011,
    "general": 10012,
    "ĠWARR": 10013,
    "geance": 10014,
    "command": 10015,
    "pended": 10016,
    "BERG": 10017,
    "Ġcomprehend": 10018,
    "ĠHale": 10019,
    "ichikov": 10020,
    "ĠBu": 10021,
    "othy": 10022,
    "Ġidol": 10023,
    "Ġinherit": 10024,
    "ĠWARRANT": 10025,
    "athetic": 10026,
    "ĠRuth": 10027,
    "box": 10028,
    "ĠuÄįin": 10029,
    "government": 10030,
    "phil": 10031,
    "ĠJudah": 10032,
    "oard": 10033,
    "Ġsom": 10034,
    "Ġtrap": 10035,
    "Ġcorners": 10036,
    "ĠpoÄį": 10037,
    "taking": 10038,
    "Ġremedy": 10039,
    "within": 10040,
    "ocity": 10041,
    "Ġretire": 10042,
    "Ġlands": 10043,
    "Ġfed": 10044,
    "Ġbewild": 10045,
    "ureli": 10046,
    "ĠArabs": 10047,
    "ĠPoppins": 10048,
    "ĠNathan": 10049,
    "Ġrubbed": 10050,
    "Ġconfirm": 10051,
    "hast": 10052,
    "Ġï¬Ĩill": 10053,
    "ĠPerry": 10054,
    "Ġgy": 10055,
    "ĠKnight": 10056,
    "Ġime": 10057,
    "âĢĺWell": 10058,
    "Ġpercent": 10059,
    "Ġpressing": 10060,
    "BOOK": 10061,
    "Ġdisd": 10062,
    "Ġcertainty": 10063,
    "Ġlimits": 10064,
    "ĠBalbec": 10065,
    "Ġwebsite": 10066,
    "ĠJulia": 10067,
    "Ġabruptly": 10068,
    "Ġstaircase": 10069,
    "Ġwhispers": 10070,
    "53": 10071,
    "Ġjest": 10072,
    "ĠConstantine": 10073,
    "Ġeconom": 10074,
    "Ġcrimin": 10075,
    "Ġsexual": 10076,
    "lying": 10077,
    "Ġunusual": 10078,
    "aden": 10079,
    "Ġkak": 10080,
    "bac": 10081,
    "Ġrash": 10082,
    "Ġunjust": 10083,
    "Ġappeal": 10084,
    "Ġdisgust": 10085,
    "burn": 10086,
    "awber": 10087,
    "ĠEleanor": 10088,
    "Ġadvers": 10089,
    "Ġloyal": 10090,
    "Ġlightning": 10091,
    "ĠLaila": 10092,
    "ĠRu": 10093,
    "Ġdefinitely": 10094,
    "ĠPower": 10095,
    "ĠProv": 10096,
    "onymous": 10097,
    "ĠNina": 10098,
    "Ġnjim": 10099,
    "TO": 10100,
    "Ġming": 10101,
    "ulars": 10102,
    "Ġrequires": 10103,
    "Ġrecently": 10104,
    "ĠArkady": 10105,
    "[h": 10106,
    "atar": 10107,
    "Ġfrank": 10108,
    "ĠParliament": 10109,
    "Ġseparated": 10110,
    "Ro": 10111,
    "ido": 10112,
    "thm": 10113,
    "Ġplanet": 10114,
    "inny": 10115,
    "iste": 10116,
    "ucking": 10117,
    "Ġsplit": 10118,
    "diffic": 10119,
    "ĠJup": 10120,
    "pline": 10121,
    "ĠFlora": 10122,
    "Ġprisoner": 10123,
    "elic": 10124,
    "ĠChou": 10125,
    "letter": 10126,
    "Ġceremony": 10127,
    "Ġmotionless": 10128,
    "ĠFair": 10129,
    "idents": 10130,
    "quet": 10131,
    "plied": 10132,
    "Ġjustly": 10133,
    "Ġcompassion": 10134,
    "Ġassert": 10135,
    "Ăć": 10136,
    "rot": 10137,
    "Ġhid": 10138,
    "Ġrailway": 10139,
    "Ġresponsible": 10140,
    "Ġbark": 10141,
    "Ġfile": 10142,
    "GRE": 10143,
    "Ã¤": 10144,
    "Ġgained": 10145,
    "Ġqui": 10146,
    "Ġinfl": 10147,
    "passed": 10148,
    "women": 10149,
    "Ġbomb": 10150,
    "Ġblowing": 10151,
    "Ġplanned": 10152,
    "ĠLydgate": 10153,
    "Ġstre": 10154,
    "ĠKNj": 10155,
    "199": 10156,
    "ACT": 10157,
    "several": 10158,
    "understanding": 10159,
    "Ġcommands": 10160,
    "Ă\"": 10161,
    "Ġincident": 10162,
    "Ġtries": 10163,
    "times": 10164,
    "Ġtheatre": 10165,
    "Ġgreatness": 10166,
    "Ġsubmit": 10167,
    "Ġlovers": 10168,
    "Mary": 10169,
    "Ġachieve": 10170,
    "ĠBastian": 10171,
    "Ġnest": 10172,
    "ĠArt": 10173,
    "uscript": 10174,
    "begin": 10175,
    "ĠArabella": 10176,
    "ĠPROJECT": 10177,
    "iro": 10178,
    "ablo": 10179,
    "Ġpuff": 10180,
    "Ġapproaching": 10181,
    "...Ċ": 10182,
    "Ġbased": 10183,
    "ithe": 10184,
    "ĠGUTEN": 10185,
    "Ġconsult": 10186,
    "ĠGUTENBERG": 10187,
    "eeves": 10188,
    "Ġlined": 10189,
    "ajte": 10190,
    "Ġhelping": 10191,
    "velope": 10192,
    "Ġ*Ċ": 10193,
    ".),": 10194,
    "exc": 10195,
    "-chieh": 10196,
    "ĠGilberte": 10197,
    "ĠWhi": 10198,
    "Ġbeds": 10199,
    "pril": 10200,
    "Ġsaddle": 10201,
    "Kaladin": 10202,
    "Ġono": 10203,
    "untless": 10204,
    "Ġportra": 10205,
    "Ġfortunes": 10206,
    "icted": 10207,
    "ĠHay": 10208,
    "ĠCoriolanus": 10209,
    "Ġclen": 10210,
    "alfoy": 10211,
    "aration": 10212,
    "ĠJu": 10213,
    "ORT": 10214,
    "brance": 10215,
    "Ġwretch": 10216,
    "issy": 10217,
    "Jer": 10218,
    "Ġpacked": 10219,
    "Ġdeparted": 10220,
    "Ġfilm": 10221,
    "asna": 10222,
    "Ġflashed": 10223,
    "ACH": 10224,
    "âĢĻi": 10225,
    "Ġonline": 10226,
    "Ġsect": 10227,
    "Ġarticles": 10228,
    "Ġdisease": 10229,
    "mad": 10230,
    "rancs": 10231,
    "rat": 10232,
    "âĢľMaybe": 10233,
    "Was": 10234,
    "Ġverse": 10235,
    "incre": 10236,
    "Ġinev": 10237,
    "elp": 10238,
    "Ġcheerful": 10239,
    "Ġpace": 10240,
    "Ġbabies": 10241,
    "eff": 10242,
    "âĢĻ.": 10243,
    "ĠShall": 10244,
    "ĠSirius": 10245,
    "tical": 10246,
    "ĠMarquis": 10247,
    "emple": 10248,
    "Ġske": 10249,
    "ĠAthos": 10250,
    "Ġreceiving": 10251,
    "Ġproposition": 10252,
    "Ġmerchant": 10253,
    "idi": 10254,
    "ovan": 10255,
    "complete": 10256,
    "Ġcunning": 10257,
    "Ġfulf": 10258,
    "Ġfederal": 10259,
    "Ġsever": 10260,
    "Ġadvantages": 10261,
    "Ġremaining": 10262,
    "Ġfaculty": 10263,
    "Ġphenomena": 10264,
    "-one": 10265,
    "ragorn": 10266,
    "ĠFlore": 10267,
    "Ġgdje": 10268,
    "Ġcara": 10269,
    "oleon": 10270,
    "Most": 10271,
    "Ġpup": 10272,
    "osoph": 10273,
    "Ġcommission": 10274,
    "É½": 10275,
    "Ġcris": 10276,
    "âĢľFor": 10277,
    "window": 10278,
    "Bar": 10279,
    "MA": 10280,
    "SS": 10281,
    "ĠYanke": 10282,
    "Ġnewspapers": 10283,
    "ĠWynand": 10284,
    "Ġshat": 10285,
    "Ġraising": 10286,
    "Ġsins": 10287,
    "ĠVill": 10288,
    "Ġprevail": 10289,
    "ĠPersian": 10290,
    "ele": 10291,
    "Ġmoves": 10292,
    "ĠAst": 10293,
    "ĠKo": 10294,
    "Ġlaughs": 10295,
    "Ġsie": 10296,
    "ĠGentle": 10297,
    "Ġaccur": 10298,
    "Ġbarbar": 10299,
    "ridge": 10300,
    "ĠOdette": 10301,
    "Ġtan": 10302,
    "âĢĶin": 10303,
    "Ġadjust": 10304,
    "Ġrelationship": 10305,
    "sin": 10306,
    "Ġvisited": 10307,
    "Ġtalents": 10308,
    "ĠHag": 10309,
    "Ġshell": 10310,
    "ĠChild": 10311,
    "Ġcoal": 10312,
    "Ġpicking": 10313,
    "ofty": 10314,
    "subject": 10315,
    "ĠLeto": 10316,
    "ĠWater": 10317,
    "vothe": 10318,
    "Ġexempt": 10319,
    "Ġsphere": 10320,
    "ends": 10321,
    "Ġapplicable": 10322,
    "Ġmat": 10323,
    "ĠCousin": 10324,
    "ĠPost": 10325,
    "ancelot": 10326,
    "inson": 10327,
    "Emily": 10328,
    "Ġleans": 10329,
    "Ġbuzz": 10330,
    "Ġizi": 10331,
    "help": 10332,
    "Ġvideo": 10333,
    "urther": 10334,
    "Ġproviding": 10335,
    "ĠConstitution": 10336,
    "Ġessence": 10337,
    "ĠSoon": 10338,
    "ĠNewt": 10339,
    "ĠĠĠĠĠĠĠĠĠĠĠĠĠĠĠĠĠĠĠĠ": 10340,
    "Ġsimplicity": 10341,
    "ĠScot": 10342,
    "udrun": 10343,
    "Charles": 10344,
    "ĠBour": 10345,
    "ameha": 10346,
    "tyard": 10347,
    "dead": 10348,
    "eneath": 10349,
    "ĠJosie": 10350,
    "Ġinsen": 10351,
    "Ġimmort": 10352,
    "Ġmillions": 10353,
    "Ġdanced": 10354,
    "cht": 10355,
    "ĠBoss": 10356,
    "Ġbeaten": 10357,
    "Ġfaintly": 10358,
    "ĠMelony": 10359,
    "lies": 10360,
    "Ġbub": 10361,
    "Ġbru": 10362,
    "ĠRoger": 10363,
    "UST": 10364,
    "Ġomn": 10365,
    "ĠHu": 10366,
    "Ġtempor": 10367,
    "Ġprofession": 10368,
    "Ġvessels": 10369,
    "Ġarticle": 10370,
    "Ġpreceding": 10371,
    "Father": 10372,
    "Ġlect": 10373,
    "UGO": 10374,
    "hear": 10375,
    "Ġwiz": 10376,
    "Ġboj": 10377,
    "âĢľHey": 10378,
    "uced": 10379,
    "Ġprey": 10380,
    "-chuan": 10381,
    "ĠAureli": 10382,
    "Ġchanges": 10383,
    "Ġscrew": 10384,
    "Ġcared": 10385,
    "Ġgrie": 10386,
    "Ġattain": 10387,
    "eech": 10388,
    "company": 10389,
    "ĠAlia": 10390,
    "gie": 10391,
    "ĠBoth": 10392,
    "making": 10393,
    "Ġkri": 10394,
    "ceives": 10395,
    "ilight": 10396,
    "Ġsoil": 10397,
    "Ġintelligent": 10398,
    "Ġsignal": 10399,
    "Ġblag": 10400,
    "Ġruku": 10401,
    "ĠIng": 10402,
    "ĠIndia": 10403,
    "Ġsteadily": 10404,
    "mah": 10405,
    "Ġoï¬Ģ": 10406,
    "ĠAlbert": 10407,
    "Ġtossed": 10408,
    "Bel": 10409,
    "Ġunity": 10410,
    "cribes": 10411,
    "Ġgallant": 10412,
    "ĠMatthew": 10413,
    "oblig": 10414,
    "iberius": 10415,
    "enz": 10416,
    "ĠInstitute": 10417,
    "days": 10418,
    "alone": 10419,
    "Ġunworthy": 10420,
    "Ġhastened": 10421,
    "Ġratt": 10422,
    "Ġlots": 10423,
    "Ġsavage": 10424,
    "Ġbund": 10425,
    "utal": 10426,
    "azar": 10427,
    "Ġvisitor": 10428,
    "ventually": 10429,
    "Ġguide": 10430,
    "Ġposted": 10431,
    "honour": 10432,
    "immediately": 10433,
    "ĠRoyal": 10434,
    "Ġfailure": 10435,
    "earth": 10436,
    "mena": 10437,
    "lights": 10438,
    "ĠWithout": 10439,
    "ĠCy": 10440,
    "Ġplague": 10441,
    "Ġbanks": 10442,
    "ĠPavel": 10443,
    "ĠRhett": 10444,
    "stro": 10445,
    "Ma": 10446,
    "olas": 10447,
    "ĠLibby": 10448,
    "Ġperplex": 10449,
    "Ġpositive": 10450,
    "ributing": 10451,
    "Ġprovision": 10452,
    "Ġstriking": 10453,
    "Ġvenerable": 10454,
    "orce": 10455,
    "akened": 10456,
    "aza": 10457,
    "Ġank": 10458,
    "Ġshift": 10459,
    "forward": 10460,
    "ĠKore": 10461,
    "Ġbreathed": 10462,
    "Ġsurprising": 10463,
[...]
