#version: 0.2
j e
Ġ s
Ġ i
Ġ n
Ġ p
Ġ d
Å ¡
Ġ o
r a
o v
. Ċ
Ġ k
t i
Ġ m
Ä į
Ä ĩ
o j
t a
Ġ u
o d
â Ģ
l a
l i
r i
r e
Ġ je
Ġ b
n a
Ġ v
Ġn a
âĢ Ķ
n i
k o
m a
o s
j a
Ġs e
Ġ z
Ġ t
, Ċ
Ġs v
Ġd a
Å ¾
Ġ g
d a
Å¡ e
Ġ I
Ġn e
k a
n e
Ġ Ġ
Äĩ e
Ġp o
v a
Ġ A
v i
o m
g a
l e
Ġk a
j u
j i
Ġ âĢĶ
t e
Ä ĳ
t o
Ġz a
Ġ G
p od
r u
c a
oj i
n o
Ġ a
os pod
Ġs i
i je
d e
o je
Ġs a
Ġ J
Äį e
Ġd o
Ġo d
n u
d i
r o
l o
Äį i
Ġp a
Ġb i
l je
v o
Ġ *
ĠG ospod
Äĳ e
m e
v e
ov a
Å¾ e
Ġi z
Ġ S
Ġ Å¡
Äĩ i
m o
Ġ Äĩe
s a
ov i
Ġm u
Ġ re
k u
s t
Ġm i
Ġk oji
ri je
Ġ K
Ġs u
ov o
Ġ T
Ġ ti
Ġk o
Ġ M
s e
Ġv i
b i
Ġsi n
p a
Ġv a
n je
Ġn je
Ġt e
Ġ N
s i
Å¾ i
Ġm e
r od
k e
Ġn i
: Ċ
g o
Ġ ca
âĢ ŀ
s ta
Ġv e
Ġ B
Äĩ u
. .
l u
ĠĠ Ġ
Å¡ i
c i
Ġm o
Ġ âĢŀ
e m
k i
Ġp re
Ġ ra
Ġt o
Ġg a
ĠJ e
l ju
Ġo n
Ġm a
ĠB o
Ġ ja
Ġre Äįe
Ġ (
Ġ Äį
Ġ D
Ġn ji
Ġsv e
a r
Ġ ta
m i
z ra
Ġsv oje
ov e
Ġ Ċ
Ġ P
zra i
ĠÅ¡ to
m u
b a
M oj
âĢ ł
l ja
c e
a d
Ġ O
Ġnje g
s ti
s u
ov ije
Ġ âĢł
. Moj
h u
Ġg ovo
z a
Å ł
Ġk u
z i
Ġ h
ĠI zrai
Äįi ni
b e
Ġ li
d je
p i
Ġb o
Å¡ a
Ġp ri
d u
! Ċ
Ġka o
A N
n ja
; Ċ
p o
Ġka d
ĠD a
Ġna rod
Ġca r
Ġp os
Ġsa m
Ġje d
t u
Ġp ro
Ġ j
d o
Äĩ a
Ġt v
? Ċ
l ji
p e
od i
Ġnji h
oj a
Ġz em
Äį a
âĢ Ŀ
Ġp u
Ġs ta
g u
Ġje r
Ġne ka
ĠĠ ĠĠ
ĠJe r
t ra
b o
Ä Ĩ
Ġd ru
v u
Ġd e
J A
Ġ V
L O
om e
Ġb e
Ġsv oj
âĢ ľ
n ji
Å¾ a
Ġ ru
Ġ Z
Ġb je
I ÄĨ
Ġi h
vi je
ov je
Ġp e
Ġ U
c u
Ġsin ovi
Ġn ije
ĠIzrai lje
Ġi ma
Ġs lu
1 0
da n
Ġb a
Ä Į
Ġka ko
Å ½
v Å¡i
u r
z e
Ġi m
J e
Ġd u
ĠJ a
Ġ lju
se t
Ġp r
.. .
ĠS a
Ġg la
ĠT a
Ġo na
Ġ E
Ġ Å¾i
Ġn o
Ġsv a
ni je
ĠBo g
1 1
Ġz na
Ġve li
G ospod
Ġgovo ri
1 2
n om
Ġpre d
oji m
le da
ĠN e
Ġb ra
I JA
b u
T O
1 3
ĠDa vi
Ġbje Å¡e
1 4
1 5
âĢ Ļ
v oj
Ġm je
Ġv je
Ġta ko
r t
Å¡ te
Ġ Åł
Ġp i
Ġbi ja
p u
de set
Ġ Äįe
LO G
AN TO
LOG IJA
ANTO LOGIJA
s to
ĠÄį u
g i
Ġ Äĳe
[ h
o Å¡
ĠI su
Äĳ u
Ġp ra
s ko
1 6
Ġsvoje ga
Ġne go
Ġdo b
s ki
Ġ ju
Ġ H
Ġg ra
Ġ Å¾e
1 8
va ti
ov u
z na
ĠS i
A R
Ġ c
g e
Ġ le
g ovo
1 7
Äĳ a
ĠK ad
Å¡ ta
v je
Ġk oje
Ġra z
ĠZ a
l j
T I
) Ċ
Ġv ra
ĠÅ¡ ta
Ġ Äĩu
Ġb u
Ġa li
Ġbi ti
Ġu Äįini
ĠM oj
Ġg o
Ġ "
Ġ rije
ĠN je
Ġva s
Ġna j
Ġs to
Ġt u
ni ci
Ġp od
Å¡ to
ĠM ar
1 9
Ġo ni
Ġk ra
2 0
h a
Ġj oj
Ġne Äĩe
Ġza p
os t
s te
re Äĩi
s ka
Ġu z
Ġsv i
Ġo sta
os ti
Ġd om
rod i
2 1
k le
ĠÄį ovje
Ġsin ova
R I
ovije h
ĠJ o
Å¾ rt
Ġt ri
Ġg ospod
G A
li ko
Ġ R
Ġp la
li je
a m
Ġm no
Ġna s
ĠM e
pe t
Ġda na
v r
o Å¡e
Ġ la
2 2
v oje
E V
b ra
Ġg odi
ĠTa da
ĠDavi d
Ġon da
Ġva m
. âĢĿ
l om
Ġ e
2 3
ko m
Ġj oÅ¡
2 4
Ġvi di
ĠJ u
ĠĠĠĠ ĠĠĠĠ
Ġsve Å¡te
ĠO n
os i
Ġd va
ovije m
p re
Ġsi na
Ġsv ojim
Ġju na
Ġo ti
Ġc r
j te
no ga
Ġs tra
oj u
Ġdo Äĳe
s ije
ĠM i
Ġ Äįi
Ġo vo
Ġmo Å¾e
Ġve Äĩ
Ġs la
Ġbe z
Ġs t
p ra
Ġje dan
Ġo pet
st vo
ĠT ur
Ġ L
Ġna d
Ġv oj
V O
t om
govo ri
Ġ -
s li
Ġs r
Ġd i
ĠS o
ĠG L
a j
ĠK a
Äį u
ĠG a
ni k
Ġca re
Ġo t
s ke
Ġ f
Ġm oje
N I
ĠH ri
Ġvi dje
ri ja
N A
2 5
me na
oji h
Ġsa mo
da m
a t
n ju
N j
Ġzem lji
Ġ Å¾rt
ĠGospod u
Ġk r
Ġ C
2 6
Nj I
NjI GA
R O
Ġbi o
Ġd je
Ġ ÄĮ
Ġsa d
Ġo va
Ġa ko
Å¡ u
ju Äĩi
je m
g ra
Ġs re
Ġ Äįini
Ġnje ga
" Ċ
Ġi s
Ġsv ije
ĠA li
nije h
S K
Ġbu de
Ġb la
O S
g leda
ka d
K ad
ĠIsu s
Ġs o
z u
Ġo v
O D
o n
Äĳ oÅ¡e
. S
Ġgovo reÄĩi
st u
Ġne ma
si r
ĠM a
ĠV e
v lja
ne v
ovi ma
ĠP o
ru sa
* M
Ġ- Ċ
2 7
ni m
Ġi me
* Je
T VO
od e
a mi
Ġu ze
Ġvi Å¡e
Ġgra d
Ġm oj
Ġlju di
Ġt r
2 9
Ġo b
Ġt ra
ĠNje g
Ġbija Å¡e
.S am
rusa li
pi ta
do Å¡e
M O
SK E
Ġbo g
Ġo ko
ĠBo ga
ĠN AR
ĠMar ko
. D
. âĢľ
2 8
s mo
N OS
Ġv re
Ġbi lo
" .Ċ
ĠK NjI
Ġme ne
NI H
ĠNAR OD
NOS TI
Ġi li
Ġme Äĳu
o r
ĠS R
Å½ EV
Ġp le
ĠKNjI Å½EV
ĠKNjIÅ½EV NOSTI
ovje di
P SKE
RI NA
ĠNAROD NIH
Ġka Å¾e
ĠN a
Ġvra ti
Ġs je
TVO RINA
MO TVORINA
Ġsvoj u
Ġtv oje
ĠSR PSKE
ĠU MOTVORINA
.D nev
. O
ĠGospod a
ĠSo f
a ra
me Äĳu
Ġod govori
Ġda n
Ġd vo
ĠâĢĶ Ċ
ma h
Ġdob ro
a to
Ġz e
ĠÄį a
Ġo ta
h i
Ġda kle
Ġm la
Ġnjeg ov
Ġtv oj
Ġma lo
Ġd r
Ġva ma
no g
v ra
Ġu sta
Ġti su
Ġi de
ĠK NjIGA
n ova
Ġna Äįini
Ġk od
Ġko nja
Ġpe s
ĠÅł ami
Ġbija hu
Ġo Äįi
M A
od a
d ra
Ġk oja
Ġt re
Ġzem lju
Ġp rije
Ġma j
Ġ .
Ġg leda
Ġsa v
Å¡a o
s ku
Ġre ko
ĠT e
sa m
ĠZa to
n j
vije m
Ġni Å¡ta
Ġsinovi ma
Ġnji ma
Ġ F
Ġv o
Ġz la
b om
N e
Ġse dam
Ġiz a
Ġnjeg ova
n Äĳe
Ġo s
3 1
ĠSa u
ci ma
Ġpos ta
K A
ĠK o
3 0
ĠA ko
D a
Ġu da
Ġpos la
n oj
ĠMoj sije
Ġ |
Ġb ije
i li
ĠÅ¾i vo
ĠÄĳe voj
Ġm oja
Ġrije Äįi
Ġn j
Ġzap ovjedi
m je
Ġpro ro
C A
Ġnje mu
LO V
g la
Ġku Äĩi
ĠT i
Ġpo zna
J a
.. .Ċ
p os
ĠM u
Ġsvoje mu
Ä Ĳ
l ta
Ġiz meÄĳu
Ġnji m
Ġb r
ĠV a
k r
ni ka
Ġg dje
Ġru ke
Ġti je
k oji
Ġ l
Äĳ i
lom u
Ġv r
ĠÄį ove
I zrai
ĠOn da
Ġ rodi
ĠP a
p rija
d ne
Ġvi de
Åł IÄĨ
Å¾ u
I sa
Ġoti de
ova n
Ġpu t
o Äĩe
prija te
ĠBo gu
os ta
nije m
g ova
M I
ka o
ĠGospod nji
Ġpo k
Ġrije Äį
Ġmo ga
Ġgodi na
Ġo no
vi ti
sa l
L E
Ġg rije
Ġza vje
Ġk nji
Ġca ra
ĠS e
ĠMoj si
r om
Ġh a
la zi
Ġdo k
Ġme ni
ĠBo Å¾i
P o
Ġk oju
ĠA ro
r no
Ġk ri
k oj
ĠJu di
) .Ċ
re d
Ġg od
Ġs pa
lo n
vo ri
ĠÅł ta
ra ti
ni ca
a ko
Ġte be
i m
ovi Äĩ
ĠP e
Ġ ro
ĠJe rusali
ĠS ve
*M at
3 4
na e
J AN
3 2
Ġca ru
Ġsta ne
g nje
l ovi
ne se
Ġnjeg ove
Ġz lo
Ġsv je
Ġmo gu
ĠK ra
ĠGospod e
v om
Ġ lu
ni ja
Ġreko Å¡e
Ġde voj
Ġo lta
Ġpu sti
ze k
Ġbi la
Ġmo ra
ĠIzrailje vi
p ro
o b
3 3
Ġsv ojih
Ġp odi
rije me
! "Ċ
JAN JA
Ġsa b
n ovi
! ...
ĠBo Å¾
Ġpi ta
Ġzem lje
vije h
ĠL e
d r
r je
u m
o ga
Ġmi sli
ĠGospod om
ili ste
Å¡ t
va ri
Ġod mah
Ġjed nu
g os
Ġzap ovije
Ġpos le
Ġdru gi
b r
E MA
Ġs te
va ko
Ġiz i
Ġni ti
t re
Ġru ku
ĠJo a
Ġo ca
ĠT voje
ni Äį
t r
N a
Ġbo ga
ĠGospod nje
Ġu Äįe
Ġne prijate
di te
I su
Ġna m
Ġvoj ska
F EMA
u ka
je la
ĠM oje
ĠD u
ĠÅłami ka
Ġza ko
Ġg r
b je
z em
Ġon dje
k ov
Ġmje sto
Ġple mena
lje d
Ġsvije m
Ġnarod a
Ġna Å¡e
Ġ Å¡e
ĠSof ra
Ġpa k
Ġz bo
Ġv la
Ġt ur
Ġo p
Ġu m
ĠV i
Ġpo rodi
Ġgodi ne
Ġpo ka
Ġne ko
Ġjed na
ĠÄĮ am
ĠPo tom
Ġv rijeme
E R
Ġni ko
ĠÄįovje k
Ġs ti
t nu
Ġpe t
Ġbi Äĩe
Ġsin ove
k ra
ĠI sa
Ġu t
a l
Isu s
d no
z va
ĠK os
di ti
Ġda de
ĠSo lomu
ije m
ĠS r
Ã ´
h o
D jela
Ñ ĸ
ĠĠĠĠĠĠĠĠ ĠĠĠĠĠĠĠĠ
ĠSau l
Ġs m
od u
Ġdru go
s koj
Ġsto ti
ni h
s ve
ĠMojsi ju
Ġd ra
ĠT o
ĠÄĩe Å¡
Ġsv oji
ra c
Ġsvoj oj
Ġslu ga
Ġs mo
te lj
da na
Ġg de
ĠTa ko
J E
Ġsu d
g om
i lo
nici ma
Ġ ÄĲ
g ne
lje vi
Å¡ ti
Ġlju ba
ĠIsu sa
sko ga
ĠÅ¾rt vu
Ġto ga
d om
J ovan
k ri
ĠP RO
k ova
Ġka za
ĠÅł to
Ġk Äĩe
ne z
Ġmi l
sko m
ta r
Ġmno go
Ġ Å¾a
Ġnarod u
O n
K NjIGA
ĠO d
Ġ rod
*Je r
os po
Ġsi ro
B U
Ġpo mo
Ġdo ma
lje ni
Ġpre ma
ĠÅł ato
i ma
ĠHri st
Ġn osi
3 6
Ġg le
Ġsva ki
L IÄĨ
s voje
Ġtisu Äĩa
Ġdo Äĩi
Ġota c
k va
ĠT v
Ġra di
ro z
Ġuz me
ĠÅ¡ a
va li
Ġpri mi
Ġslu Å¡a
Ġvojska ma
p ri
Ġjed no
I I
ji na
Ġnje zi
Ġo de
ĠN i
je va
Ġf ara
* Isa
RO KA
ĠPRO ROKA
v no
Ġve Äįe
ĠA vi
v re
Ġt ru
ĠK oji
g le
Ġvi Äĳe
ĠÄį o
Ġba Å¡
Ġvoj v
3 5
st va
bo Å¾
s o
Ġse bi
ka v
Ġgla s
ma n
ni ku
Ġdva deset
pre d
Äį ne
Ġse be
Ġnjeg ovu
V E
ve d
Ġpra v
ĠBoÅ¾ ije
Ġs na
Ġv ode
vi m
Ġta mo
Ġmo li
ĠO vako
za ko
n osti
ve t
li ja
i z
Ġvra ta
ĠsveÅ¡te nik
osi f
Ġsva ko
ĠÄįove k
ER BU
ERBU LIÄĨ
ni ke
Ġh oÄĩe
Ġpo Äĳe
Ġzna m
Ġvre me
Ġiz ba
Ġgla vu
Ġ Äĳa
P sal
Ġslu ge
Ġnas ljed
ĠHri sta
K O
Ġne Å¡to
ka ko
Ġna u
Åł ERBULIÄĨ
Ġg nje
vi lon
ĠS ta
Ġdo kle
Ġpre ko
Ġdana s
Ġha lji
Ġta j
u da
ĠKra ljevi
nae st
s re
p r
L uka
ĠL a
Ġz i
Ġgrije h
bra ti
bi ti
S I
ni cu
nu ti
n ost
va o
ova ti
rje Å¡i
nje m
u ra
Ġcr k
ĠMi lo
Ġ [
P R
Ġu Äįi
J EV
Ġbje hu
Ġdom u
P a
J SI
O JSI
ĠM OJSI
ĠBo Å¾e
ovije ka
JEV A
ĠMOJSI JEVA
ji m
Ġli je
ĠR a
li ma
Je r
' je
Ġs me
pa k
Ġi sti
ĠMe ne
ĠÄįi ta
Ġvje ru
Ġi sto
ku pi
Ġk nez
Da vi
Ġgovo ra
pra v
Ġg u
Ġ ce
k ne
ni ce
va n
Ġpre da
Ġsv oga
Ġvi no
Ġh aj
ĠIzrai lju
ĠIzrai lj
Ġporodi ca
i sta
ni ma
Ġte bi
Ġsu n
Ġtre ba
vi Å¡e
g nu
Ġs ko
ra j
k la
Ġto liko
Ġbla go
Ġnjih ovijem
Ġoni ma
e r
ra n
Ġko liko
ov Äįe
Ġkr v
Ġt ome
Ġgospod ar
Ġpla ni
. A
Ġse st
h vati
u k
Ġo bi
Ġpo bi
Ġdo ÄĳoÅ¡e
Ġka me
Ġv odi
ni o
Ġza pita
Ġgospod i
ĠKa ko
Ġmi sir
Ġzapovije sti
Z a
AN I
Ġsvje do
B o
O V
z o
Ġz dra
Ġt j
Äįi n
Ġnjeg ovo
Ġ ri
ni ti
gova ra
R A
Å¡ ko
vi o
g rije
Ġk ovÄįe
ĠJ osif
Ġh lje
k re
om i
Ġpa me
S u
ĠA vra
Ġza to
ĠB a
Ġsta ri
ĠÅ¾e na
M R
n ka
st rije
ra mo
lu d
Ġona j
Ġku Äĩe
) ,
l ove
s no
f a
m oj
Ġd ovijeka
Ġsve ga
ĠÅ¾rt ve
Ġbla gos
Ġo ne
lu Å¡a
Ġra s
ka ti
Ġva lja
3 7
vi ma
Ġsa sta
Ġpa ljeni
Å¡ Äĩe
Ġi gra
Ġpr os
Ġmoga o
ĠNe ka
v lje
je h
Ġne be
bi o
Ġh i
Ġg di
Ġbi h
ÄĮ I
Ġva Å¡e
Ġza Å¡to
pu t
PR ÅłIÄĨ
Ġd vije
ĠA ve
p rije
Å¡a vÅ¡i
Ġpo Äįe
ve Äĩ
ĠTur ci
Ġmje se
LE PRÅłIÄĨ
Äĩe Å¡
ve de
ĠkÄĩe ri
Ġu s
nu o
Ġbi li
ĠIzrai lja
Äĳa Å¡e
Ġg ro
Ġmno gi
*Je zek
Ġbra ta
Ġcare v
lu Äĳe
Ġto bom
Ġnjih ove
Ġota ca
Ġova ko
ĠÅ¾ivo t
A l
p ove
Ġ Å½
Ġd ove
ja Å¡e
Ġme tnu
Ġdu h
Ġbra te
Ġni sam
* Djela
b ije
Ġg ospo
Ġuda ri
D IÄĨ
MR DIÄĨ
Ġsa da
ĠE vo
Ġsr ce
Ġtra Å¾i
U TI
n ski
Ġk i
Ġpo ma
ĠÅ¾i vi
sko g
Ġna Äĳe
ĠG r
ĠR e
Ġm rt
Ġa nÄĳe
Ġpo gi
S MRDIÄĨ
t ru
na ta
Ġne Äįi
ĠÄįovje ka
Å¡ Äĩu
e li
k ovi
Ġpu ta
Ġle po
K a
Ġsta rjeÅ¡i
nija mi
c em
Ġsva t
UTI LOV
o ko
g od
j E
d na
ĠN o
? âĢľ
g odi
i ta
z da
Å½ UTILOV
n osi
ĠS u
p ovije
va Å¡e
g ovi
Ġze le
3 8
Ġs tu
je r
Ġk roz
os le
go r
n d
Å¾ da
Ġpri ja
la m
lo b
ĠD o
Ġka k
ski h
ri ca
Ġo pa
ĠÄĩe mo
Ġmo re
Ġsta r
h e
Izrai lje
Ġvje r
ĠÅ¡ i
Ġve se
Ġnj oj
Ġa l
V RI
di o
LOV IÄĨ
VRI LOVIÄĨ
os a
ĠT voj
pu sti
ĠF iliste
Ġmil ost
4 0
Ġbe s
Ġbe Å¡e
Äį ki
Ġpo gleda
Ġko ga
Ġra d
GA VRILOVIÄĨ
Ġsr p
ĠÄĳa vo
Ġh ra
ĠH e
de j
Ġbo lje
Ġdr Å¾a
Ġje zi
ĠS ad
h va
Ġu bi
pi sa
Ġv ije
stu pi
Ġze ma
t ne
Ġna me
Ġima o
a v
lje na
Ġnjeg ovijem
Ġnjih ova
Ġbez boÅ¾
ĠPa v
! âĢľ
Ġt om
ĠS t
Ġn ov
ti m
di ja
ĠK u
ĠNe go
Ġo bra
Ġk ome
Ġgla ve
Ġsve t
nje ga
ĠDavi du
Ġsvije h
Ġzapovjedi o
ije h
ĠkaÅ¾e m
? âĢĿ
Ġvi na
Ġ '
Å¡ li
ĠuÄįini o
Ġbe zako
j o
Ġo vi
V A
nji h
Ġmoje ga
n ko
ĠA ra
L I
ĠM o
Ġpra vo
MI ÅłIÄĨ
re Äįe
Ġsvoj om
ĠJa kov
Ġstoti na
ni te
ti v
3 9
re m
t kr
Ġla Å¾
mi sli
Ġku Äĩu
Ġhaj du
T AR
Äį no
Ġpra ved
Ġiz va
ĠÄįu je
ĠÄĳevoj ku
Ġvr lo
ĠÄĮam Äįa
) .
ĠÅ¡ u
Ġdu ka
t je
na si
ĠSolomu n
PR VA
Äį ka
Ġu pita
ni n
Ġjed nom
ĠIzrailje v
ĠVe nijami
Davi d
H ri
Ġraz u
vr Å¡i
r ta
t ka
Ġo ba
da r
Ġko la
Ġpo p
du Äĩi
s lu
Ġta r
Ġsr ca
ĠJerusali m
r ti
Ġpo brati
S VE
re mi
Ġna ma
Ġkoje ga
Ġne sre
Ġli ce
Ġde vet
Ġru ka
Ġda o
Ġli si
Ġgo re
Ġov de
Ġcar ova
Ġum rije
ĠNje mu
Ġe vo
SVE TO
g da
Ġba ci
Ġgospod a
ĠC rno
Ġizi Äĳe
Ġova j
Ġd ije
ĠA mo
Ġde set
ĠIzrailje vijem
Ġslu Å¾i
ski m
ĠBoÅ¾ ji
ta k
Ġn ju
Ġza Äįu
ĠÅ¡ Äĩe
ti ti
Ġpo Äįne
Åł to
s voj
ra m
ov oj
nje g
ĠJe f
ĠMi si
ĠJerusali mu
Ġnasljed stvo
Ġhalji ne
T o
Ġk ru
Ġz ma
t ri
ka r
Ġka luÄĳe
Ġi strije
Su d
l ost
Ġzema lj
li ti
On da
s v
Ġti ri
ĠIzrailje vijeh
ĠJo r
ĠN jim
Ġzem lja
Ġno ge
Ġjuna k
k lo
na n
Ġtri deset
ĠAro n
Ġod govara
Ġva Å¡i
L A
Ġk re
Ġma te
Ġlju bi
ÄĮI KA
ĠG o
ĠÅ¡ ato
! âĢĿ
Ġo nu
Ġu ve
Ġni kad
Ġgra da
Ġsvije t
ĠKraljevi Äĩu
Ã ¢
Ġveli ki
R U
Ġiz br
ĠSa mu
na ma
ĠDu h
? ...
Ġso ko
li m
Ġv u
S a
Ġp jeva
Ġje de
RU GA
Ġdje la
p lje
Ġbo r
D RUGA
ĠA ma
ĠA hi
ĠÅ¡e st
ĠGospod nja
Ġmi r
ÄĲ E
s na
t ku
Ġd osta
o bi
va ju
l ova
ĠkovÄįe g
Ġsasta nka
Ġmjese ca
* Jovan
Ġsvoji jem
Ġ lje
? "Ċ
n du
Ġna Å¡
ĠO na
ĠMar ka
Ġpes ma
ĠÄįo e
I CA
s r
va nÄĳe
Ġtv oja
c om
d ri
Ġiz da
ti ri
Å¡ lja
Gospod u
ĠÅ¾e ne
O tkr
ĠÄįovje Äį
Ġst oji
T a
a li
Ġo noga
Ġpo lju
ne ka
em u
Ġsta doÅ¡e
. K
Äĩ o
Ġpa sti
Ġnarod ima
do h
Ġtije lo
t na
Ġsab lju
Ì ĵ
Ġb li
Ġdo Å¡ao
Ġsve tu
ĠP ri
Ġne moj
go Å¡e
Ġ hu
ĠP O
Ġh va
Ġovo ga
la Äįe
) :
ĠLe viti
o h
Ġne vo
Ġh odi
pos to
g r
Ġv odu
Ġsv ome
R E
Ġh o
o na
o nu
na c
ja hu
Ġda r
ĠP i
Ġma ti
Ġe to
Ġdevoj ka
J U
Å¡ ka
ĠB e
Ġdru ga
Ġkra j
ne s
vi te
ga nj
Å¾i te
ĠJe vre
ĠSi n
ĠC r
K o
os e
Ġta k
Ġdru g
Ġb oj
Ġpri nese
Ġmje stu
ĠH a
* Luka
ĠN ije
ĠZ em
ĠMe ni
EV AN
Ġpo t
Ġpo lje
Ġdo Äįe
Ġne Äĩu
Äįi ti
AR A
OV AN
Ġposta vi
Ġs ramo
st ra
Ġte k
rod a
Ġjed noga
ĠMi li
" ,
Ġo ve
la n
ni ji
Ġsve ti
f i
Ġple me
Ġtvoje ga
Ġb lud
Ġna pisa
*M ar
Ġreko h
niÄį ki
ĠHrist os
vo ga
Ġob la
Ġhi lja
I ÄĮ
s le
* Isus
va r
ĠMa nasi
n ov
s je
Ġm r
Äįa n
ĠÄĮ ovje
Ġspa se
Ġm ra
Äį ke
ci ja
âĢĿ ,
P ita
Ġba ba
Ġf o
Ġda ti
Å¾ d
Ġza kle
Ġpe deset
Ġbu du
P e
T i
p la
va ra
Ġre ci
Äĳa hu
u j
Ġs lob
ti o
Ġko nj
Ġstra Å¡
Ġvre mena
ri n
ĠjoÅ¡ t
g re
Ġm nom
Ġpr ve
ĠDavi da
ĠJ EVAN
Ġkoji ma
ĠJEVAN ÄĲE
Ġbo gu
Ġneko liko
ĠSr bi
Ġo nijeh
Ġo gnje
ĠI z
ĠA sa
Ġma ga
z dra
ĠL jE
rusali m
" O
l osti
Ġo bu
ĠK re
Ġjuna ka
Ġda lje
Ġpo Å¡te
Ġre Äĩi
f e
ĠA ha
Ġgra du
Ġdr ve
grije Å¡i
s ne
gu bi
J OVAN
t ko
ĠG e
ca ri
ĠN em
nja Å¡e
ĠMi sir
ĠNjeg ova
Ġpro pa
povije da
Ġ lo
D o
Ġpo Å¡
Ġnji me
Ġo be
Äįi o
st vu
Ġsta rac
EV ICA
4 1
Ġpo bje
zi da
ta c
ĠnaÅ¡e ga
li ka
Z E
li o
JU CA
Ġsv emu
Gospod a
ri se
Ġz vije
Ġne zna
Å¡ ke
vo r
Ġstra ne
ĠPe ra
Ġizva di
va j
4 2
Äįe m
ro n
Ġre kao
ĠSi nova
Ġvrati ma
Ġpodi Å¾e
Ġva vilon
Da n
Ġsm rt
Ġp ovi
Ġni z
Äĩa n
Ġm om
li n
vo re
s ma
Ġfara on
la ze
Ġt rije
Ġljuba v
G O
k nu
Ġp ov
Äį ko
Ġsv u
ĠT u
M i
te lja
Ġma na
Ġh te
Ġc ije
Ġis pred
OS L
Ġzbo g
.K or
T E
t no
t ke
Äį ar
Ġa r
Ġpr ste
ni ju
Ġve zi
Ġmaj ka
4 6
Ġsi nu
lje m
Ġko ljena
si m
si n
Ġzla ta
Ġblagos lovi
R im
Ġo ganj
Ġla ka
Ġvidje h
ANI CA
OSL ANICA
E G
Ġp oja
ru Å¾
ĠN ova
ĠÄįe sti
Ġf e
Ġvojv oda
S ARA
ba n
ĠÄįe tiri
ob ro
Ġpo tom
ji n
Ġza pa
si na
Ġta da
Ġtv r
Ġnjih ovu
gra d
Ġolta ru
ĠNem oj
4 3
ĠJe remi
ĠBoÅ¾i j
Ġgovora Å¡e
t ro
O d
Ġn ova
sta ne
Ġku d
bo lje
Ġdru ge
Å¡ ki
Ġnjeg ovi
hva l
4 4
Ġbra Äĩo
Ġodgovara juÄĩi
d nu
n ome
Ġp ije
li ce
Ġdu go
Ġbra t
Ġdvo ru
Ġm oju
Ġu hvati
ve r
LE N
o ma
Ġo sam
Ġsv om
Ġima Å¡e
Ġolta r
nes oÅ¡e
Ġt je
Ġsvi ma
vi Äĩ
Ġdo pa
Ġsu ze
ĠV u
Ġona ko
T ako
Ñ ķ
Ġme se
mi ja
RU Å½
Ġpo gre
ĠZa Å¡to
Ġporodica ma
ĠAvra m
P ri
ĠP OSLANICA
ĠÄįi ne
Å¡t vo
Ġnezna bo
l ov
t vori
Ġme sto
Ġni su
Ġku pi
IÄĨ KA
Ġdob ra
Ġsun ce
IÄĮ IÄĨ
A V
Ġpo to
Å¾a Å¡e
ĠIzrailje m
ĠJo nata
zem lju
L j
ne go
Ġvje Äį
Ġo kre
Ġna tra
Ġdo ba
Ġon de
Ġcar stvo
ĠÄįe ka
Ġgo r
Ġkri la
Ġdije te
ri ti
Ġbo Å¾
LEN IÄĨKA
Ġnjih ovijeh
Ġtisu Äĩe
Ġneprijate lja
ĠJor dana
b li
X V
j om
ne m
Ġdo Äĳu
Ġre Äįi
Ġpro tiv
Äįa k
Ġno Äĩ
ĠÅ¾e ni
Ġmla da
Ġmla di
Ġo da
Ġse lo
ZE LENIÄĨKA
Ġmana sti
s vijem
Ġna mje
Ġva Å¡
Ġpos ve
Ġoti doÅ¡e
Ġvoj sku
Ġu Äĳe
si ma
S ad
Ġb ri
ĠP osle
Ġvidi Å¡
Ġpes me
b lje
Ġs le
di Å¡
Ġpra vi
Ġpo gla
Ġtv ojim
Ġgo ri
Ġistrije bi
ĠIsu su
ĠNje ga
ĠPo laÄįe
Ġnatra g
Ġ r
k li
Ð Ĩ
je dno
Ġmo g
ĠV uk
li Å¡e
Ġza cari
Ġnjeg ovijeh
ĠR u
Ġst vari
Ġtr deset
K I
Ġon ome
Ġpos luÅ¡a
Ġsla vu
Ġbez um
Ġso bom
ĠÄįovjeÄį ji
B EG
Ġk ne
ri o
ĠG ru
âĢľ Ċ
âĢľ ,
ĠÅ¾e nu
Ġvide o
- a
M a
RUÅ½ IÄĮIÄĨ
Ġi Äĩi
Ġse d
Ġzavje t
Ġs po
Ġa posto
ĠÅ¾i ve
ĠJa nko
Ġgo t
oÅ¡ to
Ġdra go
. I
ovo am
Ġpod gra
Ġcare va
bje Å¡e
Â «
Â »
re za
ĠO vo
18 8
Ġraz um
Ġdrugo ga
n oviÄĩ
Ġd ve
Ġk oj
Ġne ki
Äĩe pa
ga o
Ġko le
Ġpri me
Ġsvije tu
Ġdvo r
ĠÄįa s
Ġna sta
Ġslu Å¾
Ġzbo r
Ġizba vi
4 5
M at
ĠO ca
Ġzna te
V i
m la
Ġu mi
me t
Ġf i
Ġjedna ko
d ru
Ġp je
Ġje ze
Ġpr vi
ĠGr bo
Ġna Å¡i
ne si
me le
ki ja
ĠIzrailje va
Ġosta vi
ĠGospodnje ga
Ġzi da
ĠAve sa
Ġgospoda ru
s la
li ca
ĠKa o
Ġpoka za
lo ga
me n
Ġko nji
Ġde s
Ġot vori
Ġbla ga
Äįa j
bo ga
Ġo pra
Ġiz ve
Ġdu Å¡a
ĠGa la
vlja hu
ĠTv oja
* Otkr
S ve
Ġi du
Je zek
Ġpodi gnu
Ġpu tu
Ġpe va
Ġpi smo
Ġbr Å¾e
ĠMilo Å¡
Ġfe uda
na k
di m
Ġzna Å¡
n ovijeh
k vr
Ġo brati
Ġna si
Ġgovo re
K ako
k oja
n Äįa
Ġo ruÅ¾
Ġu kra
Ġpo e
v odi
Ġu pra
Ġne k
Ġni ka
Ġmaj sto
b ro
la gos
ca r
Ġte m
ĠÅ¾i v
ĠoÄįi sti
Ġhlje b
Ġpaljeni cu
Ġda je
Ġnarod i
ĠuÄįini ti
lom i
pro ro
dr ost
Ġlaka ta
ta n
Äįi na
Ġme j
Ġbo le
Ġpri pove
Ġosta ne
ĠÄĳevoj ka
! "
M e
c o
k ve
ta ri
ja k
ĠÅ¡ te
si ja
Ġdva naest
ĠNjeg ove
Ġpoma za
z ni
ko ga
ĠO tac
sti ma
Ġpri ma
Ġlju de
ĠSi na
Ġs pre
ĠS vi
Ġde te
Ġse la
Ġpo la
Ġjed nog
Ġgovori ti
Ġkra lj
S A
s va
ka la
Ġpos lije
ĠFiliste ji
AV I
Ġsi l
Ġdo nese
Ġveli ka
ĠÄįa k
Ġsko Äįi
ĠSt oj
Ġk om
bi ja
Ġs kupi
Ġo cu
Ġza hval
oko lo
ko Å¡e
da ti
Äįi te
Ġga d
pu ni
" .
A li
m rt
v na
Ġs ku
Å¡ ku
Ġpok lo
ĠkÄĩe r
Ġpo je
Ġima m
govo r
Ġvidi m
ĠTur Äįin
i h
Ġsa zida
Ġpos a
Å¾a hu
ĠE li
ĠBog om
ĠsveÅ¡te nika
ĠTe be
iliste j
N je
P ro
c je
Ġne vje
ĠJe vanÄĳe
Ġsla va
Ġd Å¾e
Å¡ la
le ko
do k
Ġbije lu
z or
Å¡ o
Ġb ar
Ġc ve
Ġgospodi n
* Sud
va hu
Ġvi si
ĠuÄįe nici
Ġvjer ova
v oji
le ti
Ġko nje
ĠL uj
Ġknji gu
ĠKos ovo
Ġ ...
b lji
vi ca
sa n
i la
Ġu red
na okolo
Ġve oma
Ġpusti nji
. T
Ġtv oji
Ġpra z
N o
Ġs ja
la t
ĠÄį ar
Ġpr osi
Ġgospod ara
N AN
Ġz u
Ġsv r
Ġza s
ĠM ad
4 9
ri ma
ma ri
Ġte le
Ġsta de
Ġsluga ma
Ġpaljeni ce
4 8
Äĳ oh
Ġh vali
ĠÄįini ti
Ġljudi ma
Ġtije lu
Ġus red
R a
Ġpro Äĳe
ra ni
ma lo
Å¾i ja
ĠL i
Ġknji ga
Ġdoma Äĩi
Ġpo Äįi
Ġpo gubi
Ġime nu
ĠMisi ra
ĠSamu ilo
ĠG le
Ġta m
Ġpi sa
Ġproro ku
Ġgnje v
Ġo Å¾e
Ġo se
Ġpo gle
Ġpa de
ĠV uka
ĠÅł Äĩepa
lj om
ura ka
Ġsvat ove
ĠCrno gor
Ġi n
Å¾ de
va la
de m
Ġku Äĩa
n ca
p ome
s on
Ġo sim
ĠsveÅ¡te nici
ĠJoa v
Ġsvako ga
Ġsta nov
ĠHri stu
s vim
z ove
Ġne ba
te lju
Ġiz ra
Ġko nju
Ġdu Å¡e
ĠMar ku
ĠÄįi sto
JEV IÄĨ
. Pita
Ġv oda
vi ce
zi ma
Ġgla va
Ġbli zu
od om
Ġsv oja
a rise
k ijem
u Äįe
ĠRe Äįe
la di
Ġje di
ĠM R
ĠC ar
ĠÅ¾ivo ta
Bo g
Ġk la
ri ji
Ġz ove
Ġpre vari
Ġknji ge
ĠSt oja
- Ċ
J o
S e
ĠSi me
svoje ga
c ije
Ġs mi
Å¾e v
Ġnjih ov
ĠSi ne
Ġprije sto
Ġgro b
li ke
Ġku da
ĠKre Äįar
z de
Ġo vu
Ġda j
Ġg vo
Ġpo misli
Ġko bi
Ġve r
Ġbo Å¾e
Ġdob ri
ĠH aj
Ġduka ta
NAN ÄĮIKA
n ce
u Äįini
vi h
ĠJ osa
Ġpri n
ĠSi novi
ĠDavid ov
Ġzi d
Ġma Äį
ĠP ro
ĠÄįovje ku
Ġgovora hu
god at
ĠJevre ji
Ġ Å¾u
Ġo r
li ku
Ġno Äĩi
OS IJA
OD OSIJA
ĠNi ko
KO JEVIÄĨ
TE ODOSIJA
ĠMR KOJEVIÄĨ
Ġre kne
- A
E T
re j
ĠJ oÅ¡
Ġdo Å¡lja
ĠU z
ĠVa la
* Rim
ĠM nom
Ġvi so
ba ci
zi va
Ġ XV
v ni
li ju
Ġka pe
ĠTur cima
Ġkr va
N i
ri ce
Ġmla d
Ġlisi ca
t va
Ġme Äĳa
ĠIzrailje ve
ĠÅ¾rt va
vlja Å¡e
ĠÅłato ra
Ġpo mi
ĠJ E
Ġsu di
Ġra za
Ġpu sto
ĠÄįu va
Ġstra h
ĠÄĮ u
ĠDu ha
s me
Ġs ki
Ġk os
ĠS te
Ġja bu
ĠD e
Ġpos e
Ġdvo ra
ĠdoÄįe ka
Ġle p
MI TAR
5 0
V e
i r
Ġp ti
le a
sa lam
Ġcare m
ĠVe t
Ġneprijate lji
S i
Ġbla g
. )
om Äįi
Ġst re
Ġgospo Äĳa
T e
d bi
na j
le n
bo ra
Ġdru gu
Ġru kom
Ġlju be
Ġgla vi
Ġzna o
Ġpame t
Ġfo rin
4 7
ra z
Ġu za
Ġu naokolo
Ġsi kala
Ġmje sta
Ġuz mi
Ġf ilistej
sve Å¡te
ĠJef rem
m no
Ġpo bije
Ġsa Äįu
Ġpri stupi
Ġnarod e
ĠNe Äĩe
Ġuz da
Ġsla ve
Ġf arise
Ġvjeru je
_ _
Ġu te
Ġpo be
ju tra
Ġdo lazi
ĠT uraka
Ġsin ko
Åł ta
Ġvoj ske
ĠC a
Ġcrk vu
n Äįi
Ġm oji
pi ti
Ġov om
Ġpo lovi
Ġslu gu
Ġdu Å¡u
Ġob je
Ġnjegov oj
Ġpok ri
Ġzako n
Ġop r
Ġhlje ba
sv ojim
Ġizbr oje
* Dan
h od
v la
va s
Hri st
Ġp ru
Ġsa ma
Ġiz gleda
Ġko plje
ĠTur ke
Ġso bu
ĠoÄįi ma
Ġpesma ma
ĠÄįoe k
o p
Ġv os
Ġse lu
Ġre Äį
Ġkaza ti
f at
ni Å¡e
Ġkoji m
Ġpri nosi
Ġgrad ove
Ġbog ovima
ĠTe bi
ĠAro nu
ĠstarjeÅ¡i ne
b la
h odi
ne Äĩe
ĠB la
Ġnjih ovo
Ġgo ra
Ġos ve
ĠBoÅ¾i ja
Ġbezako nje
! ...Ċ
A ko
r Äįe
s nu
Äĩ om
Ġsi ne
mo li
Ġis pod
Ġcrk ve
Ġkoj oj
Äį nu
Ġda m
Ġpo pa
te m
ĠD obro
ĠZ na
na ne
Ġsre bra
vra ti
Ġnamje sti
Ġna da
ko je
ĠJ ovan
Ġiz vrÅ¡i
Ġvje re
Ġdje lo
Ġdr Å¾i
Isu sa
rica nje
P A
d ovi
ta o
Ġve ka
ĠP re
Ġtu Å¾
Ġum re
K u
p omi
re z
Ġva ro
ĠmoÅ¾e Å¡
Ġot ku
ĠI di
ĠG ad
ĠÄįi njaÅ¡e
Ġgrad ovima
nj oj
Ġiza bra
Ġstoti ne
vu hod
Ġraz d
m bo
Ġp roda
Äį ku
Ġz ve
Ġjed ne
Ġsta nu
Ġla ko
Ġpes mi
i o
u s
te lji
Å¡i ti
za n
SI LI
ĠMad Å¾a
SILI JE
N em
p ovjedi
Ġmi ri
Ġma Äįem
ĠneÄĩe Å¡
ĠnaÄįini Å¡e
5 1
va m
Ġnije su
on os
Pri Äįe
Ġneznabo Å¡
Ġ ci
M o
Ġpo te
to r
to ga
Ġjed va
âĢĿ .
tra hi
pos le
Ġglas om
D I
je dan
Ġd la
Ġse lja
po zna
Ġj o
Ġlju b
Ġsre Äĩa
Ġzla t
s vi
na rod
ĠA za
Moj sije
Ġveli k
Ġgo ru
Ġdje voj
Ġmisir ske
ĠRu vim
m r
Ġpo ko
Ġsa vje
di Å¡e
Ġpro povijeda
ĠL ju
ĠÄįini te
Ġsiro ma
le ta
Ġte Å¡ko
Ġca rica
n k
t d
Ġp ove
Äįi Äĩ
Ġsve ta
Ġzap ove
Ġpozna ti
VA SILIJE
da d
Äĳe m
Ġmoje mu
Ġsedam deset
Å¾d rije
Ġsa mi
Ġnije sam
Ġgla vari
Ġgovori m
kr se
ĠBoÅ¾i ju
Ġut vr
Ġsm rti
Ġmil osti
ĠPav le
ri na
Ġg ru
Ġka Å¾u
Ġza vi
Ġsa svim
st om
Ġko Å¡u
Ġbe se
Ġgla vom
ĠĠĠĠĠĠĠĠĠĠĠĠĠĠĠĠ ĠĠĠĠĠĠĠĠĠĠĠĠĠĠĠĠ
Ġdra gi
Ġvojv ode
) :Ċ
je d
Ġka Å¾i
lo g
Ġsu m
mi Å¡
ĠP ra
Ġb oja
Ġru ci
Ġnas lije
osi lja
Ġgrad ova
Ġnjezi na
Ġknez ovi
je Å¡
Ġo su
Ġk lije
ĠI li
Ġja vi
ĠO sta
Ġgla sa
ĠZa ista
Ġkr vi
Ġmrt vijeh
!âĢľ Ċ
Ġobe Äĩa
l ome
o g
na d
Ġv oje
Ġku r
Ġba ne
ĠR ad
Nj A
Ġnj om
Ġvla di
ĠÅ¡i ro
Ġprste n
Ġ Äĩ
Ġd os
ja ti
va juÄĩi
di n
vo g
st r
lu k
Ġto r
Ġdru gom
ĠÄįe t
Ġbu duÄĩi
J u
Ġd vje
Ġk Äĩi
ca ra
Å¾i vje
ĠJe ze
Ġtv ojih
Ġsr cu
zem lji
OV I
na s
Ġod re
Ġod ve
st je
Ġva Å¡a
Ġmo ru
ĠDa ni
Ġlju d
Ġmno ge
zu m
Ġboga t
prav da
Ġkame n
vuhod onos
n ta
ti n
ĠM omÄįi
Ġnaj mla
A Åł
Ġna Äĩi
Ġpo Äĩi
Ġpo tre
Ġza i
ro Äįi
ĠS va
pa ti
Å¾i ti
Ġveli ko
Ġisti na
Ġhaj de
Ġvezi r
D OVI
L MI
P SA
Ġi mena
ĠD AVI
Ġh e
Å¡a Å¡e
ĠE lea
EV I
Ġkaza o
ĠÅłato ru
PSA LMI
ĠDAVI DOVI
Ġje rusalim
os mo
Ġsa kri
Ġbi va
ĠSi mo
Ġproro ka
Ġvla da
Ġrod a
Äįan stvo
Ġka kva
Äįi ne
ova o
ĠÄįu o
Ġze t
ĠÄįove ka
Äį ije
Å¾ ar
om o
Ġgovo r
o t
Ġs ju
Ġdo li
Ġmo av
AR EVI
ĠC AREVI
ĠF a
Ġha nan
ĠGospodnje m
ĠCAREVI MA
c r
p stvo
Ġna pa
ma li
ĠM oja
rje Å¡
Ġljuba vi
ĠBoÅ¾ije ga
v oda
Ġo ka
ra o
ti ca
ga Äĳa
Ġsu tra
Ġbra Äĩa
ĠÅł ar
Ġpod ne
Ġe p
Ġcr ve
j de
s ni
Ġi td
Ġu Å¡i
Ġu su
Ġg re
te r
Å¾a n
zor je
G a
S o
ka Å¡e
ĠK i
ĠP sal
do he
bo Å¡e
nji ma
ĠU sta
ĠE to
Ġraz gnje
ĠneÄįi st
Ġdvje sta
Ġje st
Ġma Äįa
ĠNjeg ovi
Ġpozna Äĩe
Ġzapovije st
ĠMoje ga
ĠanÄĳe o
z d
Ġk le
Ġu sko
ĠÅ¾i va
ĠÄįu do
Ġdob ar
ĠMa ti
ĠSta mbo
V I
r vi
v de
âĢĶ Ċ
Ġma li
ĠÄįe sto
Ġnaj viÅ¡e
Po zorje
Ġjo Å¡te
M U
N EV
g na
r ca
Ġo z
Ġdo zva
ĠD NEV
NI KA
ĠMojsi ja
Ġizi ÄĳoÅ¡e
sr ce
ĠDNEV NIKA
nu Äĩe
Ġknji Å¾ev
ĠSu bo
M ar
b ri
ra k
Ġna Å¡a
Ġg ove
Ġka kav
sa ma
Ġti m
ĠB r
Gospod ar
ĠJu govi
ĠLa za
Ġbes je
Ġuve k
T A
ta ti
Ġmi lo
ĠP RE
po tre
Ġpro kle
Ġjedan put
Ġrazu me
t le
Ġp lije
Ġm ojih
ca re
Ġde se
Ġstra nu
sli Å¡i
ĠÅłato r
Ġfara onu
Ġstu b
ĠsluÅ¾ bu
I JE
S tar
Ġt vori
Ġda ne
Ġza ista
Ġsa bra
Äįi j
Ġproro k
Ġniko ga
Ġ Äĳ
ni na
Ġpo Å¡to
Ġza d
Ġvi te
bi li
ĠP oÅ¡to
Ġpri Äįa
Ġdru Å¡t
Ġde li
ĠÄįa Å¡u
ĠBa Å¡
ĠAra pi
Ġzma j
Ġpovi Äįe
va c
Ġme sta
Ġon om
Ġku ka
zu je
Ġu ljem
ĠK e
Ġnarod om
Ġslu zi
Ġno Äĩu
Ġmje di
ĠuÄįini Å¡e
Ġoti Å¡avÅ¡i
Ġdi o
Ġuze Å¡e
ĠF e
ĠneÄįi sto
svoj u
Äį ovje
li le
Ġza bora
di ma
Ġra t
Ġtje le
Ġ ÄĨ
k sa
ĠI va
Ġpo na
Ġsi la
Ġdo ra
Ġdo ne
Ġma h
tu r
Ġpi Å¡e
Ġju tro
Ġova mo
ĠÅ¾a o
Ġobu Äįe
d ni
g de
i n
o bra
Ġna Äįin
Ġpa ra
Äĩi ma
Ġni si
Ġneka kav
ĠU dbi
TI CA
er ce
Ġnova ca
os te
Ġza tru
sko pa
Ġsto ku
Ġov na
ĠJonata n
Ġo pu
Ġra du
Ġnjih ovi
ĠsveÅ¡te niÄįki
Ġvla st
Ġut je
Ġprav du
Ġvino gra
Ġrazu mje
Lj A
. "Ċ
K nez
Ġu Å¾a
ri j
Ġod ma
ĠK O
Ġf raj
ĠKos ovu
i s
o lju
Ġo te
Äį nost
ja n
le Äĩe
Ġnaj ve
m ije
je v
Ġi di
Ġk e
Ġa mo
Ġsi r
Ġh tje
vje do
Å¾rt vu
ĠsveÅ¡te niku
Sa u
ĠAvesa lom
Ġi do
Ġpo ga
ga ma
ĠG ovo
Ġdo la
ĠVa vilon
Ġzako na
ER E
Za h
V eli
b lja
k ove
m om
Ġo g
ni t
Ġne de
Äĩe m
de st
ĠO ni
Ġjed noj
Ġdevoj ku
Ġsoko la
S ta
T u
Ġk lju
Ġko ko
ĠB os
Ġdru Å¾i
Ġov ce
Ġsvat ovi
k ovu
Å¡ na
Äĩe mo
Ġslu Å¡ki
Ġsva gda
Ġbra Äĩe
Ġova ca
ĠIsa v
P OS
Ġs lije
ra t
Ġt reÄĩi
Ġne sta
ĠJ ERE
rije Äį
Ġot kri
Ġvidje Å¡e
Ġdr vo
pos ta
Ġgnje va
ĠJakov lje
ĠJERE MI
z la
Ġn u
Ġz o
Ġne bo
no Äĩi
Ġpa dne
ĠGospod ar
Ġmu ke
Ġvi la
Å¡i na
Ġcar ski
Ġpla Äįe
Ġot r
Ġf a
ĠÄĳevoj ke
Ġsiro mah
Ġruka ma
X X
ra ju
Äį ni
ĠÅ¡ ko
pa o
ĠN aj
ci ji
Åł I
Ġsre d
II I
Ġpame ti
A MU
I LOV
Ġza pisa
ru Äįi
ĠS AMU
bi Å¡e
ĠP os
Ġognje m
ĠAha v
ILOV A
ĠSAMU ILOVA
Ġje sti
Ġda Äĩu
Ġiz lazi
ki m
govo reÄĩi
Ġkra ja
Ġmno Å¡tvo
ĠJu de
ĠJudi na
Ġrad ost
V uk
v ne
ra d
Ġt ro
Ġza me
mo gu
st ve
Ġba l
ÄĮ u
Ġbije la
Ġpok raj
ĠÄĲ e
Ġsko ro
Ġupra vo
I V
P re
z ar
Å¡ tu
Ġa Å¾da
Ġpa s
Ġno tari
Ġsva ke
L e
Ġo cima
de sa
lo Å¾i
se li
Å¾rt ve
Izrai ljevi
love n
mele h
Ġi ÄĳaÅ¡e
Å¡ nji
ĠA POS
bi Äĩe
vr Å¡e
Ġla v
ĠNa vuhodonos
ĠTe Å¡ko
ĠF ili
Ġum no
Ġsvako me
Star mali
ĠAPOS TO
d ro
Ġs jutra
Ġu nu
ĠI vo
ĠS trahi
ovo lj
sta n
Ġmo gla
Ġra mena
Ġja ko
ti ja
Ġu me
li cu
re n
ĠI ma
se r
Ġva tru
ba Å¡a
Ġuz ro
ĠKo ta
Ġplani nu
Ġobi Äįa
i me
t voj
ra ma
Å¡a hu
ĠJu dej
ĠNjeg ovu
Ġtije h
Ġdove de
D u
Ġsi le
Ġiz go
ĠE da
bu de
Ġnaj prije
Ġosta ti
Ġvidi te
Ġvidje vÅ¡i
lica ma
Ġopr osti
n de
Ġs ka
Ġi Å¡te
Ġu gleda
Ġt ova
Ġpo lja
Ġiz gubi
Ġpre pa
Ġpro govori
ĠV la
Ġzna ti
Ġcr ni
NI JE
ĠÄĮ e
Ġtra vu
Ġtur ske
Ġpomo Äĩ
ĠStoj Å¡a
h ije
Ġpa re
ba c
Ġpe r
ĠÄįi m
ĠC i
ĠPe tar
ran cu
Ġzdra vlje
-a ga
g ove
l niku
Ġda doÅ¡e
Ġpo Å¾ivje
ca ru
ovo a
Ġte Äįe
ĠÅ¾i vljahu
Gospod e
Ġbra Äĩu
Ġsto ke
ĠMar dohe
ĠLe vi
Ġpobi Å¡e
ĠAve ni
ĠHe v
Ġcarova nja
N O
Ġk ro
ti je
Ġna po
Ġmi ra
ĠÄįu Å¡e
Ġkoje mu
Ġbu dite
Ġsvi ju
Nj E
Ġis cije
ĠJerusali ma
dr osti
Ġsvoji jeh
Ġgrijeh e
Ġsvjedo Äįi
ĠJEREMI JE
D A
Ġu ju
ri Äĩ
Ġda leko
ne k
Ġpo red
ĠA l
Ġka da
Äĳe d
Å¡a n
Ġdu bo
Ġvje nÄįa
Ġkra lju
ĠMa k
ĠÅ¡Äĩe r
I z
d va
Ġje ste
va nje
Ġza r
Ġa ga
Äĳe n
Ġmi li
Ġme d
ÄĮ A
Ġpr vo
Ġla sno
Ġos obi
ĠSr blji
Ġlije po
Ġho te
Ġnotari us
h ar
Ġo pe
Ġo bo
Äį kom
Ġz grijeÅ¡i
Ġza kla
Äįe lniku
ĠJa kovu
ĠSi r
Ġst vori
Ġst var
Ġcare vi
Ġsre br
ĠSolomu nu
Äįki h
Ġposa o
r na
vi lo
le Äĩi
ĠJ ova
ĠJ OVAN
Å¾e m
lju je
mi n
lja Å¡e
ost oja
Ġdje lima
Ġob ja
Ġtra Å¾e
ĠuÄįe nicima
ANI MA
Ġdrug ome
Â» Starmali
.T im
L a
P osle
v oja
Ġna pi
da red
Ġme ha
Ġra ne
Ġru Äįak
Ġdvo re
ĠpoÅ¡ lje
Ġpov rati
Ġsja j
D e
J I
P E
Ġza jedno
Äįi m
st v
Ġmi sle
Ġpu tem
Ġspa va
ĠhoÄĩe Å¡
roÄįi to
ta j
va lja
Ġsa lo
ĠJe li
Ġsvoje m
Ġsta jaÅ¡e
dan de
ĠSa mari
Ġosta la
ĠSau lu
v le
Ġu zima
Ġdo zna
Ġko ri
Ġta Å¡ti
ĠO noga
Ġli ca
Ġnije si
Ġima ju
ĠÄįu h
ĠGa lile
mje ri
Ġtije la
Ġprav da
Ġizba viti
V LE
Ġiz gu
ĠB u
Å¡i o
Åł A
ÄĨ E
JA VLE
Ġbe de
Ġla ga
Ġsm ije
ĠÄĲ ur
KO V
Ġopa zi
Ġnesre Äĩ
ĠPolaÄįe k
Ġkne Å¾e
Ġjeze ro
JAVLE NIJE
N E
l ma
t ve
z me
Ġpo godi
Ġmu Å¾
Ġko ra
Ġme tne
ĠBo lje
ĠP u
Ġraz li
Ġvidi o
KA TICA
Ġrod olju
Ġmoli m
Ġjezi k
ĠkaluÄĳe r
Ġ Å¾
B oga
t voje
z deset
ĠN oje
si nova
Ġja gnje
Ġtvoje mu
ĠTvoje ga
Ġvije ka
Ġizbroje nijeh
Ġrazgnje vi
Ġk osti
ni Äįe
Ġg rjeÅ¡
Ġpo ni
Ġpo hodi
va re
vi dje
Ġsi lu
Ġtv oju
Ġsva kom
Ġzna mo
Ġstra ha
ĠNjeg ov
ĠÄĮovje Äįij
E vo
h te
k ru
k Å¡i
r ka
ma k
Ġse di
Ġpo re
va t
le te
to g
Ġa la
Ġku lu
Ġkra lje
ĠVe Äĩ
Ġide m
ĠÅłami ki
Ġmaj ko
Ġnj ome
Ġsiro ti
Ġsun ca
Ġgospodi ne
Ġslob od
Ġfeuda l
Ġpoe zi
Ġz mija
ĠS mi
ĠT od
Ġko n
Ġni malo
Ġra diti
lji v
ĠBog me
Ġvide Äĩi
Ġnov ce
u sta
Ġs pod
Ġna dje
Ġda ni
ĠA na
Ġzla to
ĠveÄįe ra
Ġpoklo ni
Ġured be
Ġoz go
Ġna puni
ĠG dje
Ġod baci
me tnu
ĠK oje
Ġpre mu
Äįa Å¡e
Ġzna k
ĠZa ko
Ġsje ver
Ġnevje r
V a
Ġd oda
Ġo Äįe
Ġo gleda
Ġz mi
Ġpo gu
Ġsa ndu
sa o
Ġre du
ĠÅ¾e n
ĠÅ¾a losti
ĠLuj za
O na
P O
l os
Ġka di
lje n
ĠÄį rez
Ġneka k
Ġima ti
ĠNe ma
Ġnaj bolje
Ġkra lja
Ġtri sta
ĠÄĮ i
Ġzele na
Ġs pome
ra ca
ĠJ ovu
Ġiz gi
Ġja viÅ¡e
Ġsta jahu
ĠE lija
Ġvrati Å¡e
ĠTv ojih
ĠVenijami n
ĠGala d
5 2
5 5
E KI
a nÄĳe
g dje
Ġn ovo
va ma
Ġti jem
bo g
ĠZ EKI
Ġgovori te
Ġsje de
Ġop ome
prije d
pla Å¡i
ĠZEKI LjA
- ÄĮ
B e
N ije
n da
n ge
Ġo pi
Ġu ra
ri Å¡
na t
Äįi ja
lji vo
Ġbe le
Ġdu Äĩa
Ġbu zd
pra vi
Ġpolju bi
ĠMili sa
Ġhilja du
Ġ Äĩi
L ÄĮIKA
Ġs ove
Ġn ovi
Ġo ra
vi ja
sa ti
mi o
Ġh od
nja k
Ġsta re
ĠV oj
ĠÅ¾e li
Ġgodi nu
ĠÄįo ban
Ġstar ca
jedan put
A vra
f ta
Ġu sliÅ¡i
vi d
Ġa sir
Ġdo ta
ro nu
Ġiz vede
Ġti nja
ĠJer ovoam
ĠIzrailje vu
Ġst rije
ĠJudi n
Na Äįelniku
Ġsud ove
Ġmisir skoj
ĠAvra mu
Ġizbr oji
Ġpjeva Äįkom
* PriÄįe
5 3
k vu
p lja
Ġti ma
Ġpre sta
Ġpre lju
Ġima te
Ġvje ra
Ġbu di
Ġvas krse
ĠsveÅ¡te niÄį
Ġvoj skom
Ġov dje
Ġgrije ha
nica ma
Ġro pstvo
Ġpros la
Ġhilja da
R BEG
n os
ti la
Äį nosti
Ġt oj
Äĩe ra
va nu
Ġod ne
ĠB ran
Ġpro Å¡
Ġba bo
Ġdu ga
Ġveli ku
Ġcr no
ĠTur Äįina
Ġtr gova
LE RBEG
Ġsti h
ĠKraljevi Äĩa
ĠÅ½ e
Ġmate ri
BEG LERBEG
Ġuzda h
- be
B a
o pa
Ġv uk
Ġz ov
da k
Äĳe na
rod e
Ġve ru
Ġpre kra
po lu
Ġima Å¡
Ġno b
Ġle k
Ġnaj ma
Ġst ru
Ġmanasti r
Ġ Å¾drije
d noga
o ta
Ġo dande
ri m
ji ma
Ġza klo
ĠGospod njoj
mo t
si novi
Ġme t
ĠJe ri
ĠJe sti
Ġli cem
ĠH oÄĩe
Ġsre bro
ĠIzrailjevi m
ĠLe vije
Ġneprijate lje
kov Äįe
Ġstu de
Ġbli Å¾
Ġhe ru
. Pe
5 7
u ze
Ġm re
Ġje du
ĠI SA
Äĩe ri
ije Äį
Ġpa da
ĠÅ¡ Äĩa
rije h
Ġvi ka
ĠN j
Ġveli ke
SK A
ĠPo zdra
Ġos kvr
Ġbr zo
Ġpusti ti
Ġnjezi ne
vre j
ĠPav la
Ġbezako nja
ĠOna j
ĠISA IJE
n ku
s k
Äį o
Äį na
Ġt voga
Ġne bu
ji ca
Ġdo gaÄĳa
Ġze ta
kr sti
Ġkri lo
ĠoruÅ¾ je
Ġose Äĩa
ĠJugovi Äĩa
O J
p oja
Ġs li
Ġm ojim
Ġda du
Ġpo Äįnu
le z
ĠÄĩe te
ĠK A
Ġta ki
Ġpe Äĩi
Ġdu Å¡i
bu di
Ġe pi
Ġdi v
Ġvr sta
MI LÄĮIKA
Ġposle d
ĠÄįet vr
Ġo ci
ti t
Ġu god
Ġpo ruÄįi
Ġsa svijem
nje mu
Ġpra h
Ġdom ovima
pra ve
Ġiza Äĳe
ĠAro na
ĠIzrailjevi h
ĠstarjeÅ¡i na
ĠMisi ru
ĠpoÄįi nu
ĠJosa fat
So lomu
s pa
ta ko
Ġbi ste
ĠGospod nju
Ġkr sti
gla s
ob reza
Ġsab la
ĠVi dje
Ġnapisa no
g li
Ġd voje
Ġo pre
Ġka l
st re
Ġra sta
lja n
Åł ami
Ġh la
du je
po Äįe
ĠÄįu da
Ġraz govara
aj de
Ġsje di
Ġbije le
Ġsab lja
Ġsab ljom
ĠuÄįi telj
Ġsest ri
ĠÅ½ i
Ka da
Ġho Äĩu
Ġmej dan
Ġkos ov
ĠCa re
Ġtova ra
Ġuju tru
B I
H H
L ju
n stvo
o Äĩu
Ġa ma
ĠN A
ĠÅ¾i to
Ġvra g
Ġvo z
ĠÅ¾ivo tu
Ġprija telj
Ġpobrati me
Ġr Äĳa
Ġmog li
Ġbar jak
Ġgvo Å¾
- E
b lagos
k ta
Å¡ njega
ta ma
to Äįi
Ġkoji h
zi ja
nja ca
ĠSi h
Ġvra Äĩa
ĠJu da
ĠSau la
Izrai lja
Ġro p
zem lja
Ġknez ovima
ĠUz mi
5 6
Ġu g
li Äĩe
va ru
Ġka ra
Ġja r
Ġku Å¡a
ĠZ ar
ĠÄįu vÅ¡i
Ġzako nu
Ġsvoji ma
Ġras pa
ĠanÄĳe la
Ġtrije m
ĠJevanÄĳe lje
? ...Ċ
g Äĳe
k oviÄĩ
r Å¾a
Ġo kova
re di
Ġt vor
Ġpo tr
Ġni kako
Ġta v
Ġsta ra
Ġona mo
Ġdi Å¾e
Ġdi gne
rija r
Ġsab lje
Ġzele nu
ĠSte fa
B A
[ a
] oÄĩe
t ova
Ġi ska
Ġg os
Ġdo Å¡li
Ġmi Å¡
Ġvi Äįe
lju bi
Ġh le
nja ti
on da
ĠMu sta
Ġpomo Äĩi
V R
j sku
k rije
o lta
s pod
Ġu bije
Ġje dite
ga njaca
Ġka mena
no Å¾
Ġta la
Ġpri sta
ĠÄįini o
Ġoko la
Ġvo lji
Ġzla tom
ĠTv ojim
ĠAvi ja
ĠTvoj u
Ġpodgra Äĳa
Ġpodgra Äĳem
Ġizve o
ĠJeze kija
Ġpo zva
ĠA min
nu Å¡e
ĠH al
ĠuÄįini Äĩu
Ġtu Äĳi
ĠveÄĩ ma
Ġtr pe
Ġpoka ja
Ġsramo tu
Ġpovi ka
ĠvjeÄį ni
" Bo
E to
M E
f r
Ġo ku
ti na
ti ne
Ġu pa
Ġu bio
Ġb le
Ġna p
da va
ĠI van
Ġne ve
Äįi nu
ĠS re
Ġre dom
ĠM le
Ġra nje
Ġra vno
Ġsta ro
Ġde be
ĠÄįe mu
Ġpod ru
Ġsvi le
Ġosta lo
ĠC e
Ġmoj oj
dr Å¾a
Ġdopa da
ĠKO LO
Ġunu tra
-ÄĮ eli
Ġ cu
. "
k lju
je de
Ġza ba
Ġa v
ĠD i
Ġpos lovi
Ġgo lu
Ġplani ne
ĠHaj de
s ci
Ġse lima
ĠT A
za vje
ĠZ e
ze r
Ġbra Å¡na
ĠÄįu desa
Ġsto pi
pre ma
ĠKa Å¾i
Ġota Äįkih
Ġbr oj
ĠJoa s
ĠÅ¡e zdeset
Ġop ko
Ġop le
ĠHa nane
Ġzakle o
nesi te
ET VR
ra Å¡e
Ġu Äĩi
Ġne prav
Ġdo Å¡avÅ¡i
Ġod vede
ve li
Ġmu drost
Å¡i te
Ġja vlja
Ġpos ljed
Ġvje ri
Äĳu je
oda ti
Ġprav de
Ġmr zi
Ġaposto la
k od
l oj
z ma
Ġb oje
Å¾ no
da ra
ka da
ne ra
Ġpo ra
Ġpo ne
nu la
Ġmi rno
ĠJe dan
ĠD O
Ġneka ko
Ġbje Å¾i
Ġbra tu
Ġsvi ra
ĠJu g
!... âĢľĊ
Ġsest ra
Ġobra z
ĠzaÄįu di
PA ÅłA
Ġbese di
b ar
Ġu ko
Ġu potre
Ġpo l
de Äĩi
Ġmu ka
Ġko lo
Ġgovori o
Ġvra t
ĠÄįa sti
ÄĲ AÅł
gova rati
Ġdra ga
ĠÄįo ba
ĠpoÄĳe m
Ġnov ci
Ġkne za
.Pita li
nk oviÄĩ
ĠCi ga
PE TAR
ÄĲAÅł N
i lu
ĠA m
Ġza tvori
ru ke
de se
sa ve
lu ge
Ġja ganjaca
zra e
do Äĳe
ÄĮ ETVR
ĠE l
Ġbra Äĩi
sto ga
ĠNje govo
ĠÄįi sti
stu pa
Ġdr va
Ġvo la
gla si
Ġporodi ce
ĠTo bom
ĠManasi jina
Ġsed mi
Ġskupi Å¡e
Ġblag osilja
. J
. P
6 0
E f
o Äįi
ra mi
Å¾ nja
Ġdo bi
ba o
Ġno gama
Ġpra ve
Ġsla vi
ĠrijeÄįi ma
ĠVa vilo
Ġcrk vi
ĠÅ¡i ri
ĠJeremi ji
' ,
p ru
Ġna Å¡u
Ġpo zdra
Äĳ ar
oji ca
Äĳe no
me nu
go Äĳ
Ġpre sto
âĢľ .Ċ
ĠE ro
Ġzna de
voj ka
Ġpros to
Ġmate r
Ġhte o
Ġprime r
Ġgvo zde
ĠMati l
C I
C ar
i Å¡
l da
Ġg reÄįe
vi la
Ġra su
Ġra do
ĠÄį love
zi vati
Ġno gu
Ġpred sta
ĠÄįu v
zna Äįi
govo re
.âĢĿ Ċ
pos lije
Ġum ro
Ġki r
a da
t ovi
u z
da v
ĠI dite
vi si
ĠJe se
ba ma
Å¡a v
nja hu
do ma
Ġde sne
Ġtisu Äĩu
Ja kov
ĠLeviti ma
ĠManasi ji
Ġprin os
Ġgove da
d ova
k vi
o ni
Ġu dovi
Ġna prijed
ne be
va Äĩe
Ġva ra
Ġra Äĳa
ba vi
Ġpri zna
Ġpri bli
Ġzna juÄĩi
Ġtr plje
Ġvla sti
Ġut ro
Izrailje v
ĠJeremi ja
Hrist os
" A
T ur
Ġn os
Ġd voji
ri Å¡e
Ġod nese
Ġko ma
Ġcar stva
Ġdu Äĩan
Ġpr ome
Ġle pa
ĠÅ¡ta p
Ġgo le
Äįu Äĩi
on Äĳe
Ġtur ski
ospo Äĳa
kovi Äĩa
Ġpobrati ma
- Ja
S r
u ti
Ġi na
Ġi gu
Ġb re
Ġma nje
Ġpi ti
sko p
ĠH erce
Ġtri dest
Ġnema m
hi ja
Ġmisli ti
Ġkak vo
Ġdos ad
ĠPRE ÄĲAÅłN
ĠVoj vodi
i za
m oje
p le
je p
Ġu lje
Ġv odom
ka za
Å¾e na
Ġti nju
Ġme Äĳe
Ġpos lu
ĠsveÅ¡te nike
ĠÄįi st
Ġcare ve
Ġtvoj oj
Äĳi te
Ġolta ra
Ġnjezi n
ĠMo av
Ġpogre boÅ¡e
Ġpoto ka
fta lim
Ġd ov
Ġo str
Ġu stima
Ġje vrej
Ġiz vr
vije k
Ġima mo
ĠÅ¾i vlje
Ġzna Äįi
ĠNe ba
pra ved
Ġuze vÅ¡i
.âĢľ Ċ
Ġro b
ĠvaÅ¡i m
Ġspo lja
Ġgora ma
- PAÅłA
n ke
r be
ta la
ta na
Ġu vati
Ġje dared
Ġna ra
ma c
Ġg osti
Ġsa n
Ġdo le
Äįi ta
Äĳe ni
sa mo
Ġsu lta
Ġva tre
Ġca ri
Ġku la
Ġli va
Ġpos t
Äįa ra
âĢĿ .Ċ
Ġpe sama
ĠR i
Ġst r
Ġst vara
Ġbog om
Ġdevoj ke
ĠSr p
Ġzdra vo
Ġlo p
ĠVuka Å¡i
Mar ko
Åłami ka
' t
P oÅ¡to
i ne
j ma
p ca
Ġn ose
Ġg lu
Ġne pozna
ku d
Ġko kar
Ġma d
Ġmla do
ĠSe nja
ĠÄĲ or
Ġplani na
Ġname re
l ga
r fi
ti su
ri ju
Ġne valja
Ġka mi
Ġka dio
ji h
Ġza ro
mo ga
rije m
Ġcar ovati
bo r
ĠU Äįini
ĠH odi
ĠJu dom
Ġoko lu
Ġide Å¡
ĠoÄįi Å¡Äĩe
Ġzapovije dam
ĠSad o
ĠsluÅ¾i ti
ĠvaÅ¡i h
Ġpobje Å¾e
Ġzapa li
ĠJeli sije
* Zah
5 9
d nje
s vije
Ġi Äĳahu
Ġu licama
di Äĩe
lje nje
ĠO vaj
ĠJa kova
Ġvje rom
Ġbla godat
Ġvrati ti
ĠÅ¾ivo ti
Ġpot s
Ġpusto Å¡
ĠGovo reÄĩi
O de
g ov
h vali
j oÅ¡
n t
ta Å¡e
Ġu pu
Ġna Å¡ao
Ġna lazi
Ġg omi
lje no
me ni
Ġmi la
Ġma la
ĠD oj
be z
pi o
vu Äįe
Ġpe Äįe
Ġsva koja
Ġsre Äĩu
Ġtr Äįi
Ġtre nu
Ġvo le
Ġdrugi m
ĠMilo Å¡u
Ġbes mrt
Ġrad osti
Ġspre mi
Ġfraj la
. )Ċ
] ,
j U
o no
Ġi ste
Ġo voj
Ġu la
ĠI lija
ĠA h
le k
le p
Ġza du
Ġre p
go ne
zi ti
Ġli Äįnost
po Å¡to
Ġpu Å¡ka
Ġru Äįa
Ġpr ove
ĠSa mo
sije Äįe
Ġov Äĳe
Ġze c
Ġlu d
Ġjezi ka
Ġmajsto r
n Äįe
ta m
Ġu lja
Ġpo ÄĳoÅ¡e
ĠO ho
Ġpro zva
nji m
Ġpr voga
Gospod om
ĠZa vu
Ġpod noÅ¾
ĠDavid ova
Ġot stupi
ĠSe ma
Ġnasljed stva
ĠRa hi
ĠIzrailj ci
Äįan stva
ĠoÅ¾e ni
ĠSime u
Ġplije n
Ġp l
re ba
Å¾ ni
Äĳ osmo
Ġza pe
Äĳe nje
ĠM A
Ġmo r
Ġpos ti
ĠÅ¾i vje
Ġsva ku
lije m
Ġoti Äĩi
Ġdje cu
ĠÄįini m
Ġsje ÄĳaÅ¡e
Ġmisli te
ĠÅ¾a lost
Ġzemalj ski
Ġnevo lji
ĠZem lji
Ġfarise ji
Ġrazd ije
ĠJova na
d Å¾
z ije
Ġm ome
na Å¡
Ġne ke
Äįi Äĩa
ĠM r
Ġcar stvu
ĠU su
Ġjuna ke
Ġst ri
Ġso bi
Ġmla de
ĠTe k
Ġvide ti
Ġpita ti
Ġpripove da
d Å¾i
n ove
Ġp lo
li ci
na r
ka Å¾e
ĠA nÄįi
ĠS la
ÄĮ e
18 0
Ġle ti
Ġnaj sta
Ġvidi ti
Ġvaro Å¡i
g ni
s om
re je
Ġna lje
ĠA do
Ġme so
ĠB lagos
ĠP salam
vu se
Ġosta li
ĠMi ha
Ġvoj sci
Ġot kupi
ĠNjeg ovijem
Ġprije Äĳe
Ġbije loga
Izrai lj
ĠJudi nijem
Ġtru be
Ġmate re
Ġvisi ne
Ġpru Å¾i
ĠUsta ni
Sau l
ĠPu sti
kovÄįe g
ĠSih em
* A
5 8
D JE
S T
i sti
je mo
Ġo pravda
Ġu plaÅ¡i
ĠI rod
Ġza tre
Ġiz mjeri
ĠS pa
go h
Ġgla di
Ġzna ju
Ġbija h
Ġuz di
lije h
Ġvidje lo
vlja ju
Ġisti ni
Hri sta
Äįite lju
H ajde
I di
K NjA
L GO
P AN
T ad
o ti
z re
ni ne
Ġse r
Ġse dne
Ġne mi
Ġpo pe
va na
Ġdo Å¡la
bi ne
Ġve Äĩe
Ġpre krsti
ĠD ra
Ġdru k
Ġdu Å¡
Ġlju to
sko me
ĠSof re
Ġmaj ku
Ġmaj ke
gla v
ĠÅ¡a re
kovi Äĩu
Ġnjoj zi
RU KOV
Ġpoja sa
Ġmog lo
Ġgru di
Ġnajmla Äĳi
ĠÄĳ oga
ĠDO LGO
KNjA Z
ĠDOLGO RUKOV
D E
D i
v od
na ka
Ġna roÄįito
Ġz vo
Ġz ovu
ne j
le ka
di na
Äįi ca
Äĩi m
bi na
Ġva zda
Ġpre tvori
Ġra ju
Ġma le
ĠZ ad
Ġsva ka
ĠÄįe love
Ġdob rode
Ġpla ti
Ġbla Å¾e
ÄĲ e
Ġrodi o
Ġmisli m
ĠDo k
* Nem
d ije
h lje
Ġi dite
la ma
Ġna ÄĳoÅ¡e
Ġpo rfi
vi na
Ġpa lje
bi jaÅ¡e
nje gova
ĠV o
ĠSa m
ĠÅ¾i vljaÅ¡e
ĠH u
Ġle Å¾e
Ġraz bi
ĠMe ra
ĠGa va
ĠPa s
ĠJudi nijeh
Ġspa li
zem lje
svoje mu
Ġkrv lju
grije h
ĠGe de
Ġneprijatelji ma
Ġmiri s
Solomu n
. ),
5 4
G de
Ġb oji
Ġt lost
Ġsi Äĳe
st vom
Ġmi Å¡i
Je rusalim
Ġdu Å¾i
ĠÅ¾e lja
ĠL U
Ġdje ca
Ġov ome
Ġvo lju
ĠuÄįe nika
ĠOd govori
Ġisti nu
Ġpogi bao
Ġvese li
ĠDuh om
ĠPi lat
Ġzvije ri
ĠCrnogor ci
M ilo
t rijar
Ġi sta
Ġk ose
Ġb oju
Ġpo lu
va le
Ġka pu
Ġka moli
Ġza nat
Ġdo godi
Ġbi le
bi nu
ĠB i
Ġma ra
Ġima la
Ġba bu
ĠÄįe lo
sko Äįi
lj da
ĠSof ro
Ġgleda ti
Ġbije lome
ĠSe n
ĠMilo Å¡a
ĠStrahi ni
C a
O j
Ġv se
Ġka dija
ĠG de
Ġsi je
Äįe ka
Ġod u
lo Å¾e
ĠS E
Ġra j
Ġma kar
Ġbo lji
Å¡a k
ĠDa lma
Ġdru Å¡tvo
Ġsva k
Ġzna du
ĠZa boga
Ġgo Äĳ
Ġsrp ski
ĠMo re
Ġforin ta
Ġslobod no
ĠTod or
Ġnob le
Ġmad Å¾ar
J or
i lj
la d
Ġna se
Äĩe ga
ĠA sir
sa nu
Ġti ne
Å¾i vo
Ġra Å¡i
Ġosta viti
Ġdom om
ĠJudi nu
ĠSve mogu
Ġsti je
Ġgu ba
Ġkame nje
Ġmetnu Å¡e
Ġpogi be
ĠÅ¡ato r
Ġpogre be
ĠLevi ta
Ġope re
Ġmet ni
L SKA
Z em
da ju
Äįe n
Ġmu drosti
Ġpro ti
Ġpro Å¾drije
Ġnije dan
Ġslu Å¾e
Ġdu ha
Ġveli kom
Ġob reza
nae sto
Pa vle
Ġpropa sti
car stvo
ĠMA TE
ĠLU KI
M ili
b oj
n ci
r nu
z ad
Ġi Å¡
Ġm lo
os o
ja ka
Ġz ra
vi li
Ġiz ne
sa d
ĠT r
Ġpre t
Åł ÄĨE
Ġlju ta
Ġveli koga
Ġle Äĳa
Ġkra ju
Ġdi vno
Ġdvo ri
Ġsvje t
Ġnau Äįio
ĠÄįoe ka
ladi ka
Ġjabu ku
Ġforin ti
C E
P r
P os
l no
v ca
Î µ
Ġv uka
Å¡e no
te ra
di la
Ġpa u
Ġve sma
Ġmo Äĩi
Ġga zda
Ġja ja
Ġde ve
ĠSa va
Ġno Å¾
Ġf rancu
ĠNi Å¡ta
Ġobi Äįno
rta v
ĠSrbi n
Ġmese c
ÐĨ ÐĨ
Ġpoje de
Ġosobi to
ĠHerce govi
P ET
h ode
o ca
t vr
Ġpo luge
ro na
ro pi
ĠÅ¡ tit
lu j
ĠD va
Ġta nko
ĠO r
ĠDa j
Ġnije dnoga
Ġmje de
ĠÄįu j
Ġrije ke
Ġla kta
rija t
ĠVe na
dana s
ĠLa van
Ġzahval ne
ĠdoÅ¡lja k
Ġutvr di
ĠElea zar
Ġspome n
PET A
i l
Ġs ne
ni Å¡ti
Ġza m
Ġza ti
Ġsi on
Ġod ije
za re
Ġpro lazi
Äįa ti
ĠV je
Å¡u je
*Je vr
ĠoÄįi ju
ĠSe de
ĠSe be
ĠsluÅ¡a ju
sr ca
Ġrazum ije
ĠBla go
ĠSubo tu
V oj
d nom
r ne
r Å¾i
t kom
ja o
Ġsv og
ĠI duÄĩi
Ġka v
nu li
Äįi Äĩu
Ġti ho
Ġte me
Å¾i o
go ni
po t
Ġbe la
Ġle Å¾i
Ġsvi nja
ĠmoÅ¾e mo
Ġput ovati
ĠveÄįe ru
er dar
Ġpogi nuti
nd Å¾e
ĠCrno je
ĠNova Äįe
Ġgot ovo
ĠXV I
Ve Äĩ
ĠĠĠĠĠĠĠĠĠĠĠĠĠĠĠĠĠĠĠĠĠĠĠĠĠĠĠĠĠĠĠĠ ĠĠĠĠĠĠĠĠ
ÅłÄĨE PAN
Ġ /
' ,Ċ
D ru
P u
d Å¾a
k vo
p ci
Ġs pomi
Å¡ nje
Ġo nog
li ki
Ġna i
Ġna mi
ma j
ma tra
Ġne jma
pa ju
si ju
Ġme stu
Ġni t
ci ju
Ġra no
Ġh ad
Ġh ara
Ġima li
Ġima juÄĩi
Ġpr omi
Ġdob re
Ġnaj posle
Ġkra va
ĠL jU
Ġmaj ci
Ġprija telja
Ġvese lo
Ġduka t
Ġjeze ra
Ġblag ode
H e
k oju
li tva
Ġda doh
da de
ĠJ ov
Ġdo nesoÅ¡e
lo ti
sa v
bi jahu
ĠD nev
be re
Ġpos u
Gospod nji
ĠNe k
ĠNe ftalim
ĠJu j
ĠsveÅ¡te nicima
Ġsr cem
Ġzavje se
Ġknji zi
Ġro bi
ĠVi tle
ĠAvi meleh
Ġri z
godi ne
ĠDo kle
rta va
njeg ov
Ġpogla var
Ġamo rej
ĠSamari ji
Ġtala nata
G al
Ġd ostoja
Ġu mo
Ġu lazi
Ġne obreza
Ġpo lj
Ġpo nosi
Ġpa Å¡Äĩe
Ġmu Äįi
Ġmu dri
Ġsu diti
ki ji
Ġja mu
za k
ovje d
âĢĻ ,
ĠMoj u
Ġsto je
Ġmno Å¡t
Ġsje ve
Ġproro ci
ĠAvra am
ĠDani lo
Ġopu stje
ĠAPOSTO LSKA
DJE LA
" Ne
D obro
k Å¡e
l ne
z ne
Ġd Å¾a
Å¡ no
âĢ ĵ
Ġg roz
Å¡e n
Ġpo b
ga r
Ġka pi
Ġza t
de o
Ġdo nosi
vo ra
ku je
ĠK RA
Ġko Äįija
Ġli cu
ĠV oji
Ġpla kati
ĠSo ka
Ġtr gov
ĠÅłami ku
Ġvo li
Ġl ov
Ġmoli ti
Ġki Äĩe
Ġpobrati m
Ġbor be
"O j
Ġar hi
Ġmladi Äĩ
ĠÅłÄĩepa n
Ġdubo ko
) ;
- bolje
] :
h oÄĩe
o ba
t ki
Ġs nu
Å¡ nja
li k
Ġje se
os la
ĠA n
Ġza tim
lu du
Ġpre bi
ĠO vi
za o
zi r
be r
Ġpri povijeda
Ġjed nim
Ġpro budi
oja n
Ġbe Å¾e
Ġkra lji
Ġkra vu
Ġpla Äĩa
ĠL ije
ĠÄįa st
ĠMu jo
Ġmisli o
ĠtraÅ¾i ti
ĠMadÅ¾a ri
ovolj no
Ġlek cije
ĠPREÄĲAÅłN JI
G o
R u
s luÅ¡a
je sma
la c
Ġpo tje
va Å¡
ĠG i
ĠG ir
Ġmu Å¡ki
ke r
Ġon oj
tra Å¾i
Ġbra Äĩom
Ġpod a
ĠR ije
Ġstra ni
Ġkr jep
Ġbog ova
Ġiza Äĩi
Ġzako ne
sre t
Ġisto ku
Ġspase nje
ĠPos lije
ovoa ma
h nu
v ode
Ġd ome
Å¡ Äĩa
Ġo vijeh
od o
Ġpo u
te lje
Ġza jed
Ġsa ha
Å¾e ne
Ġmu dra
bi ra
Ġpre pi
lja hu
Je remi
Ġraz vali
ĠuÄįini h
Ġis cje
Ġso to
Ġdr Å¾e
Ġvo lje
Ġvo lja
Ġduh om
klo ni
ĠBoÅ¾ij oj
Ġvjerova Å¡e
Ġblag odati
Ġvinogra da
ĠNavuhodonos or
ĠHal dej
ĠMATE JU
Ġ âĢĻ
K ra
M AN
R IJA
f u
ka h
Ġpo Äĳu
Ġza slu
Ġza hvali
di li
ova h
ova li
ĠÅ¡ ura
Ġre d
ĠM AR
pa li
go re
ĠÅ¡to god
Ġh ar
Ġpri Äĳe
gu man
Ġde ca
Ġba ca
Ġlju bo
ĠÄįe do
Ġjuna Äįki
Ġcr ne
Ġuda ra
Ġtur ska
ĠÄĲ ura
ĠviÄĳe ti
ĠLa zar
brati me
Ġplani ni
Ġmrt va
Ġvese lje
Ġzma ja
Äįko g
ĠÅłar ca
ĠCe ti
ĠRi b
? "
K U
M u
O R
a n
Ġd re
Ġo vim
ni Äĩ
Ġpo kupi
Ġdo biti
Ġpa Å¡a
ĠT ko
Ġvi d
si ti
Ġmo mak
lju ti
ove k
za ti
AN ÄĮA
Ġpro to
Ġpu na
Ġneka kva
Ġraz ve
Ġraz govor
lj ka
gra da
ĠKo liko
ĠVi diÅ¡
Ġsti gne
ĠÄįita ti
Ġblago polu
Ġpros ve
Ġjezi ku
Ġvu Äįe
* O
F iliste
b re
h ra
k Äĩeri
t vu
Ġi no
od aj
ĠI sma
ĠA r
Ġza sje
ru ku
no Å¡aÅ¡e
Ġsa zva
ĠS vjedo
Ġsin om
ĠJe si
Åł ato
Ġpri log
tu da
ĠH i
ĠZa ha
Ġsto ka
Ġdom ova
ĠMa dija
Ġtra dan
Ġbog ove
nj om
nae stoga
ĠIsa k
ĠTv oji
ĠÅ¾ivi nÄįe
Izrailje vijem
Ġpleme nima
Ġpobje goÅ¡e
Ġke dr
Ġzapisa no
ĠAveni r
Ġstvori o
ĠÅ¾ rtava
Ġtinja ma
ĠÅ¾drije b
ĠbliÅ¾ njega
Ġporfi re
Ġpalje nica
g ro
r ni
s mrt
z lo
Ġd osa
Ġu ki
ri te
ka vÅ¡i
ne ma
Ġpo m
Ġpo boÅ¾
ĠG leda
ca ma
Ġod met
di jaÅ¡e
ba v
Ġpri Äįu
Äįa Äĩe
Ġpu Å¡ta
dan ju
Ġzna nje
ĠSi onu
Ġis pu
pro t
Ġsvjedo Äįanstvo
Bo Å¾
ĠZem lju
ĠSimo n
ĠknjiÅ¾ev nici
Ġpribli Å¾i
I ma
S erdar
d vije
Ġu to
ri la
ri nu
ni nu
da ne
Ġne pre
Ġbi rti
me ne
Äĩu noviÄĩ
lja hte
tu ra
Ġpro govara
Ġpu Å¡ke
ĠV U
Ġru ho
Ġpr ov
ĠMi ÄĩunoviÄĩ
Ġf or
ĠkaÅ¾e Å¡
Ġzla tna
Ġpozna je
Ġvide la
Ġdrugo g
'je t
Ġpot pu
fi t
ĠVu Äįe
Va la
Ġtvor ca
Ġ ...Ċ
J ÅłI
S t
d Å¾ija
j A
Ġs pusti
Ġd Å¾i
Ġd ost
Ġk Ã¢
li na
li ji
ri cu
Ġka zu
te re
Ġdo Äĳi
me d
ova c
Ġre ku
Ġsu za
Ġra ja
Ġja je
lja k
ĠDa kle
Ġpro Äĩi
ÄĮ E
ĠJa nja
Ġpr va
Å¡ta r
Ġkra ji
Ġbude Å¡
Ġuze ti
Ġtre Äĩe
Ġspa vati
Ġnau Äįi
Ġlije pa
ĠnaÄĳe m
ĠÄĳavo l
ĠkaluÄĳe ri
Ã¢ m
ĠPri povijeda
Ġdrug oja
Do k
Ġmese ca
Ġljub ov
ĠBos ni
Ġsandu k
A mo
K nji
Ġs ker
Ġo vijem
Ġo Å¡t
Ġje lo
ĠA v
ĠA da
vi t
Ġsu sret
Ġte vima
go tovi
mi lost
ÄĨ A
ĠJa vi
ĠSa ra
ĠSa da
Ġosta Å¡e
Ġpla tna
vr h
Ġcare vima
on dje
Ġposla nike
Ġpusti nju
Ġzbo ru
ĠJosif u
ĠÅ¡ato ra
RE ÄĨA
Ġsed moga
Ġkoj om
Ġopra vlja
sva ki
Ġsvr Å¡i
ĠÄįisto ga
ĠDnev niku
o l
s kijem
z vije
Ġs kvr
Ġm ije
Ġu di
Ġda Äĩe
Å¾ di
Ġza tr
Ġsi lom
Ġsa vrÅ¡e
Ġva Å¡u
zi te
du h
ĠNe bu
ska ma
Ġmno g
Ġstra na
ĠdoÄĳe m
Ġposta de
Ġproro kova
oga nj
Ġri ba
Ġnebe sa
sv oji
Ġvavilon ski
ĠneznaboÅ¡ cima
B io
J oÅ¡
K E
i gra
t kad
Ġs l
ra te
ta ne
Ġu dri
Ġb rod
ko liko
ja lo
va ne
Ġdo bio
pa ne
Ġve ku
Ġto p
ĠÄį ad
Ġjed nome
tu je
Å½ E
ĠMe Äĳed
Ġjuna ci
Ġsre Äĩ
Ġusta ne
Ġpes mu
Ġgleda ju
Ġmisli Å¡
Ġneko ga
ĠSta rina
ĠÅ½ a
Ġpogi nuo
ĠnaÅ¡ oj
Ġkonj ma
Ġkole na
ĠNiko la
ĠStefa n
ĠRib nika
Ġ Äĩa
G r
R e
S va
a lji
Ġo to
ta lija
na ra
Ġza gr
ĠK r
ĠK or
Ġme g
ĠO va
Ġpu Å¡ku
Å½ e
ĠJa nkoviÄĩ
Ġdob ru
Ġnas red
VO R
Ġis pe
Ġpozna o
Ġlu ga
Ġmora m
Ġisto riji
Ka o
Ġuve Äįe
ĠCa ri
Ġvos pita
Ġdla ku
ĠPra vo
Ġljud ma
Ġmisle Äĩi
-Ja nja
P salam
T REÄĨA
ko n
Ġg e
ĠA man
ĠA dad
sa j
Ġsu dija
Ġme sa
ĠJe zrae
mi na
ĠNe Äĩu
ĠÅ¾e nom
ĠGa vao
ĠGa lga
Ġdje ce
Ġusta vÅ¡i
Ġposta vio
Izrai lju
ĠGospodnji m
ĠLe vite
ĠVi r
Ġpomo li
Ġhalji nu
ĠvaÅ¡e ga
Ġprve nca
Ġpogla vari
Ġzahval nu
Ġpokri va
Mo litva
Ġzatru dnje
ĠJeri ho
toÄįi Å¡te
Ġstopi ce
* Ef
6 3
i ja
Ġo ce
Ġo nijem
Ġne ra
Ġmu dro
Ġve Äĩi
be zako
dje la
Ġpos rami
do Äĩi
Ġsta do
Ġpr om
Ġosta vlja
Ġpla tu
ĠMa rija
Ġgrad ovi
Ġspa sti
ĠnaÅ¡e mu
Ġpoka Å¾e
Ġvjeru ju
luÅ¡a jte
Ġubi ja
Ġvavilon skom
Ġraza pe
Äįije ga
ĠtaÅ¡ti na
e vo
l ni
n ovo
Ġs nije
Ġp rod
Ġd Ã¢
Ġk lo
Å¾ na
da o
ru Å¡e
Äįe vi
Äįe sti
me r
Ġti h
nje na
Ġmo Å¾da
ki h
Ġto pu
mi cija
Ġli Äįnosti
Ġpri ti
tra dan
Ġde ce
ĠU g
ÄĮ am
Ġdu Å¡o
ĠÅł a
ĠÄįe tr
Ġle gne
EV IÄĨ
Ġjuna Äįke
Ġcr na
Ġot vore
Ġsvije ta
Ġtr govi
Ġos me
Ġpok oj
Ġsest ru
Ġprija telju
ĠÄĳavo la
Ġpop la
RU GO
ĠÄįesti ti
ĠÅ¾eni d
Ġute Äįe
Ġvaro Å¡
ĠĠĠĠĠĠĠĠĠĠĠĠĠĠĠĠĠĠĠĠĠĠĠĠĠĠĠĠĠĠĠĠ ĠĠĠĠ
ĠKi riÄĩ
Ġbesje di
"Bo gom
ĠSre mac
ĠSen koviÄĩu
ĠKRA Lj
Ġ Å¾d
' o
: )
L U
g ri
Ġs os
Ġi Å¡ao
Ġo Äĩi
Ġu prav
Ġpo lez
Ġiz miÅ¡
Ġmu Å¾a
ku la
ĠK la
Ġva tra
nje n
Ġku me
Ġbo lan
Ġpri rod
AN jA
Ġde o
ĠZ A
Ġba be
Ġpr osti
ĠÄįe st
18 1
Ġnaj pre
ĠKa da
Ġis ku
Ġsje ki
Ne ka
Ġmora o
ĠÅ¡a li
ĠKu lin
ĠkaluÄĳe ra
Ġokre ne
DI MA
ĠÄĩ y
ĠgvoÅ¾ Äĳa
. B
H a
J osif
o cima
oj te
Ġu re
na m
Ġna red
Ġna zva
da Å¡e
Ġiz la
ĠJe vuse
za povjedi
po rodi
Ġjed oÅ¡e
Ġsta n
Je rusali
ĠSa ma
kle t
ĠJo ram
pre ko
Ġot pusti
Ġuze o
nae sti
Ġfara ona
ĠstarjeÅ¡i nama
ĠVenijami novi
ĠAmo novijeh
Ġhva le
ĠAsa f
Ġupra vite
Ġizra ilj
Ġprin ose
ĠVala k
Ġhanan skoj
ĠHev ron
ĠJesti ra
Ġtanko ga
. R
6 6
L jE
k nji
s mu
li Äį
Ġna vrÅ¡i
ni Å¡ta
Ġne po
Ġod vra
Ġbi smo
lje va
Ġra skopa
ar na
Ġru ga
Ġsva koj
Ġju dej
Ġime nom
Ġkaza Å¡e
gle d
Ġmoli tva
Ġisti ne
ĠbezboÅ¾ nik
Ġpraved nik
Ko l
Ġblud niÄįe
Ġproroku j
mno go
ĠneznaboÅ¡ ci
Ġsakri ve
Ġnapo lje
Ġiscije li
" S
C rno
g nuti
u st
je te
Ġi l
Ġi pak
Äĩ ar
Ġu lo
li va
Ġna vali
Ġsv ad
Ġpo noÄĩi
Ġka zuje
Ġza ku
ru Äį
no Äĩ
Ġsa me
Ġti ca
Ġvi le
Ġni gde
Å¡i nu
Ġra zi
Ġku li
bo gom
Å¾a k
Ġlju bu
Ġpi ju
ĠR o
Ġe le
Ġjuna Å¡tvo
ĠÄįi Äįa
Ġcare vu
gra du
Ġsre di
Ġbr do
Ġpok la
Ñĸ s
Ġvjer na
Ġsrp ske
Ġhajdu ci
Ġbor bi
Ġbor bu
Ġizda j
ĠPri li
Ġvezi re
Ġpoto k
Ġzas pi
Ġbuzd ovan
Ġtrgova c
ĠMatil da
Voj voda
U z
Z A
b ru
g lo
s lo
v ri
Ġu Å¾e
Ġb ojim
ga n
Ġza boga
nu lo
ĠGospod in
Ġva mi
Ġve le
Ġra k
Ġpu n
Ġtu ga
Ġdana k
Ġizi Äĩi
Ġisto rij
Ġgro Å¡a
ĠpoÅ¡te n
Lj U
.Pita o
ĠStoja n
Ġmlad osti
Ġotku da
Ġhote o
Ġhod Å¾a
opa ko
. G
Ġo mi
Ġda Å¾d
Ġg um
ĠA ga
ĠA svi
no Å¡ahu
Ġsi ti
ova Å¡e
Ġti nji
za ve
ĠE no
ĠSi sa
govo lj
Ġosta viÅ¡e
Ġdana Å¡njega
Ġob oje
Ġusta Å¡e
ĠF i
Ġvo lova
Ġzla tne
Ġvr h
Ġzbo ra
ĠIsa har
Ġkame njem
Ġpoma Å¾e
slu Å¾
njeg ovu
Ġosam deset
Ġposve Äĩe
ĠMardohe j
Ġnadje de
Ġvrsta ma
Ġugod ni
blagos lovi
Car stvo
Ġsker le
P RI
i zi
s pi
z vati
je dna
Ġz li
Ġz le
Ġsv o
va nja
Ġza bra
Ġdo Äĳoh
ro ma
sa na
Ġmi ru
Ġsu da
ĠM ojim
pa sti
Ġra sija
ĠO cu
ĠO pet
Ġpos tra
Ġdu hu
ĠJa gnje
ĠÄįu jte
Ġosta tak
ĠÄįini Å¡
Ġtr nje
Ġposla o
mje sto
pos la
Ġkri vo
Ġizi Å¡avÅ¡i
Ġkaza h
ĠNi ti
Bo Å¾i
Ġhva lu
Ġspase nije
ĠCar stvo
Ġpobije ni
ĠBla godat
ĠOsta tak
Ġumno Å¾i
.J ov
ĠÅ¡iri nu
- tri
B i
o ra
t ome
t nji
z om
Ġje li
ma ne
ĠA N
Ġza do
ĠJ ovo
nu m
Ġpa r
Ġiz van
Ġvi nom
Ġva ljda
Ġve re
Ġve nÄįa
ĠB io
ki nja
Ġpre te
Ġon Äĳe
Ġku le
Ġpri pa
Ġde lija
ĠÄįe lu
ĠMa noj
Ġoko lo
Ġgleda o
Ġmoga Å¡e
novi Äĩa
Ġvla ste
ĠÄĮam Äįo
Ġsm r
Ġstoti nu
Ġce ki
Ġkak ve
ĠdrÅ¾a ve
Ġhajdu ke
Ġnevo lje
Å¡ka l
Ġmom Äįe
ĠÄĲe mo
PO P
ĠÅ½i v
Ġdvoji ca
ĠKRALj EVIÄĨ
K raj
i sto
t j
Ġi Å¡li
Å¡ lo
Ġna zi
Ġna pre
Ġsv uda
Å¡e m
Ġod veÄĩ
sa k
ĠM aj
ĠM OJ
ĠN E
si ca
Ġve tar
Ġma r
Ġma Äĳa
ĠTa dija
Ġraz govo
Ġsre Äĩe
Ġmoj om
nj o
ĠÄįove ku
Ġpomo gao
ĠuÄįi ti
ĠpoÄįe o
ĠÅ¡u mu
Ġnika da
ĠMusta j
Ġina Äįe
Ġvse gda
ĠÅ¾d re
A ha
n cu
Ġp Å¡e
li ni
Ġsa bor
ĠJ oda
mo n
se le
se vo
mi sir
Ġkra je
ĠNjeg ovijeh
ĠnaÄįini o
ĠVa l
ĠVa lam
Ġpok ropi
ĠSe ru
Ġdrugi h
Ġneprijate lj
ĠSolomu na
Ġizba vlja
Ġkame nja
Ġmetnu o
ĠRe ve
pusti nji
njeg ove
Ġprve nac
Ġmaga rca
Ġpotom stvu
ĠJosa fa
sveÅ¡te nik
Ġobje si
Ġprokle t
ĠsluÅ¡ki nja
Ġdota kne
ĠMera rije
ĠGede on
ĠVir save
Ġ lon
6 1
P la
i de
l dej
Ġs lo
ti Å¡e
li ne
ko h
Å¾ nje
ka ma
Ġsa tr
Äĳe nja
Ġiz li
Ġiz obi
Ġmu dar
ke do
Ġgra ne
Ġzap rije
Ġosta je
Ġot pa
Ġnema ju
NOS T
vra ta
Da ni
Ġop omi
Ġprimi Å¡e
pri mi
Ġdove Å¡Äĩu
Ġhu m
zdra vi
laze Äĩi
Ġneznabo Å¾a
Pro ricanje
Ġpisa no
Ġpti ce
Ġbogat stvo
D RIJA
S vi
c h
h rani
p ije
Ġs mje
Ġu met
ri ne
ni la
ko Äįi
le ksa
ji cu
ĠG ospoÄĳa
ve ra
Ġmu Äįe
Ġvi kati
Ġnje na
Ġta kav
Ġpri hvati
Ġpri stane
po ra
Ġnarod ni
Ġpe Äĩ
Ġno Äĩa
ĠBog dan
Ġpra va
ĠR oga
Ġso be
ĠSof ri
Ġposta ne
Ġgr dno
ĠÅ¡e ta
Ġtur sku
Ġsiro ta
Ġus pe
Ġudari o
Ġkak vu
ndu Å¡i
Ġmej dana
ĠÅłar cu
Ġoz bi
ĠÄĨ e
zla Äĩe
ĠMak sima
Ġhle ba
Ġnap oji
Ġrak ije
ĠAN DRIJA
A jde
L V
Z OR
] odi
t vor
Î ½
je t
Ġs pra
Ġi duÄĩi
ti nu
Ġm rtav
Äį nom
od mah
ri t
na Äĳe
ma ti
Ġda la
ĠI Z
Ġpo tu
Ġpo Å¡ao
Ġka mo
te ljem
Ġza pi
Ġdo lje
Ġva la
Å¡i r
Ġpre o
Ġku m
Ġku pu
Ġima du
Å½ i
ĠÅ¾i vu
Ġc vet
Ġbu da
Ġpod ob
Ġsvi m
Ġosta de
Ġosta vio
ĠR A
Ġf ilo
Ġrodi la
Å¡ti na
Ġobi Äįaj
Ġzdra v
Ġsrp ska
Ġlisi cu
Ma lo
Ġgot ov
Ġpisa ti
ĠÄįelove Äįe
Ġfrancu ski
Ġmeg dan
ZOR JE
A ve
J ov
T voje
la ka
Ġne na
ĠJ OV
Ġmu Å¡ko
Å¾i vi
ĠB je
lu ja
ĠJe dna
lju di
Ġja re
mi Å¡lja
Ġli kove
Ġpri nesoÅ¡e
po tom
ĠV ara
ĠSa l
Ġprije vor
Ġiza gna
Ġos ramo
Ġposla Å¡e
ĠIsa ku
ĠSaul ova
Bo gu
Ġmjese c
Ġubi Å¡e
njeg ovijem
sv ojih
Ġveliki m
Ġnemoj te
Ġboj te
Ġpleme nu
ĠMisir ci
Ġpje sma
ĠnaÅ¡i h
ĠnaÅ¡i m
ĠFilisteji ma
Ġog nja
Ġstrije le
Ġheru vi
olta r
Jor dana
ĠJOV U
F il
M oje
m os
s vjedo
Ġo Å¾i
ti te
Ġu ga
Ġu gla
Ġu ho
Ġu ÄįaÅ¡e
la s
re me
na roda
Ġsa Å¾e
Ġdo ista
nu vÅ¡i
ve n
Ġiz bra
sta rjeÅ¡i
lu je
Ġja ram
ĠU Äįitelju
Ġgovori Å¡
Å¡te nje
Ġstra da
Ġst vore
Ġnad vla
Ġusta ti
Ġpok vari
Ġro blje
Ġljuba zni
ĠBoÅ¾ije mu
Ġsun cem
Ġsramo ta
Me ne
Ġstanov nike
ĠSva ki
ĠJakovlje v
Ġkori st
Ġprosla vi
Ġdov rat
Ġpl od
ĠduÅ¾i nu
Ġprom ije
n g
r te
t ni
v c
Äį nim
Ġg rom
Å¡e na
Ġne Äĳe
Ġne ku
Ġpo le
vi ne
Ġza poÄįe
Ġdo zove
ve Äĩe
Å¾e Å¡
Ġiz u
Ġiz re
Ġiz vi
mo Äĩ
ovo ljan
se Äįe
Ġni gda
Ġve k
Ġra ni
Ġra ki
Ġra vni
po te
ĠTa j
ĠÄįu ju
Ġpra se
Ġnaj vi
Ġpod vi
liko m
ĠKa tica
ĠMa lo
Ġtra ga
Ġnjegov om
Ġgleda juÄĩi
br oj
man dri
Ġsna ha
Ġvode nicu
Ġsest re
Ġprija telji
Ġlje p
Ġnevo lja
Ġhilja de
Ġpeva Äį
Ġpogle d
Ġkobi la
Ġkobi lu
ĠPro fit
Ġkape tan
us pru
ĠÅ¡iro ko
Ġtor bu
ĠMomÄįi lo
ĠduÄĩa nu
ĠÅ½e ni
-ÄĮeli k
Ġmara mu
ĠCrnoje viÄĩ
ĠUg lje
ÄĮam Äįa
ĠĠĠĠĠĠĠĠĠĠĠĠĠĠĠĠĠĠĠĠĠĠĠĠĠĠĠĠĠĠĠĠĠĠĠĠ ĠĠĠ
- ka
d nik
n tu
p si
Î ¹
Ġs Ã¢m
Ġp ova
Ġk im
Ġm lije
li t
Ġje la
Ġje le
Ġt ko
Ġt vore
Ġza ludu
Ġpa sa
mo r
ovi Äĩu
Ġko za
Ġni poÅ¡to
Å¡i m
Å¡i ce
Ġra Äįu
Moj a
ĠDa n
Å¾a ti
Ġpr ost
Ġpr vom
nije la
Ġzna Äįe
ĠH or
Ġtu Äĳe
Ġe fe
ĠmoÅ¾e te
Ġob li
Ġtra va
ĠNa s
Ġze ca
Ġmogu Äĩe
Ġzi me
nd Å¾i
Ġduka te
ĠGo ri
Sa mo
ĠSrbi ji
Ġnika kva
ĠÅ¡te ta
Ġzu bi
Ġviso ko
Ġlep Å¡e
Te Å¡ko
Ġotku d
Ġuzro k
ĠSmi lja
PO ZORJE
Ġnajma nje
Ġbarjak ta
Ca re
Ġfilo zo
U D
f ara
g osilja
h on
s ova
Ġo gla
Ġu hode
Ġna kon
ne prijate
ĠA si
le v
ĠJ osi
Ġko Å¾i
se dam
Ġmo l
Å¡a na
Äĩa nin
ĠJer ovoama
Ġgla d
ĠE f
Ġe dom
Ġot je
stu p
ĠMa ha
Ġsje me
ĠTvoje mu
dom u
vali te
Ġpogi ne
ĠHe l
slu ge
svoj oj
Ġzemalj skih
Ġpotom stvo
ĠNemoj te
Ju di
ĠElea za
Ġdoli ni
Ġpogrebe n
K oji
S MA
h or
p om
z nu
Ġu niÅ¡ti
Ġna pu
ja m
ĠI zi
lo po
Ġre v
Ġmi Å¡lja
Ġko rije
ĠM je
ĠM oji
Ġva vijek
Ġte ve
sta va
ĠP R
ĠO Äįe
zi v
ĠDa ma
Ġsta da
âĢĻ ,Ċ
Ġnego li
18 9
Ġgo ni
ĠR ijeÄį
Ġla Äĳe
Ġla Äĳa
Ġgleda hu
Ġposla nica
Ġpozna ju
kva ma
Ġduh ov
ĠtraÅ¾i te
Ġhva la
Ġvavilon skoga
Ġtrije mu
Ġpraz nik
uÄįe nici
Ġkla nja
Ġpristupi vÅ¡i
Ġsavje t
ĠLju di
ĠJOVAN U
sk ijeh
BoÅ¾ ije
" B
b oji
Å¡ ni
Ġk met
Ġu de
Ġu hva
la ca
li la
li zma
ja la
Ġda ra
da nu
Ġpo nese
ĠA nÄĳe
ĠA leksa
Ġka zivati
de re
Ġdo pusti
Ġod oÅ¡e
Ġpa trijar
Ġko plja
Ġme ri
Ġra v
Ġra menu
ĠO h
zi o
Ġh er
Äįa ju
ĠU ro
Ġba bi
Ġsva ne
ĠBog dane
pu Å¡ta
Ġju tru
ĠÅ¾e rt
18 5
Ġle gi
Å¡ta m
ĠÄĩu ti
Ġla kÅ¡e
Ġjuna Å¡t
ĠMi la
ĠSo ko
Ġcare viÄĩ
ĠMa nduÅ¡i
Ġgr la
Ġum ije
ĠÄĮam Äįi
ĠÅ¾a los
ĠuÄįi telju
Ġigra ju
Äįki m
Ġnov ÄįiÄĩ
Ġobra duje
ĠAra p
Ġhajdu ka
Ġobla ke
ĠvaÅ¡ ar
Ġpoe zije
ĠoÅ¾e niti
Ġjabu ke
__ __
og oviÄĩ
Ġvoje voda
ĠÄĩ oso
ĠBran koviÄĩa
Ġcrno gor
Ġneve se
ĠÅ½a blja
ĠnoÄĩa s
Ġ ..
L X
O ni
O pet
V U
s ja
Î ±
Ġp Äįe
Ġp si
Ġk va
ti nj
Ġu ma
Ġje si
Ġb ur
ĠG re
Ġpa zar
ĠS lu
Ġsu je
Ġva tri
Ġte r
Ġme da
Ġve Å¾e
lu ka
ĠD RA
ĠP omo
ĠO vde
Ġbo li
po l
Äįa sti
Ġde la
Ġde cu
Ġde rvi
ĠZ la
Ġima nje
Å½ A
Ġdu Å¾an
gi ja
Ġc vije
Ġraz govarati
ĠÅ¡ta m
Ġvidi mo
Ġf ami
Ġmoje m
gra bi
vlja ti
Ne k
niÄį ar
ĠnaÅ¡e m
ĠÅ¡e nicu
Ġzbo gom
ĠVi dite
nd Å¾ija
Ġvu ku
ĠTu re
Ġkom Å¡i
Ġzai Å¡te
ĠknjiÅ¾ev nosti
Ġkoko Å¡
ĠobiÄįa ju
Ġposled nji
ĠÄĲor Äĳe
Ġmlo go
- Se
A ma
A vi
S U
k lu
l ovima
r ov
Ġs prave
ra ta
ov om
Ġu bo
Ġu biti
re ze
Ġna pr
Ġg ri
ĠI lije
ĠA mno
ji nu
de sno
ro t
lo ma
Ġiz govori
ĠS UD
Ġmi rom
rije va
Ġko Å¾a
nje zi
si j
ĠJe zave
Ġma sli
lja ni
Ġnjih ovoj
Je f
Ġveli koj
IJA MA
ĠÄįu vaju
Ġju Å¾
ĠSi m
ĠMe su
ĠKa t
Ġbio Äįu
Ġdr Å¾ite
Ġbr oju
Ġrodi Å¡e
osta vi
Ġmoga hu
Ġpusti nje
Ġdra govolj
Ġsud ije
Ġmoli tvu
iz meÄĳu
Ġizba vio
Ġknez ove
Ġblagos lov
ĠÅ¡ato ru
Sa mu
Ġpjeva Äįi
ĠZem lja
Ġobla ka
Ġmaga r
sin ovima
Ġtvr do
Avra m
Knji ga
Jerusali mu
ĠSUD IJAMA
6 9
O T
o noga
ti ma
na Å¡e
ko me
Ġz vati
da j
da vÅ¡i
Å¡e nje
va jte
Ġsi li
Ġsa grijeÅ¡i
Ġod o
Ġod vrati
ĠS O
ĠS tra
rije Äįi
ĠM ojih
Ġgovori h
vje r
ĠMoj oj
Ġis pi
Ġis puni
ĠNjeg ovoj
ĠNa zare
Ġsje Äĳahu
Ġha ldej
gnje v
Ġnjezi ni
Ġgnje vu
Su bo
Ġnebe ske
Ġgro ba
Ġdove doÅ¡e
ĠneÄįi sti
Ġvjer ni
vanÄĳe lje
Ġuhvati Å¡e
Ġgad ove
ĠJevanÄĳe lja
Ġstanov nici
ĠPro ro
Ġuza lud
Ġjerusalim ske
ĠZako n
ĠÅ¡Äĩa Å¡e
" Ja
- pa
D AR
a uspru
d osa
h om
r ge
s vu
Ġo kru
ta d
Ġu po
ni com
Ġse de
Ġka rak
Ġza dr
di voje
Ġpa la
pa la
Ġni gÄĳe
Ġpre Äĳe
Ġpre ki
Ġra de
Ġma Äįka
ĠP r
ĠP rije
Ġbo la
Ġtv ome
Ġpu sta
Ġru me
ĠZ ogoviÄĩ
Ġpe ndÅ¾e
ĠJa kÅ¡i
Ġdob ije
Ġuz jaÅ¡e
Ġpla ÄįuÄĩi
Ġla tin
Ġjuna ku
ĠKa ra
Po bratime
tr os
Ġum r
kra j
ĠpoÄįe tku
ĠtraÅ¾i m
ĠSt je
Ġdrug oj
ĠMili ca
Ġmom ci
Ġsvu d
ĠÅ¾ive ti
Ġneki m
Ġumre ti
ĠRad u
ĠLaza re
ĠArapi ne
ĠBu ga
ĠdÅ¾a num
ĠMAR KO
S TVO
] i
] talija
n dija
u n
Ġs matra
Å¡ Äįe
la k
Ġne stane
vi cu
Ġza o
ĠG di
Ġbi ser
pa c
pa n
Ġni smo
Ġto ke
Ġma gi
ĠO Äĩi
Ġpe lin
Je dan
nije ti
Ġpi li
Ġpi ja
Ġnaj bo
Ġoni m
kle n
Ġpla titi
Ġdi van
on do
Ġgleda m
Ġkri v
ĠPe tra
ĠDu na
Ġzako lje
Ġsvako g
Ġgospodi na
Ġsed lo
Ġcve Äĩe
Ġin gle
ĠHaj ku
ĠZna Å¡
Ġljub ovi
Ġzai sto
Ġnajsta riji
ĠHercegovi ni
k lon
Ġo ho
Ġk ost
re ja
Ġje o
Ġna re
Ġna lije
Ġz gotovi
ĠI SU
pod i
mo ra
ĠK ar
se ca
ĠN AVI
Ġra dite
ĠO zi
pi Å¡e
Ġpri povjedi
do bro
ĠV rati
ĠSa lu
ĠE s
ĠE ma
ĠSi on
ĠSi ona
Ġle vit
Ġvra Äįa
Ġpla kaÅ¡e
ĠJu du
ĠMi he
ĠÄįini Å¡e
Ġov nova
ĠVe n
*Je st
ĠNa Äįini
Ġodgovori Å¡e
ĠÄįa Å¡a
Ġide mo
ĠJudi ni
Ġpodi ga
Davi da
Ġpreda de
Ġzemlja ma
Ġobla k
Ġmom ku
Ġtvr d
ĠSime j
cije lo
Äįovje ka
Le viti
ĠSir ci
ĠHoÄĩe Å¡
ĠZavu lon
Ġplo Äįe
hlje b
ĠSam son
Å¾ivo t
ĠISU SA
ĠNAVI NA
. U
6 5
S la
k ovima
l ovati
Ġs lomi
ri Äĩe
Ġv rije
Ġv rt
Ġna su
Ġda jem
da jte
vi no
Ġpa doÅ¡e
ĠÄĩe sa
Å¡i h
Ġmo ljaÅ¡e
Ġto Äį
Ġsta jati
Ġpe Äįa
ĠE fe
ĠÅ¾e sto
pra vlja
Ġposla ti
ĠSe bi
Ġro g
Ġlu pe
tre ba
Ġprimi o
Ġtru d
grije ha
Ġvije nac
Ġzvije r
proro ka
Ġtam nicu
Ġpristupi Å¡e
Äįovje k
Ġtjele sa
Ġpokaja nje
Ġostr va
Ġpom rije
K ARA
V ladika
e st
f er
g ru
g ospod
n ose
r vat
s nik
t nja
v ome
Ġs lika
Ġp lju
Ġo gra
ta ju
Ġv ri
Ġda li
Ġpo me
Ġpo ku
Ġpo zlaÄĩe
Ġka vu
Ġka tkad
Ġza ga
ru Äĩi
Ġsa ve
Ġod lazi
Ġod rÅ¾a
di t
Ġpa Å¡e
Ġiz nese
ĠK od
Ġte tka
ĠB oja
Ġja da
Ġsve mogu
mi la
ba Å¡
Å¾a li
Ġba dava
ĠÄĳe cu
Ġju ri
ĠH ome
Ġsvi h
Ġnas me
ĠJu ca
Ġoti Å¡ao
ĠSo lu
ĠPo lj
Ġmla Äĳi
Ġos vanu
ĠKra vc
ĠÅ¡e Äĩe
ĠÅ¡e sto
ĠKos ov
ĠKos ova
ĠSr bije
JE T
ĠGr lice
Ġzele ne
ĠDo Äĳe
ĠÅ¡u mi
?... âĢľĊ
ĠstraÅ¡ na
Ġnjegovi h
Ġokre nu
ĠoruÅ¾ ja
Ġukra de
Ġpripove di
ĠÄįak Å¡i
ĠdÅ¾e nera
ĠÄįar da
ĠtuÅ¾ no
Ġpote Å¾e
Ġnede lje
Ġbede vi
Ġpogu biti
ĠDra Å¡ko
Ġdruk Äįije
ĠStrahini Äĩu
ĠÄĲura Äĳ
ĠRoga n
Ġ Ï
Ġ Äĳu
N aj
d Å¾e
g ode
re Å¡
Ġna pred
Ġz lu
Ġpo kr
te ri
Ġza gone
Ġa na
di ji
Äįi Äĩe
Äįi cu
Ġpa pu
Ġmi Å¡a
Ġsu pru
lu m
ĠJe sam
ĠBo Å¡
ĠD E
ĠD ob
Ġsve tom
Ġta kovi
mi ti
sti ti
Ġku ma
Ġku ku
Ġpri lika
Ġsta ru
Ġba rem
ĠÅ¾i viti
ĠÄįu jem
ha t
ĠdoÄĳe mo
ĠMi r
Ġdi ja
Ġsre Äĩan
Ġbla god
Ġzla tnu
Ġbr du
ĠuÄįe ni
Ġop Å¡te
pri Äįa
Ġprav osla
Ġnau ke
ĠÄįita o
Ġblago rod
Ġpros o
Ġnov ca
?âĢĿ Ċ
ĠpoÅ¡te no
Ġar hije
Ġnova c
Ġkupi ti
ĠRu Å¾i
ĠdomaÄĩi n
Å¾de nije
ĠStoja ne
Ġljube z
Ġvezir oviÄĩ
Ġgos poja
Ġdobrode telj
ĠKla du
A hi
A ron
K i
b rijeh
i lova
Ġi skopa
re kao
na ca
ĠI du
va d
ĠJ odaj
Å¾e ni
st oj
Ġvi ku
Ġja rca
Ġnji vu
Ġta ma
mi ma
ĠO vid
za Å¡e
do n
Äĩa k
ĠÅ¾i ta
Ġno Å¡ahu
sto tina
Ġuz dam
ĠDavid ove
Ġe da
Ġstra Å¾ar
ĠL ot
ĠKa di
Ġbog ovi
ĠNa vu
Ġzavje ta
ĠJudi ne
ĠSve ti
Ġolta re
ĠJoa vu
ĠJoa ha
Ġblagos loven
ĠRe ci
Izrailje vijeh
ĠTvoj oj
ĠFiliste je
Ġho ÄĳaÅ¡e
Ġopra vi
Ġbole st
Ġpolovi ne
Ġopr os
Ġprinosi te
Ġsir ski
zla ta
ĠJudej ci
Ġople Äĩak
Ġprave dan
ĠBlagos loven
* Gal
M no
N ÄĨ
O VO
k nez
o ne
v Ã´
ra di
ra hu
Ġz bude
ĠG odo
Ġsi lan
mo Å¾e
ovo ga
Ġva si
go ga
Ġta n
Ġjed ni
âĢĻ Ċ
voj skama
Ġvje ran
ĠÄįu vati
Ġgra be
Äĳa vo
vje ru
Ġtu Å¾i
RI NÄĨ
Ġla Äĳu
Ġstra Å¾a
Ġsla b
Ġsamo ga
.S ol
ĠMa kedo
ĠPo gleda
Ġdr h
Ġos la
Ja k
Ġgrije Å¡i
ĠuÄįe nike
Ġniko me
Ġnosi ti
Ġprimi ti
Ġmoli te
KO RINÄĨ
Ġkame nu
Ġnebe sima
Ġpoma ga
ĠÅ¾ivi te
Ġmrt vi
Ġpogi nu
Ġpogleda vÅ¡i
Ġrazu ma
Ġizda leka
ĠÄįovjeÄį ije
Ġnasi lje
Ġproroku ju
Ġprijesto lu
ĠsaÄįu va
Ġutje Å¡i
Ġvika hu
ĠPozdra vite
ĠVavilo na
Ġzape ÄįaÄĩe
Ġzat vore
KORINÄĨ ANIMA
" ÄĮu
D RUGO
I guman
P RO
X I
Z ar
b le
d ba
l na
l ca
n ske
s nije
Å¡ kom
Ġda Å¡
Ġpo ru
Ġpo lo
ga ni
Ġka rta
to ra
Ġza moli
ĠG oj
Äįi ce
Ġpa rÄįe
Ġiz nad
ĠS me
ĠÅ¡ ljahte
ĠK ruÅ¡e
Ġko no
ĠM la
Ġra stu
Ġma Äĳar
Ġpri povije
tu ju
do kle
... âĢľĊ
Ġno Å¾e
Ġzna dem
ĠSi ro
Ġle pi
Ġtu ma
Ġosta le
Ġovo g
Äįu je
ĠPo r
Ġvre Äĩu
Ne ma
Ġbije lo
Ġbr oja
ĠPa u
tr Äįi
Ġsti Å¾e
uda ri
ĠLa zo
ĠLa tin
PR VO
Ġgu ja
Ġtreba lo
OV A
Ġgospo Äĳ
Ġkru p
ĠGo ru
Ġbli Å¾e
Ġdopa de
ĠGru jica
ĠCrnogor ce
ĠdruÅ¡t va
ĠdruÅ¡t vu
Ġpona vlja
Ġdone o
Ġdoda de
Ġzmi ju
Ġrazgovara ju
dÅ¾ ije
Milo Å¡
mandri t
D RA
P i
S TI
U R
b no
s pre
z vo
Ġu vod
Ġna ki
Ġna uka
Ġna opako
ma na
Ġt ka
Ġda ju
Ġpo hva
le m
Ġka pa
de r
di ju
st ri
Ġko pa
bi lo
Å¡i Äĩ
Ġpre di
Ġpre po
Ġra ste
Ġh riÅ¡
Ġbo go
Å¡a ka
Å¡a va
Ġnarod ne
Ġnarod nosti
Ġpos tu
Ġpro leÄĩe
pe r
Ġbe Å¾i
Ġgla dan
ĠE j
Ġkoje ka
Ġnaj poslije
ĠJu co
Ġcr n
ĠL u
ĠL ondo
Ġso lda
ĠMa ri
Po tom
Ġradi o
ĠNi sam
Ġnau ku
Ġce r
ĠMo Å¾e
Ġkraj cara
Ġmanasti ra
Ġprevari o
ĠÄĲur Äĳe
ĠCiga nin
Ġnepozna ta
Ġnoble s
ĠLjU BI
Ġbur mu
o ru
s vijeh
ti ce
ri va
Ġt ve
ĠI za
ĠA se
ji ni
ji nih
to fe
Ġsa gra
nu j
ĠT ri
Ġti nje
Ġko Å¾e
su r
Ġh ode
Ġli k
du Å¡a
lji ma
Ġpe pe
Je zd
ĠH o
Ġkoje m
Ġpod aj
ĠÄįovje Äįi
ĠR ovoam
Ġpla ka
Ġis je
Ġob loÅ¾i
Ġob ojica
ĠNa va
ĠNa tana
nae ste
ĠIsa ka
sve ga
ĠAvi mele
Ġvino grad
Ġras r
Ġstu ba
Izrailje m
Ġhra ne
ĠAmo n
ĠGo to
ĠManasi ja
Ġsvr h
Ġizabra o
Ġotkri ve
ovoa mu
Ġopome nu
Ġasir ski
Ġople Äĩ
ĠVena ja
ĠGir son
Ġomi lje
Ġnazi rej
ĠBje Å¡e
* Fil
s po
s vje
s Ã´
Ġo boga
Ġu Å¡avÅ¡i
ni Äĩe
Ġz va
Ġz vaÅ¡e
Ġda lj
ĠI s
Äįe ni
di no
Ġmu d
Ġmi o
Ġpre zi
Ġpro zo
Ġru g
Ġnije ste
Gospod nja
Ġgra na
Ġraz o
ĠuÄįini m
Ġrije ka
ĠOn ome
Ġuze Äĩe
Ġtr pi
Ġob liÄį
Ġpodi goh
ĠbiÄĩe Å¡
ĠsluÅ¡a hu
Ġprav di
ĠAvra a
fa rise
Ġgro bu
ĠlaÅ¾ no
SVETO GA
Ġzemalj ske
ĠnaÅ¡ ijem
ĠPi smo
Ġslob odu
Ġpogla vara
ĠJevreji ma
ĠFili p
ĠAPOSTO LA
Ġpohodi ti
Ġprelju bu
ĠVidje lo
ĠÅ¾ivoti nje
ĠDva naesto
Ġdostoja n
Ġ .Ċ
" Je
D AN
I l
J O
M ET
S E
S ER
r Å¾e
s nom
Ġi kad
Ġk nja
ti ni
Äį koj
Ġu d
Ġu ti
re no
na h
na da
Ġna redi
Ġna novo
Ġda nju
Ġda vno
Ġne g
Ġne u
ne moj
Ġpo Å¡a
vi Äĩa
ru je
Ġsa nak
ĠK on
Ġti ce
Ġko Å¡ta
ĠM I
Ġvi knu
Ġnje n
Ġto g
Ġga vra
Ġga liju
ĠD ru
mu dri
za m
Å¡a la
Äįa ru
Ġdru m
Ġslu go
ĠÄįu ti
Ġgra nice
Ġoni h
Ġoti du
Ġvrati o
ĠÅłami ke
pro tiv
Ġpita m
ĠnaÅ¡e g
ĠÄĮam Äįu
Ġnosi m
ĠÄĳa k
ĠKraljevi Äĩ
OV IÄĨ
Ġgospo Äĳi
Ġudari ti
ĠSu tradan
Ġzele noj
Ġoba dvije
Ġkre ne
Gospoda ru
ĠNova koviÄĩ
ĠGru jo
Ġfi Å¡kal
Ġsil na
ĠdÅ¾e pove
Ġnajmla Äĳe
ĠStambo la
ĠBr Äĳa
Ġizgu bio
Ġpoezi ja
ĠCare v
ĠDoj Äįine
Ġozbi lj
Ġuhva te
ĠKravc ov
Ġ Äĳi
. :
I VO
J STVO
O B
Z I
n gle
Ġs rije
Ġd ovoljno
ra zan
Ġk osa
li Å¡ta
re na
Ġz rno
Ġda vati
Ġpo pu
Ġka la
Ġza te
Ġza po
Ġa Å¡
Ġdo tle
di ne
Ġpa o
ve Äįe
Ġre kla
Ġre Å¡ko
st oja
Ġko li
Ġva n
si o
Ġmo ti
zi vao
Ġh tio
Ġde lo
Ġde tinj
Å¾a j
Ġpe ro
Ġslu Äįaj
Ġdu g
ĠH oÄĩu
17 8
Ġnaj lep
ĠdoÄĳe Å¡
Ġsla v
Ġbude m
Ġtr bu
dra v
ĠPa ri
Ġdrugi ma
br oje
Ġzako pa
Ġpet naest
Ġkaza la
Ġnosi o
Ġradi Å¡
ĠsluÅ¡a ti
Ġgu bi
ANI N
nski m
ĠMo ra
Ġkre nu
Ġtak ovo
Pe tar
Ġuhvati ti
ĠboÅ¾ ji
ĠStoja na
Ġdolazi o
jed nom
Ġote Äįe
Ġnajve Äĩe
stv ova
Ġhle b
Ġpol zu
ĠSenja nin
Ġhad Å¾i
Ġproto ko
Ġdrugoja Äįe
ĠÅ¾dre be
A sa
P jesma
j oj
j skoj
s nijeh
s naest
Ġp sal
na Äįini
Ġna vede
Ġna desno
ĠI tama
vi n
Ġsi klu
Ġsa li
Äįi st
ve Äĩi
Ġmu ku
Ġko lima
Ġma dija
Ġnji ve
po gi
Ġcar skom
Ġtv rti
ĠZ i
ĠIzrailje vo
Ġuz visi
Å¾rt va
Ġot vara
Ġtisu Äĩ
Ġrod u
Ġnjezi nijem
Ġhalji na
Ġknez ova
Davi du
ĠAvra ma
Izrailje va
ĠSamu ilu
ĠNije sam
Ġreci te
Ġtrije ma
dru gi
Ġpti ca
raz nik
Ġotku p
Ġhanan sku
ĠKi rijat
Ġstub ova
Ġper sij
Ġrop stva
krije pi
ple mena
tisu Äĩa
ĠoÄįiÅ¡Äĩe nje
ĠpodnoÅ¾ je
ĠSpa si
oti de
ĠHi ram
Ġnalije vo
N ad
T reba
Z ato
o nima
p je
s nike
z bog
Ġna Äĳoh
Ġt li
Äįe mu
Ġod ba
Ġod bra
Ġpa zi
Äĳe nju
sa h
st oji
Ġsu sje
ĠM no
se bi
nje ni
go ri
ki ma
Ġja ki
Ġpro Äįita
Ġpro Å¾di
Äįa hu
ĠV arna
LO MU
âĢĻ ko
Ġpi Äĩe
Ġgra de
Ġgra di
Ġkra jeva
Ġpla ta
Ġposta Å¡e
Ja vor
ĠVa ru
Ġmoli t
Ġisto Äįne
prav de
Ġnebe sko
Ġus ne
Ġobra dova
ĠMo a
Hri stu
Ġdije l
Ġpasti ra
Ġpasti ri
Ġhodi te
ĠZem lje
stra ne
Lj ANIMA
ĠposluÅ¡a Å¡e
Ġbezum lje
Ġzbor nicama
Ġpodignu Äĩe
Ġobrati Äĩu
Ġprijesto la
ĠÄĮu jte
ĠPra ved
ĠobeÄĩa nje
Ġdozva vÅ¡i
Ġopu sto
NO VE
Ġkro za
Ġnapo lju
Ġpremu drost
Ġneprav de
Ġrazdije li
ovjed nik
ĠMAR KU
PRI ÄĮE
Pla Äį
ĠPR VA
ĠSO LOMU
ĠSOLOMU NOVE
Z lo
s mi
Ġi sko
Ġd ovati
Å¡ om
ra p
Ġk ova
Ġm leta
Äį noga
ta mo
Ġu vre
Ġu vede
li nu
Ġpo nu
Ġpo ha
Ġpo nesi
Ġpo zove
ju na
Ġza da
Ġza ve
Ġza klju
ca ju
oji cu
Ġsa t
Ġdo Å¡a
Ġdo ziva
me ta
ĠS A
Ġre ka
ovo g
Ġve za
ĠB O
ĠB eli
Å¡i la
Ġpre dan
Ġra ta
Ġma lu
ĠP red
ĠÅ¡to goÄĳ
ĠO bili
zi vlje
be govi
Ġli stom
Ġpos matra
tu a
Ġpro zor
Ġpu rge
Ġbe li
Ġslu Å¡ao
Ġsva te
Ġbra ni
Ġvje Äįno
ĠÅł e
ĠÄįe kati
ĠÄĳe ce
ĠÅ¾e niti
Ġraz vi
Ġpla men
Ġe po
osi o
VO DA
ĠÄĮ o
Ġsad rÅ¾i
Ġob r
Ġtra ve
Ġtre Äĩu
Ġos lo
ĠÄĳevoj kom
kr va
Ġpok lon
Ñĸ e
odu Å¡e
ĠveÄįe re
ĠveÄįe rati
Ġsna ga
ĠGr ÄįiÄĩu
Ġpogleda ti
Ta da
Ìĵ je
Ġslob ode
ĠstraÅ¡ no
ĠNova k
Ġfeuda lizma
ĠStoj na
Ġpolovi nu
Ġzapove di
Ġsutra dan
ĠStambo lu
Ġbuzd ova
Ġokova nu
Ġav liju
ĠVukaÅ¡i n
Ġser da
ĠVoji noviÄĩ
ĠÄįad or
ĠMeÄĳed oviÄĩ
ĠÅ½iv ko
KARA MAN
SER DAR
' m
b ode
j na
t ovati
Ġs love
Ġs pisa
Ġi stu
Äį je
Ġu Å¾i
od govori
Ġb osa
ĠI II
Ġne broje
ka zuje
Äĳe ne
st ru
ĠK ri
Ġko ke
Ġko nac
Ġvi Å¡
Ġvi kne
Ġte la
sta no
ĠB ra
Ġpre ve
ĠreÄįe m
Ġsve te
ĠP la
Å¡a m
lji va
odi ti
Äįa ja
Ġpu ne
Ġpu nu
Ġde Äįko
Ġba ka
ĠE v
Å¡te ni
ge n
ĠneÄĩe mo
ĠÄįi zme
aj o
ĠÄĮ a
Ġsre te
gleda ti
Ġnema Å¡
ĠMa le
ara c
Ġos lob
Ġ| Ċ
osta n
Ġlu da
Ġmora ju
Ġpita nje
ĠVi de
Ġrod om
Ġpame tno
Ġras po
ĠRe kao
Ġname ra
Ġobra za
Ġobra zu
Ġnesre Äĩa
ĠSrbi ju
Ġmom ka
ĠboÅ¾ ja
Ġpje vo
jutra dan
Ġselja k
ĠLju b
Sta rac
ĠaÅ¾da ja
Ġefe ndija
Ġkva rti
Å½A JÅłI
* Gospod
6 2
6 4
p omo
Ġu vijek
ne su
Ġpo hi
Ġsa vi
Å¾e nu
Ġre za
se m
Ġmo goÅ¡e
Ġja raca
za to
Ġpri noÅ¡aÅ¡e
Ġzem ljom
Ġsta ja
Ġno Å¡aÅ¡e
Ġmje stima
Ġuz mu
ĠÄĮ uj
Ġbla gom
Ġime nima
Ġtr om
ĠNa tan
ĠNa vat
oda n
Ġgleda j
ĠSve ga
Ġlu k
Ġpodi gao
ĠRa mot
prije sto
ĠneÄįi sta
ĠSu nce
Ġhra nu
ĠbezboÅ¾ nici
njih ovijem
ĠAmo novi
ĠÅ¡ato rima
Ġnevo lj
ona j
ĠAha z
Mi si
Mi sir
Ġpotom stva
Ġzapa d
Ġkonji ka
Ġdes nica
ĠoÄįisti ti
-A dad
sveÅ¡te nici
Ġpolovi na
Ġheru vima
ĠEl ka
Ġutro be
ĠOho zi
ĠPas hu
Ġnase liÅ¡e
Ġposu Äĳe
ĠVitle je
ĠZaha rija
Ġsiti ma
-Se me
6 8
7 9
d ove
d oste
k Ã´
k ijeh
u man
z le
Ġo mr
ri Äįe
Ġb rije
os tra
va vilon
Ġza hva
Ġsa ti
ĠS luÅ¡ajte
st vima
Ġmi mo
ci te
ĠD ANI
mi ju
Ġpos lje
Ġpos vjedo
Ġdu Å¾
Ġmje ra
ĠÄįu ste
ĠÅ¾e lje
Ġbez uman
pra vite
Ġdi m
ĠIsus om
ĠTi mo
Å¾u je
Ġgrije si
ĠDu hu
Ġut vara
ĠHrist ov
Ġnau ci
Ġtaj no
prav du
Ġri be
ĠÅ¾ena ma
vlje n
Ġdove sti
ĠÅ¾ivi mo
Ġhra na
Ġjezi kom
ĠÄĮovje k
ĠÄĮovje Äįijega
Ġobrati ti
uÄįe nicima
Ġrazd rije
Ġglavari ma
Ġslije p
Ġsjeve ra
Ġnasu prot
. ,
A h
H MET
P omo
j no
p lju
t oj
Ġu na
Ġu ja
Ġu pr
la go
li li
Ġna Äĳu
Å¾ ne
ka j
ne t
de n
Ġsa ta
Ġdo nde
Å¾e n
Ġti cu
ĠM leta
Ġve ze
ĠB at
ci ona
Ġmo le
ki nje
Ġpre baci
Ġra na
Ġja de
Ġsve do
ĠP RI
Ġli st
Ġpos i
tu juÄĩi
Ġpu no
Ġde sno
Ġbe lo
Ġbe hu
Ġpe vaju
Ġba na
Ġgovori la
Ġpi sma
ĠÄĳe te
ĠÄĳe vera
Ġvra nca
ĠÄĩu prije
Ġbu re
Ġuz bu
Ġgospod u
Ġla Å¾a
Ġjuna Äįe
Ġjuna Äįka
Ġsla bo
aj ko
Ġf r
Ġkr st
ĠÄĮ ovek
Ġis pa
ĠVe li
Ġvrati m
Ġmla Äĳa
Ġos je
ĠKo Å¡i
Ġbr oji
Ġha ta
Ġpita Å¡e
niÄį ke
ĠÅ¡e g
Ġzbo ri
gle rbe
ĠnaÄĳe Å¡
Ġpop ije
ĠGo re
Ġbor ba
Ġlje ka
Ko liko
Ġhte la
Ġkupi o
Ġbole sna
Ġbole stan
Ġski de
ĠkoÅ¡u lju
Ġvladi ka
Ġep ske
ĠStambo l
Ġvite z
Ġvite za
ksa ndu
Ġdola mu
ĠÅ¡ko le
ĠNaj posle
ĠVla h
Ġmeha nu
ĠÄĲur Äĳu
Ġkal pak
ĠVukaÅ¡i ne
Ġher oj
Ġpredan j
O h
O vo
V u
i ska
k nuti
s man
Ġp sa
Ġd ro
Å¡ ne
Ġk lin
ti ju
Äį va
Ġu je
od re
ma r
ja ha
Ġse na
Ġne me
ka n
vi Å¡
Ġza kli
Ġpa m
Ġpa lo
Å¾e stvo
Ġiz me
Ġre Å¡e
ĠK ovi
Ġsu bo
Ġti kve
Ġko na
Ġko nak
bi ca
Ġni ste
go ra
ĠB re
Ġpre stane
Ġra sti
Ġto liki
ĠJe ste
Ġku Äĩom
Ġpro kli
Ġpu ste
ĠZ u
Ġba ja
Ġpr si
Ġpr vu
Ġsva ti
ĠÅ¾e no
18 3
osi m
Ġsla tka
Ġsla tko
ĠL aj
ĠKa kva
ĠGa vri
NI K
SK O
Ġso f
Ġov ca
ĠÄįa sa
ĠnaÄįini ti
ĠVa si
Ġlu ka
ĠÅ¡e Å¡ir
Ġsti ha
Ġmoli tve
Su nce
Ġgro Å¾
Ġdove ka
Å¾da vati
Ġtom u
Ġljubi mi
Ġnevo lju
ĠHa san
Ġpot ro
Ġpot vr
Ġmaga rac
Ġmese ci
Ġver ovati
ĠZna te
ĠMadÅ¾a ra
Ġuzro ka
ĠKota re
stv ovati
Ġogleda lo
Ġsove r
Lju bi
ĠSre mu
Ġigu man
Ġnamere nije
Ġzadu Å¾
Ġzadu go
ĠAnÄįi ce
ĠDalma ciji
ĠÄįetr deset
kula cija
7 8
F e
R i
o nom
t ov
Ġo si
ra mu
Ġu ÄĳoÅ¡e
Ġna seli
Ġpo mije
le t
Ġza va
lo na
Ġbi Å¡e
Ġiz je
ĠS je
mo na
Ġti lj
Ġko lje
Ġga lad
Ġpri nije
Ġpri nesi
do lini
ze ra
Je ze
ĠSa la
ĠSa fa
ĠTa m
ĠE dom
Ġmje re
ĠÅł est
ĠÄįe ga
ĠuÄįini li
Ġgo loti
Ġpod ije
vr lo
vr dnu
ĠDavid om
ĠDavid ovu
Ġcare vijem
ĠMa l
*Je zd
Ġvrati te
Ġsje n
Ġos vet
kr v
Ġzako nom
ljed stvo
Ġnau mio
Ġisto ka
vede noga
ĠkÄĩeri ma
Ġudari Å¡e
ĠFiliste ja
ĠVenijami na
ĠVenijami novijeh
Ġdije la
ĠsluÅ¾i te
ĠCr ve
Ġmr ze
grad ove
Ma nasi
ĠGala da
Ġhljeb ove
Ġsazida ti
Ġvisi nama
Ġpraz nova
Jo nata
ĠPro klet
Ġviso k
ĠmeÄĳa ma
Ġuzmi te
Ġosve Å¡ta
Ġdjevoj ku
Ġboja ti
Ġodve doÅ¡e
ĠÅ¾ivoti nja
ĠVo z
Ġdostoja nje
Ġpoda jte
Filiste ji
Ġino Äįa
Ġmol bu
Jef rem
Samu ilo
Ġ =
K RI
K Ã¢
d ljiv
g Ã´
k vom
k roz
s ramo
Ġs kri
Ġo pro
Ġu gled
Ġna Äįi
Ġt vo
ĠI sti
Ġne d
Ġne praved
Ġpo ziva
va te
Ġza sta
Ġod nije
di h
Ġiz vor
Ġkoji jeh
ĠT ra
pa r
Ġte vi
Ġmo leÄĩi
lju bav
Ġsve za
Ġta c
za zle
Ġpro povije
lji vi
Je vre
Ġveli m
Ġraz va
lj o
ĠR im
Ġpla Äį
Ġla Å¾i
Ġoti ma
Ġsla vom
Ġvoj nici
govori Å¡e
Ġsr cima
*M al
Ġsje dje
ĠGospoda ru
mje va
gla var
Ġpozna Å¡e
lta sa
ĠBoÅ¾i ji
ĠuÄįe nik
ĠIsa ija
Ġmil os
ĠÅ¾a li
VE NjE
Ġtaj ne
ĠpoÄįe Å¡e
Ġmnogi h
ĠÄįine Äĩi
Â» Javor
Ġpokaza ti
Ġkonji ma
Ġopra Å¡ta
Ġsvr Å¡e
ĠkuÄĩa ma
ĠZna m
ĠobeÄĩa nja
cr kvu
ĠpiÅ¡e m
Ġnesta ti
tije lo
Ġnapi Å¡i
Ġmre Å¾u
Ġtrpe zom
Ġneprav du
Ġnara Å¡ta
*A mos
ĠuplaÅ¡i Å¡e
Zem lju
Ġzatr ti
OT KRI
OTKRI VENjE
Ġ ,
' jela
, âĢĿ
I li
V o
Z naÅ¡
d nika
g nja
k rati
z du
Ġi str
Ġo ma
Ġo ke
Ġo gre
Äį ad
Ġu Äĩu
ko g
os u
Ġz bu
Ġne o
va ja
le o
Ġza la
Ġza bri
ru ka
Ġsi tna
Ġdo laze
Ġod nos
Ġod sijeÄįe
nu t
Äįi telj
ĠS kad
ĠS mrt
ĠÅ¡ ti
Ġmu zi
Ġmi ni
Ġmi sao
Ġsu ko
Ġme Äĳ
Ġme gda
Ġmo ma
Ġpre noÄĩi
Ġma Äĩi
ĠD Å¾a
Ġta ba
mi ce
Ġpos je
Ġsta rije
âĢľ .
Ġru Äįka
ĠSa ta
ĠBog dana
Gospod ine
Ġtako Äĳe
sto r
Ġju tros
Ġbu gar
Ġpod eli
Ġla Å¾e
Ġcr nu
ĠMi lu
Ġdi vlja
Ġis p
Ġso ka
Ġze te
Ġgleda la
Ġgleda Å¡e
ĠMu sa
ĠMu si
Ġrodi telja
br Å¾e
gne m
kova o
ĠviÄĳe h
Ġsna hu
Ġsna ge
ĠuÄįi ne
Ġlije pu
Ġsme ju
ĠÄįita v
Ġisto rija
Ġgu sle
Ġkrv ca
Ġmrt ve
Ġputa h
ĠdrÅ¾a va
Ġovi h
ĠAra pa
ĠAra nÄĳe
misli o
ĠkaluÄĳe re
LA D
Ġar micija
Ġvezi ra
Ġnjegovi m
Ġumi re
ĠoruÅ¾ jem
Ġpoklo niti
Ku d
Mo Å¾e
Ġselja nin
ĠkoÅ¡u lji
ĠLaza ra
Ġdeli jo
Ġdora ta
Ġzo ra
Ġlaga no
ĠÅ¾en ske
ĠproÅ¡ losti
ĠÄįetvr ti
ME HMET
Ġstaro ga
ĠUsu d
Ġdogodi lo
Ġpotpu no
Ġulo gu
ĠRo ksandu
Ġraki ju
ĠManduÅ¡i Äĩ
Ġosvanu lo
ĠSme dere
Ġ Î
I duÄĩi
M aj
O va
O VOR
P ra
c ke
g lu
m baÅ¡a
v nu
Ġp se
Ġo pisa
ra na
ra din
ti Å¡
ti nski
Ġu jedanput
re ti
ko pa
ja t
Ġz grabi
Ġg i
ĠG OVOR
Ġa j
ova nje
ova nja
ovi Äĩa
nje nije
Å¾i m
Ġpre du
ĠJe st
ba lj
Ġku p
Ġbo b
pe kulacija
Äįa vati
bo ru
ĠV r
Ġlju biti
Ġpr sima
ĠÅ¾i vio
Ġbra Å¡no
Å¡te n
ĠÅ¾e lio
18 2
Ġnaj mi
Ġosta o
pra viti
ĠTur Äįinu
ĠKa mo
Ġf ra
Ġf ali
ĠVe ne
ĠNa rod
Ġlu do
ĠVi Å¡e
Ġneko g
Ġsme m
ĠÄįita m
Ġsun cu
ĠÅ½ uti
ĠGr k
ĠMo lim
Ġhajdu k
lov om
ĠXV II
Ġblag oda
bla go
Ġzve zde
Ġpotre ba
Ġnajve Äĩi
ĠdruÅ¾i nu
Ġizgu biti
Ġnovi ne
Ġepi skop
Ġposlovi ce
ĠZad ra
Ġnepre stano
Ġdost oj
Gr bo
ĠDRA Å½AJÅłI
ĠLaj psi
- V
7 2
d mi
f ar
o tom
v ojim
Ġo cem
ta ji
re s
os am
ka me
Ġpo bu
Ġpo traÅ¾i
te be
Ġza cijelo
Ġbi lje
sa da
sa ka
Ġre da
Ġre kavÅ¡i
Ġti o
Ġni Äįice
Ġnji va
ĠP odi
Ġpri nesite
nja nje
po ma
Ġpro glasi
Ġima hu
ĠTa ma
Ġmje d
Ġvje Å¡ti
Ġju ga
ĠuÄįini te
Ġkra so
Ġuz vi
Ġcr vca
ĠMi s
ĠMa teri
ĠVe ti
Ġob rta
Ġvrati vÅ¡i
Ġiza Å¡ao
Ġzavje sa
ĠAro novi
ĠJudi no
ĠJudi noj
Ġro gove
Ġpodi goÅ¡e
dr va
ĠÅ¡e snaest
Ġnjezi nu
ĠJosif a
Ġobra Äĩa
ĠJef re
Ġistrije biti
ĠJor danu
ĠAma sija
sr cu
ĠBe z
ĠHa lev
grijeÅ¡i o
Ġbole sti
Ġpoklo niÅ¡e
Pro p
Ġvisi nu
Jo av
ĠdoÅ¡lja ku
Ve nijami
Ġuza sluÅ¡a
Ġzlat nijeh
Ġdjevoj ka
Ġodve sti
Ġdoli ne
care va
Ġzatru bi
Ġdola Å¾ahu
ĠsluÅ¡ki nje
ĠHev ronu
Ġobo ri
ĠSamari ju
ota ca
Ġoskvr ni
zavje t
Ġopko liÅ¡e
bez boÅ¾
ĠduÅ¡ om
ĠraÅ¡i ri
ĠSvemogu Äĩi
ĠmuÅ¡ki nje
ĠRije ke
Åłato r
BoÅ¾ ji
ĠJeriho nu
sluÅ¾ bu
Ġdragovolj no
7 0
B O
P od
m ijeh
s lob
u pri
v rijeme
je li
na u
ko sti
Ġz bi
da Äĩe
ne Å¡
ne mi
ne bo
Ġpo nos
te bi
Ġsi lazi
Ġsa bira
Ġod je
Ġbi Äĩu
ve ni
Ġiz vu
se c
Ġma ne
ĠD RUGA
Ġta mi
ĠO tkr
Ġbo lja
Ġpos red
Ġpu te
ĠJa oh
ĠE tio
Ġzna ke
Ġosta nu
Ġpla tno
ĠL uka
Ġvidje li
Ġkr Å¡ta
Ġdje lu
Ġob re
Ġpes nik
Ne ba
ĠVa ltasa
Ġspa sa
Ġut vare
ĠSr ce
Ġsmo kve
Ġljuba z
ĠHrist om
ĠsluÅ¡a jte
ĠNi ne
Ġtru da
Ġprav dom
Pa s
Za Å¡to
ĠpoÄįe tka
dija hu
Ġpraved ni
Ġoba sja
Ġzemalj skim
Ġljubi te
Ġhodi ti
Ġdrug ijem
tio hi
Ġpropa st
Ġzapa dne
ĠJeremi ju
Ġaposto li
Ġostavi vÅ¡i
proro ci
Ġgad nijem
Nje mu
mari j
ĠsaÄįu vaj
vas krse
ĠSubo te
ĠJOVAN OVO
anÄĳe la
Ġsabla zni
Ġjar ost
Ġposti dje
ĠmnoÅ¡t va
Ġpob oja
Ġpou zda
gro b
Ġmnog ijem
bezako nje
ĠneznaboÅ¾a ca
upri li
" D
" Na
, âĢľ
B u
B je
H A
L uj
U sta
V IÄĨ
Ġi ako
Ġo tu
Äį ove
Äį noj
Äį nika
Ġu pla
ri sto
re do
Ġje su
Ġg oste
Ġne obi
vi ci
ga ti
Ġka va
to lo
Ġza miÅ¡
Ġsa mu
di lo
Äįi la
Äįi ma
Ġbi tke
me ra
Å¾e nja
ĠÅ¡ ara
mo rje
st ro
Ġko ljeno
bi t
bi la
Ġnje m
Å¾i Äĩ
sta r
Ġmo Äĩ
Ġra me
Ġra vna
Ġma da
ĠP ita
ba l
ce r
ĠO bla
be le
Ġpri te
nja o
Ġpos ije
Ġpu Å¡ti
Ġsta ti
Ġneka ku
Ġde voja
Ġpe ra
Ġlju te
Ġpi Å¡to
ĠÄįu de
ĠÄįu vaj
Ġju Äįe
Ġvra te
Ġpod u
Ġzap r
VO J
tom i
Ġdi re
ĠKa jica
ĠPo p
Ġtr ojica
Ġple Äĩi
ĠSof ru
ĠÄįa u
Ġide al
Ġpozna jem
ĠPe tr
ĠDu Å¡an
Ġtur skog
ĠKos tura
Ġvojv odu
ĠSta rac
ĠBa noviÄĩ
Ġpros tra
Ġpogi bi
ĠÅ¡Äĩe ri
Ġkru Å¡ku
Ġpov r
ĠÄįesti toga
ĠboÅ¾ ju
ĠGru jicu
Ġumi lja
ĠÅłÄĩepa na
Ġizra z
Ġkos u
Ġpru Å¾a
Nem oj
Ġzad ovoljan
Ġkralje v
Ġsiroti nja
Ġpoezi ji
ĠMilisa v
OJ KA
ĠgvoÅ¾ Äĳe
Ġtav nice
ĠMle tke
-ÄĮeli ka
Ġznade Å¡
Ġpost oja
Ġupu ti
Ġvole o
Ġteme lj
ĠVU KA
Ġmeg dana
Ġtopu zi
ĠManoj lo
Ġzubi ma
ĠÅ½ablja ka
-pa Å¡a
Ġbedevi ju
Ġoslo bo
! )
D aj
O sta
O vaj
a la
k te
l oviÄĩ
m ra
m ovi
o biti
t li
Ġi Å¡ti
Å¡ nu
ti r
Ġu mu
na de
Ġna de
Ġna hodi
ĠA ki
ga no
Ġka ba
Ġza drÅ¾a
Ġa sta
Ġsi ja
Ġsa krije
Äįe va
Äįe Å¡Äĩe
Ġod govor
Äįi Äĩima
Ġiz lije
ĠS I
Ġmu sli
Ġmi lu
ĠK oja
ĠK omi
nje no
go rodi
Ġve Å¡ti
ĠB oji
ĠB ajo
ĠJe ro
Ġsve toga
ĠO Å¡tar
su je
Ġh ri
Ġh oda
Ġpro te
bo gda
Ġru Äįku
ur bija
ĠÅ¾i tija
ĠÄįe m
ĠÄįe le
ĠÄįu juÄĩi
ĠH vala
Ġle to
Ġraz ne
Ġtri put
Ġla ne
govori ti
Ġvidje ti
ĠÄĮ im
Ġso li
Ġbog me
Ġodgovori o
ĠF o
Ġpok re
ĠSe r
Ġpita Å¡
Ġste Äįe
Ġboga ti
ĠÅ¡a lje
pr osti
Ġlije p
ĠRa de
Ġpros e
ĠdoÄįe kati
Ġdrve ta
Ġuhvati o
Ġoda vde
Ġmajsto rice
Ġpola ko
Ġin tere
Ġizra zi
op Å¡te
ĠSva ka
ĠÅ¡ko lu
ĠAl ba
ĠJova ne
La sno
los o
HH H
Ġgolu b
Ġula r
Äįeka j
ĠkiÄĩe ni
Ġsl ovo
Ġistorij ski
Ġmagi stra
ĠBoÅ¡ njo
Ġblagod ar
8 9
A za
T voj
Z ako
je vih
Ġi sijeÄįe
ra me
Ġje Äį
Ġje da
na jim
Ġna vrh
Ġna stoj
Ġna oru
Å¡e st
ospod e
Ġod voji
ro ta
Ġiz nu
sa r
ĠK nji
Ġsu du
Ġvi kaÅ¡e
ĠJe dno
ĠJe zdra
Ġma z
Ġnji vi
mi ri
ĠO pome
ĠO tuda
lji ne
Je st
Ġju g
ĠSi lom
ĠMe l
Ġe no
ĠMa hi
Ġuze h
Ġusta ni
Ġtre Äĩega
Ġprije sne
Ġprije stup
Ġprije snijeh
Ġiza ÄĳoÅ¡e
mje seca
Ġrodi v
Ġsvje ma
ĠAvi ge
Ġmisir ski
ĠkovÄįe ga
ĠkovÄįe gu
godi na
ĠSu sanu
Ġvese le
pusti nju
njih ova
njih ove
svoj om
Ġsvijet nja
Ġmra k
Ġprve nce
Ġognje na
ĠIz ve
Ġzvije zde
ĠAvesa lomu
ĠAvesa loma
uÄįini o
Ġfilistej ski
ĠGad ovi
ĠAza rija
ĠRuvim ovi
Ġnaslije diÅ¡
care vi
ĠGovo ri
ĠzgrijeÅ¡i o
ĠÅ¾en sko
Ġizgi nu
Ġstude nac
Ġnevalja l
ĠoÄįiÅ¡Äĩe nja
ĠSema ja
ĠDva deset
ĠSvjedo Äįanstva
ĠoÅ¡t rijem
zapovjedi o
Ġmlije ko
ĠMesu lam
Ġkost rije
Ġpodiga vÅ¡i
ĠIdu me
* Jak
J uda
T aj
s vako
Ġi stje
Ġd oj
Ġo pusti
na rodi
Ġna Å¡avÅ¡i
Ġt ja
Ġda vaÅ¡e
ĠA vde
Ġa n
Ġsa zda
Ġod lu
Ġpa li
Ġsu dite
ĠT reba
Ġve ri
Ġga zi
ĠJe zek
ba ca
Ġh rom
Ġtv om
pe rna
Å¾a va
Je vanÄĳelje
ĠSa vle
Ġzna dijaÅ¡e
ĠNe bo
Ġdob rom
vje re
lije pi
Ġla kom
Ġstra hu
Ġstra ho
Ġdi vljahu
Ġbude mo
Ġgleda jte
Ġposla h
ĠÅ¾ivo ga
pos e
Äĳi vaÅ¡e
Ġlu kav
Ġpusti m
Ġpita hu
niÄį ka
Ġrod e
Ġsun Äįa
Ġnebe ski
Ġus nama
Ġmnogi m
Ġpogi bli
ĠDo ista
Ġvjer ovati
Ġubi ju
Ġvije k
Ġpasti r
Ġhu le
ĠPi la
ĠPi smu
ĠCr kve
ĠCr kvi
Ġmladi Äĩi
sla vu
Ġotvori Å¡e
car stva
ĠsaÄįu vati
Ġpoko ra
Ġsabra Å¡e
Ġrazumje Å¡e
Ġido lopo
Ġslije pi
ĠJude ji
ĠNavuhodonos oru
Ġizgo rje
Ġoprosti ti
Ġpremu drosti
Ġrado Å¡Äĩu
svije t
Ġuzdi sa
ĠVje rom
ĠSede kija
Ġsaha t
ĠHaldej cima
LjE NjE
Dani lo
Ġgrabe Å¾
Ġodba cu
- Ra
D va
H oÄĩu
v ci
z ovu
Ñ Ĭ
Ġo kom
ra h
ri li
Ġna ka
Ġse le
Ġse Äĩa
Å¾ nju
Ġne gda
Ġne gÄĳe
Ġpo lazi
Ġpo Å¡t
Ġza ma
Ġa d
Ġsi tnu
Ġsi tua
Ġdo ka
Ġdo hvati
Ġod mo
Ġod govore
nu me
Äįi li
Äįi Äĩi
ova la
Å¾e no
Ġiz vuÄįe
ĠS VI
ĠK osta
pa de
Ġme r
Ġme Äĳed
go ru
go rac
Ġpre tr
Ġra da
ĠJe lice
Ġma Å¡i
Ġja dna
Ġta na
ĠP od
ĠO ne
ĠO di
za la
Ġku c
zi ra
pi la
Ġbo lju
Ġpri likom
nja v
Ġcar ska
Ġpro fe
Ġba lu
Ġlju ti
ĠSa vi
Ġsva Å¡ta
Ġbra va
ĠÅł arac
ĠÄĳe r
Ġvra ga
Ġkra tko
vr osi
pra vo
Ġkr sta
ĠC AR
Ġis kre
Ġposta o
ĠÄįove Äįe
!... âĢľ
Ġgr dna
Ġtur sko
Ġtur skim
Ġniko g
ĠKos a
Ñĸ n
ĠÄĲ o
ĠÅ¡a la
Ġsvako je
ĠSta na
Ġdokle n
ĠuÄįi telja
'je le
Ġsme Å¡i
Ġce lu
Ġnebe sne
ĠÅ½ E
Ġsvat ova
ĠCr ne
ĠCr nu
Ġtak vi
Ġtak ve
niji h
ĠÅ¾ive o
Ġpje sme
Ġfeuda laca
Ġmej danu
Ġpripove dati
Ġbar ja
Ra z
ĠoÅ¾e nio
Ġprin ci
Ġpomi nje
Ġci klu
Ġpove de
Ġkur vo
ĠÄĳ o
Sta ni
Ġotr Äįi
Ġstru k
Ġkav ge
Ġkapi ju
ĠkoÄįija Å¡i
Ġarhi mandrit
Ġceki na
JET KE
ĠÄįakÅ¡i re
risto krati
" ;
] op
] alji
d ost
d ovati
n stva
o pet
r ce
t nju
t rom
Ġs rod
Ġp li
Ġo tuda
ra Å¡
ti li
Ġm leka
ri ka
ni li
ni Äĩa
ja ni
Å¾ ije
Ġg urbija
da Å¡
ka no
Ġpo za
Ġpo tur
vi di
Ġka sa
to ro
no Å¡a
Ġsi ra
Äįe nije
Ġdo govore
Ġdo Å¡lo
Äįi Å¡
Ġiz ja
ĠÅ¡ pekulacija
Ġko Å¡
Ġvi da
Ġva r
Ġni gdje
Ġve Å¡t
ĠB A
Ġmo go
Ġto like
Ġsve ca
ĠO no
za vac
Ġli ja
Ġpri ve
Ġpro lje
odi o
Ġde do
Ġru Å¾i
ÄĮ i
Ġno gom
Ġzna li
Ġpi le
ĠÄįe lja
ha n
Ġoti m
ĠMi ri
ĠKa zao
Ġot po
Ġtra pe
ĠMu ja
Ġrodi telj
ĠPa k
ĠPe r
Ġro Äĳena
tr ovi
Ġgr Äįki
ĠÅ¡a le
Ġzdra va
ĠvaÅ¡e m
luÄĳe r
ĠÅ½ an
Ġsvat ov
Ġhra ni
ĠdrÅ¾a ti
Ġljubi m
Ġmir ski
ĠBe o
ĠBe Äįu
ĠboÅ¾ je
Ġmanasti ru
Ġfi loso
ĠdÅ¾e p
Ġzu b
Ġpogubi m
Å¾de nija
Ġprevari ti
Ġjabu ka
.) ;
Ġuza j
Ġzve zda
Ġzlat nom
Ġzavi ka
Ġog nji
Ġfa la
ĠKota ra
-be ga
-be Å¾e
Ġdiv ovi
Ġkoma d
Pos lije
Ġhara mbaÅ¡a
zir oviÄĩ
Ġkralji ca
Ġsaha ta
ĠizmiÅ¡ ljena
Ġrazgovo ra
- Ga
d ovijeka
i ra
i lja
k ser
r ova
v oste
la Å¾aÅ¡e
ri hon
Ġda jte
Ġda ske
ĠA s
ĠA su
ĠA rno
Ġza mo
Ġsi tne
Ġdo noÅ¡ahu
ĠS ova
st vari
Ġti nu
Ġko tari
Ġvi Äįem
Ġte laca
sta de
mi losti
Moj siju
ĠO da
za vad
pi s
Ġpri zva
ĠDa na
Ġpos telju
Äĩa ni
tra Å¾e
Å¾a o
ĠU rija
Ġpr ovu
Ġvje rno
ĠH rama
Ġbu bre
Ġzap ovje
Ġuz dr
Ġuz vedenoga
ĠMe fi
vr sta
ĠMi hi
Ġsla viti
Ġis red
vlja m
Ġob le
or ova
ĠNa dav
Ġos mi
Ġposta viÅ¡e
MI JI
Ġzavje su
ĠBoÅ¾ ijem
um rije
ĠGospodnje mu
ĠSolomu nova
ho tice
Ġsud ovi
ĠÅłato rom
Ġsvaki m
Ġnjezi no
Ġvrata ri
sre br
Izrailje ve
Ġhra bri
Ġhra bar
Ġhra brijeh
ĠdrÅ¾a o
ĠVenijami nova
rta kser
ĠAhi tofe
Ġtak voga
Ġspase nja
ĠIz bavi
Ġblagoslovi o
ĠJonata na
ĠposluÅ¡a ti
ĠsluÅ¾ bi
Ġumi vao
Ġzida ti
ĠGala du
Ġhljeb ova
ĠkÄĩer ju
ĠEli sa
Ġpraz nu
ĠJefrem ovoj
Ġizabra h
narod u
Ġodre di
Ġmoav skom
Ġstub ove
ĠAhav ova
ĠJudej ce
Ġsrebr nijeh
ĠBu di
Ġugod no
ĠraÄĳa juÄĩi
Ġkadio nica
ĠAdo nija
ĠGava ji
Ġstije ne
Ġmrtva ca
ĠNE MIJI
Ġprijevor nice
Ġmagar ce
ĠSalu m
Ġopros ne
ĠNEMIJI NA
* Kol
C r
M LjANIMA
a posto
i du
o tvori
v ljuje
z do
je s
Ġo zdravi
Ġk rije
Ġna du
Ġka Å¾ite
Ġsa marij
Ġdo Äĳosmo
di Äĩu
Å¾e nje
ku Äĩi
ĠM at
Ġva z
Ġpre lomi
Ġma ri
ba zni
Ġku ne
dje lo
dje cu
po ga
Äĩa Å¡e
bo Å¡
bo le
Ġbe zazle
Ġsva Äĳa
âĢĻ ma
Ġmje h
RI MLjANIMA
Ġvoj nika
Ġusta de
Ġprije va
Ġproro ke
Ġpozna t
ĠBoÅ¾i jim
pro povijeda
niÄį kom
ljed nji
Ġop lije
Ġprimi ste
Ġras pu
ĠanÄĳe li
Ġpogi nuÄĩe
Ġopa da
ĠJevre ja
Ġpoja s
Ġstrah om
Ġnada nje
ĠizvrÅ¡i ti
Ġido l
Ġdozna ti
ĠGalile ju
Ġnapuni Å¡e
ĠKoje ga
Be z
ĠsveÅ¡teniÄį koga
Ġpotr ti
Ġposljed nji
Ġjevrej ski
Ġizvr Å¡uje
ĠHodi te
Ġpots mijeh
Ġsne Å¾e
Ġodije lo
Jeremi ja
ĠKr sti
Ġnepo ko
ĠÄĨe sa
ĠDANI LA
" Pobratime
D Å¾
K re
P I
R ad
S TO
e k
k ti
r ovi
je ra
Ġi gru
