{
    "Ā": 0,
    "ā": 1,
    "Ă": 2,
    "ă": 3,
    "Ą": 4,
    "ą": 5,
    "Ć": 6,
    "ć": 7,
    "Ĉ": 8,
    "ĉ": 9,
    "Ċ": 10,
    "ċ": 11,
    "Č": 12,
    "č": 13,
    "Ď": 14,
    "ď": 15,
    "Đ": 16,
    "đ": 17,
    "Ē": 18,
    "ē": 19,
    "Ĕ": 20,
    "ĕ": 21,
    "Ė": 22,
    "ė": 23,
    "Ę": 24,
    "ę": 25,
    "Ě": 26,
    "ě": 27,
    "Ĝ": 28,
    "ĝ": 29,
    "Ğ": 30,
    "ğ": 31,
    "Ġ": 32,
    "!": 33,
    "\"": 34,
    "#": 35,
    "$": 36,
    "%": 37,
    "&": 38,
    "'": 39,
    "(": 40,
    ")": 41,
    "*": 42,
    "+": 43,
    ",": 44,
    "-": 45,
    ".": 46,
    "/": 47,
    "0": 48,
    "1": 49,
    "2": 50,
    "3": 51,
    "4": 52,
    "5": 53,
    "6": 54,
    "7": 55,
    "8": 56,
    "9": 57,
    ":": 58,
    ";": 59,
    "<": 60,
    "=": 61,
    ">": 62,
    "?": 63,
    "@": 64,
    "A": 65,
    "B": 66,
    "C": 67,
    "D": 68,
    "E": 69,
    "F": 70,
    "G": 71,
    "H": 72,
    "I": 73,
    "J": 74,
    "K": 75,
    "L": 76,
    "M": 77,
    "N": 78,
    "O": 79,
    "P": 80,
    "Q": 81,
    "R": 82,
    "S": 83,
    "T": 84,
    "U": 85,
    "V": 86,
    "W": 87,
    "X": 88,
    "Y": 89,
    "Z": 90,
    "[": 91,
    "\\": 92,
    "]": 93,
    "^": 94,
    "_": 95,
    "`": 96,
    "a": 97,
    "b": 98,
    "c": 99,
    "d": 100,
    "e": 101,
    "f": 102,
    "g": 103,
    "h": 104,
    "i": 105,
    "j": 106,
    "k": 107,
    "l": 108,
    "m": 109,
    "n": 110,
    "o": 111,
    "p": 112,
    "q": 113,
    "r": 114,
    "s": 115,
    "t": 116,
    "u": 117,
    "v": 118,
    "w": 119,
    "x": 120,
    "y": 121,
    "z": 122,
    "{": 123,
    "|": 124,
    "}": 125,
    "~": 126,
    "ġ": 127,
    "Ģ": 128,
    "ģ": 129,
    "Ĥ": 130,
    "ĥ": 131,
    "Ħ": 132,
    "ħ": 133,
    "Ĩ": 134,
    "ĩ": 135,
    "Ī": 136,
    "ī": 137,
    "Ĭ": 138,
    "ĭ": 139,
    "Į": 140,
    "į": 141,
    "İ": 142,
    "ı": 143,
    "Ĳ": 144,
    "ĳ": 145,
    "Ĵ": 146,
    "ĵ": 147,
    "Ķ": 148,
    "ķ": 149,
    "ĸ": 150,
    "Ĺ": 151,
    "ĺ": 152,
    "Ļ": 153,
    "ļ": 154,
    "Ľ": 155,
    "ľ": 156,
    "Ŀ": 157,
    "ŀ": 158,
    "Ł": 159,
    "ł": 160,
    "¡": 161,
    "¢": 162,
    "£": 163,
    "¤": 164,
    "¥": 165,
    "¦": 166,
    "§": 167,
    "¨": 168,
    "©": 169,
    "ª": 170,
    "«": 171,
    "¬": 172,
    "Ń": 173,
    "®": 174,
    "¯": 175,
    "°": 176,
    "±": 177,
    "²": 178,
    "³": 179,
    "´": 180,
    "µ": 181,
    "¶": 182,
    "·": 183,
    "¸": 184,
    "¹": 185,
    "º": 186,
    "»": 187,
    "¼": 188,
    "½": 189,
    "¾": 190,
    "¿": 191,
    "À": 192,
    "Á": 193,
    "Â": 194,
    "Ã": 195,
    "Ä": 196,
    "Å": 197,
    "Æ": 198,
    "Ç": 199,
    "È": 200,
    "É": 201,
    "Ê": 202,
    "Ë": 203,
    "Ì": 204,
    "Í": 205,
    "Î": 206,
    "Ï": 207,
    "Ð": 208,
    "Ñ": 209,
    "Ò": 210,
    "Ó": 211,
    "Ô": 212,
    "Õ": 213,
    "Ö": 214,
    "×": 215,
    "Ø": 216,
    "Ù": 217,
    "Ú": 218,
    "Û": 219,
    "Ü": 220,
    "Ý": 221,
    "Þ": 222,
    "ß": 223,
    "à": 224,
    "á": 225,
    "â": 226,
    "ã": 227,
    "ä": 228,
    "å": 229,
    "æ": 230,
    "ç": 231,
    "è": 232,
    "é": 233,
    "ê": 234,
    "ë": 235,
    "ì": 236,
    "í": 237,
    "î": 238,
    "ï": 239,
    "ð": 240,
    "ñ": 241,
    "ò": 242,
    "ó": 243,
    "ô": 244,
    "õ": 245,
    "ö": 246,
    "÷": 247,
    "ø": 248,
    "ù": 249,
    "ú": 250,
    "û": 251,
    "ü": 252,
    "ý": 253,
    "þ": 254,
    "ÿ": 255,
    "je": 256,
    "Ġs": 257,
    "Ġi": 258,
    "Ġn": 259,
    "Ġp": 260,
    "Ġd": 261,
    "Å¡": 262,
    "Ġo": 263,
    "ra": 264,
    "ov": 265,
    ".Ċ": 266,
    "Ġk": 267,
    "ti": 268,
    "Ġm": 269,
    "Äį": 270,
    "Äĩ": 271,
    "oj": 272,
    "ta": 273,
    "Ġu": 274,
    "od": 275,
    "âĢ": 276,
    "la": 277,
    "li": 278,
    "ri": 279,
    "re": 280,
    "Ġje": 281,
    "Ġb": 282,
    "na": 283,
    "Ġv": 284,
    "Ġna": 285,
    "âĢĶ": 286,
    "ni": 287,
    "ko": 288,
    "ma": 289,
    "os": 290,
    "ja": 291,
    "Ġse": 292,
    "Ġz": 293,
    "Ġt": 294,
    ",Ċ": 295,
    "Ġsv": 296,
    "Ġda": 297,
    "Å¾": 298,
    "Ġg": 299,
    "da": 300,
    "Å¡e": 301,
    "ĠI": 302,
    "Ġne": 303,
    "ka": 304,
    "ne": 305,
    "ĠĠ": 306,
    "Äĩe": 307,
    "Ġpo": 308,
    "va": 309,
    "ĠA": 310,
    "vi": 311,
    "om": 312,
    "ga": 313,
    "le": 314,
    "Ġka": 315,
    "ju": 316,
    "ji": 317,
    "ĠâĢĶ": 318,
    "te": 319,
    "Äĳ": 320,
    "to": 321,
    "Ġza": 322,
    "ĠG": 323,
    "pod": 324,
    "ru": 325,
    "ca": 326,
    "oji": 327,
    "no": 328,
    "Ġa": 329,
    "ospod": 330,
    "Ġsi": 331,
    "ije": 332,
    "de": 333,
    "oje": 334,
    "Ġsa": 335,
    "ĠJ": 336,
    "Äįe": 337,
    "Ġdo": 338,
    "Ġod": 339,
    "nu": 340,
    "di": 341,
    "ro": 342,
    "lo": 343,
    "Äįi": 344,
    "Ġpa": 345,
    "Ġbi": 346,
    "lje": 347,
    "vo": 348,
    "Ġ*": 349,
    "ĠGospod": 350,
    "Äĳe": 351,
    "me": 352,
    "ve": 353,
    "ova": 354,
    "Å¾e": 355,
    "Ġiz": 356,
    "ĠS": 357,
    "ĠÅ¡": 358,
    "Äĩi": 359,
    "mo": 360,
    "ĠÄĩe": 361,
    "sa": 362,
    "ovi": 363,
    "Ġmu": 364,
    "Ġre": 365,
    "ku": 366,
    "st": 367,
    "Ġmi": 368,
    "Ġkoji": 369,
    "rije": 370,
    "ĠK": 371,
    "Ġsu": 372,
    "ovo": 373,
    "ĠT": 374,
    "Ġti": 375,
    "Ġko": 376,
    "ĠM": 377,
    "se": 378,
    "Ġvi": 379,
    "bi": 380,
    "Ġsin": 381,
    "pa": 382,
    "Ġva": 383,
    "nje": 384,
    "Ġnje": 385,
    "Ġte": 386,
    "ĠN": 387,
    "si": 388,
    "Å¾i": 389,
    "Ġme": 390,
    "rod": 391,
    "ke": 392,
    "Ġni": 393,
    ":Ċ": 394,
    "go": 395,
    "Ġca": 396,
    "âĢŀ": 397,
    "sta": 398,
    "Ġve": 399,
    "ĠB": 400,
    "Äĩu": 401,
    "..": 402,
    "lu": 403,
    "ĠĠĠ": 404,
    "Å¡i": 405,
    "ci": 406,
    "Ġmo": 407,
    "ĠâĢŀ": 408,
    "em": 409,
    "ki": 410,
    "Ġpre": 411,
    "Ġra": 412,
    "Ġto": 413,
    "Ġga": 414,
    "ĠJe": 415,
    "lju": 416,
    "Ġon": 417,
    "Ġma": 418,
    "ĠBo": 419,
    "Ġja": 420,
    "ĠreÄįe": 421,
    "Ġ(": 422,
    "ĠÄį": 423,
    "ĠD": 424,
    "Ġnji": 425,
    "Ġsve": 426,
    "ar": 427,
    "Ġta": 428,
    "mi": 429,
    "zra": 430,
    "Ġsvoje": 431,
    "ove": 432,
    "ĠĊ": 433,
    "ĠP": 434,
    "zrai": 435,
    "ĠÅ¡to": 436,
    "mu": 437,
    "ba": 438,
    "Moj": 439,
    "âĢł": 440,
    "lja": 441,
    "ce": 442,
    "ad": 443,
    "ĠO": 444,
    "Ġnjeg": 445,
    "sti": 446,
    "su": 447,
    "ovije": 448,
    "ĠâĢł": 449,
    ".Moj": 450,
    "hu": 451,
    "Ġgovo": 452,
    "za": 453,
    "Åł": 454,
    "Ġku": 455,
    "zi": 456,
    "Ġh": 457,
    "ĠIzrai": 458,
    "Äįini": 459,
    "be": 460,
    "Ġli": 461,
    "dje": 462,
    "pi": 463,
    "Ġbo": 464,
    "Å¡a": 465,
    "Ġpri": 466,
    "du": 467,
    "!Ċ": 468,
    "Ġkao": 469,
    "AN": 470,
    "nja": 471,
    ";Ċ": 472,
    "po": 473,
    "Ġkad": 474,
    "ĠDa": 475,
    "Ġnarod": 476,
    "Ġcar": 477,
    "Ġpos": 478,
    "Ġsam": 479,
    "Ġjed": 480,
    "tu": 481,
    "Ġpro": 482,
    "Ġj": 483,
    "do": 484,
    "Äĩa": 485,
    "Ġtv": 486,
    "?Ċ": 487,
    "lji": 488,
    "pe": 489,
    "odi": 490,
    "Ġnjih": 491,
    "oja": 492,
    "Ġzem": 493,
    "Äįa": 494,
    "âĢĿ": 495,
    "Ġpu": 496,
    "Ġsta": 497,
    "gu": 498,
    "Ġjer": 499,
    "Ġneka": 500,
    "ĠĠĠĠ": 501,
    "ĠJer": 502,
    "tra": 503,
    "bo": 504,
    "ÄĨ": 505,
    "Ġdru": 506,
    "vu": 507,
    "Ġde": 508,
    "JA": 509,
    "ĠV": 510,
    "LO": 511,
    "ome": 512,
    "Ġbe": 513,
    "Ġsvoj": 514,
    "âĢľ": 515,
    "nji": 516,
    "Å¾a": 517,
    "Ġru": 518,
    "ĠZ": 519,
    "Ġbje": 520,
    "IÄĨ": 521,
    "Ġih": 522,
    "vije": 523,
    "ovje": 524,
    "Ġpe": 525,
    "ĠU": 526,
    "cu": 527,
    "Ġsinovi": 528,
    "Ġnije": 529,
    "ĠIzrailje": 530,
    "Ġima": 531,
    "Ġslu": 532,
    "10": 533,
    "dan": 534,
    "Ġba": 535,
    "ÄĮ": 536,
    "Ġkako": 537,
    "Å½": 538,
    "vÅ¡i": 539,
    "ur": 540,
    "ze": 541,
    "Ġim": 542,
    "Je": 543,
    "Ġdu": 544,
    "ĠJa": 545,
    "Ġlju": 546,
    "set": 547,
    "Ġpr": 548,
    "...": 549,
    "ĠSa": 550,
    "Ġgla": 551,
    "ĠTa": 552,
    "Ġona": 553,
    "ĠE": 554,
    "ĠÅ¾i": 555,
    "Ġno": 556,
    "Ġsva": 557,
    "nije": 558,
    "ĠBog": 559,
    "11": 560,
    "Ġzna": 561,
    "Ġveli": 562,
    "Gospod": 563,
    "Ġgovori": 564,
    "12": 565,
    "nom": 566,
    "Ġpred": 567,
    "ojim": 568,
    "leda": 569,
    "ĠNe": 570,
    "Ġbra": 571,
    "IJA": 572,
    "bu": 573,
    "TO": 574,
    "13": 575,
    "ĠDavi": 576,
    "ĠbjeÅ¡e": 577,
    "14": 578,
    "15": 579,
    "âĢĻ": 580,
    "voj": 581,
    "Ġmje": 582,
    "Ġvje": 583,
    "Ġtako": 584,
    "rt": 585,
    "Å¡te": 586,
    "ĠÅł": 587,
    "Ġpi": 588,
    "Ġbija": 589,
    "pu": 590,
    "deset": 591,
    "ĠÄįe": 592,
    "LOG": 593,
    "ANTO": 594,
    "LOGIJA": 595,
    "ANTOLOGIJA": 596,
    "sto": 597,
    "ĠÄįu": 598,
    "gi": 599,
    "ĠÄĳe": 600,
    "[h": 601,
    "oÅ¡": 602,
    "ĠIsu": 603,
    "Äĳu": 604,
    "Ġpra": 605,
    "sko": 606,
    "16": 607,
    "Ġsvojega": 608,
    "Ġnego": 609,
    "Ġdob": 610,
    "ski": 611,
    "Ġju": 612,
    "ĠH": 613,
    "Ġgra": 614,
    "ĠÅ¾e": 615,
    "18": 616,
    "vati": 617,
    "ovu": 618,
    "zna": 619,
    "ĠSi": 620,
    "AR": 621,
    "Ġc": 622,
    "ge": 623,
    "Ġle": 624,
    "govo": 625,
    "17": 626,
    "Äĳa": 627,
    "ĠKad": 628,
    "Å¡ta": 629,
    "vje": 630,
    "Ġkoje": 631,
    "Ġraz": 632,
    "ĠZa": 633,
    "lj": 634,
    "TI": 635,
    ")Ċ": 636,
    "Ġvra": 637,
    "ĠÅ¡ta": 638,
    "ĠÄĩu": 639,
    "Ġbu": 640,
    "Ġali": 641,
    "Ġbiti": 642,
    "ĠuÄįini": 643,
    "ĠMoj": 644,
    "Ġgo": 645,
    "Ġ\"": 646,
    "Ġrije": 647,
    "ĠNje": 648,
    "Ġvas": 649,
    "Ġnaj": 650,
    "Ġsto": 651,
    "Ġtu": 652,
    "nici": 653,
    "Ġpod": 654,
    "Å¡to": 655,
    "ĠMar": 656,
    "19": 657,
    "Ġoni": 658,
    "Ġkra": 659,
    "20": 660,
    "ha": 661,
    "Ġjoj": 662,
    "ĠneÄĩe": 663,
    "Ġzap": 664,
    "ost": 665,
    "ste": 666,
    "reÄĩi": 667,
    "ska": 668,
    "Ġuz": 669,
    "Ġsvi": 670,
    "Ġosta": 671,
    "osti": 672,
    "Ġdom": 673,
    "rodi": 674,
    "21": 675,
    "kle": 676,
    "ĠÄįovje": 677,
    "Ġsinova": 678,
    "RI": 679,
    "ovijeh": 680,
    "ĠJo": 681,
    "Å¾rt": 682,
    "Ġtri": 683,
    "Ġgospod": 684,
    "GA": 685,
    "liko": 686,
    "ĠR": 687,
    "Ġpla": 688,
    "lije": 689,
    "am": 690,
    "Ġmno": 691,
    "Ġnas": 692,
    "ĠMe": 693,
    "pet": 694,
    "Ġdana": 695,
    "vr": 696,
    "oÅ¡e": 697,
    "Ġla": 698,
    "22": 699,
    "voje": 700,
    "EV": 701,
    "bra": 702,
    "Ġgodi": 703,
    "ĠTada": 704,
    "ĠDavid": 705,
    "Ġonda": 706,
    "Ġvam": 707,
    ".âĢĿ": 708,
    "lom": 709,
    "Ġe": 710,
    "23": 711,
    "kom": 712,
    "ĠjoÅ¡": 713,
    "24": 714,
    "Ġvidi": 715,
    "ĠJu": 716,
    "ĠĠĠĠĠĠĠĠ": 717,
    "ĠsveÅ¡te": 718,
    "ĠOn": 719,
    "osi": 720,
    "Ġdva": 721,
    "ovijem": 722,
    "pre": 723,
    "Ġsina": 724,
    "Ġsvojim": 725,
    "Ġjuna": 726,
    "Ġoti": 727,
    "Ġcr": 728,
    "jte": 729,
    "noga": 730,
    "Ġstra": 731,
    "oju": 732,
    "ĠdoÄĳe": 733,
    "sije": 734,
    "ĠMi": 735,
    "ĠÄįi": 736,
    "Ġovo": 737,
    "ĠmoÅ¾e": 738,
    "ĠveÄĩ": 739,
    "Ġsla": 740,
    "Ġbez": 741,
    "Ġst": 742,
    "pra": 743,
    "Ġjedan": 744,
    "Ġopet": 745,
    "stvo": 746,
    "ĠTur": 747,
    "ĠL": 748,
    "Ġnad": 749,
    "Ġvoj": 750,
    "VO": 751,
    "tom": 752,
    "govori": 753,
    "Ġ-": 754,
    "sli": 755,
    "Ġsr": 756,
    "Ġdi": 757,
    "ĠSo": 758,
    "ĠGL": 759,
    "aj": 760,
    "ĠKa": 761,
    "Äįu": 762,
    "ĠGa": 763,
    "nik": 764,
    "Ġcare": 765,
    "Ġot": 766,
    "ske": 767,
    "Ġf": 768,
    "Ġmoje": 769,
    "NI": 770,
    "ĠHri": 771,
    "Ġvidje": 772,
    "rija": 773,
    "NA": 774,
    "25": 775,
    "mena": 776,
    "ojih": 777,
    "Ġsamo": 778,
    "dam": 779,
    "at": 780,
    "nju": 781,
    "Nj": 782,
    "Ġzemlji": 783,
    "ĠÅ¾rt": 784,
    "ĠGospodu": 785,
    "Ġkr": 786,
    "ĠC": 787,
    "26": 788,
    "NjI": 789,
    "NjIGA": 790,
    "RO": 791,
    "Ġbio": 792,
    "Ġdje": 793,
    "ĠÄĮ": 794,
    "Ġsad": 795,
    "Ġova": 796,
    "Ġako": 797,
    "Å¡u": 798,
    "juÄĩi": 799,
    "jem": 800,
    "gra": 801,
    "Ġsre": 802,
    "ĠÄįini": 803,
    "Ġnjega": 804,
    "\"Ċ": 805,
    "Ġis": 806,
    "Ġsvije": 807,
    "ĠAli": 808,
    "nijeh": 809,
    "SK": 810,
    "Ġbude": 811,
    "Ġbla": 812,
    "OS": 813,
    "gleda": 814,
    "kad": 815,
    "Kad": 816,
    "ĠIsus": 817,
    "Ġso": 818,
    "zu": 819,
    "Ġov": 820,
    "OD": 821,
    "on": 822,
    "ÄĳoÅ¡e": 823,
    ".S": 824,
    "ĠgovoreÄĩi": 825,
    "stu": 826,
    "Ġnema": 827,
    "sir": 828,
    "ĠMa": 829,
    "ĠVe": 830,
    "vlja": 831,
    "nev": 832,
    "ovima": 833,
    "ĠPo": 834,
    "rusa": 835,
    "*M": 836,
    "Ġ-Ċ": 837,
    "27": 838,
    "nim": 839,
    "Ġime": 840,
    "*Je": 841,
    "TVO": 842,
    "ode": 843,
    "ami": 844,
    "Ġuze": 845,
    "ĠviÅ¡e": 846,
    "Ġgrad": 847,
    "Ġmoj": 848,
    "Ġljudi": 849,
    "Ġtr": 850,
    "29": 851,
    "Ġob": 852,
    "Ġtra": 853,
    "ĠNjeg": 854,
    "ĠbijaÅ¡e": 855,
    ".Sam": 856,
    "rusali": 857,
    "pita": 858,
    "doÅ¡e": 859,
    "MO": 860,
    "SKE": 861,
    "Ġbog": 862,
    "Ġoko": 863,
    "ĠBoga": 864,
    "ĠNAR": 865,
    "ĠMarko": 866,
    ".D": 867,
    ".âĢľ": 868,
    "28": 869,
    "smo": 870,
    "NOS": 871,
    "Ġvre": 872,
    "Ġbilo": 873,
    "\".Ċ": 874,
    "ĠKNjI": 875,
    "Ġmene": 876,
    "NIH": 877,
    "ĠNAROD": 878,
    "NOSTI": 879,
    "Ġili": 880,
    "ĠmeÄĳu": 881,
    "or": 882,
    "ĠSR": 883,
    "Å½EV": 884,
    "Ġple": 885,
    "ĠKNjIÅ½EV": 886,
    "ĠKNjIÅ½EVNOSTI": 887,
    "ovjedi": 888,
    "PSKE": 889,
    "RINA": 890,
    "ĠNARODNIH": 891,
    "ĠkaÅ¾e": 892,
    "ĠNa": 893,
    "Ġvrati": 894,
    "Ġsje": 895,
    "TVORINA": 896,
    "MOTVORINA": 897,
    "Ġsvoju": 898,
    "Ġtvoje": 899,
    "ĠSRPSKE": 900,
    "ĠUMOTVORINA": 901,
    ".Dnev": 902,
    ".O": 903,
    "ĠGospoda": 904,
    "ĠSof": 905,
    "ara": 906,
    "meÄĳu": 907,
    "Ġodgovori": 908,
    "Ġdan": 909,
    "Ġdvo": 910,
    "ĠâĢĶĊ": 911,
    "mah": 912,
    "Ġdobro": 913,
    "ato": 914,
    "Ġze": 915,
    "ĠÄįa": 916,
    "Ġota": 917,
    "hi": 918,
    "Ġdakle": 919,
    "Ġmla": 920,
    "Ġnjegov": 921,
    "Ġtvoj": 922,
    "Ġmalo": 923,
    "Ġdr": 924,
    "Ġvama": 925,
    "nog": 926,
    "vra": 927,
    "Ġusta": 928,
    "Ġtisu": 929,
    "Ġide": 930,
    "ĠKNjIGA": 931,
    "nova": 932,
    "ĠnaÄįini": 933,
    "Ġkod": 934,
    "Ġkonja": 935,
    "Ġpes": 936,
    "ĠÅłami": 937,
    "Ġbijahu": 938,
    "ĠoÄįi": 939,
    "MA": 940,
    "oda": 941,
    "dra": 942,
    "Ġkoja": 943,
    "Ġtre": 944,
    "Ġzemlju": 945,
    "Ġprije": 946,
    "Ġmaj": 947,
    "Ġ.": 948,
    "Ġgleda": 949,
    "Ġsav": 950,
    "Å¡ao": 951,
    "sku": 952,
    "Ġreko": 953,
    "ĠTe": 954,
    "sam": 955,
    "ĠZato": 956,
    "nj": 957,
    "vijem": 958,
    "ĠniÅ¡ta": 959,
    "Ġsinovima": 960,
    "Ġnjima": 961,
    "ĠF": 962,
    "Ġvo": 963,
    "Ġzla": 964,
    "bom": 965,
    "Ne": 966,
    "Ġsedam": 967,
    "Ġiza": 968,
    "Ġnjegova": 969,
    "nÄĳe": 970,
    "Ġos": 971,
    "31": 972,
    "ĠSau": 973,
    "cima": 974,
    "Ġposta": 975,
    "KA": 976,
    "ĠKo": 977,
    "30": 978,
    "ĠAko": 979,
    "Da": 980,
    "Ġuda": 981,
    "Ġposla": 982,
    "noj": 983,
    "ĠMojsije": 984,
    "Ġ|": 985,
    "Ġbije": 986,
    "ili": 987,
    "ĠÅ¾ivo": 988,
    "ĠÄĳevoj": 989,
    "Ġmoja": 990,
    "ĠrijeÄįi": 991,
    "Ġnj": 992,
    "Ġzapovjedi": 993,
    "mje": 994,
    "Ġproro": 995,
    "CA": 996,
    "Ġnjemu": 997,
    "LOV": 998,
    "gla": 999,
    "ĠkuÄĩi": 1000,
    "ĠTi": 1001,
    "Ġpozna": 1002,
    "Ja": 1003,
    "...Ċ": 1004,
    "pos": 1005,
    "ĠMu": 1006,
    "Ġsvojemu": 1007,
    "ÄĲ": 1008,
    "lta": 1009,
    "ĠizmeÄĳu": 1010,
    "Ġnjim": 1011,
    "Ġbr": 1012,
    "ĠVa": 1013,
    "kr": 1014,
    "nika": 1015,
    "Ġgdje": 1016,
    "Ġruke": 1017,
    "Ġtije": 1018,
    "koji": 1019,
    "Ġl": 1020,
    "Äĳi": 1021,
    "lomu": 1022,
    "Ġvr": 1023,
    "ĠÄįove": 1024,
    "Izrai": 1025,
    "ĠOnda": 1026,
    "Ġrodi": 1027,
    "ĠPa": 1028,
    "prija": 1029,
    "dne": 1030,
    "Ġvide": 1031,
    "ÅłIÄĨ": 1032,
    "Å¾u": 1033,
    "Isa": 1034,
    "Ġotide": 1035,
    "ovan": 1036,
    "Ġput": 1037,
    "oÄĩe": 1038,
    "prijate": 1039,
    "ĠBogu": 1040,
    "osta": 1041,
    "nijem": 1042,
    "gova": 1043,
    "MI": 1044,
    "kao": 1045,
    "ĠGospodnji": 1046,
    "Ġpok": 1047,
    "ĠrijeÄį": 1048,
    "Ġmoga": 1049,
    "Ġgodina": 1050,
    "Ġono": 1051,
    "viti": 1052,
    "sal": 1053,
    "LE": 1054,
    "Ġgrije": 1055,
    "Ġzavje": 1056,
    "Ġknji": 1057,
    "Ġcara": 1058,
    "ĠSe": 1059,
    "ĠMojsi": 1060,
    "rom": 1061,
    "Ġha": 1062,
    "lazi": 1063,
    "Ġdok": 1064,
    "Ġmeni": 1065,
    "ĠBoÅ¾i": 1066,
    "Po": 1067,
    "Ġkoju": 1068,
    "ĠAro": 1069,
    "rno": 1070,
    "Ġkri": 1071,
    "koj": 1072,
    "ĠJudi": 1073,
    ").Ċ": 1074,
    "red": 1075,
    "Ġgod": 1076,
    "Ġspa": 1077,
    "lon": 1078,
    "vori": 1079,
    "ĠÅłta": 1080,
    "rati": 1081,
    "nica": 1082,
    "ako": 1083,
    "Ġtebe": 1084,
    "im": 1085,
    "oviÄĩ": 1086,
    "ĠPe": 1087,
    "Ġro": 1088,
    "ĠJerusali": 1089,
    "ĠSve": 1090,
    "*Mat": 1091,
    "34": 1092,
    "nae": 1093,
    "JAN": 1094,
    "32": 1095,
    "Ġcaru": 1096,
    "Ġstane": 1097,
    "gnje": 1098,
    "lovi": 1099,
    "nese": 1100,
    "Ġnjegove": 1101,
    "Ġzlo": 1102,
    "Ġsvje": 1103,
    "Ġmogu": 1104,
    "ĠKra": 1105,
    "ĠGospode": 1106,
    "vom": 1107,
    "Ġlu": 1108,
    "nija": 1109,
    "ĠrekoÅ¡e": 1110,
    "Ġdevoj": 1111,
    "Ġolta": 1112,
    "Ġpusti": 1113,
    "zek": 1114,
    "Ġbila": 1115,
    "Ġmora": 1116,
    "ĠIzrailjevi": 1117,
    "pro": 1118,
    "ob": 1119,
    "33": 1120,
    "Ġsvojih": 1121,
    "Ġpodi": 1122,
    "rijeme": 1123,
    "!\"Ċ": 1124,
    "JANJA": 1125,
    "Ġsab": 1126,
    "novi": 1127,
    "!...": 1128,
    "ĠBoÅ¾": 1129,
    "Ġpita": 1130,
    "Ġzemlje": 1131,
    "vijeh": 1132,
    "ĠLe": 1133,
    "dr": 1134,
    "rje": 1135,
    "um": 1136,
    "oga": 1137,
    "Ġmisli": 1138,
    "ĠGospodom": 1139,
    "iliste": 1140,
    "Å¡t": 1141,
    "vari": 1142,
    "Ġodmah": 1143,
    "Ġjednu": 1144,
    "gos": 1145,
    "Ġzapovije": 1146,
    "Ġposle": 1147,
    "Ġdrugi": 1148,
    "br": 1149,
    "EMA": 1150,
    "Ġste": 1151,
    "vako": 1152,
    "Ġizi": 1153,
    "Ġniti": 1154,
    "tre": 1155,
    "Ġruku": 1156,
    "ĠJoa": 1157,
    "Ġoca": 1158,
    "ĠTvoje": 1159,
    "niÄį": 1160,
    "tr": 1161,
    "Na": 1162,
    "Ġboga": 1163,
    "ĠGospodnje": 1164,
    "ĠuÄįe": 1165,
    "Ġneprijate": 1166,
    "dite": 1167,
    "Isu": 1168,
    "Ġnam": 1169,
    "Ġvojska": 1170,
    "FEMA": 1171,
    "uka": 1172,
    "jela": 1173,
    "ĠMoje": 1174,
    "ĠDu": 1175,
    "ĠÅłamika": 1176,
    "Ġzako": 1177,
    "Ġgr": 1178,
    "bje": 1179,
    "zem": 1180,
    "Ġondje": 1181,
    "kov": 1182,
    "Ġmjesto": 1183,
    "Ġplemena": 1184,
    "ljed": 1185,
    "Ġsvijem": 1186,
    "Ġnaroda": 1187,
    "ĠnaÅ¡e": 1188,
    "ĠÅ¡e": 1189,
    "ĠSofra": 1190,
    "Ġpak": 1191,
    "Ġzbo": 1192,
    "Ġvla": 1193,
    "Ġtur": 1194,
    "Ġop": 1195,
    "Ġum": 1196,
    "ĠVi": 1197,
    "Ġporodi": 1198,
    "Ġgodine": 1199,
    "Ġpoka": 1200,
    "Ġneko": 1201,
    "Ġjedna": 1202,
    "ĠÄĮam": 1203,
    "ĠPotom": 1204,
    "Ġvrijeme": 1205,
    "ER": 1206,
    "Ġniko": 1207,
    "ĠÄįovjek": 1208,
    "Ġsti": 1209,
    "tnu": 1210,
    "Ġpet": 1211,
    "ĠbiÄĩe": 1212,
    "Ġsinove": 1213,
    "kra": 1214,
    "ĠIsa": 1215,
    "Ġut": 1216,
    "al": 1217,
    "Isus": 1218,
    "dno": 1219,
    "zva": 1220,
    "ĠKos": 1221,
    "diti": 1222,
    "Ġdade": 1223,
    "ĠSolomu": 1224,
    "ijem": 1225,
    "ĠSr": 1226,
    "Ã´": 1227,
    "ho": 1228,
    "Djela": 1229,
    "Ñĸ": 1230,
    "ĠĠĠĠĠĠĠĠĠĠĠĠĠĠĠĠ": 1231,
    "ĠSaul": 1232,
    "Ġsm": 1233,
    "odu": 1234,
    "Ġdrugo": 1235,
    "skoj": 1236,
    "Ġstoti": 1237,
    "nih": 1238,
    "sve": 1239,
    "ĠMojsiju": 1240,
    "Ġdra": 1241,
    "ĠTo": 1242,
    "ĠÄĩeÅ¡": 1243,
    "Ġsvoji": 1244,
    "rac": 1245,
    "Ġsvojoj": 1246,
    "Ġsluga": 1247,
    "Ġsmo": 1248,
    "telj": 1249,
    "dana": 1250,
    "Ġgde": 1251,
    "ĠTako": 1252,
    "JE": 1253,
    "Ġsud": 1254,
    "gom": 1255,
    "ilo": 1256,
    "nicima": 1257,
    "ĠÄĲ": 1258,
    "gne": 1259,
    "ljevi": 1260,
    "Å¡ti": 1261,
    "Ġljuba": 1262,
    "ĠIsusa": 1263,
    "skoga": 1264,
    "ĠÅ¾rtvu": 1265,
    "Ġtoga": 1266,
    "dom": 1267,
    "Jovan": 1268,
    "kri": 1269,
    "ĠPRO": 1270,
    "kova": 1271,
    "Ġkaza": 1272,
    "ĠÅłto": 1273,
    "ĠkÄĩe": 1274,
    "nez": 1275,
    "Ġmil": 1276,
    "skom": 1277,
    "tar": 1278,
    "Ġmnogo": 1279,
    "ĠÅ¾a": 1280,
    "Ġnarodu": 1281,
    "On": 1282,
    "KNjIGA": 1283,
    "ĠOd": 1284,
    "Ġrod": 1285,
    "*Jer": 1286,
    "ospo": 1287,
    "Ġsiro": 1288,
    "BU": 1289,
    "Ġpomo": 1290,
    "Ġdoma": 1291,
    "ljeni": 1292,
    "Ġprema": 1293,
    "ĠÅłato": 1294,
    "ima": 1295,
    "ĠHrist": 1296,
    "Ġnosi": 1297,
    "36": 1298,
    "Ġgle": 1299,
    "Ġsvaki": 1300,
    "LIÄĨ": 1301,
    "svoje": 1302,
    "ĠtisuÄĩa": 1303,
    "ĠdoÄĩi": 1304,
    "Ġotac": 1305,
    "kva": 1306,
    "ĠTv": 1307,
    "Ġradi": 1308,
    "roz": 1309,
    "Ġuzme": 1310,
    "ĠÅ¡a": 1311,
    "vali": 1312,
    "Ġprimi": 1313,
    "ĠsluÅ¡a": 1314,
    "Ġvojskama": 1315,
    "pri": 1316,
    "Ġjedno": 1317,
    "II": 1318,
    "jina": 1319,
    "Ġnjezi": 1320,
    "Ġode": 1321,
    "ĠNi": 1322,
    "jeva": 1323,
    "Ġfara": 1324,
    "*Isa": 1325,
    "ROKA": 1326,
    "ĠPROROKA": 1327,
    "vno": 1328,
    "ĠveÄįe": 1329,
    "ĠAvi": 1330,
    "vre": 1331,
    "Ġtru": 1332,
    "ĠKoji": 1333,
    "gle": 1334,
    "ĠviÄĳe": 1335,
    "ĠÄįo": 1336,
    "ĠbaÅ¡": 1337,
    "Ġvojv": 1338,
    "35": 1339,
    "stva": 1340,
    "boÅ¾": 1341,
    "so": 1342,
    "Ġsebi": 1343,
    "kav": 1344,
    "Ġglas": 1345,
    "man": 1346,
    "niku": 1347,
    "Ġdvadeset": 1348,
    "pred": 1349,
    "Äįne": 1350,
    "Ġsebe": 1351,
    "Ġnjegovu": 1352,
    "VE": 1353,
    "ved": 1354,
    "Ġprav": 1355,
    "ĠBoÅ¾ije": 1356,
    "Ġsna": 1357,
    "Ġvode": 1358,
    "vim": 1359,
    "Ġtamo": 1360,
    "Ġmoli": 1361,
    "ĠOvako": 1362,
    "zako": 1363,
    "nosti": 1364,
    "vet": 1365,
    "lija": 1366,
    "iz": 1367,
    "Ġvrata": 1368,
    "ĠsveÅ¡tenik": 1369,
    "osif": 1370,
    "Ġsvako": 1371,
    "ĠÄįovek": 1372,
    "ERBU": 1373,
    "ERBULIÄĨ": 1374,
    "nike": 1375,
    "ĠhoÄĩe": 1376,
    "ĠpoÄĳe": 1377,
    "Ġznam": 1378,
    "Ġvreme": 1379,
    "Ġizba": 1380,
    "Ġglavu": 1381,
    "ĠÄĳa": 1382,
    "Psal": 1383,
    "Ġsluge": 1384,
    "Ġnasljed": 1385,
    "ĠHrista": 1386,
    "KO": 1387,
    "ĠneÅ¡to": 1388,
    "kako": 1389,
    "Ġnau": 1390,
    "ÅłERBULIÄĨ": 1391,
    "Ġgnje": 1392,
    "vilon": 1393,
    "ĠSta": 1394,
    "Ġdokle": 1395,
    "Ġpreko": 1396,
    "Ġdanas": 1397,
    "Ġhalji": 1398,
    "Ġtaj": 1399,
    "uda": 1400,
    "ĠKraljevi": 1401,
    "naest": 1402,
    "sre": 1403,
    "pr": 1404,
    "Luka": 1405,
    "ĠLa": 1406,
    "Ġzi": 1407,
    "Ġgrijeh": 1408,
    "brati": 1409,
    "biti": 1410,
    "SI": 1411,
    "nicu": 1412,
    "nuti": 1413,
    "nost": 1414,
    "vao": 1415,
    "ovati": 1416,
    "rjeÅ¡i": 1417,
    "njem": 1418,
    "ura": 1419,
    "Ġcrk": 1420,
    "ĠMilo": 1421,
    "Ġ[": 1422,
    "PR": 1423,
    "ĠuÄįi": 1424,
    "JEV": 1425,
    "Ġbjehu": 1426,
    "Ġdomu": 1427,
    "Pa": 1428,
    "JSI": 1429,
    "OJSI": 1430,
    "ĠMOJSI": 1431,
    "ĠBoÅ¾e": 1432,
    "ovijeka": 1433,
    "JEVA": 1434,
    "ĠMOJSIJEVA": 1435,
    "jim": 1436,
    "Ġlije": 1437,
    "ĠRa": 1438,
    "lima": 1439,
    "Jer": 1440,
    "'je": 1441,
    "Ġsme": 1442,
    "pak": 1443,
    "Ġisti": 1444,
    "ĠMene": 1445,
    "ĠÄįita": 1446,
    "Ġvjeru": 1447,
    "Ġisto": 1448,
    "kupi": 1449,
    "Ġknez": 1450,
    "Davi": 1451,
    "Ġgovora": 1452,
    "prav": 1453,
    "Ġgu": 1454,
    "Ġce": 1455,
    "kne": 1456,
    "nice": 1457,
    "van": 1458,
    "Ġpreda": 1459,
    "Ġsvoga": 1460,
    "Ġvino": 1461,
    "Ġhaj": 1462,
    "ĠIzrailju": 1463,
    "ĠIzrailj": 1464,
    "Ġporodica": 1465,
    "ista": 1466,
    "nima": 1467,
    "Ġtebi": 1468,
    "Ġsun": 1469,
    "Ġtreba": 1470,
    "viÅ¡e": 1471,
    "gnu": 1472,
    "Ġsko": 1473,
    "raj": 1474,
    "kla": 1475,
    "Ġtoliko": 1476,
    "Ġblago": 1477,
    "Ġnjihovijem": 1478,
    "Ġonima": 1479,
    "er": 1480,
    "ran": 1481,
    "Ġkoliko": 1482,
    "ovÄįe": 1483,
    "Ġkrv": 1484,
    "Ġtome": 1485,
    "Ġgospodar": 1486,
    "Ġplani": 1487,
    ".A": 1488,
    "Ġsest": 1489,
    "hvati": 1490,
    "uk": 1491,
    "Ġobi": 1492,
    "Ġpobi": 1493,
    "ĠdoÄĳoÅ¡e": 1494,
    "Ġkame": 1495,
    "Ġvodi": 1496,
    "nio": 1497,
    "Ġzapita": 1498,
    "Ġgospodi": 1499,
    "ĠKako": 1500,
    "Ġmisir": 1501,
    "Ġzapovijesti": 1502,
    "Za": 1503,
    "ANI": 1504,
    "Ġsvjedo": 1505,
    "Bo": 1506,
    "OV": 1507,
    "zo": 1508,
    "Ġzdra": 1509,
    "Ġtj": 1510,
    "Äįin": 1511,
    "Ġnjegovo": 1512,
    "Ġri": 1513,
    "niti": 1514,
    "govara": 1515,
    "RA": 1516,
    "Å¡ko": 1517,
    "vio": 1518,
    "grije": 1519,
    "ĠkovÄįe": 1520,
    "ĠJosif": 1521,
    "Ġhlje": 1522,
    "kre": 1523,
    "omi": 1524,
    "Ġpame": 1525,
    "Su": 1526,
    "ĠAvra": 1527,
    "Ġzato": 1528,
    "ĠBa": 1529,
    "Ġstari": 1530,
    "ĠÅ¾ena": 1531,
    "MR": 1532,
    "nka": 1533,
    "strije": 1534,
    "ramo": 1535,
    "lud": 1536,
    "Ġonaj": 1537,
    "ĠkuÄĩe": 1538,
    "),": 1539,
    "love": 1540,
    "sno": 1541,
    "fa": 1542,
    "moj": 1543,
    "Ġdovijeka": 1544,
    "Ġsvega": 1545,
    "ĠÅ¾rtve": 1546,
    "Ġblagos": 1547,
    "Ġone": 1548,
    "luÅ¡a": 1549,
    "Ġras": 1550,
    "kati": 1551,
    "Ġvalja": 1552,
    "37": 1553,
    "vima": 1554,
    "Ġsasta": 1555,
    "Ġpaljeni": 1556,
    "Å¡Äĩe": 1557,
    "Ġigra": 1558,
    "Ġpros": 1559,
    "Ġmogao": 1560,
    "ĠNeka": 1561,
    "vlje": 1562,
    "jeh": 1563,
    "Ġnebe": 1564,
    "bio": 1565,
    "Ġhi": 1566,
    "Ġgdi": 1567,
    "Ġbih": 1568,
    "ÄĮI": 1569,
    "ĠvaÅ¡e": 1570,
    "ĠzaÅ¡to": 1571,
    "put": 1572,
    "PRÅłIÄĨ": 1573,
    "Ġdvije": 1574,
    "ĠAve": 1575,
    "prije": 1576,
    "Å¡avÅ¡i": 1577,
    "ĠpoÄįe": 1578,
    "veÄĩ": 1579,
    "ĠTurci": 1580,
    "Ġmjese": 1581,
    "LEPRÅłIÄĨ": 1582,
    "ÄĩeÅ¡": 1583,
    "vede": 1584,
    "ĠkÄĩeri": 1585,
    "Ġus": 1586,
    "nuo": 1587,
    "Ġbili": 1588,
    "ĠIzrailja": 1589,
    "ÄĳaÅ¡e": 1590,
    "Ġgro": 1591,
    "Ġmnogi": 1592,
    "*Jezek": 1593,
    "Ġbrata": 1594,
    "Ġcarev": 1595,
    "luÄĳe": 1596,
    "Ġtobom": 1597,
    "Ġnjihove": 1598,
    "Ġotaca": 1599,
    "Ġovako": 1600,
    "ĠÅ¾ivot": 1601,
    "Al": 1602,
    "pove": 1603,
    "ĠÅ½": 1604,
    "Ġdove": 1605,
    "jaÅ¡e": 1606,
    "Ġmetnu": 1607,
    "Ġduh": 1608,
    "Ġbrate": 1609,
    "Ġnisam": 1610,
    "*Djela": 1611,
    "bije": 1612,
    "Ġgospo": 1613,
    "Ġudari": 1614,
    "DIÄĨ": 1615,
    "MRDIÄĨ": 1616,
    "Ġsada": 1617,
    "ĠEvo": 1618,
    "Ġsrce": 1619,
    "ĠtraÅ¾i": 1620,
    "UTI": 1621,
    "nski": 1622,
    "Ġki": 1623,
    "Ġpoma": 1624,
    "ĠÅ¾ivi": 1625,
    "skog": 1626,
    "ĠnaÄĳe": 1627,
    "ĠGr": 1628,
    "ĠRe": 1629,
    "Ġmrt": 1630,
    "ĠanÄĳe": 1631,
    "Ġpogi": 1632,
    "SMRDIÄĨ": 1633,
    "tru": 1634,
    "nata": 1635,
    "ĠneÄįi": 1636,
    "ĠÄįovjeka": 1637,
    "Å¡Äĩu": 1638,
    "eli": 1639,
    "kovi": 1640,
    "Ġputa": 1641,
    "Ġlepo": 1642,
    "Ka": 1643,
    "ĠstarjeÅ¡i": 1644,
    "nijami": 1645,
    "cem": 1646,
    "Ġsvat": 1647,
    "UTILOV": 1648,
    "oko": 1649,
    "god": 1650,
    "jE": 1651,
    "dna": 1652,
    "ĠNo": 1653,
    "?âĢľ": 1654,
    "godi": 1655,
    "ita": 1656,
    "zda": 1657,
    "Å½UTILOV": 1658,
    "nosi": 1659,
    "ĠSu": 1660,
    "povije": 1661,
    "vaÅ¡e": 1662,
    "govi": 1663,
    "Ġzele": 1664,
    "38": 1665,
    "Ġstu": 1666,
    "jer": 1667,
    "Ġkroz": 1668,
    "osle": 1669,
    "gor": 1670,
    "nd": 1671,
    "Å¾da": 1672,
    "Ġprija": 1673,
    "lam": 1674,
    "lob": 1675,
    "ĠDo": 1676,
    "Ġkak": 1677,
    "skih": 1678,
    "rica": 1679,
    "Ġopa": 1680,
    "ĠÄĩemo": 1681,
    "Ġmore": 1682,
    "Ġstar": 1683,
    "he": 1684,
    "Izrailje": 1685,
    "Ġvjer": 1686,
    "ĠÅ¡i": 1687,
    "Ġvese": 1688,
    "Ġnjoj": 1689,
    "Ġal": 1690,
    "VRI": 1691,
    "dio": 1692,
    "LOVIÄĨ": 1693,
    "VRILOVIÄĨ": 1694,
    "osa": 1695,
    "ĠTvoj": 1696,
    "pusti": 1697,
    "ĠFiliste": 1698,
    "Ġmilost": 1699,
    "40": 1700,
    "Ġbes": 1701,
    "ĠbeÅ¡e": 1702,
    "Äįki": 1703,
    "Ġpogleda": 1704,
    "Ġkoga": 1705,
    "Ġrad": 1706,
    "GAVRILOVIÄĨ": 1707,
    "Ġsrp": 1708,
    "ĠÄĳavo": 1709,
    "Ġhra": 1710,
    "ĠHe": 1711,
    "dej": 1712,
    "Ġbolje": 1713,
    "ĠdrÅ¾a": 1714,
    "Ġjezi": 1715,
    "ĠSad": 1716,
    "hva": 1717,
    "Ġubi": 1718,
    "pisa": 1719,
    "Ġvije": 1720,
    "stupi": 1721,
    "Ġzema": 1722,
    "tne": 1723,
    "Ġname": 1724,
    "Ġimao": 1725,
    "av": 1726,
    "ljena": 1727,
    "Ġnjegovijem": 1728,
    "Ġnjihova": 1729,
    "ĠbezboÅ¾": 1730,
    "ĠPav": 1731,
    "!âĢľ": 1732,
    "Ġtom": 1733,
    "ĠSt": 1734,
    "Ġnov": 1735,
    "tim": 1736,
    "dija": 1737,
    "ĠKu": 1738,
    "ĠNego": 1739,
    "Ġobra": 1740,
    "Ġkome": 1741,
    "Ġglave": 1742,
    "Ġsvet": 1743,
    "njega": 1744,
    "ĠDavidu": 1745,
    "Ġsvijeh": 1746,
    "Ġzapovjedio": 1747,
    "ijeh": 1748,
    "ĠkaÅ¾em": 1749,
    "?âĢĿ": 1750,
    "Ġvina": 1751,
    "Ġ'": 1752,
    "Å¡li": 1753,
    "ĠuÄįinio": 1754,
    "Ġbezako": 1755,
    "jo": 1756,
    "Ġovi": 1757,
    "VA": 1758,
    "njih": 1759,
    "Ġmojega": 1760,
    "nko": 1761,
    "ĠAra": 1762,
    "LI": 1763,
    "ĠMo": 1764,
    "Ġpravo": 1765,
    "MIÅłIÄĨ": 1766,
    "reÄįe": 1767,
    "Ġsvojom": 1768,
    "ĠJakov": 1769,
    "Ġstotina": 1770,
    "nite": 1771,
    "tiv": 1772,
    "39": 1773,
    "rem": 1774,
    "tkr": 1775,
    "ĠlaÅ¾": 1776,
    "misli": 1777,
    "ĠkuÄĩu": 1778,
    "Ġhajdu": 1779,
    "TAR": 1780,
    "Äįno": 1781,
    "Ġpraved": 1782,
    "Ġizva": 1783,
    "ĠÄįuje": 1784,
    "ĠÄĳevojku": 1785,
    "Ġvrlo": 1786,
    "ĠÄĮamÄįa": 1787,
    ").": 1788,
    "ĠÅ¡u": 1789,
    "Ġduka": 1790,
    "tje": 1791,
    "nasi": 1792,
    "ĠSolomun": 1793,
    "PRVA": 1794,
    "Äįka": 1795,
    "Ġupita": 1796,
    "nin": 1797,
    "Ġjednom": 1798,
    "ĠIzrailjev": 1799,
    "ĠVenijami": 1800,
    "David": 1801,
    "Hri": 1802,
    "Ġrazu": 1803,
    "vrÅ¡i": 1804,
    "rta": 1805,
    "tka": 1806,
    "Ġoba": 1807,
    "dar": 1808,
    "Ġkola": 1809,
    "Ġpop": 1810,
    "duÄĩi": 1811,
    "slu": 1812,
    "Ġtar": 1813,
    "Ġsrca": 1814,
    "ĠJerusalim": 1815,
    "rti": 1816,
    "Ġpobrati": 1817,
    "SVE": 1818,
    "remi": 1819,
    "Ġnama": 1820,
    "Ġkojega": 1821,
    "Ġnesre": 1822,
    "Ġlice": 1823,
    "Ġdevet": 1824,
    "Ġruka": 1825,
    "Ġdao": 1826,
    "Ġlisi": 1827,
    "Ġgore": 1828,
    "Ġovde": 1829,
    "Ġcarova": 1830,
    "Ġumrije": 1831,
    "ĠNjemu": 1832,
    "Ġevo": 1833,
    "SVETO": 1834,
    "gda": 1835,
    "Ġbaci": 1836,
    "Ġgospoda": 1837,
    "ĠCrno": 1838,
    "ĠiziÄĳe": 1839,
    "Ġovaj": 1840,
    "Ġdije": 1841,
    "ĠAmo": 1842,
    "Ġdeset": 1843,
    "ĠIzrailjevijem": 1844,
    "ĠsluÅ¾i": 1845,
    "skim": 1846,
    "ĠBoÅ¾ji": 1847,
    "tak": 1848,
    "Ġnju": 1849,
    "ĠzaÄįu": 1850,
    "ĠÅ¡Äĩe": 1851,
    "titi": 1852,
    "ĠpoÄįne": 1853,
    "Åłto": 1854,
    "svoj": 1855,
    "ram": 1856,
    "ovoj": 1857,
    "njeg": 1858,
    "ĠJef": 1859,
    "ĠMisi": 1860,
    "ĠJerusalimu": 1861,
    "Ġnasljedstvo": 1862,
    "Ġhaljine": 1863,
    "To": 1864,
    "Ġkru": 1865,
    "Ġzma": 1866,
    "tri": 1867,
    "kar": 1868,
    "ĠkaluÄĳe": 1869,
    "Ġistrije": 1870,
    "Sud": 1871,
    "lost": 1872,
    "Ġzemalj": 1873,
    "liti": 1874,
    "Onda": 1875,
    "sv": 1876,
    "Ġtiri": 1877,
    "ĠIzrailjevijeh": 1878,
    "ĠJor": 1879,
    "ĠNjim": 1880,
    "Ġzemlja": 1881,
    "Ġnoge": 1882,
    "Ġjunak": 1883,
    "klo": 1884,
    "nan": 1885,
    "Ġtrideset": 1886,
    "ĠAron": 1887,
    "Ġodgovara": 1888,
    "ĠvaÅ¡i": 1889,
    "LA": 1890,
    "Ġkre": 1891,
    "Ġmate": 1892,
    "Ġljubi": 1893,
    "ÄĮIKA": 1894,
    "ĠGo": 1895,
    "ĠÅ¡ato": 1896,
    "!âĢĿ": 1897,
    "Ġonu": 1898,
    "Ġuve": 1899,
    "Ġnikad": 1900,
    "Ġgrada": 1901,
    "Ġsvijet": 1902,
    "ĠKraljeviÄĩu": 1903,
    "Ã¢": 1904,
    "Ġveliki": 1905,
    "RU": 1906,
    "Ġizbr": 1907,
    "ĠSamu": 1908,
    "nama": 1909,
    "ĠDuh": 1910,
    "?...": 1911,
    "Ġsoko": 1912,
    "lim": 1913,
    "Ġvu": 1914,
    "Sa": 1915,
    "Ġpjeva": 1916,
    "Ġjede": 1917,
    "RUGA": 1918,
    "Ġdjela": 1919,
    "plje": 1920,
    "Ġbor": 1921,
    "DRUGA": 1922,
    "ĠAma": 1923,
    "ĠAhi": 1924,
    "ĠÅ¡est": 1925,
    "ĠGospodnja": 1926,
    "Ġmir": 1927,
    "ÄĲE": 1928,
    "sna": 1929,
    "tku": 1930,
    "Ġdosta": 1931,
    "obi": 1932,
    "vaju": 1933,
    "lova": 1934,
    "ĠkovÄįeg": 1935,
    "Ġsastanka": 1936,
    "Ġmjeseca": 1937,
    "*Jovan": 1938,
    "Ġsvojijem": 1939,
    "Ġlje": 1940,
    "?\"Ċ": 1941,
    "ndu": 1942,
    "ĠnaÅ¡": 1943,
    "ĠOna": 1944,
    "ĠMarka": 1945,
    "Ġpesma": 1946,
    "ĠÄįoe": 1947,
    "ICA": 1948,
    "sr": 1949,
    "vanÄĳe": 1950,
    "Ġtvoja": 1951,
    "com": 1952,
    "dri": 1953,
    "Ġizda": 1954,
    "tiri": 1955,
    "Å¡lja": 1956,
    "Gospodu": 1957,
    "ĠÅ¾ene": 1958,
    "Otkr": 1959,
    "ĠÄįovjeÄį": 1960,
    "Ġstoji": 1961,
    "Ta": 1962,
    "ali": 1963,
    "Ġonoga": 1964,
    "Ġpolju": 1965,
    "neka": 1966,
    "emu": 1967,
    "ĠstadoÅ¡e": 1968,
    ".K": 1969,
    "Äĩo": 1970,
    "Ġpasti": 1971,
    "Ġnarodima": 1972,
    "doh": 1973,
    "Ġtijelo": 1974,
    "tna": 1975,
    "Ġsablju": 1976,
    "Ìĵ": 1977,
    "Ġbli": 1978,
    "ĠdoÅ¡ao": 1979,
    "Ġsvetu": 1980,
    "ĠPri": 1981,
    "Ġnemoj": 1982,
    "goÅ¡e": 1983,
    "Ġhu": 1984,
    "ĠPO": 1985,
    "Ġhva": 1986,
    "Ġovoga": 1987,
    "laÄįe": 1988,
    "):": 1989,
    "ĠLeviti": 1990,
    "oh": 1991,
    "Ġnevo": 1992,
    "Ġhodi": 1993,
    "posto": 1994,
    "gr": 1995,
    "Ġvodu": 1996,
    "Ġsvome": 1997,
    "RE": 1998,
    "Ġho": 1999,
    "ona": 2000,
    "onu": 2001,
    "nac": 2002,
    "jahu": 2003,
    "Ġdar": 2004,
    "ĠPi": 2005,
    "Ġmati": 2006,
    "Ġeto": 2007,
    "Ġdevojka": 2008,
    "JU": 2009,
    "Å¡ka": 2010,
    "ĠBe": 2011,
    "Ġdruga": 2012,
    "Ġkraj": 2013,
    "nes": 2014,
    "vite": 2015,
    "ganj": 2016,
    "Å¾ite": 2017,
    "ĠJevre": 2018,
    "ĠSin": 2019,
    "ĠCr": 2020,
    "Ko": 2021,
    "ose": 2022,
    "Ġtak": 2023,
    "Ġdrug": 2024,
    "Ġboj": 2025,
    "Ġprinese": 2026,
    "Ġmjestu": 2027,
    "ĠHa": 2028,
    "*Luka": 2029,
    "ĠNije": 2030,
    "ĠZem": 2031,
    "ĠMeni": 2032,
    "EVAN": 2033,
    "Ġpot": 2034,
    "Ġpolje": 2035,
    "ĠdoÄįe": 2036,
    "ĠneÄĩu": 2037,
    "Äįiti": 2038,
    "ARA": 2039,
    "OVAN": 2040,
    "Ġpostavi": 2041,
    "Ġsramo": 2042,
    "stra": 2043,
    "Ġtek": 2044,
    "roda": 2045,
    "Ġjednoga": 2046,
    "ĠMili": 2047,
    "\",": 2048,
    "Ġove": 2049,
    "lan": 2050,
    "niji": 2051,
    "Ġsveti": 2052,
    "fi": 2053,
    "Ġpleme": 2054,
    "Ġtvojega": 2055,
    "Ġblud": 2056,
    "Ġnapisa": 2057,
    "*Mar": 2058,
    "Ġrekoh": 2059,
    "niÄįki": 2060,
    "ĠHristos": 2061,
    "voga": 2062,
    "Ġobla": 2063,
    "Ġhilja": 2064,
    "IÄĮ": 2065,
    "sle": 2066,
    "*Isus": 2067,
    "var": 2068,
    "ĠManasi": 2069,
    "nov": 2070,
    "sje": 2071,
    "Ġmr": 2072,
    "Äįan": 2073,
    "ĠÄĮovje": 2074,
    "Ġspase": 2075,
    "Ġmra": 2076,
    "Äįke": 2077,
    "cija": 2078,
    "âĢĿ,": 2079,
    "Pita": 2080,
    "Ġbaba": 2081,
    "Ġfo": 2082,
    "Ġdati": 2083,
    "Å¾d": 2084,
    "Ġzakle": 2085,
    "Ġpedeset": 2086,
    "Ġbudu": 2087,
    "Pe": 2088,
    "Ti": 2089,
    "pla": 2090,
    "vara": 2091,
    "Ġreci": 2092,
    "Äĳahu": 2093,
    "uj": 2094,
    "Ġslob": 2095,
    "tio": 2096,
    "Ġkonj": 2097,
    "ĠstraÅ¡": 2098,
    "Ġvremena": 2099,
    "rin": 2100,
    "ĠjoÅ¡t": 2101,
    "gre": 2102,
    "Ġmnom": 2103,
    "Ġprve": 2104,
    "ĠDavida": 2105,
    "ĠJEVAN": 2106,
    "Ġkojima": 2107,
    "ĠJEVANÄĲE": 2108,
    "Ġbogu": 2109,
    "Ġnekoliko": 2110,
    "ĠSrbi": 2111,
    "Ġonijeh": 2112,
    "Ġognje": 2113,
    "ĠIz": 2114,
    "ĠAsa": 2115,
    "Ġmaga": 2116,
    "zdra": 2117,
    "ĠLjE": 2118,
    "rusalim": 2119,
    "\"O": 2120,
    "losti": 2121,
    "Ġobu": 2122,
    "ĠKre": 2123,
    "Ġjunaka": 2124,
    "Ġdalje": 2125,
    "ĠpoÅ¡te": 2126,
    "ĠreÄĩi": 2127,
    "fe": 2128,
    "ĠAha": 2129,
    "Ġgradu": 2130,
    "Ġdrve": 2131,
    "grijeÅ¡i": 2132,
    "sne": 2133,
    "gubi": 2134,
    "JOVAN": 2135,
    "tko": 2136,
    "ĠGe": 2137,
    "cari": 2138,
    "ĠNem": 2139,
    "njaÅ¡e": 2140,
    "ĠMisir": 2141,
    "ĠNjegova": 2142,
    "Ġpropa": 2143,
    "povijeda": 2144,
    "Ġlo": 2145,
    "Do": 2146,
    "ĠpoÅ¡": 2147,
    "Ġnjime": 2148,
    "Ġobe": 2149,
    "Äįio": 2150,
    "stvu": 2151,
    "Ġstarac": 2152,
    "EVICA": 2153,
    "41": 2154,
    "Ġpobje": 2155,
    "zida": 2156,
    "tac": 2157,
    "ĠnaÅ¡ega": 2158,
    "lika": 2159,
    "ZE": 2160,
    "lio": 2161,
    "JUCA": 2162,
    "Ġsvemu": 2163,
    "Gospoda": 2164,
    "rise": 2165,
    "Ġzvije": 2166,
    "Ġnezna": 2167,
    "Å¡ke": 2168,
    "vor": 2169,
    "Ġstrane": 2170,
    "ĠPera": 2171,
    "Ġizvadi": 2172,
    "vaj": 2173,
    "42": 2174,
    "Äįem": 2175,
    "ron": 2176,
    "Ġrekao": 2177,
    "ĠSinova": 2178,
    "Ġvratima": 2179,
    "ĠpodiÅ¾e": 2180,
    "Ġvavilon": 2181,
    "Dan": 2182,
    "Ġsmrt": 2183,
    "Ġpovi": 2184,
    "Ġniz": 2185,
    "Äĩan": 2186,
    "Ġmom": 2187,
    "lin": 2188,
    "vore": 2189,
    "sma": 2190,
    "Ġfaraon": 2191,
    "laze": 2192,
    "Ġtrije": 2193,
    "Ġljubav": 2194,
    "GO": 2195,
    "knu": 2196,
    "Ġpov": 2197,
    "Äįko": 2198,
    "Ġsvu": 2199,
    "ĠTu": 2200,
    "Mi": 2201,
    "telja": 2202,
    "Ġmana": 2203,
    "Ġhte": 2204,
    "Ġcije": 2205,
    "Ġispred": 2206,
    "OSL": 2207,
    "Ġzbog": 2208,
    ".Kor": 2209,
    "TE": 2210,
    "tno": 2211,
    "tke": 2212,
    "Äįar": 2213,
    "Ġar": 2214,
    "Ġprste": 2215,
    "niju": 2216,
    "Ġvezi": 2217,
    "Ġmajka": 2218,
    "46": 2219,
    "Ġsinu": 2220,
    "ljem": 2221,
    "Ġkoljena": 2222,
    "sim": 2223,
    "sin": 2224,
    "Ġzlata": 2225,
    "Ġblagoslovi": 2226,
    "Rim": 2227,
    "Ġoganj": 2228,
    "Ġlaka": 2229,
    "Ġvidjeh": 2230,
    "ANICA": 2231,
    "OSLANICA": 2232,
    "EG": 2233,
    "Ġpoja": 2234,
    "ruÅ¾": 2235,
    "ĠNova": 2236,
    "ĠÄįesti": 2237,
    "Ġfe": 2238,
    "Ġvojvoda": 2239,
    "SARA": 2240,
    "ban": 2241,
    "ĠÄįetiri": 2242,
    "obro": 2243,
    "Ġpotom": 2244,
    "jin": 2245,
    "Ġzapa": 2246,
    "sina": 2247,
    "Ġtada": 2248,
    "Ġtvr": 2249,
    "Ġnjihovu": 2250,
    "grad": 2251,
    "Ġoltaru": 2252,
    "ĠNemoj": 2253,
    "43": 2254,
    "ĠJeremi": 2255,
    "ĠBoÅ¾ij": 2256,
    "ĠgovoraÅ¡e": 2257,
    "tro": 2258,
    "Od": 2259,
    "Ġnova": 2260,
    "stane": 2261,
    "Ġkud": 2262,
    "bolje": 2263,
    "Ġdruge": 2264,
    "Å¡ki": 2265,
    "Ġnjegovi": 2266,
    "hval": 2267,
    "44": 2268,
    "ĠbraÄĩo": 2269,
    "ĠodgovarajuÄĩi": 2270,
    "dnu": 2271,
    "nome": 2272,
    "Ġpije": 2273,
    "lice": 2274,
    "Ġdugo": 2275,
    "Ġbrat": 2276,
    "Ġdvoru": 2277,
    "Ġmoju": 2278,
    "Ġuhvati": 2279,
    "ver": 2280,
    "LEN": 2281,
    "oma": 2282,
    "Ġosam": 2283,
    "Ġsvom": 2284,
    "ĠimaÅ¡e": 2285,
    "Ġoltar": 2286,
    "nesoÅ¡e": 2287,
    "Ġtje": 2288,
    "Ġsvima": 2289,
    "viÄĩ": 2290,
    "Ġdopa": 2291,
    "Ġsuze": 2292,
    "ĠVu": 2293,
    "Ġonako": 2294,
    "Tako": 2295,
    "Ñķ": 2296,
    "Ġmese": 2297,
    "mija": 2298,
    "RUÅ½": 2299,
    "Ġpogre": 2300,
    "ĠZaÅ¡to": 2301,
    "Ġporodicama": 2302,
    "ĠAvram": 2303,
    "Pri": 2304,
    "ĠPOSLANICA": 2305,
    "ĠÄįine": 2306,
    "Å¡tvo": 2307,
    "Ġneznabo": 2308,
    "lov": 2309,
    "tvori": 2310,
    "Ġmesto": 2311,
    "Ġnisu": 2312,
    "Ġkupi": 2313,
    "IÄĨKA": 2314,
    "Ġdobra": 2315,
    "Ġsunce": 2316,
    "IÄĮIÄĨ": 2317,
    "AV": 2318,
    "Ġpoto": 2319,
    "Å¾aÅ¡e": 2320,
    "ĠIzrailjem": 2321,
    "ĠJonata": 2322,
    "zemlju": 2323,
    "Lj": 2324,
    "nego": 2325,
    "ĠvjeÄį": 2326,
    "Ġokre": 2327,
    "Ġnatra": 2328,
    "Ġdoba": 2329,
    "Ġonde": 2330,
    "Ġcarstvo": 2331,
    "ĠÄįeka": 2332,
    "Ġgor": 2333,
    "Ġkrila": 2334,
    "Ġdijete": 2335,
    "riti": 2336,
    "ĠboÅ¾": 2337,
    "LENIÄĨKA": 2338,
    "Ġnjihovijeh": 2339,
    "ĠtisuÄĩe": 2340,
    "Ġneprijatelja": 2341,
    "ĠJordana": 2342,
    "bli": 2343,
    "XV": 2344,
    "jom": 2345,
    "nem": 2346,
    "ĠdoÄĳu": 2347,
    "ĠreÄįi": 2348,
    "Ġprotiv": 2349,
    "Äįak": 2350,
    "ĠnoÄĩ": 2351,
    "ĠÅ¾eni": 2352,
    "Ġmlada": 2353,
    "Ġmladi": 2354,
    "Ġoda": 2355,
    "Ġselo": 2356,
    "ZELENIÄĨKA": 2357,
    "Ġmanasti": 2358,
    "svijem": 2359,
    "Ġnamje": 2360,
    "ĠvaÅ¡": 2361,
    "Ġposve": 2362,
    "ĠotidoÅ¡e": 2363,
    "Ġvojsku": 2364,
    "ĠuÄĳe": 2365,
    "sima": 2366,
    "Sad": 2367,
    "Ġbri": 2368,
    "ĠPosle": 2369,
    "ĠvidiÅ¡": 2370,
    "Ġpesme": 2371,
    "blje": 2372,
    "Ġsle": 2373,
    "diÅ¡": 2374,
    "Ġpravi": 2375,
    "Ġpogla": 2376,
    "Ġtvojim": 2377,
    "Ġgori": 2378,
    "Ġistrijebi": 2379,
    "ĠIsusu": 2380,
    "ĠNjega": 2381,
    "ĠPolaÄįe": 2382,
    "Ġnatrag": 2383,
    "Ġr": 2384,
    "kli": 2385,
    "ÐĨ": 2386,
    "jedno": 2387,
    "Ġmog": 2388,
    "ĠVuk": 2389,
    "liÅ¡e": 2390,
    "Ġzacari": 2391,
    "Ġnjegovijeh": 2392,
    "ĠRu": 2393,
    "Ġstvari": 2394,
    "Ġtrdeset": 2395,
    "KI": 2396,
    "Ġonome": 2397,
    "ĠposluÅ¡a": 2398,
    "Ġslavu": 2399,
    "Ġbezum": 2400,
    "Ġsobom": 2401,
    "ĠÄįovjeÄįji": 2402,
    "BEG": 2403,
    "Ġkne": 2404,
    "rio": 2405,
    "ĠGru": 2406,
    "âĢľĊ": 2407,
    "âĢľ,": 2408,
    "ĠÅ¾enu": 2409,
    "Ġvideo": 2410,
    "-a": 2411,
    "Ma": 2412,
    "RUÅ½IÄĮIÄĨ": 2413,
    "ĠiÄĩi": 2414,
    "Ġsed": 2415,
    "Ġzavjet": 2416,
    "Ġspo": 2417,
    "Ġaposto": 2418,
    "ĠÅ¾ive": 2419,
    "ĠJanko": 2420,
    "Ġgot": 2421,
    "oÅ¡to": 2422,
    "Ġdrago": 2423,
    ".I": 2424,
    "ovoam": 2425,
    "Ġpodgra": 2426,
    "Ġcareva": 2427,
    "bjeÅ¡e": 2428,
    "Â«": 2429,
    "Â»": 2430,
    "reza": 2431,
    "ĠOvo": 2432,
    "188": 2433,
    "Ġrazum": 2434,
    "Ġdrugoga": 2435,
    "noviÄĩ": 2436,
    "Ġdve": 2437,
    "Ġkoj": 2438,
    "Ġneki": 2439,
    "Äĩepa": 2440,
    "gao": 2441,
    "Ġkole": 2442,
    "Ġprime": 2443,
    "Ġsvijetu": 2444,
    "Ġdvor": 2445,
    "ĠÄįas": 2446,
    "Ġnasta": 2447,
    "ĠsluÅ¾": 2448,
    "Ġzbor": 2449,
    "Ġizbavi": 2450,
    "45": 2451,
    "Mat": 2452,
    "ĠOca": 2453,
    "Ġznate": 2454,
    "Vi": 2455,
    "mla": 2456,
    "Ġumi": 2457,
    "met": 2458,
    "Ġfi": 2459,
    "Ġjednako": 2460,
    "dru": 2461,
    "Ġpje": 2462,
    "Ġjeze": 2463,
    "Ġprvi": 2464,
    "ĠGrbo": 2465,
    "ĠnaÅ¡i": 2466,
    "nesi": 2467,
    "mele": 2468,
    "kija": 2469,
    "ĠIzrailjeva": 2470,
    "Ġostavi": 2471,
    "ĠGospodnjega": 2472,
    "Ġzida": 2473,
    "ĠAvesa": 2474,
    "Ġgospodaru": 2475,
    "sla": 2476,
    "lica": 2477,
    "ĠKao": 2478,
    "Ġpokaza": 2479,
    "loga": 2480,
    "men": 2481,
    "Ġkonji": 2482,
    "Ġdes": 2483,
    "Ġotvori": 2484,
    "Ġblaga": 2485,
    "Äįaj": 2486,
    "boga": 2487,
    "Ġopra": 2488,
    "Ġizve": 2489,
    "ĠduÅ¡a": 2490,
    "ĠGala": 2491,
    "vljahu": 2492,
    "ĠTvoja": 2493,
    "*Otkr": 2494,
    "Sve": 2495,
    "Ġidu": 2496,
    "Jezek": 2497,
    "Ġpodignu": 2498,
    "Ġputu": 2499,
    "Ġpeva": 2500,
    "Ġpismo": 2501,
    "ĠbrÅ¾e": 2502,
    "ĠMiloÅ¡": 2503,
    "Ġfeuda": 2504,
    "nak": 2505,
    "dim": 2506,
    "ĠznaÅ¡": 2507,
    "novijeh": 2508,
    "kvr": 2509,
    "Ġobrati": 2510,
    "Ġnasi": 2511,
    "Ġgovore": 2512,
    "Kako": 2513,
    "koja": 2514,
    "nÄįa": 2515,
    "ĠoruÅ¾": 2516,
    "Ġukra": 2517,
    "Ġpoe": 2518,
    "vodi": 2519,
    "Ġupra": 2520,
    "Ġnek": 2521,
    "Ġnika": 2522,
    "Ġmajsto": 2523,
    "bro": 2524,
    "lagos": 2525,
    "car": 2526,
    "Ġtem": 2527,
    "ĠÅ¾iv": 2528,
    "ĠoÄįisti": 2529,
    "Ġhljeb": 2530,
    "Ġpaljenicu": 2531,
    "Ġdaje": 2532,
    "Ġnarodi": 2533,
    "ĠuÄįiniti": 2534,
    "lomi": 2535,
    "proro": 2536,
    "drost": 2537,
    "Ġlakata": 2538,
    "tan": 2539,
    "Äįina": 2540,
    "Ġmej": 2541,
    "Ġbole": 2542,
    "Ġpripove": 2543,
    "Ġostane": 2544,
    "ĠÄĳevojka": 2545,
    "!\"": 2546,
    "Me": 2547,
    "co": 2548,
    "kve": 2549,
    "tari": 2550,
    "jak": 2551,
    "ĠÅ¡te": 2552,
    "sija": 2553,
    "Ġdvanaest": 2554,
    "ĠNjegove": 2555,
    "Ġpomaza": 2556,
    "zni": 2557,
    "koga": 2558,
    "ĠOtac": 2559,
    "stima": 2560,
    "Ġprima": 2561,
    "Ġljude": 2562,
    "ĠSina": 2563,
    "Ġspre": 2564,
    "ĠSvi": 2565,
    "Ġdete": 2566,
    "Ġsela": 2567,
    "Ġpola": 2568,
    "Ġjednog": 2569,
    "Ġgovoriti": 2570,
    "Ġkralj": 2571,
    "SA": 2572,
    "sva": 2573,
    "kala": 2574,
    "Ġposlije": 2575,
    "ĠFilisteji": 2576,
    "AVI": 2577,
    "Ġsil": 2578,
    "Ġdonese": 2579,
    "Ġvelika": 2580,
    "ĠÄįak": 2581,
    "ĠskoÄįi": 2582,
    "ĠStoj": 2583,
    "Ġkom": 2584,
    "bija": 2585,
    "Ġskupi": 2586,
    "Ġocu": 2587,
    "Ġzahval": 2588,
    "okolo": 2589,
    "koÅ¡e": 2590,
    "dati": 2591,
    "Äįite": 2592,
    "Ġgad": 2593,
    "puni": 2594,
    "\".": 2595,
    "Ali": 2596,
    "mrt": 2597,
    "vna": 2598,
    "Ġsku": 2599,
    "Å¡ku": 2600,
    "Ġpoklo": 2601,
    "ĠkÄĩer": 2602,
    "Ġpoje": 2603,
    "Ġimam": 2604,
    "govor": 2605,
    "Ġvidim": 2606,
    "ĠTurÄįin": 2607,
    "ih": 2608,
    "Ġsazida": 2609,
    "Ġposa": 2610,
    "Å¾ahu": 2611,
    "ĠEli": 2612,
    "ĠBogom": 2613,
    "ĠsveÅ¡tenika": 2614,
    "ĠTebe": 2615,
    "ilistej": 2616,
    "Nje": 2617,
    "Pro": 2618,
    "cje": 2619,
    "Ġnevje": 2620,
    "ĠJevanÄĳe": 2621,
    "Ġslava": 2622,
    "ĠdÅ¾e": 2623,
    "Å¡la": 2624,
    "leko": 2625,
    "dok": 2626,
    "Ġbijelu": 2627,
    "zor": 2628,
    "Å¡o": 2629,
    "Ġbar": 2630,
    "Ġcve": 2631,
    "Ġgospodin": 2632,
    "*Sud": 2633,
    "vahu": 2634,
    "Ġvisi": 2635,
    "ĠuÄįenici": 2636,
    "Ġvjerova": 2637,
    "voji": 2638,
    "leti": 2639,
    "Ġkonje": 2640,
    "ĠLuj": 2641,
    "Ġknjigu": 2642,
    "ĠKosovo": 2643,
    "Ġ...": 2644,
    "blji": 2645,
    "vica": 2646,
    "san": 2647,
    "ila": 2648,
    "Ġured": 2649,
    "naokolo": 2650,
    "Ġveoma": 2651,
    "Ġpustinji": 2652,
    ".T": 2653,
    "Ġtvoji": 2654,
    "Ġpraz": 2655,
    "No": 2656,
    "Ġsja": 2657,
    "lat": 2658,
    "ĠÄįar": 2659,
    "Ġprosi": 2660,
    "Ġgospodara": 2661,
    "NAN": 2662,
    "Ġzu": 2663,
    "Ġsvr": 2664,
    "Ġzas": 2665,
    "ĠMad": 2666,
    "49": 2667,
    "rima": 2668,
    "mari": 2669,
    "Ġtele": 2670,
    "Ġstade": 2671,
    "Ġslugama": 2672,
    "Ġpaljenice": 2673,
    "48": 2674,
    "Äĳoh": 2675,
    "Ġhvali": 2676,
    "ĠÄįiniti": 2677,
    "Ġljudima": 2678,
    "Ġtijelu": 2679,
    "Ġusred": 2680,
    "Ra": 2681,
    "ĠproÄĳe": 2682,
    "rani": 2683,
    "malo": 2684,
    "Å¾ija": 2685,
    "ĠLi": 2686,
    "Ġknjiga": 2687,
    "ĠdomaÄĩi": 2688,
    "ĠpoÄįi": 2689,
    "Ġpogubi": 2690,
    "Ġimenu": 2691,
    "ĠMisira": 2692,
    "ĠSamuilo": 2693,
    "ĠGle": 2694,
    "Ġtam": 2695,
    "Ġpisa": 2696,
    "Ġproroku": 2697,
    "Ġgnjev": 2698,
    "ĠoÅ¾e": 2699,
    "Ġose": 2700,
    "Ġpogle": 2701,
    "Ġpade": 2702,
    "ĠVuka": 2703,
    "ĠÅłÄĩepa": 2704,
    "ljom": 2705,
    "uraka": 2706,
    "Ġsvatove": 2707,
    "ĠCrnogor": 2708,
    "Ġin": 2709,
    "Å¾de": 2710,
    "vala": 2711,
    "dem": 2712,
    "ĠkuÄĩa": 2713,
    "nca": 2714,
    "pome": 2715,
    "son": 2716,
    "Ġosim": 2717,
    "ĠsveÅ¡tenici": 2718,
    "ĠJoav": 2719,
    "Ġsvakoga": 2720,
    "Ġstanov": 2721,
    "ĠHristu": 2722,
    "svim": 2723,
    "zove": 2724,
    "Ġneba": 2725,
    "telju": 2726,
    "Ġizra": 2727,
    "Ġkonju": 2728,
    "ĠduÅ¡e": 2729,
    "ĠMarku": 2730,
    "ĠÄįisto": 2731,
    "JEVIÄĨ": 2732,
    ".Pita": 2733,
    "Ġvoda": 2734,
    "vice": 2735,
    "zima": 2736,
    "Ġglava": 2737,
    "Ġblizu": 2738,
    "odom": 2739,
    "Ġsvoja": 2740,
    "arise": 2741,
    "kijem": 2742,
    "uÄįe": 2743,
    "ĠReÄįe": 2744,
    "ladi": 2745,
    "Ġjedi": 2746,
    "ĠMR": 2747,
    "ĠCar": 2748,
    "ĠÅ¾ivota": 2749,
    "Bog": 2750,
    "Ġkla": 2751,
    "riji": 2752,
    "Ġzove": 2753,
    "Ġprevari": 2754,
    "Ġknjige": 2755,
    "ĠStoja": 2756,
    "-Ċ": 2757,
    "Jo": 2758,
    "Se": 2759,
    "ĠSime": 2760,
    "svojega": 2761,
    "cije": 2762,
    "Ġsmi": 2763,
    "Å¾ev": 2764,
    "Ġnjihov": 2765,
    "ĠSine": 2766,
    "Ġprijesto": 2767,
    "Ġgrob": 2768,
    "like": 2769,
    "Ġkuda": 2770,
    "ĠKreÄįar": 2771,
    "zde": 2772,
    "Ġovu": 2773,
    "Ġdaj": 2774,
    "Ġgvo": 2775,
    "Ġpomisli": 2776,
    "Ġkobi": 2777,
    "Ġver": 2778,
    "ĠboÅ¾e": 2779,
    "Ġdobri": 2780,
    "ĠHaj": 2781,
    "Ġdukata": 2782,
    "NANÄĮIKA": 2783,
    "nce": 2784,
    "uÄįini": 2785,
    "vih": 2786,
    "ĠJosa": 2787,
    "Ġprin": 2788,
    "ĠSinovi": 2789,
    "ĠDavidov": 2790,
    "Ġzid": 2791,
    "ĠmaÄį": 2792,
    "ĠPro": 2793,
    "ĠÄįovjeku": 2794,
    "Ġgovorahu": 2795,
    "godat": 2796,
    "ĠJevreji": 2797,
    "ĠÅ¾u": 2798,
    "Ġor": 2799,
    "liku": 2800,
    "ĠnoÄĩi": 2801,
    "OSIJA": 2802,
    "ODOSIJA": 2803,
    "ĠNiko": 2804,
    "KOJEVIÄĨ": 2805,
    "TEODOSIJA": 2806,
    "ĠMRKOJEVIÄĨ": 2807,
    "Ġrekne": 2808,
    "-A": 2809,
    "ET": 2810,
    "rej": 2811,
    "ĠJoÅ¡": 2812,
    "ĠdoÅ¡lja": 2813,
    "ĠUz": 2814,
    "ĠVala": 2815,
    "*Rim": 2816,
    "ĠMnom": 2817,
    "Ġviso": 2818,
    "baci": 2819,
    "ziva": 2820,
    "ĠXV": 2821,
    "vni": 2822,
    "liju": 2823,
    "Ġkape": 2824,
    "ĠTurcima": 2825,
    "Ġkrva": 2826,
    "Ni": 2827,
    "rice": 2828,
    "Ġmlad": 2829,
    "Ġlisica": 2830,
    "tva": 2831,
    "ĠmeÄĳa": 2832,
    "ĠIzrailjeve": 2833,
    "ĠÅ¾rtva": 2834,
    "vljaÅ¡e": 2835,
    "ĠÅłatora": 2836,
    "Ġpomi": 2837,
    "ĠJE": 2838,
    "Ġsudi": 2839,
    "Ġraza": 2840,
    "Ġpusto": 2841,
    "ĠÄįuva": 2842,
    "Ġstrah": 2843,
    "ĠÄĮu": 2844,
    "ĠDuha": 2845,
    "sme": 2846,
    "Ġski": 2847,
    "Ġkos": 2848,
    "ĠSte": 2849,
    "Ġjabu": 2850,
    "ĠDe": 2851,
    "Ġpose": 2852,
    "Ġdvora": 2853,
    "ĠdoÄįeka": 2854,
    "Ġlep": 2855,
    "MITAR": 2856,
    "50": 2857,
    "Ve": 2858,
    "ir": 2859,
    "Ġpti": 2860,
    "lea": 2861,
    "salam": 2862,
    "Ġcarem": 2863,
    "ĠVet": 2864,
    "Ġneprijatelji": 2865,
    "Si": 2866,
    "Ġblag": 2867,
    ".)": 2868,
    "omÄįi": 2869,
    "Ġstre": 2870,
    "ĠgospoÄĳa": 2871,
    "Te": 2872,
    "dbi": 2873,
    "naj": 2874,
    "len": 2875,
    "bora": 2876,
    "Ġdrugu": 2877,
    "Ġrukom": 2878,
    "Ġljube": 2879,
    "Ġglavi": 2880,
    "Ġznao": 2881,
    "Ġpamet": 2882,
    "Ġforin": 2883,
    "47": 2884,
    "raz": 2885,
    "Ġuza": 2886,
    "Ġunaokolo": 2887,
    "Ġsikala": 2888,
    "Ġmjesta": 2889,
    "Ġuzmi": 2890,
    "Ġfilistej": 2891,
    "sveÅ¡te": 2892,
    "ĠJefrem": 2893,
    "mno": 2894,
    "Ġpobije": 2895,
    "ĠsaÄįu": 2896,
    "Ġpristupi": 2897,
    "Ġnarode": 2898,
    "ĠNeÄĩe": 2899,
    "Ġuzda": 2900,
    "Ġslave": 2901,
    "Ġfarise": 2902,
    "Ġvjeruje": 2903,
    "__": 2904,
    "Ġute": 2905,
    "Ġpobe": 2906,
    "jutra": 2907,
    "Ġdolazi": 2908,
    "ĠTuraka": 2909,
    "Ġsinko": 2910,
    "Åłta": 2911,
    "Ġvojske": 2912,
    "ĠCa": 2913,
    "Ġcrkvu": 2914,
    "nÄįi": 2915,
    "Ġmoji": 2916,
    "piti": 2917,
    "Ġovom": 2918,
    "Ġpolovi": 2919,
    "Ġslugu": 2920,
    "ĠduÅ¡u": 2921,
    "Ġobje": 2922,
    "Ġnjegovoj": 2923,
    "Ġpokri": 2924,
    "Ġzakon": 2925,
    "Ġopr": 2926,
    "Ġhljeba": 2927,
    "svojim": 2928,
    "Ġizbroje": 2929,
    "*Dan": 2930,
    "hod": 2931,
    "vla": 2932,
    "vas": 2933,
    "Hrist": 2934,
    "Ġpru": 2935,
    "Ġsama": 2936,
    "Ġizgleda": 2937,
    "Ġkoplje": 2938,
    "ĠTurke": 2939,
    "Ġsobu": 2940,
    "ĠoÄįima": 2941,
    "Ġpesmama": 2942,
    "ĠÄįoek": 2943,
    "op": 2944,
    "Ġvos": 2945,
    "Ġselu": 2946,
    "ĠreÄį": 2947,
    "Ġkazati": 2948,
    "fat": 2949,
    "niÅ¡e": 2950,
    "Ġkojim": 2951,
    "Ġprinosi": 2952,
    "Ġgradove": 2953,
    "Ġbogovima": 2954,
    "ĠTebi": 2955,
    "ĠAronu": 2956,
    "ĠstarjeÅ¡ine": 2957,
    "bla": 2958,
    "hodi": 2959,
    "neÄĩe": 2960,
    "ĠBla": 2961,
    "Ġnjihovo": 2962,
    "Ġgora": 2963,
    "Ġosve": 2964,
    "ĠBoÅ¾ija": 2965,
    "Ġbezakonje": 2966,
    "!...Ċ": 2967,
    "Ako": 2968,
    "rÄįe": 2969,
    "snu": 2970,
    "Äĩom": 2971,
    "Ġsine": 2972,
    "moli": 2973,
    "Ġispod": 2974,
    "Ġcrkve": 2975,
    "Ġkojoj": 2976,
    "Äįnu": 2977,
    "Ġdam": 2978,
    "Ġpopa": 2979,
    "tem": 2980,
    "ĠDobro": 2981,
    "ĠZna": 2982,
    "nane": 2983,
    "Ġsrebra": 2984,
    "vrati": 2985,
    "Ġnamjesti": 2986,
    "Ġnada": 2987,
    "koje": 2988,
    "ĠJovan": 2989,
    "ĠizvrÅ¡i": 2990,
    "Ġvjere": 2991,
    "Ġdjelo": 2992,
    "ĠdrÅ¾i": 2993,
    "Isusa": 2994,
    "ricanje": 2995,
    "PA": 2996,
    "dovi": 2997,
    "tao": 2998,
    "Ġveka": 2999,
    "ĠPre": 3000,
    "ĠtuÅ¾": 3001,
    "Ġumre": 3002,
    "Ku": 3003,
    "pomi": 3004,
    "rez": 3005,
    "Ġvaro": 3006,
    "ĠmoÅ¾eÅ¡": 3007,
    "Ġotku": 3008,
    "ĠIdi": 3009,
    "ĠGad": 3010,
    "ĠÄįinjaÅ¡e": 3011,
    "Ġgradovima": 3012,
    "njoj": 3013,
    "Ġizabra": 3014,
    "Ġstotine": 3015,
    "vuhod": 3016,
    "Ġrazd": 3017,
    "mbo": 3018,
    "Ġproda": 3019,
    "Äįku": 3020,
    "Ġzve": 3021,
    "Ġjedne": 3022,
    "Ġstanu": 3023,
    "Ġlako": 3024,
    "Ġpesmi": 3025,
    "io": 3026,
    "us": 3027,
    "telji": 3028,
    "Å¡iti": 3029,
    "zan": 3030,
    "SILI": 3031,
    "ĠMadÅ¾a": 3032,
    "SILIJE": 3033,
    "Nem": 3034,
    "povjedi": 3035,
    "Ġmiri": 3036,
    "ĠmaÄįem": 3037,
    "ĠneÄĩeÅ¡": 3038,
    "ĠnaÄįiniÅ¡e": 3039,
    "51": 3040,
    "vam": 3041,
    "Ġnijesu": 3042,
    "onos": 3043,
    "PriÄįe": 3044,
    "ĠneznaboÅ¡": 3045,
    "Ġci": 3046,
    "Mo": 3047,
    "Ġpote": 3048,
    "tor": 3049,
    "toga": 3050,
    "Ġjedva": 3051,
    "âĢĿ.": 3052,
    "trahi": 3053,
    "posle": 3054,
    "Ġglasom": 3055,
    "DI": 3056,
    "jedan": 3057,
    "Ġdla": 3058,
    "Ġselja": 3059,
    "pozna": 3060,
    "Ġjo": 3061,
    "Ġljub": 3062,
    "ĠsreÄĩa": 3063,
    "Ġzlat": 3064,
    "svi": 3065,
    "narod": 3066,
    "ĠAza": 3067,
    "Mojsije": 3068,
    "Ġvelik": 3069,
    "Ġgoru": 3070,
    "Ġdjevoj": 3071,
    "Ġmisirske": 3072,
    "ĠRuvim": 3073,
    "mr": 3074,
    "Ġpoko": 3075,
    "Ġsavje": 3076,
    "diÅ¡e": 3077,
    "Ġpropovijeda": 3078,
    "ĠLju": 3079,
    "ĠÄįinite": 3080,
    "Ġsiroma": 3081,
    "leta": 3082,
    "ĠteÅ¡ko": 3083,
    "Ġcarica": 3084,
    "nk": 3085,
    "td": 3086,
    "Ġpove": 3087,
    "ÄįiÄĩ": 3088,
    "Ġsveta": 3089,
    "Ġzapove": 3090,
    "Ġpoznati": 3091,
    "VASILIJE": 3092,
    "dad": 3093,
    "Äĳem": 3094,
    "Ġmojemu": 3095,
    "Ġsedamdeset": 3096,
    "Å¾drije": 3097,
    "Ġsami": 3098,
    "Ġnijesam": 3099,
    "Ġglavari": 3100,
    "Ġgovorim": 3101,
    "krse": 3102,
    "ĠBoÅ¾iju": 3103,
    "Ġutvr": 3104,
    "Ġsmrti": 3105,
    "Ġmilosti": 3106,
    "ĠPavle": 3107,
    "rina": 3108,
    "Ġgru": 3109,
    "ĠkaÅ¾u": 3110,
    "Ġzavi": 3111,
    "Ġsasvim": 3112,
    "stom": 3113,
    "ĠkoÅ¡u": 3114,
    "Ġbese": 3115,
    "Ġglavom": 3116,
    "ĠĠĠĠĠĠĠĠĠĠĠĠĠĠĠĠĠĠĠĠĠĠĠĠĠĠĠĠĠĠĠĠ": 3117,
    "Ġdragi": 3118,
    "Ġvojvode": 3119,
    "):Ċ": 3120,
    "jed": 3121,
    "ĠkaÅ¾i": 3122,
    "log": 3123,
    "Ġsum": 3124,
    "miÅ¡": 3125,
    "ĠPra": 3126,
    "Ġboja": 3127,
    "Ġruci": 3128,
    "Ġnaslije": 3129,
    "osilja": 3130,
    "Ġgradova": 3131,
    "Ġnjezina": 3132,
    "Ġknezovi": 3133,
    "jeÅ¡": 3134,
    "Ġosu": 3135,
    "Ġklije": 3136,
    "ĠIli": 3137,
    "Ġjavi": 3138,
    "ĠOsta": 3139,
    "Ġglasa": 3140,
    "ĠZaista": 3141,
    "Ġkrvi": 3142,
    "Ġmrtvijeh": 3143,
    "!âĢľĊ": 3144,
    "ĠobeÄĩa": 3145,
    "lome": 3146,
    "og": 3147,
    "nad": 3148,
    "Ġvoje": 3149,
    "Ġkur": 3150,
    "Ġbane": 3151,
    "ĠRad": 3152,
    "NjA": 3153,
    "Ġnjom": 3154,
    "Ġvladi": 3155,
    "ĠÅ¡iro": 3156,
    "Ġprsten": 3157,
    "ĠÄĩ": 3158,
    "Ġdos": 3159,
    "jati": 3160,
    "vajuÄĩi": 3161,
    "din": 3162,
    "vog": 3163,
    "str": 3164,
    "luk": 3165,
    "Ġtor": 3166,
    "Ġdrugom": 3167,
    "ĠÄįet": 3168,
    "ĠbuduÄĩi": 3169,
    "Ju": 3170,
    "Ġdvje": 3171,
    "ĠkÄĩi": 3172,
    "cara": 3173,
    "Å¾ivje": 3174,
    "ĠJeze": 3175,
    "Ġtvojih": 3176,
    "Ġsrcu": 3177,
    "zemlji": 3178,
    "OVI": 3179,
    "nas": 3180,
    "Ġodre": 3181,
    "Ġodve": 3182,
    "stje": 3183,
    "ĠvaÅ¡a": 3184,
    "Ġmoru": 3185,
    "ĠDani": 3186,
    "Ġljud": 3187,
    "Ġmnoge": 3188,
    "zum": 3189,
    "Ġbogat": 3190,
    "pravda": 3191,
    "Ġkamen": 3192,
    "vuhodonos": 3193,
    "nta": 3194,
    "tin": 3195,
    "ĠMomÄįi": 3196,
    "Ġnajmla": 3197,
    "AÅł": 3198,
    "ĠnaÄĩi": 3199,
    "ĠpoÄĩi": 3200,
    "Ġpotre": 3201,
    "Ġzai": 3202,
    "roÄįi": 3203,
    "ĠSva": 3204,
    "pati": 3205,
    "Å¾iti": 3206,
    "Ġveliko": 3207,
    "Ġistina": 3208,
    "Ġhajde": 3209,
    "Ġvezir": 3210,
    "DOVI": 3211,
    "LMI": 3212,
    "PSA": 3213,
    "Ġimena": 3214,
    "ĠDAVI": 3215,
    "Ġhe": 3216,
    "Å¡aÅ¡e": 3217,
    "ĠElea": 3218,
    "EVI": 3219,
    "Ġkazao": 3220,
    "ĠÅłatoru": 3221,
    "PSALMI": 3222,
    "ĠDAVIDOVI": 3223,
    "Ġjerusalim": 3224,
    "osmo": 3225,
    "Ġsakri": 3226,
    "Ġbiva": 3227,
    "ĠSimo": 3228,
    "Ġproroka": 3229,
    "Ġvlada": 3230,
    "Ġroda": 3231,
    "Äįanstvo": 3232,
    "Ġkakva": 3233,
    "Äįine": 3234,
    "ovao": 3235,
    "ĠÄįuo": 3236,
    "Ġzet": 3237,
    "ĠÄįoveka": 3238,
    "Äįije": 3239,
    "Å¾ar": 3240,
    "omo": 3241,
    "Ġgovor": 3242,
    "ot": 3243,
    "Ġsju": 3244,
    "Ġdoli": 3245,
    "Ġmoav": 3246,
    "AREVI": 3247,
    "ĠCAREVI": 3248,
    "ĠFa": 3249,
    "Ġhanan": 3250,
    "ĠGospodnjem": 3251,
    "ĠCAREVIMA": 3252,
    "cr": 3253,
    "pstvo": 3254,
    "Ġnapa": 3255,
    "mali": 3256,
    "ĠMoja": 3257,
    "rjeÅ¡": 3258,
    "Ġljubavi": 3259,
    "ĠBoÅ¾ijega": 3260,
    "voda": 3261,
    "Ġoka": 3262,
    "rao": 3263,
    "tica": 3264,
    "gaÄĳa": 3265,
    "Ġsutra": 3266,
    "ĠbraÄĩa": 3267,
    "ĠÅłar": 3268,
    "Ġpodne": 3269,
    "Ġep": 3270,
    "Ġcrve": 3271,
    "jde": 3272,
    "sni": 3273,
    "Ġitd": 3274,
    "ĠuÅ¡i": 3275,
    "Ġusu": 3276,
    "Ġgre": 3277,
    "ter": 3278,
    "Å¾an": 3279,
    "zorje": 3280,
    "Ga": 3281,
    "So": 3282,
    "kaÅ¡e": 3283,
    "ĠKi": 3284,
    "ĠPsal": 3285,
    "dohe": 3286,
    "boÅ¡e": 3287,
    "njima": 3288,
    "ĠUsta": 3289,
    "ĠEto": 3290,
    "Ġrazgnje": 3291,
    "ĠneÄįist": 3292,
    "Ġdvjesta": 3293,
    "Ġjest": 3294,
    "ĠmaÄįa": 3295,
    "ĠNjegovi": 3296,
    "ĠpoznaÄĩe": 3297,
    "Ġzapovijest": 3298,
    "ĠMojega": 3299,
    "ĠanÄĳeo": 3300,
    "zd": 3301,
    "Ġkle": 3302,
    "Ġusko": 3303,
    "ĠÅ¾iva": 3304,
    "ĠÄįudo": 3305,
    "Ġdobar": 3306,
    "ĠMati": 3307,
    "ĠStambo": 3308,
    "VI": 3309,
    "rvi": 3310,
    "vde": 3311,
    "âĢĶĊ": 3312,
    "Ġmali": 3313,
    "ĠÄįesto": 3314,
    "ĠnajviÅ¡e": 3315,
    "Pozorje": 3316,
    "ĠjoÅ¡te": 3317,
    "MU": 3318,
    "NEV": 3319,
    "gna": 3320,
    "rca": 3321,
    "Ġoz": 3322,
    "Ġdozva": 3323,
    "ĠDNEV": 3324,
    "NIKA": 3325,
    "ĠMojsija": 3326,
    "ĠiziÄĳoÅ¡e": 3327,
    "srce": 3328,
    "ĠDNEVNIKA": 3329,
    "nuÄĩe": 3330,
    "ĠknjiÅ¾ev": 3331,
    "ĠSubo": 3332,
    "Mar": 3333,
    "bri": 3334,
    "rak": 3335,
    "ĠnaÅ¡a": 3336,
    "Ġgove": 3337,
    "Ġkakav": 3338,
    "sama": 3339,
    "Ġtim": 3340,
    "ĠBr": 3341,
    "Gospodar": 3342,
    "ĠJugovi": 3343,
    "ĠLaza": 3344,
    "Ġbesje": 3345,
    "Ġuvek": 3346,
    "TA": 3347,
    "tati": 3348,
    "Ġmilo": 3349,
    "ĠPRE": 3350,
    "potre": 3351,
    "Ġprokle": 3352,
    "Ġjedanput": 3353,
    "Ġrazume": 3354,
    "tle": 3355,
    "Ġplije": 3356,
    "Ġmojih": 3357,
    "care": 3358,
    "Ġdese": 3359,
    "Ġstranu": 3360,
    "sliÅ¡i": 3361,
    "ĠÅłator": 3362,
    "Ġfaraonu": 3363,
    "Ġstub": 3364,
    "ĠsluÅ¾bu": 3365,
    "IJE": 3366,
    "Star": 3367,
    "Ġtvori": 3368,
    "Ġdane": 3369,
    "Ġzaista": 3370,
    "Ġsabra": 3371,
    "Äįij": 3372,
    "Ġprorok": 3373,
    "Ġnikoga": 3374,
    "ĠÄĳ": 3375,
    "nina": 3376,
    "ĠpoÅ¡to": 3377,
    "Ġzad": 3378,
    "Ġvite": 3379,
    "bili": 3380,
    "ĠPoÅ¡to": 3381,
    "ĠpriÄįa": 3382,
    "ĠdruÅ¡t": 3383,
    "Ġdeli": 3384,
    "ĠÄįaÅ¡u": 3385,
    "ĠBaÅ¡": 3386,
    "ĠArapi": 3387,
    "Ġzmaj": 3388,
    "ĠpoviÄįe": 3389,
    "vac": 3390,
    "Ġmesta": 3391,
    "Ġonom": 3392,
    "Ġkuka": 3393,
    "zuje": 3394,
    "Ġuljem": 3395,
    "ĠKe": 3396,
    "Ġnarodom": 3397,
    "Ġsluzi": 3398,
    "ĠnoÄĩu": 3399,
    "Ġmjedi": 3400,
    "ĠuÄįiniÅ¡e": 3401,
    "ĠotiÅ¡avÅ¡i": 3402,
    "Ġdio": 3403,
    "ĠuzeÅ¡e": 3404,
    "ĠFe": 3405,
    "ĠneÄįisto": 3406,
    "svoju": 3407,
    "Äįovje": 3408,
    "lile": 3409,
    "Ġzabora": 3410,
    "dima": 3411,
    "Ġrat": 3412,
    "Ġtjele": 3413,
    "ĠÄĨ": 3414,
    "ksa": 3415,
    "ĠIva": 3416,
    "Ġpona": 3417,
    "Ġsila": 3418,
    "Ġdora": 3419,
    "Ġdone": 3420,
    "Ġmah": 3421,
    "tur": 3422,
    "ĠpiÅ¡e": 3423,
    "Ġjutro": 3424,
    "Ġovamo": 3425,
    "ĠÅ¾ao": 3426,
    "ĠobuÄįe": 3427,
    "dni": 3428,
    "gde": 3429,
    "in": 3430,
    "obra": 3431,
    "ĠnaÄįin": 3432,
    "Ġpara": 3433,
    "Äĩima": 3434,
    "Ġnisi": 3435,
    "Ġnekakav": 3436,
    "ĠUdbi": 3437,
    "TICA": 3438,
    "erce": 3439,
    "Ġnovaca": 3440,
    "oste": 3441,
    "Ġzatru": 3442,
    "skopa": 3443,
    "Ġstoku": 3444,
    "Ġovna": 3445,
    "ĠJonatan": 3446,
    "Ġopu": 3447,
    "Ġradu": 3448,
    "Ġnjihovi": 3449,
    "ĠsveÅ¡teniÄįki": 3450,
    "Ġvlast": 3451,
    "Ġutje": 3452,
    "Ġpravdu": 3453,
    "Ġvinogra": 3454,
    "Ġrazumje": 3455,
    "LjA": 3456,
    ".\"Ċ": 3457,
    "Knez": 3458,
    "ĠuÅ¾a": 3459,
    "rij": 3460,
    "Ġodma": 3461,
    "ĠKO": 3462,
    "Ġfraj": 3463,
    "ĠKosovu": 3464,
    "is": 3465,
    "olju": 3466,
    "Ġote": 3467,
    "Äįnost": 3468,
    "jan": 3469,
    "leÄĩe": 3470,
    "Ġnajve": 3471,
    "mije": 3472,
    "jev": 3473,
    "Ġidi": 3474,
    "Ġke": 3475,
    "Ġamo": 3476,
    "Ġsir": 3477,
    "Ġhtje": 3478,
    "vjedo": 3479,
    "Å¾rtvu": 3480,
    "ĠsveÅ¡teniku": 3481,
    "Sau": 3482,
    "ĠAvesalom": 3483,
    "Ġido": 3484,
    "Ġpoga": 3485,
    "gama": 3486,
    "ĠGovo": 3487,
    "Ġdola": 3488,
    "ĠVavilon": 3489,
    "Ġzakona": 3490,
    "ERE": 3491,
    "Zah": 3492,
    "Veli": 3493,
    "blja": 3494,
    "kove": 3495,
    "mom": 3496,
    "Ġog": 3497,
    "nit": 3498,
    "Ġnede": 3499,
    "Äĩem": 3500,
    "dest": 3501,
    "ĠOni": 3502,
    "Ġjednoj": 3503,
    "Ġdevojku": 3504,
    "Ġsokola": 3505,
    "Sta": 3506,
    "Tu": 3507,
    "Ġklju": 3508,
    "Ġkoko": 3509,
    "ĠBos": 3510,
    "ĠdruÅ¾i": 3511,
    "Ġovce": 3512,
    "Ġsvatovi": 3513,
    "kovu": 3514,
    "Å¡na": 3515,
    "Äĩemo": 3516,
    "ĠsluÅ¡ki": 3517,
    "Ġsvagda": 3518,
    "ĠbraÄĩe": 3519,
    "Ġovaca": 3520,
    "ĠIsav": 3521,
    "POS": 3522,
    "Ġslije": 3523,
    "rat": 3524,
    "ĠtreÄĩi": 3525,
    "Ġnesta": 3526,
    "ĠJERE": 3527,
    "rijeÄį": 3528,
    "Ġotkri": 3529,
    "ĠvidjeÅ¡e": 3530,
    "Ġdrvo": 3531,
    "posta": 3532,
    "Ġgnjeva": 3533,
    "ĠJakovlje": 3534,
    "ĠJEREMI": 3535,
    "zla": 3536,
    "Ġnu": 3537,
    "Ġzo": 3538,
    "Ġnebo": 3539,
    "noÄĩi": 3540,
    "Ġpadne": 3541,
    "ĠGospodar": 3542,
    "Ġmuke": 3543,
    "Ġvila": 3544,
    "Å¡ina": 3545,
    "Ġcarski": 3546,
    "ĠplaÄįe": 3547,
    "Ġotr": 3548,
    "Ġfa": 3549,
    "ĠÄĳevojke": 3550,
    "Ġsiromah": 3551,
    "Ġrukama": 3552,
    "XX": 3553,
    "raju": 3554,
    "Äįni": 3555,
    "ĠÅ¡ko": 3556,
    "pao": 3557,
    "ĠNaj": 3558,
    "ciji": 3559,
    "ÅłI": 3560,
    "Ġsred": 3561,
    "III": 3562,
    "Ġpameti": 3563,
    "AMU": 3564,
    "ILOV": 3565,
    "Ġzapisa": 3566,
    "ruÄįi": 3567,
    "ĠSAMU": 3568,
    "biÅ¡e": 3569,
    "ĠPos": 3570,
    "Ġognjem": 3571,
    "ĠAhav": 3572,
    "ILOVA": 3573,
    "ĠSAMUILOVA": 3574,
    "Ġjesti": 3575,
    "ĠdaÄĩu": 3576,
    "Ġizlazi": 3577,
    "kim": 3578,
    "govoreÄĩi": 3579,
    "Ġkraja": 3580,
    "ĠmnoÅ¡tvo": 3581,
    "ĠJude": 3582,
    "ĠJudina": 3583,
    "Ġradost": 3584,
    "Vuk": 3585,
    "vne": 3586,
    "rad": 3587,
    "Ġtro": 3588,
    "Ġzame": 3589,
    "mogu": 3590,
    "stve": 3591,
    "Ġbal": 3592,
    "ÄĮu": 3593,
    "Ġbijela": 3594,
    "Ġpokraj": 3595,
    "ĠÄĲe": 3596,
    "Ġskoro": 3597,
    "Ġupravo": 3598,
    "IV": 3599,
    "Pre": 3600,
    "zar": 3601,
    "Å¡tu": 3602,
    "ĠaÅ¾da": 3603,
    "Ġpas": 3604,
    "Ġnotari": 3605,
    "Ġsvake": 3606,
    "Le": 3607,
    "Ġocima": 3608,
    "desa": 3609,
    "loÅ¾i": 3610,
    "seli": 3611,
    "Å¾rtve": 3612,
    "Izrailjevi": 3613,
    "loven": 3614,
    "meleh": 3615,
    "ĠiÄĳaÅ¡e": 3616,
    "Å¡nji": 3617,
    "ĠAPOS": 3618,
    "biÄĩe": 3619,
    "vrÅ¡e": 3620,
    "Ġlav": 3621,
    "ĠNavuhodonos": 3622,
    "ĠTeÅ¡ko": 3623,
    "ĠFili": 3624,
    "Ġumno": 3625,
    "Ġsvakome": 3626,
    "Starmali": 3627,
    "ĠAPOSTO": 3628,
    "dro": 3629,
    "Ġsjutra": 3630,
    "Ġunu": 3631,
    "ĠIvo": 3632,
    "ĠStrahi": 3633,
    "ovolj": 3634,
    "stan": 3635,
    "Ġmogla": 3636,
    "Ġramena": 3637,
    "Ġjako": 3638,
    "tija": 3639,
    "Ġume": 3640,
    "licu": 3641,
    "ren": 3642,
    "ĠIma": 3643,
    "ser": 3644,
    "Ġvatru": 3645,
    "baÅ¡a": 3646,
    "Ġuzro": 3647,
    "ĠKota": 3648,
    "Ġplaninu": 3649,
    "ĠobiÄįa": 3650,
    "ime": 3651,
    "tvoj": 3652,
    "rama": 3653,
    "Å¡ahu": 3654,
    "ĠJudej": 3655,
    "ĠNjegovu": 3656,
    "Ġtijeh": 3657,
    "Ġdovede": 3658,
    "Du": 3659,
    "Ġsile": 3660,
    "Ġizgo": 3661,
    "ĠEda": 3662,
    "bude": 3663,
    "Ġnajprije": 3664,
    "Ġostati": 3665,
    "Ġvidite": 3666,
    "ĠvidjevÅ¡i": 3667,
    "licama": 3668,
    "Ġoprosti": 3669,
    "nde": 3670,
    "Ġska": 3671,
    "ĠiÅ¡te": 3672,
    "Ġugleda": 3673,
    "Ġtova": 3674,
    "Ġpolja": 3675,
    "Ġizgubi": 3676,
    "Ġprepa": 3677,
    "Ġprogovori": 3678,
    "ĠVla": 3679,
    "Ġznati": 3680,
    "Ġcrni": 3681,
    "NIJE": 3682,
    "ĠÄĮe": 3683,
    "Ġtravu": 3684,
    "Ġturske": 3685,
    "ĠpomoÄĩ": 3686,
    "ĠStojÅ¡a": 3687,
    "hije": 3688,
    "Ġpare": 3689,
    "bac": 3690,
    "Ġper": 3691,
    "ĠÄįim": 3692,
    "ĠCi": 3693,
    "ĠPetar": 3694,
    "rancu": 3695,
    "Ġzdravlje": 3696,
    "-aga": 3697,
    "gove": 3698,
    "lniku": 3699,
    "ĠdadoÅ¡e": 3700,
    "ĠpoÅ¾ivje": 3701,
    "caru": 3702,
    "ovoa": 3703,
    "ĠteÄįe": 3704,
    "ĠÅ¾ivljahu": 3705,
    "Gospode": 3706,
    "ĠbraÄĩu": 3707,
    "Ġstoke": 3708,
    "ĠMardohe": 3709,
    "ĠLevi": 3710,
    "ĠpobiÅ¡e": 3711,
    "ĠAveni": 3712,
    "ĠHev": 3713,
    "Ġcarovanja": 3714,
    "NO": 3715,
    "Ġkro": 3716,
    "tije": 3717,
    "Ġnapo": 3718,
    "Ġmira": 3719,
    "ĠÄįuÅ¡e": 3720,
    "Ġkojemu": 3721,
    "Ġbudite": 3722,
    "Ġsviju": 3723,
    "NjE": 3724,
    "Ġiscije": 3725,
    "ĠJerusalima": 3726,
    "drosti": 3727,
    "Ġsvojijeh": 3728,
    "Ġgrijehe": 3729,
    "ĠsvjedoÄįi": 3730,
    "ĠJEREMIJE": 3731,
    "DA": 3732,
    "Ġuju": 3733,
    "riÄĩ": 3734,
    "Ġdaleko": 3735,
    "nek": 3736,
    "Ġpored": 3737,
    "ĠAl": 3738,
    "Ġkada": 3739,
    "Äĳed": 3740,
    "Å¡an": 3741,
    "Ġdubo": 3742,
    "ĠvjenÄįa": 3743,
    "Ġkralju": 3744,
    "ĠMak": 3745,
    "ĠÅ¡Äĩer": 3746,
    "Iz": 3747,
    "dva": 3748,
    "Ġjeste": 3749,
    "vanje": 3750,
    "Ġzar": 3751,
    "Ġaga": 3752,
    "Äĳen": 3753,
    "Ġmili": 3754,
    "Ġmed": 3755,
    "ÄĮA": 3756,
    "Ġprvo": 3757,
    "Ġlasno": 3758,
    "Ġosobi": 3759,
    "ĠSrblji": 3760,
    "Ġlijepo": 3761,
    "Ġhote": 3762,
    "Ġnotarius": 3763,
    "har": 3764,
    "Ġope": 3765,
    "Ġobo": 3766,
    "Äįkom": 3767,
    "ĠzgrijeÅ¡i": 3768,
    "Ġzakla": 3769,
    "Äįelniku": 3770,
    "ĠJakovu": 3771,
    "ĠSir": 3772,
    "Ġstvori": 3773,
    "Ġstvar": 3774,
    "Ġcarevi": 3775,
    "Ġsrebr": 3776,
    "ĠSolomunu": 3777,
    "Äįkih": 3778,
    "Ġposao": 3779,
    "rna": 3780,
    "vilo": 3781,
    "leÄĩi": 3782,
    "ĠJova": 3783,
    "ĠJOVAN": 3784,
    "Å¾em": 3785,
    "ljuje": 3786,
    "min": 3787,
    "ljaÅ¡e": 3788,
    "ostoja": 3789,
    "Ġdjelima": 3790,
    "Ġobja": 3791,
    "ĠtraÅ¾e": 3792,
    "ĠuÄįenicima": 3793,
    "ANIMA": 3794,
    "Ġdrugome": 3795,
    "Â»Starmali": 3796,
    ".Tim": 3797,
    "La": 3798,
    "Posle": 3799,
    "voja": 3800,
    "Ġnapi": 3801,
    "dared": 3802,
    "Ġmeha": 3803,
    "Ġrane": 3804,
    "ĠruÄįak": 3805,
    "Ġdvore": 3806,
    "ĠpoÅ¡lje": 3807,
    "Ġpovrati": 3808,
    "Ġsjaj": 3809,
    "De": 3810,
    "JI": 3811,
    "PE": 3812,
    "Ġzajedno": 3813,
    "Äįim": 3814,
    "stv": 3815,
    "Ġmisle": 3816,
    "Ġputem": 3817,
    "Ġspava": 3818,
    "ĠhoÄĩeÅ¡": 3819,
    "roÄįito": 3820,
    "taj": 3821,
    "valja": 3822,
    "Ġsalo": 3823,
    "ĠJeli": 3824,
    "Ġsvojem": 3825,
    "ĠstajaÅ¡e": 3826,
    "dande": 3827,
    "ĠSamari": 3828,
    "Ġostala": 3829,
    "ĠSaulu": 3830,
    "vle": 3831,
    "Ġuzima": 3832,
    "Ġdozna": 3833,
    "Ġkori": 3834,
    "ĠtaÅ¡ti": 3835,
    "ĠOnoga": 3836,
    "Ġlica": 3837,
    "Ġnijesi": 3838,
    "Ġimaju": 3839,
    "ĠÄįuh": 3840,
    "ĠGalile": 3841,
    "mjeri": 3842,
    "Ġtijela": 3843,
    "Ġpravda": 3844,
    "Ġizbaviti": 3845,
    "VLE": 3846,
    "Ġizgu": 3847,
    "ĠBu": 3848,
    "Å¡io": 3849,
    "ÅłA": 3850,
    "ÄĨE": 3851,
    "JAVLE": 3852,
    "Ġbede": 3853,
    "Ġlaga": 3854,
    "Ġsmije": 3855,
    "ĠÄĲur": 3856,
    "KOV": 3857,
    "Ġopazi": 3858,
    "ĠnesreÄĩ": 3859,
    "ĠPolaÄįek": 3860,
    "ĠkneÅ¾e": 3861,
    "Ġjezero": 3862,
    "JAVLENIJE": 3863,
    "NE": 3864,
    "lma": 3865,
    "tve": 3866,
    "zme": 3867,
    "Ġpogodi": 3868,
    "ĠmuÅ¾": 3869,
    "Ġkora": 3870,
    "Ġmetne": 3871,
    "ĠBolje": 3872,
    "ĠPu": 3873,
    "Ġrazli": 3874,
    "Ġvidio": 3875,
    "KATICA": 3876,
    "Ġrodolju": 3877,
    "Ġmolim": 3878,
    "Ġjezik": 3879,
    "ĠkaluÄĳer": 3880,
    "ĠÅ¾": 3881,
    "Boga": 3882,
    "tvoje": 3883,
    "zdeset": 3884,
    "ĠNoje": 3885,
    "sinova": 3886,
    "Ġjagnje": 3887,
    "Ġtvojemu": 3888,
    "ĠTvojega": 3889,
    "Ġvijeka": 3890,
    "Ġizbrojenijeh": 3891,
    "Ġrazgnjevi": 3892,
    "Ġkosti": 3893,
    "niÄįe": 3894,
    "ĠgrjeÅ¡": 3895,
    "Ġponi": 3896,
    "Ġpohodi": 3897,
    "vare": 3898,
    "vidje": 3899,
    "Ġsilu": 3900,
    "Ġtvoju": 3901,
    "Ġsvakom": 3902,
    "Ġznamo": 3903,
    "Ġstraha": 3904,
    "ĠNjegov": 3905,
    "ĠÄĮovjeÄįij": 3906,
    "Evo": 3907,
    "hte": 3908,
    "kru": 3909,
    "kÅ¡i": 3910,
    "rka": 3911,
    "mak": 3912,
    "Ġsedi": 3913,
    "Ġpore": 3914,
    "vat": 3915,
    "lete": 3916,
    "tog": 3917,
    "Ġala": 3918,
    "Ġkulu": 3919,
    "Ġkralje": 3920,
    "ĠVeÄĩ": 3921,
    "Ġidem": 3922,
    "ĠÅłamiki": 3923,
    "Ġmajko": 3924,
    "Ġnjome": 3925,
    "Ġsiroti": 3926,
    "Ġsunca": 3927,
    "Ġgospodine": 3928,
    "Ġslobod": 3929,
    "Ġfeudal": 3930,
    "Ġpoezi": 3931,
    "Ġzmija": 3932,
    "ĠSmi": 3933,
    "ĠTod": 3934,
    "Ġkon": 3935,
    "Ġnimalo": 3936,
    "Ġraditi": 3937,
    "ljiv": 3938,
    "ĠBogme": 3939,
    "ĠvideÄĩi": 3940,
    "Ġnovce": 3941,
    "usta": 3942,
    "Ġspod": 3943,
    "Ġnadje": 3944,
    "Ġdani": 3945,
    "ĠAna": 3946,
    "Ġzlato": 3947,
    "ĠveÄįera": 3948,
    "Ġpokloni": 3949,
    "Ġuredbe": 3950,
    "Ġozgo": 3951,
    "Ġnapuni": 3952,
    "ĠGdje": 3953,
    "Ġodbaci": 3954,
    "metnu": 3955,
    "ĠKoje": 3956,
    "Ġpremu": 3957,
    "ÄįaÅ¡e": 3958,
    "Ġznak": 3959,
    "ĠZako": 3960,
    "Ġsjever": 3961,
    "Ġnevjer": 3962,
    "Va": 3963,
    "Ġdoda": 3964,
    "ĠoÄįe": 3965,
    "Ġogleda": 3966,
    "Ġzmi": 3967,
    "Ġpogu": 3968,
    "Ġsandu": 3969,
    "sao": 3970,
    "Ġredu": 3971,
    "ĠÅ¾en": 3972,
    "ĠÅ¾alosti": 3973,
    "ĠLujza": 3974,
    "Ona": 3975,
    "PO": 3976,
    "los": 3977,
    "Ġkadi": 3978,
    "ljen": 3979,
    "ĠÄįrez": 3980,
    "Ġnekak": 3981,
    "Ġimati": 3982,
    "ĠNema": 3983,
    "Ġnajbolje": 3984,
    "Ġkralja": 3985,
    "Ġtrista": 3986,
    "ĠÄĮi": 3987,
    "Ġzelena": 3988,
    "Ġspome": 3989,
    "raca": 3990,
    "ĠJovu": 3991,
    "Ġizgi": 3992,
    "ĠjaviÅ¡e": 3993,
    "Ġstajahu": 3994,
    "ĠElija": 3995,
    "ĠvratiÅ¡e": 3996,
    "ĠTvojih": 3997,
    "ĠVenijamin": 3998,
    "ĠGalad": 3999,
    "52": 4000,
    "55": 4001,
    "EKI": 4002,
    "anÄĳe": 4003,
    "gdje": 4004,
    "Ġnovo": 4005,
    "vama": 4006,
    "Ġtijem": 4007,
    "bog": 4008,
    "ĠZEKI": 4009,
    "Ġgovorite": 4010,
    "Ġsjede": 4011,
    "Ġopome": 4012,
    "prijed": 4013,
    "plaÅ¡i": 4014,
    "ĠZEKILjA": 4015,
    "-ÄĮ": 4016,
    "Be": 4017,
    "Nije": 4018,
    "nda": 4019,
    "nge": 4020,
    "Ġopi": 4021,
    "Ġura": 4022,
    "riÅ¡": 4023,
    "nat": 4024,
    "Äįija": 4025,
    "ljivo": 4026,
    "Ġbele": 4027,
    "ĠduÄĩa": 4028,
    "Ġbuzd": 4029,
    "pravi": 4030,
    "Ġpoljubi": 4031,
    "ĠMilisa": 4032,
    "Ġhiljadu": 4033,
    "ĠÄĩi": 4034,
    "LÄĮIKA": 4035,
    "Ġsove": 4036,
    "Ġnovi": 4037,
    "Ġora": 4038,
    "vija": 4039,
    "sati": 4040,
    "mio": 4041,
    "Ġhod": 4042,
    "njak": 4043,
    "Ġstare": 4044,
    "ĠVoj": 4045,
    "ĠÅ¾eli": 4046,
    "Ġgodinu": 4047,
    "ĠÄįoban": 4048,
    "Ġstarca": 4049,
    "jedanput": 4050,
    "Avra": 4051,
    "fta": 4052,
    "ĠusliÅ¡i": 4053,
    "vid": 4054,
    "Ġasir": 4055,
    "Ġdota": 4056,
    "ronu": 4057,
    "Ġizvede": 4058,
    "Ġtinja": 4059,
    "ĠJerovoam": 4060,
    "ĠIzrailjevu": 4061,
    "Ġstrije": 4062,
    "ĠJudin": 4063,
    "NaÄįelniku": 4064,
    "Ġsudove": 4065,
    "Ġmisirskoj": 4066,
    "ĠAvramu": 4067,
    "Ġizbroji": 4068,
    "ĠpjevaÄįkom": 4069,
    "*PriÄįe": 4070,
    "53": 4071,
    "kvu": 4072,
    "plja": 4073,
    "Ġtima": 4074,
    "Ġpresta": 4075,
    "Ġprelju": 4076,
    "Ġimate": 4077,
    "Ġvjera": 4078,
    "Ġbudi": 4079,
    "Ġvaskrse": 4080,
    "ĠsveÅ¡teniÄį": 4081,
    "Ġvojskom": 4082,
    "Ġovdje": 4083,
    "Ġgrijeha": 4084,
    "nicama": 4085,
    "Ġropstvo": 4086,
    "Ġprosla": 4087,
    "Ġhiljada": 4088,
    "RBEG": 4089,
    "nos": 4090,
    "tila": 4091,
    "Äįnosti": 4092,
    "Ġtoj": 4093,
    "Äĩera": 4094,
    "vanu": 4095,
    "Ġodne": 4096,
    "ĠBran": 4097,
    "ĠproÅ¡": 4098,
    "Ġbabo": 4099,
    "Ġduga": 4100,
    "Ġveliku": 4101,
    "Ġcrno": 4102,
    "ĠTurÄįina": 4103,
    "Ġtrgova": 4104,
    "LERBEG": 4105,
    "Ġstih": 4106,
    "ĠKraljeviÄĩa": 4107,
    "ĠÅ½e": 4108,
    "Ġmateri": 4109,
    "BEGLERBEG": 4110,
    "Ġuzdah": 4111,
    "-be": 4112,
    "Ba": 4113,
    "opa": 4114,
    "Ġvuk": 4115,
    "Ġzov": 4116,
    "dak": 4117,
    "Äĳena": 4118,
    "rode": 4119,
    "Ġveru": 4120,
    "Ġprekra": 4121,
    "polu": 4122,
    "ĠimaÅ¡": 4123,
    "Ġnob": 4124,
    "Ġlek": 4125,
    "Ġnajma": 4126,
    "Ġstru": 4127,
    "Ġmanastir": 4128,
    "ĠÅ¾drije": 4129,
    "dnoga": 4130,
    "ota": 4131,
    "Ġodande": 4132,
    "rim": 4133,
    "jima": 4134,
    "Ġzaklo": 4135,
    "ĠGospodnjoj": 4136,
    "mot": 4137,
    "sinovi": 4138,
    "Ġmet": 4139,
    "ĠJeri": 4140,
    "ĠJesti": 4141,
    "Ġlicem": 4142,
    "ĠHoÄĩe": 4143,
    "Ġsrebro": 4144,
    "ĠIzrailjevim": 4145,
    "ĠLevije": 4146,
    "Ġneprijatelje": 4147,
    "kovÄįe": 4148,
    "Ġstude": 4149,
    "ĠbliÅ¾": 4150,
    "Ġheru": 4151,
    ".Pe": 4152,
    "57": 4153,
    "uze": 4154,
    "Ġmre": 4155,
    "Ġjedu": 4156,
    "ĠISA": 4157,
    "Äĩeri": 4158,
    "ijeÄį": 4159,
    "Ġpada": 4160,
    "ĠÅ¡Äĩa": 4161,
    "rijeh": 4162,
    "Ġvika": 4163,
    "ĠNj": 4164,
    "Ġvelike": 4165,
    "SKA": 4166,
    "ĠPozdra": 4167,
    "Ġoskvr": 4168,
    "Ġbrzo": 4169,
    "Ġpustiti": 4170,
    "Ġnjezine": 4171,
    "vrej": 4172,
    "ĠPavla": 4173,
    "Ġbezakonja": 4174,
    "ĠOnaj": 4175,
    "ĠISAIJE": 4176,
    "nku": 4177,
    "sk": 4178,
    "Äįo": 4179,
    "Äįna": 4180,
    "Ġtvoga": 4181,
    "Ġnebu": 4182,
    "jica": 4183,
    "ĠdogaÄĳa": 4184,
    "Ġzeta": 4185,
    "krsti": 4186,
    "Ġkrilo": 4187,
    "ĠoruÅ¾je": 4188,
    "ĠoseÄĩa": 4189,
    "ĠJugoviÄĩa": 4190,
    "OJ": 4191,
    "poja": 4192,
    "Ġsli": 4193,
    "Ġmojim": 4194,
    "Ġdadu": 4195,
    "ĠpoÄįnu": 4196,
    "lez": 4197,
    "ĠÄĩete": 4198,
    "ĠKA": 4199,
    "Ġtaki": 4200,
    "ĠpeÄĩi": 4201,
    "ĠduÅ¡i": 4202,
    "budi": 4203,
    "Ġepi": 4204,
    "Ġdiv": 4205,
    "Ġvrsta": 4206,
    "MILÄĮIKA": 4207,
    "Ġposled": 4208,
    "ĠÄįetvr": 4209,
    "Ġoci": 4210,
    "tit": 4211,
    "Ġugod": 4212,
    "ĠporuÄįi": 4213,
    "Ġsasvijem": 4214,
    "njemu": 4215,
    "Ġprah": 4216,
    "Ġdomovima": 4217,
    "prave": 4218,
    "ĠizaÄĳe": 4219,
    "ĠArona": 4220,
    "ĠIzrailjevih": 4221,
    "ĠstarjeÅ¡ina": 4222,
    "ĠMisiru": 4223,
    "ĠpoÄįinu": 4224,
    "ĠJosafat": 4225,
    "Solomu": 4226,
    "spa": 4227,
    "tako": 4228,
    "Ġbiste": 4229,
    "ĠGospodnju": 4230,
    "Ġkrsti": 4231,
    "glas": 4232,
    "obreza": 4233,
    "Ġsabla": 4234,
    "ĠVidje": 4235,
    "Ġnapisano": 4236,
    "gli": 4237,
    "Ġdvoje": 4238,
    "Ġopre": 4239,
    "Ġkal": 4240,
    "stre": 4241,
    "Ġrasta": 4242,
    "ljan": 4243,
    "Åłami": 4244,
    "Ġhla": 4245,
    "duje": 4246,
    "poÄįe": 4247,
    "ĠÄįuda": 4248,
    "Ġrazgovara": 4249,
    "ajde": 4250,
    "Ġsjedi": 4251,
    "Ġbijele": 4252,
    "Ġsablja": 4253,
    "Ġsabljom": 4254,
    "ĠuÄįitelj": 4255,
    "Ġsestri": 4256,
    "ĠÅ½i": 4257,
    "Kada": 4258,
    "ĠhoÄĩu": 4259,
    "Ġmejdan": 4260,
    "Ġkosov": 4261,
    "ĠCare": 4262,
    "Ġtovara": 4263,
    "Ġujutru": 4264,
    "BI": 4265,
    "HH": 4266,
    "Lju": 4267,
    "nstvo": 4268,
    "oÄĩu": 4269,
    "Ġama": 4270,
    "ĠNA": 4271,
    "ĠÅ¾ito": 4272,
    "Ġvrag": 4273,
    "Ġvoz": 4274,
    "ĠÅ¾ivotu": 4275,
    "Ġprijatelj": 4276,
    "Ġpobratime": 4277,
    "ĠrÄĳa": 4278,
    "Ġmogli": 4279,
    "Ġbarjak": 4280,
    "ĠgvoÅ¾": 4281,
    "-E": 4282,
    "blagos": 4283,
    "kta": 4284,
    "Å¡njega": 4285,
    "tama": 4286,
    "toÄįi": 4287,
    "Ġkojih": 4288,
    "zija": 4289,
    "njaca": 4290,
    "ĠSih": 4291,
    "ĠvraÄĩa": 4292,
    "ĠJuda": 4293,
    "ĠSaula": 4294,
    "Izrailja": 4295,
    "Ġrop": 4296,
    "zemlja": 4297,
    "Ġknezovima": 4298,
    "ĠUzmi": 4299,
    "56": 4300,
    "Ġug": 4301,
    "liÄĩe": 4302,
    "varu": 4303,
    "Ġkara": 4304,
    "Ġjar": 4305,
    "ĠkuÅ¡a": 4306,
    "ĠZar": 4307,
    "ĠÄįuvÅ¡i": 4308,
    "Ġzakonu": 4309,
    "Ġsvojima": 4310,
    "Ġraspa": 4311,
    "ĠanÄĳela": 4312,
    "Ġtrijem": 4313,
    "ĠJevanÄĳelje": 4314,
    "?...Ċ": 4315,
    "gÄĳe": 4316,
    "koviÄĩ": 4317,
    "rÅ¾a": 4318,
    "Ġokova": 4319,
    "redi": 4320,
    "Ġtvor": 4321,
    "Ġpotr": 4322,
    "Ġnikako": 4323,
    "Ġtav": 4324,
    "Ġstara": 4325,
    "Ġonamo": 4326,
    "ĠdiÅ¾e": 4327,
    "Ġdigne": 4328,
    "rijar": 4329,
    "Ġsablje": 4330,
    "Ġzelenu": 4331,
    "ĠStefa": 4332,
    "BA": 4333,
    "[a": 4334,
    "]oÄĩe": 4335,
    "tova": 4336,
    "Ġiska": 4337,
    "Ġgos": 4338,
    "ĠdoÅ¡li": 4339,
    "ĠmiÅ¡": 4340,
    "ĠviÄįe": 4341,
    "ljubi": 4342,
    "Ġhle": 4343,
    "njati": 4344,
    "onda": 4345,
    "ĠMusta": 4346,
    "ĠpomoÄĩi": 4347,
    "VR": 4348,
    "jsku": 4349,
    "krije": 4350,
    "olta": 4351,
    "spod": 4352,
    "Ġubije": 4353,
    "Ġjedite": 4354,
    "ganjaca": 4355,
    "Ġkamena": 4356,
    "noÅ¾": 4357,
    "Ġtala": 4358,
    "Ġprista": 4359,
    "ĠÄįinio": 4360,
    "Ġokola": 4361,
    "Ġvolji": 4362,
    "Ġzlatom": 4363,
    "ĠTvojim": 4364,
    "ĠAvija": 4365,
    "ĠTvoju": 4366,
    "ĠpodgraÄĳa": 4367,
    "ĠpodgraÄĳem": 4368,
    "Ġizveo": 4369,
    "ĠJezekija": 4370,
    "Ġpozva": 4371,
    "ĠAmin": 4372,
    "nuÅ¡e": 4373,
    "ĠHal": 4374,
    "ĠuÄįiniÄĩu": 4375,
    "ĠtuÄĳi": 4376,
    "ĠveÄĩma": 4377,
    "Ġtrpe": 4378,
    "Ġpokaja": 4379,
    "Ġsramotu": 4380,
    "Ġpovika": 4381,
    "ĠvjeÄįni": 4382,
    "\"Bo": 4383,
    "Eto": 4384,
    "ME": 4385,
    "fr": 4386,
    "Ġoku": 4387,
    "tina": 4388,
    "tine": 4389,
    "Ġupa": 4390,
    "Ġubio": 4391,
    "Ġble": 4392,
    "Ġnap": 4393,
    "dava": 4394,
    "ĠIvan": 4395,
    "Ġneve": 4396,
    "Äįinu": 4397,
    "ĠSre": 4398,
    "Ġredom": 4399,
    "ĠMle": 4400,
    "Ġranje": 4401,
    "Ġravno": 4402,
    "Ġstaro": 4403,
    "Ġdebe": 4404,
    "ĠÄįemu": 4405,
    "Ġpodru": 4406,
    "Ġsvile": 4407,
    "Ġostalo": 4408,
    "ĠCe": 4409,
    "Ġmojoj": 4410,
    "drÅ¾a": 4411,
    "Ġdopada": 4412,
    "ĠKOLO": 4413,
    "Ġunutra": 4414,
    "-ÄĮeli": 4415,
    "Ġcu": 4416,
    ".\"": 4417,
    "klju": 4418,
    "jede": 4419,
    "Ġzaba": 4420,
    "Ġav": 4421,
    "ĠDi": 4422,
    "Ġposlovi": 4423,
    "Ġgolu": 4424,
    "Ġplanine": 4425,
    "ĠHajde": 4426,
    "sci": 4427,
    "Ġselima": 4428,
    "ĠTA": 4429,
    "zavje": 4430,
    "ĠZe": 4431,
    "zer": 4432,
    "ĠbraÅ¡na": 4433,
    "ĠÄįudesa": 4434,
    "Ġstopi": 4435,
    "prema": 4436,
    "ĠKaÅ¾i": 4437,
    "ĠotaÄįkih": 4438,
    "Ġbroj": 4439,
    "ĠJoas": 4440,
    "ĠÅ¡ezdeset": 4441,
    "Ġopko": 4442,
    "Ġople": 4443,
    "ĠHanane": 4444,
    "Ġzakleo": 4445,
    "nesite": 4446,
    "ETVR": 4447,
    "raÅ¡e": 4448,
    "ĠuÄĩi": 4449,
    "Ġneprav": 4450,
    "ĠdoÅ¡avÅ¡i": 4451,
    "Ġodvede": 4452,
    "veli": 4453,
    "Ġmudrost": 4454,
    "Å¡ite": 4455,
    "Ġjavlja": 4456,
    "Ġposljed": 4457,
    "Ġvjeri": 4458,
    "Äĳuje": 4459,
    "odati": 4460,
    "Ġpravde": 4461,
    "Ġmrzi": 4462,
    "Ġapostola": 4463,
    "kod": 4464,
    "loj": 4465,
    "zma": 4466,
    "Ġboje": 4467,
    "Å¾no": 4468,
    "dara": 4469,
    "kada": 4470,
    "nera": 4471,
    "Ġpora": 4472,
    "Ġpone": 4473,
    "nula": 4474,
    "Ġmirno": 4475,
    "ĠJedan": 4476,
    "ĠDO": 4477,
    "Ġnekako": 4478,
    "ĠbjeÅ¾i": 4479,
    "Ġbratu": 4480,
    "Ġsvira": 4481,
    "ĠJug": 4482,
    "!...âĢľĊ": 4483,
    "Ġsestra": 4484,
    "Ġobraz": 4485,
    "ĠzaÄįudi": 4486,
    "PAÅłA": 4487,
    "Ġbesedi": 4488,
    "bar": 4489,
    "Ġuko": 4490,
    "Ġupotre": 4491,
    "Ġpol": 4492,
    "deÄĩi": 4493,
    "Ġmuka": 4494,
    "Ġkolo": 4495,
    "Ġgovorio": 4496,
    "Ġvrat": 4497,
    "ĠÄįasti": 4498,
    "ÄĲAÅł": 4499,
    "govarati": 4500,
    "Ġdraga": 4501,
    "ĠÄįoba": 4502,
    "ĠpoÄĳem": 4503,
    "Ġnovci": 4504,
    "Ġkneza": 4505,
    ".Pitali": 4506,
    "nkoviÄĩ": 4507,
    "ĠCiga": 4508,
    "PETAR": 4509,
    "ÄĲAÅłN": 4510,
    "ilu": 4511,
    "ĠAm": 4512,
    "Ġzatvori": 4513,
    "ruke": 4514,
    "dese": 4515,
    "save": 4516,
    "luge": 4517,
    "Ġjaganjaca": 4518,
    "zrae": 4519,
    "doÄĳe": 4520,
    "ÄĮETVR": 4521,
    "ĠEl": 4522,
    "ĠbraÄĩi": 4523,
    "stoga": 4524,
    "ĠNjegovo": 4525,
    "ĠÄįisti": 4526,
    "stupa": 4527,
    "Ġdrva": 4528,
    "Ġvola": 4529,
    "glasi": 4530,
    "Ġporodice": 4531,
    "ĠTobom": 4532,
    "ĠManasijina": 4533,
    "Ġsedmi": 4534,
    "ĠskupiÅ¡e": 4535,
    "Ġblagosilja": 4536,
    ".J": 4537,
    ".P": 4538,
    "60": 4539,
    "Ef": 4540,
    "oÄįi": 4541,
    "rami": 4542,
    "Å¾nja": 4543,
    "Ġdobi": 4544,
    "bao": 4545,
    "Ġnogama": 4546,
    "Ġprave": 4547,
    "Ġslavi": 4548,
    "ĠrijeÄįima": 4549,
    "ĠVavilo": 4550,
    "Ġcrkvi": 4551,
    "ĠÅ¡iri": 4552,
    "ĠJeremiji": 4553,
    "',": 4554,
    "pru": 4555,
    "ĠnaÅ¡u": 4556,
    "Ġpozdra": 4557,
    "Äĳar": 4558,
    "ojica": 4559,
    "Äĳeno": 4560,
    "menu": 4561,
    "goÄĳ": 4562,
    "Ġpresto": 4563,
    "âĢľ.Ċ": 4564,
    "ĠEro": 4565,
    "Ġznade": 4566,
    "vojka": 4567,
    "Ġprosto": 4568,
    "Ġmater": 4569,
    "Ġhteo": 4570,
    "Ġprimer": 4571,
    "Ġgvozde": 4572,
    "ĠMatil": 4573,
    "CI": 4574,
    "Car": 4575,
    "iÅ¡": 4576,
    "lda": 4577,
    "ĠgreÄįe": 4578,
    "vila": 4579,
    "Ġrasu": 4580,
    "Ġrado": 4581,
    "ĠÄįlove": 4582,
    "zivati": 4583,
    "Ġnogu": 4584,
    "Ġpredsta": 4585,
    "ĠÄįuv": 4586,
    "znaÄįi": 4587,
    "govore": 4588,
    ".âĢĿĊ": 4589,
    "poslije": 4590,
    "Ġumro": 4591,
    "Ġkir": 4592,
    "ada": 4593,
    "tovi": 4594,
    "uz": 4595,
    "dav": 4596,
    "ĠIdite": 4597,
    "visi": 4598,
    "ĠJese": 4599,
    "bama": 4600,
    "Å¡av": 4601,
    "njahu": 4602,
    "doma": 4603,
    "Ġdesne": 4604,
    "ĠtisuÄĩu": 4605,
    "Jakov": 4606,
    "ĠLevitima": 4607,
    "ĠManasiji": 4608,
    "Ġprinos": 4609,
    "Ġgoveda": 4610,
    "dova": 4611,
    "kvi": 4612,
    "oni": 4613,
    "Ġudovi": 4614,
    "Ġnaprijed": 4615,
    "nebe": 4616,
    "vaÄĩe": 4617,
    "Ġvara": 4618,
    "ĠraÄĳa": 4619,
    "bavi": 4620,
    "Ġprizna": 4621,
    "Ġpribli": 4622,
    "ĠznajuÄĩi": 4623,
    "Ġtrplje": 4624,
    "Ġvlasti": 4625,
    "Ġutro": 4626,
    "Izrailjev": 4627,
    "ĠJeremija": 4628,
    "Hristos": 4629,
    "\"A": 4630,
    "Tur": 4631,
    "Ġnos": 4632,
    "Ġdvoji": 4633,
    "riÅ¡e": 4634,
    "Ġodnese": 4635,
    "Ġkoma": 4636,
    "Ġcarstva": 4637,
    "ĠduÄĩan": 4638,
    "Ġprome": 4639,
    "Ġlepa": 4640,
    "ĠÅ¡tap": 4641,
    "Ġgole": 4642,
    "ÄįuÄĩi": 4643,
    "onÄĳe": 4644,
    "Ġturski": 4645,
    "ospoÄĳa": 4646,
    "koviÄĩa": 4647,
    "Ġpobratima": 4648,
    "-Ja": 4649,
    "Sr": 4650,
    "uti": 4651,
    "Ġina": 4652,
    "Ġigu": 4653,
    "Ġbre": 4654,
    "Ġmanje": 4655,
    "Ġpiti": 4656,
    "skop": 4657,
    "ĠHerce": 4658,
    "Ġtridest": 4659,
    "Ġnemam": 4660,
    "hija": 4661,
    "Ġmisliti": 4662,
    "Ġkakvo": 4663,
    "Ġdosad": 4664,
    "ĠPREÄĲAÅłN": 4665,
    "ĠVojvodi": 4666,
    "iza": 4667,
    "moje": 4668,
    "ple": 4669,
    "jep": 4670,
    "Ġulje": 4671,
    "Ġvodom": 4672,
    "kaza": 4673,
    "Å¾ena": 4674,
    "Ġtinju": 4675,
    "ĠmeÄĳe": 4676,
    "Ġposlu": 4677,
    "ĠsveÅ¡tenike": 4678,
    "ĠÄįist": 4679,
    "Ġcareve": 4680,
    "Ġtvojoj": 4681,
    "Äĳite": 4682,
    "Ġoltara": 4683,
    "Ġnjezin": 4684,
    "ĠMoav": 4685,
    "ĠpogreboÅ¡e": 4686,
    "Ġpotoka": 4687,
    "ftalim": 4688,
    "Ġdov": 4689,
    "Ġostr": 4690,
    "Ġustima": 4691,
    "Ġjevrej": 4692,
    "Ġizvr": 4693,
    "vijek": 4694,
    "Ġimamo": 4695,
    "ĠÅ¾ivlje": 4696,
    "ĠznaÄįi": 4697,
    "ĠNeba": 4698,
    "praved": 4699,
    "ĠuzevÅ¡i": 4700,
    ".âĢľĊ": 4701,
    "Ġrob": 4702,
    "ĠvaÅ¡im": 4703,
    "Ġspolja": 4704,
    "Ġgorama": 4705,
    "-PAÅłA": 4706,
    "nke": 4707,
    "rbe": 4708,
    "tala": 4709,
    "tana": 4710,
    "Ġuvati": 4711,
    "Ġjedared": 4712,
    "Ġnara": 4713,
    "mac": 4714,
    "Ġgosti": 4715,
    "Ġsan": 4716,
    "Ġdole": 4717,
    "Äįita": 4718,
    "Äĳeni": 4719,
    "samo": 4720,
    "Ġsulta": 4721,
    "Ġvatre": 4722,
    "Ġcari": 4723,
    "Ġkula": 4724,
    "Ġliva": 4725,
    "Ġpost": 4726,
    "Äįara": 4727,
    "âĢĿ.Ċ": 4728,
    "Ġpesama": 4729,
    "ĠRi": 4730,
    "Ġstr": 4731,
    "Ġstvara": 4732,
    "Ġbogom": 4733,
    "Ġdevojke": 4734,
    "ĠSrp": 4735,
    "Ġzdravo": 4736,
    "Ġlop": 4737,
    "ĠVukaÅ¡i": 4738,
    "Marko": 4739,
    "Åłamika": 4740,
    "'t": 4741,
    "PoÅ¡to": 4742,
    "ine": 4743,
    "jma": 4744,
    "pca": 4745,
    "Ġnose": 4746,
    "Ġglu": 4747,
    "Ġnepozna": 4748,
    "kud": 4749,
    "Ġkokar": 4750,
    "Ġmad": 4751,
    "Ġmlado": 4752,
    "ĠSenja": 4753,
    "ĠÄĲor": 4754,
    "Ġplanina": 4755,
    "Ġnamere": 4756,
    "lga": 4757,
    "rfi": 4758,
    "tisu": 4759,
    "riju": 4760,
    "Ġnevalja": 4761,
    "Ġkami": 4762,
    "Ġkadio": 4763,
    "jih": 4764,
    "Ġzaro": 4765,
    "moga": 4766,
    "rijem": 4767,
    "Ġcarovati": 4768,
    "bor": 4769,
    "ĠUÄįini": 4770,
    "ĠHodi": 4771,
    "ĠJudom": 4772,
    "Ġokolu": 4773,
    "ĠideÅ¡": 4774,
    "ĠoÄįiÅ¡Äĩe": 4775,
    "Ġzapovijedam": 4776,
    "ĠSado": 4777,
    "ĠsluÅ¾iti": 4778,
    "ĠvaÅ¡ih": 4779,
    "ĠpobjeÅ¾e": 4780,
    "Ġzapali": 4781,
    "ĠJelisije": 4782,
    "*Zah": 4783,
    "59": 4784,
    "dnje": 4785,
    "svije": 4786,
    "ĠiÄĳahu": 4787,
    "Ġulicama": 4788,
    "diÄĩe": 4789,
    "ljenje": 4790,
    "ĠOvaj": 4791,
    "ĠJakova": 4792,
    "Ġvjerom": 4793,
    "Ġblagodat": 4794,
    "Ġvratiti": 4795,
    "ĠÅ¾ivoti": 4796,
    "Ġpots": 4797,
    "ĠpustoÅ¡": 4798,
    "ĠGovoreÄĩi": 4799,
    "Ode": 4800,
    "gov": 4801,
    "hvali": 4802,
    "joÅ¡": 4803,
    "nt": 4804,
    "taÅ¡e": 4805,
    "Ġupu": 4806,
    "ĠnaÅ¡ao": 4807,
    "Ġnalazi": 4808,
    "Ġgomi": 4809,
    "ljeno": 4810,
    "meni": 4811,
    "Ġmila": 4812,
    "Ġmala": 4813,
    "ĠDoj": 4814,
    "bez": 4815,
    "pio": 4816,
    "vuÄįe": 4817,
    "ĠpeÄįe": 4818,
    "Ġsvakoja": 4819,
    "ĠsreÄĩu": 4820,
    "ĠtrÄįi": 4821,
    "Ġtrenu": 4822,
    "Ġvole": 4823,
    "Ġdrugim": 4824,
    "ĠMiloÅ¡u": 4825,
    "Ġbesmrt": 4826,
    "Ġradosti": 4827,
    "Ġspremi": 4828,
    "Ġfrajla": 4829,
    ".)Ċ": 4830,
    "],": 4831,
    "jU": 4832,
    "ono": 4833,
    "Ġiste": 4834,
    "Ġovoj": 4835,
    "Ġula": 4836,
    "ĠIlija": 4837,
    "ĠAh": 4838,
    "lek": 4839,
    "lep": 4840,
    "Ġzadu": 4841,
    "Ġrep": 4842,
    "gone": 4843,
    "ziti": 4844,
    "ĠliÄįnost": 4845,
    "poÅ¡to": 4846,
    "ĠpuÅ¡ka": 4847,
    "ĠruÄįa": 4848,
    "Ġprove": 4849,
    "ĠSamo": 4850,
    "sijeÄįe": 4851,
    "ĠovÄĳe": 4852,
    "Ġzec": 4853,
    "Ġlud": 4854,
    "Ġjezika": 4855,
    "Ġmajstor": 4856,
    "nÄįe": 4857,
    "tam": 4858,
    "Ġulja": 4859,
    "ĠpoÄĳoÅ¡e": 4860,
    "ĠOho": 4861,
    "Ġprozva": 4862,
    "njim": 4863,
    "Ġprvoga": 4864,
    "Gospodom": 4865,
    "ĠZavu": 4866,
    "ĠpodnoÅ¾": 4867,
    "ĠDavidova": 4868,
    "Ġotstupi": 4869,
    "ĠSema": 4870,
    "Ġnasljedstva": 4871,
    "ĠRahi": 4872,
    "ĠIzrailjci": 4873,
    "Äįanstva": 4874,
    "ĠoÅ¾eni": 4875,
    "ĠSimeu": 4876,
    "Ġplijen": 4877,
    "Ġpl": 4878,
    "reba": 4879,
    "Å¾ni": 4880,
    "Äĳosmo": 4881,
    "Ġzape": 4882,
    "Äĳenje": 4883,
    "ĠMA": 4884,
    "Ġmor": 4885,
    "Ġposti": 4886,
    "ĠÅ¾ivje": 4887,
    "Ġsvaku": 4888,
    "lijem": 4889,
    "ĠotiÄĩi": 4890,
    "Ġdjecu": 4891,
    "ĠÄįinim": 4892,
    "ĠsjeÄĳaÅ¡e": 4893,
    "Ġmislite": 4894,
    "ĠÅ¾alost": 4895,
    "Ġzemaljski": 4896,
    "Ġnevolji": 4897,
    "ĠZemlji": 4898,
    "Ġfariseji": 4899,
    "Ġrazdije": 4900,
    "ĠJovana": 4901,
    "dÅ¾": 4902,
    "zije": 4903,
    "Ġmome": 4904,
    "naÅ¡": 4905,
    "Ġneke": 4906,
    "ÄįiÄĩa": 4907,
    "ĠMr": 4908,
    "Ġcarstvu": 4909,
    "ĠUsu": 4910,
    "Ġjunake": 4911,
    "Ġstri": 4912,
    "Ġsobi": 4913,
    "Ġmlade": 4914,
    "ĠTek": 4915,
    "Ġvideti": 4916,
    "Ġpitati": 4917,
    "Ġpripoveda": 4918,
    "dÅ¾i": 4919,
    "nove": 4920,
    "Ġplo": 4921,
    "lici": 4922,
    "nar": 4923,
    "kaÅ¾e": 4924,
    "ĠAnÄįi": 4925,
    "ĠSla": 4926,
    "ÄĮe": 4927,
    "180": 4928,
    "Ġleti": 4929,
    "Ġnajsta": 4930,
    "Ġviditi": 4931,
    "ĠvaroÅ¡i": 4932,
    "gni": 4933,
    "som": 4934,
    "reje": 4935,
    "Ġnalje": 4936,
    "ĠAdo": 4937,
    "Ġmeso": 4938,
    "ĠBlagos": 4939,
    "ĠPsalam": 4940,
    "vuse": 4941,
    "Ġostali": 4942,
    "ĠMiha": 4943,
    "Ġvojsci": 4944,
    "Ġotkupi": 4945,
    "ĠNjegovijem": 4946,
    "ĠprijeÄĳe": 4947,
    "Ġbijeloga": 4948,
    "Izrailj": 4949,
    "ĠJudinijem": 4950,
    "Ġtrube": 4951,
    "Ġmatere": 4952,
    "Ġvisine": 4953,
    "ĠpruÅ¾i": 4954,
    "ĠUstani": 4955,
    "Saul": 4956,
    "ĠPusti": 4957,
    "kovÄįeg": 4958,
    "ĠSihem": 4959,
    "*A": 4960,
    "58": 4961,
    "DJE": 4962,
    "ST": 4963,
    "isti": 4964,
    "jemo": 4965,
    "Ġopravda": 4966,
    "ĠuplaÅ¡i": 4967,
    "ĠIrod": 4968,
    "Ġzatre": 4969,
    "Ġizmjeri": 4970,
    "ĠSpa": 4971,
    "goh": 4972,
    "Ġgladi": 4973,
    "Ġznaju": 4974,
    "Ġbijah": 4975,
    "Ġuzdi": 4976,
    "lijeh": 4977,
    "Ġvidjelo": 4978,
    "vljaju": 4979,
    "Ġistini": 4980,
    "Hrista": 4981,
    "Äįitelju": 4982,
    "Hajde": 4983,
    "Idi": 4984,
    "KNjA": 4985,
    "LGO": 4986,
    "PAN": 4987,
    "Tad": 4988,
    "oti": 4989,
    "zre": 4990,
    "nine": 4991,
    "Ġser": 4992,
    "Ġsedne": 4993,
    "Ġnemi": 4994,
    "Ġpope": 4995,
    "vana": 4996,
    "ĠdoÅ¡la": 4997,
    "bine": 4998,
    "ĠveÄĩe": 4999,
    "Ġprekrsti": 5000,
    "ĠDra": 5001,
    "Ġdruk": 5002,
    "ĠduÅ¡": 5003,
    "Ġljuto": 5004,
    "skome": 5005,
    "ĠSofre": 5006,
    "Ġmajku": 5007,
    "Ġmajke": 5008,
    "glav": 5009,
    "ĠÅ¡are": 5010,
    "koviÄĩu": 5011,
    "Ġnjojzi": 5012,
    "RUKOV": 5013,
    "Ġpojasa": 5014,
    "Ġmoglo": 5015,
    "Ġgrudi": 5016,
    "ĠnajmlaÄĳi": 5017,
    "ĠÄĳoga": 5018,
    "ĠDOLGO": 5019,
    "KNjAZ": 5020,
    "ĠDOLGORUKOV": 5021,
    "DE": 5022,
    "Di": 5023,
    "vod": 5024,
    "naka": 5025,
    "ĠnaroÄįito": 5026,
    "Ġzvo": 5027,
    "Ġzovu": 5028,
    "nej": 5029,
    "leka": 5030,
    "dina": 5031,
    "Äįica": 5032,
    "Äĩim": 5033,
    "bina": 5034,
    "Ġvazda": 5035,
    "Ġpretvori": 5036,
    "Ġraju": 5037,
    "Ġmale": 5038,
    "ĠZad": 5039,
    "Ġsvaka": 5040,
    "ĠÄįelove": 5041,
    "Ġdobrode": 5042,
    "Ġplati": 5043,
    "ĠblaÅ¾e": 5044,
    "ÄĲe": 5045,
    "Ġrodio": 5046,
    "Ġmislim": 5047,
    "ĠDok": 5048,
    "*Nem": 5049,
    "dije": 5050,
    "hlje": 5051,
    "Ġidite": 5052,
    "lama": 5053,
    "ĠnaÄĳoÅ¡e": 5054,
    "Ġporfi": 5055,
    "vina": 5056,
    "Ġpalje": 5057,
    "bijaÅ¡e": 5058,
    "njegova": 5059,
    "ĠVo": 5060,
    "ĠSam": 5061,
    "ĠÅ¾ivljaÅ¡e": 5062,
    "ĠHu": 5063,
    "ĠleÅ¾e": 5064,
    "Ġrazbi": 5065,
    "ĠMera": 5066,
    "ĠGava": 5067,
    "ĠPas": 5068,
    "ĠJudinijeh": 5069,
    "Ġspali": 5070,
    "zemlje": 5071,
    "svojemu": 5072,
    "Ġkrvlju": 5073,
    "grijeh": 5074,
    "ĠGede": 5075,
    "Ġneprijateljima": 5076,
    "Ġmiris": 5077,
    "Solomun": 5078,
    ".),": 5079,
    "54": 5080,
    "Gde": 5081,
    "Ġboji": 5082,
    "Ġtlost": 5083,
    "ĠsiÄĳe": 5084,
    "stvom": 5085,
    "ĠmiÅ¡i": 5086,
    "Jerusalim": 5087,
    "ĠduÅ¾i": 5088,
    "ĠÅ¾elja": 5089,
    "ĠLU": 5090,
    "Ġdjeca": 5091,
    "Ġovome": 5092,
    "Ġvolju": 5093,
    "ĠuÄįenika": 5094,
    "ĠOdgovori": 5095,
    "Ġistinu": 5096,
    "Ġpogibao": 5097,
    "Ġveseli": 5098,
    "ĠDuhom": 5099,
    "ĠPilat": 5100,
    "Ġzvijeri": 5101,
    "ĠCrnogorci": 5102,
    "Milo": 5103,
    "trijar": 5104,
    "Ġista": 5105,
    "Ġkose": 5106,
    "Ġboju": 5107,
    "Ġpolu": 5108,
    "vale": 5109,
    "Ġkapu": 5110,
    "Ġkamoli": 5111,
    "Ġzanat": 5112,
    "Ġdogodi": 5113,
    "Ġbile": 5114,
    "binu": 5115,
    "ĠBi": 5116,
    "Ġmara": 5117,
    "Ġimala": 5118,
    "Ġbabu": 5119,
    "ĠÄįelo": 5120,
    "skoÄįi": 5121,
    "ljda": 5122,
    "ĠSofro": 5123,
    "Ġgledati": 5124,
    "Ġbijelome": 5125,
    "ĠSen": 5126,
    "ĠMiloÅ¡a": 5127,
    "ĠStrahini": 5128,
    "Ca": 5129,
    "Oj": 5130,
    "Ġvse": 5131,
    "Ġkadija": 5132,
    "ĠGde": 5133,
    "Ġsije": 5134,
    "Äįeka": 5135,
    "Ġodu": 5136,
    "loÅ¾e": 5137,
    "ĠSE": 5138,
    "Ġraj": 5139,
    "Ġmakar": 5140,
    "Ġbolji": 5141,
    "Å¡ak": 5142,
    "ĠDalma": 5143,
    "ĠdruÅ¡tvo": 5144,
    "Ġsvak": 5145,
    "Ġznadu": 5146,
    "ĠZaboga": 5147,
    "ĠgoÄĳ": 5148,
    "Ġsrpski": 5149,
    "ĠMore": 5150,
    "Ġforinta": 5151,
    "Ġslobodno": 5152,
    "ĠTodor": 5153,
    "Ġnoble": 5154,
    "ĠmadÅ¾ar": 5155,
    "Jor": 5156,
    "ilj": 5157,
    "lad": 5158,
    "Ġnase": 5159,
    "Äĩega": 5160,
    "ĠAsir": 5161,
    "sanu": 5162,
    "Ġtine": 5163,
    "Å¾ivo": 5164,
    "ĠraÅ¡i": 5165,
    "Ġostaviti": 5166,
    "Ġdomom": 5167,
    "ĠJudinu": 5168,
    "ĠSvemogu": 5169,
    "Ġstije": 5170,
    "Ġguba": 5171,
    "Ġkamenje": 5172,
    "ĠmetnuÅ¡e": 5173,
    "Ġpogibe": 5174,
    "ĠÅ¡ator": 5175,
    "Ġpogrebe": 5176,
    "ĠLevita": 5177,
    "Ġopere": 5178,
    "Ġmetni": 5179,
    "LSKA": 5180,
    "Zem": 5181,
    "daju": 5182,
    "Äįen": 5183,
    "Ġmudrosti": 5184,
    "Ġproti": 5185,
    "ĠproÅ¾drije": 5186,
    "Ġnijedan": 5187,
    "ĠsluÅ¾e": 5188,
    "Ġduha": 5189,
    "Ġvelikom": 5190,
    "Ġobreza": 5191,
    "naesto": 5192,
    "Pavle": 5193,
    "Ġpropasti": 5194,
    "carstvo": 5195,
    "ĠMATE": 5196,
    "ĠLUKI": 5197,
    "Mili": 5198,
    "boj": 5199,
    "nci": 5200,
    "rnu": 5201,
    "zad": 5202,
    "ĠiÅ¡": 5203,
    "Ġmlo": 5204,
    "oso": 5205,
    "jaka": 5206,
    "Ġzra": 5207,
    "vili": 5208,
    "Ġizne": 5209,
    "sad": 5210,
    "ĠTr": 5211,
    "Ġpret": 5212,
    "ÅłÄĨE": 5213,
    "Ġljuta": 5214,
    "Ġvelikoga": 5215,
    "ĠleÄĳa": 5216,
    "Ġkraju": 5217,
    "Ġdivno": 5218,
    "Ġdvori": 5219,
    "Ġsvjet": 5220,
    "ĠnauÄįio": 5221,
    "ĠÄįoeka": 5222,
    "ladika": 5223,
    "Ġjabuku": 5224,
    "Ġforinti": 5225,
    "CE": 5226,
    "Pr": 5227,
    "Pos": 5228,
    "lno": 5229,
    "vca": 5230,
    "Îµ": 5231,
    "Ġvuka": 5232,
    "Å¡eno": 5233,
    "tera": 5234,
    "dila": 5235,
    "Ġpau": 5236,
    "Ġvesma": 5237,
    "ĠmoÄĩi": 5238,
    "Ġgazda": 5239,
    "Ġjaja": 5240,
    "Ġdeve": 5241,
    "ĠSava": 5242,
    "ĠnoÅ¾": 5243,
    "Ġfrancu": 5244,
    "ĠNiÅ¡ta": 5245,
    "ĠobiÄįno": 5246,
    "rtav": 5247,
    "ĠSrbin": 5248,
    "Ġmesec": 5249,
    "ÐĨÐĨ": 5250,
    "Ġpojede": 5251,
    "Ġosobito": 5252,
    "ĠHercegovi": 5253,
    "PET": 5254,
    "hode": 5255,
    "oca": 5256,
    "tvr": 5257,
    "Ġpoluge": 5258,
    "rona": 5259,
    "ropi": 5260,
    "ĠÅ¡tit": 5261,
    "luj": 5262,
    "ĠDva": 5263,
    "Ġtanko": 5264,
    "ĠOr": 5265,
    "ĠDaj": 5266,
    "Ġnijednoga": 5267,
    "Ġmjede": 5268,
    "ĠÄįuj": 5269,
    "Ġrijeke": 5270,
    "Ġlakta": 5271,
    "rijat": 5272,
    "ĠVena": 5273,
    "danas": 5274,
    "ĠLavan": 5275,
    "Ġzahvalne": 5276,
    "ĠdoÅ¡ljak": 5277,
    "Ġutvrdi": 5278,
    "ĠEleazar": 5279,
    "Ġspomen": 5280,
    "PETA": 5281,
    "il": 5282,
    "Ġsne": 5283,
    "niÅ¡ti": 5284,
    "Ġzam": 5285,
    "Ġzati": 5286,
    "Ġsion": 5287,
    "Ġodije": 5288,
    "zare": 5289,
    "Ġprolazi": 5290,
    "Äįati": 5291,
    "ĠVje": 5292,
    "Å¡uje": 5293,
    "*Jevr": 5294,
    "ĠoÄįiju": 5295,
    "ĠSede": 5296,
    "ĠSebe": 5297,
    "ĠsluÅ¡aju": 5298,
    "srca": 5299,
    "Ġrazumije": 5300,
    "ĠBlago": 5301,
    "ĠSubotu": 5302,
    "Voj": 5303,
    "dnom": 5304,
    "rne": 5305,
    "rÅ¾i": 5306,
    "tkom": 5307,
    "jao": 5308,
    "Ġsvog": 5309,
    "ĠIduÄĩi": 5310,
    "Ġkav": 5311,
    "nuli": 5312,
    "ÄįiÄĩu": 5313,
    "Ġtiho": 5314,
    "Ġteme": 5315,
    "Å¾io": 5316,
    "goni": 5317,
    "pot": 5318,
    "Ġbela": 5319,
    "ĠleÅ¾i": 5320,
    "Ġsvinja": 5321,
    "ĠmoÅ¾emo": 5322,
    "Ġputovati": 5323,
    "ĠveÄįeru": 5324,
    "erdar": 5325,
    "Ġpoginuti": 5326,
    "ndÅ¾e": 5327,
    "ĠCrnoje": 5328,
    "ĠNovaÄįe": 5329,
    "Ġgotovo": 5330,
    "ĠXVI": 5331,
    "VeÄĩ": 5332,
    "ĠĠĠĠĠĠĠĠĠĠĠĠĠĠĠĠĠĠĠĠĠĠĠĠĠĠĠĠĠĠĠĠĠĠĠĠĠĠĠĠ": 5333,
    "ÅłÄĨEPAN": 5334,
    "Ġ/": 5335,
    "',Ċ": 5336,
    "Dru": 5337,
    "Pu": 5338,
    "dÅ¾a": 5339,
    "kvo": 5340,
    "pci": 5341,
    "Ġspomi": 5342,
    "Å¡nje": 5343,
    "Ġonog": 5344,
    "liki": 5345,
    "Ġnai": 5346,
    "Ġnami": 5347,
    "maj": 5348,
    "matra": 5349,
    "Ġnejma": 5350,
    "paju": 5351,
    "siju": 5352,
    "Ġmestu": 5353,
    "Ġnit": 5354,
    "ciju": 5355,
    "Ġrano": 5356,
    "Ġhad": 5357,
    "Ġhara": 5358,
    "Ġimali": 5359,
    "ĠimajuÄĩi": 5360,
    "Ġpromi": 5361,
    "Ġdobre": 5362,
    "Ġnajposle": 5363,
    "Ġkrava": 5364,
    "ĠLjU": 5365,
    "Ġmajci": 5366,
    "Ġprijatelja": 5367,
    "Ġveselo": 5368,
    "Ġdukat": 5369,
    "Ġjezera": 5370,
    "Ġblagode": 5371,
    "He": 5372,
    "koju": 5373,
    "litva": 5374,
    "Ġdadoh": 5375,
    "dade": 5376,
    "ĠJov": 5377,
    "ĠdonesoÅ¡e": 5378,
    "loti": 5379,
    "sav": 5380,
    "bijahu": 5381,
    "ĠDnev": 5382,
    "bere": 5383,
    "Ġposu": 5384,
    "Gospodnji": 5385,
    "ĠNek": 5386,
    "ĠNeftalim": 5387,
    "ĠJuj": 5388,
    "ĠsveÅ¡tenicima": 5389,
    "Ġsrcem": 5390,
    "Ġzavjese": 5391,
    "Ġknjizi": 5392,
    "Ġrobi": 5393,
    "ĠVitle": 5394,
    "ĠAvimeleh": 5395,
    "Ġriz": 5396,
    "godine": 5397,
    "ĠDokle": 5398,
    "rtava": 5399,
    "njegov": 5400,
    "Ġpoglavar": 5401,
    "Ġamorej": 5402,
    "ĠSamariji": 5403,
    "Ġtalanata": 5404,
    "Gal": 5405,
    "Ġdostoja": 5406,
    "Ġumo": 5407,
    "Ġulazi": 5408,
    "Ġneobreza": 5409,
    "Ġpolj": 5410,
    "Ġponosi": 5411,
    "ĠpaÅ¡Äĩe": 5412,
    "ĠmuÄįi": 5413,
    "Ġmudri": 5414,
    "Ġsuditi": 5415,
    "kiji": 5416,
    "Ġjamu": 5417,
    "zak": 5418,
    "ovjed": 5419,
    "âĢĻ,": 5420,
    "ĠMoju": 5421,
    "Ġstoje": 5422,
    "ĠmnoÅ¡t": 5423,
    "Ġsjeve": 5424,
    "Ġproroci": 5425,
    "ĠAvraam": 5426,
    "ĠDanilo": 5427,
    "Ġopustje": 5428,
    "ĠAPOSTOLSKA": 5429,
    "DJELA": 5430,
    "\"Ne": 5431,
    "Dobro": 5432,
    "kÅ¡e": 5433,
    "lne": 5434,
    "zne": 5435,
    "ĠdÅ¾a": 5436,
    "Å¡no": 5437,
    "âĢĵ": 5438,
    "Ġgroz": 5439,
    "Å¡en": 5440,
    "Ġpob": 5441,
    "gar": 5442,
    "Ġkapi": 5443,
    "Ġzat": 5444,
    "deo": 5445,
    "Ġdonosi": 5446,
    "vora": 5447,
    "kuje": 5448,
    "ĠKRA": 5449,
    "ĠkoÄįija": 5450,
    "Ġlicu": 5451,
    "ĠVoji": 5452,
    "Ġplakati": 5453,
    "ĠSoka": 5454,
    "Ġtrgov": 5455,
    "ĠÅłamiku": 5456,
    "Ġvoli": 5457,
    "Ġlov": 5458,
    "Ġmoliti": 5459,
    "ĠkiÄĩe": 5460,
    "Ġpobratim": 5461,
    "Ġborbe": 5462,
    "\"Oj": 5463,
    "Ġarhi": 5464,
    "ĠmladiÄĩ": 5465,
    "ĠÅłÄĩepan": 5466,
    "Ġduboko": 5467,
    ");": 5468,
    "-bolje": 5469,
    "]:": 5470,
    "hoÄĩe": 5471,
    "oba": 5472,
    "tki": 5473,
    "Ġsnu": 5474,
    "Å¡nja": 5475,
    "lik": 5476,
    "Ġjese": 5477,
    "osla": 5478,
    "ĠAn": 5479,
    "Ġzatim": 5480,
    "ludu": 5481,
    "Ġprebi": 5482,
    "ĠOvi": 5483,
    "zao": 5484,
    "zir": 5485,
    "ber": 5486,
    "Ġpripovijeda": 5487,
    "Ġjednim": 5488,
    "Ġprobudi": 5489,
    "ojan": 5490,
    "ĠbeÅ¾e": 5491,
    "Ġkralji": 5492,
    "Ġkravu": 5493,
    "ĠplaÄĩa": 5494,
    "ĠLije": 5495,
    "ĠÄįast": 5496,
    "ĠMujo": 5497,
    "Ġmislio": 5498,
    "ĠtraÅ¾iti": 5499,
    "ĠMadÅ¾ari": 5500,
    "ovoljno": 5501,
    "Ġlekcije": 5502,
    "ĠPREÄĲAÅłNJI": 5503,
    "Go": 5504,
    "Ru": 5505,
    "sluÅ¡a": 5506,
    "jesma": 5507,
    "lac": 5508,
    "Ġpotje": 5509,
    "vaÅ¡": 5510,
    "ĠGi": 5511,
    "ĠGir": 5512,
    "ĠmuÅ¡ki": 5513,
    "ker": 5514,
    "Ġonoj": 5515,
    "traÅ¾i": 5516,
    "ĠbraÄĩom": 5517,
    "Ġpoda": 5518,
    "ĠRije": 5519,
    "Ġstrani": 5520,
    "Ġkrjep": 5521,
    "Ġbogova": 5522,
    "ĠizaÄĩi": 5523,
    "Ġzakone": 5524,
    "sret": 5525,
    "Ġistoku": 5526,
    "Ġspasenje": 5527,
    "ĠPoslije": 5528,
    "ovoama": 5529,
    "hnu": 5530,
    "vode": 5531,
    "Ġdome": 5532,
    "Å¡Äĩa": 5533,
    "Ġovijeh": 5534,
    "odo": 5535,
    "Ġpou": 5536,
    "telje": 5537,
    "Ġzajed": 5538,
    "Ġsaha": 5539,
    "Å¾ene": 5540,
    "Ġmudra": 5541,
    "bira": 5542,
    "Ġprepi": 5543,
    "ljahu": 5544,
    "Jeremi": 5545,
    "Ġrazvali": 5546,
    "ĠuÄįinih": 5547,
    "Ġiscje": 5548,
    "Ġsoto": 5549,
    "ĠdrÅ¾e": 5550,
    "Ġvolje": 5551,
    "Ġvolja": 5552,
    "Ġduhom": 5553,
    "kloni": 5554,
    "ĠBoÅ¾ijoj": 5555,
    "ĠvjerovaÅ¡e": 5556,
    "Ġblagodati": 5557,
    "Ġvinograda": 5558,
    "ĠNavuhodonosor": 5559,
    "ĠHaldej": 5560,
    "ĠMATEJU": 5561,
    "ĠâĢĻ": 5562,
    "Kra": 5563,
    "MAN": 5564,
    "RIJA": 5565,
    "fu": 5566,
    "kah": 5567,
    "ĠpoÄĳu": 5568,
    "Ġzaslu": 5569,
    "Ġzahvali": 5570,
    "dili": 5571,
    "ovah": 5572,
    "ovali": 5573,
    "ĠÅ¡ura": 5574,
    "Ġred": 5575,
    "ĠMAR": 5576,
    "pali": 5577,
    "gore": 5578,
    "ĠÅ¡togod": 5579,
    "Ġhar": 5580,
    "ĠpriÄĳe": 5581,
    "guman": 5582,
    "Ġdeca": 5583,
    "Ġbaca": 5584,
    "Ġljubo": 5585,
    "ĠÄįedo": 5586,
    "ĠjunaÄįki": 5587,
    "Ġcrne": 5588,
    "Ġudara": 5589,
    "Ġturska": 5590,
    "ĠÄĲura": 5591,
    "ĠviÄĳeti": 5592,
    "ĠLazar": 5593,
    "bratime": 5594,
    "Ġplanini": 5595,
    "Ġmrtva": 5596,
    "Ġveselje": 5597,
    "Ġzmaja": 5598,
    "Äįkog": 5599,
    "ĠÅłarca": 5600,
    "ĠCeti": 5601,
    "ĠRib": 5602,
    "?\"": 5603,
    "KU": 5604,
    "Mu": 5605,
    "OR": 5606,
    "an": 5607,
    "Ġdre": 5608,
    "Ġovim": 5609,
    "niÄĩ": 5610,
    "Ġpokupi": 5611,
    "Ġdobiti": 5612,
    "ĠpaÅ¡a": 5613,
    "ĠTko": 5614,
    "Ġvid": 5615,
    "siti": 5616,
    "Ġmomak": 5617,
    "ljuti": 5618,
    "ovek": 5619,
    "zati": 5620,
    "ANÄĮA": 5621,
    "Ġproto": 5622,
    "Ġpuna": 5623,
    "Ġnekakva": 5624,
    "Ġrazve": 5625,
    "Ġrazgovor": 5626,
    "ljka": 5627,
    "grada": 5628,
    "ĠKoliko": 5629,
    "ĠVidiÅ¡": 5630,
    "Ġstigne": 5631,
    "ĠÄįitati": 5632,
    "Ġblagopolu": 5633,
    "Ġprosve": 5634,
    "Ġjeziku": 5635,
    "ĠvuÄįe": 5636,
    "*O": 5637,
    "Filiste": 5638,
    "bre": 5639,
    "hra": 5640,
    "kÄĩeri": 5641,
    "tvu": 5642,
    "Ġino": 5643,
    "odaj": 5644,
    "ĠIsma": 5645,
    "ĠAr": 5646,
    "Ġzasje": 5647,
    "ruku": 5648,
    "noÅ¡aÅ¡e": 5649,
    "Ġsazva": 5650,
    "ĠSvjedo": 5651,
    "Ġsinom": 5652,
    "ĠJesi": 5653,
    "Åłato": 5654,
    "Ġprilog": 5655,
    "tuda": 5656,
    "ĠHi": 5657,
    "ĠZaha": 5658,
    "Ġstoka": 5659,
    "Ġdomova": 5660,
    "ĠMadija": 5661,
    "Ġtradan": 5662,
    "Ġbogove": 5663,
    "njom": 5664,
    "naestoga": 5665,
    "ĠIsak": 5666,
    "ĠTvoji": 5667,
    "ĠÅ¾ivinÄįe": 5668,
    "Izrailjevijem": 5669,
    "Ġplemenima": 5670,
    "ĠpobjegoÅ¡e": 5671,
    "Ġkedr": 5672,
    "Ġzapisano": 5673,
    "ĠAvenir": 5674,
    "Ġstvorio": 5675,
    "ĠÅ¾rtava": 5676,
    "Ġtinjama": 5677,
    "ĠÅ¾drijeb": 5678,
    "ĠbliÅ¾njega": 5679,
    "Ġporfire": 5680,
    "Ġpaljenica": 5681,
    "gro": 5682,
    "rni": 5683,
    "smrt": 5684,
    "zlo": 5685,
    "Ġdosa": 5686,
    "Ġuki": 5687,
    "rite": 5688,
    "kavÅ¡i": 5689,
    "nema": 5690,
    "Ġpom": 5691,
    "ĠpoboÅ¾": 5692,
    "ĠGleda": 5693,
    "cama": 5694,
    "Ġodmet": 5695,
    "dijaÅ¡e": 5696,
    "bav": 5697,
    "ĠpriÄįu": 5698,
    "ÄįaÄĩe": 5699,
    "ĠpuÅ¡ta": 5700,
    "danju": 5701,
    "Ġznanje": 5702,
    "ĠSionu": 5703,
    "Ġispu": 5704,
    "prot": 5705,
    "ĠsvjedoÄįanstvo": 5706,
    "BoÅ¾": 5707,
    "ĠZemlju": 5708,
    "ĠSimon": 5709,
    "ĠknjiÅ¾evnici": 5710,
    "ĠpribliÅ¾i": 5711,
    "Ima": 5712,
    "Serdar": 5713,
    "dvije": 5714,
    "Ġuto": 5715,
    "rila": 5716,
    "rinu": 5717,
    "ninu": 5718,
    "dane": 5719,
    "Ġnepre": 5720,
    "Ġbirti": 5721,
    "mene": 5722,
    "ÄĩunoviÄĩ": 5723,
    "ljahte": 5724,
    "tura": 5725,
    "Ġprogovara": 5726,
    "ĠpuÅ¡ke": 5727,
    "ĠVU": 5728,
    "Ġruho": 5729,
    "Ġprov": 5730,
    "ĠMiÄĩunoviÄĩ": 5731,
    "Ġfor": 5732,
    "ĠkaÅ¾eÅ¡": 5733,
    "Ġzlatna": 5734,
    "Ġpoznaje": 5735,
    "Ġvidela": 5736,
    "Ġdrugog": 5737,
    "'jet": 5738,
    "Ġpotpu": 5739,
    "fit": 5740,
    "ĠVuÄįe": 5741,
    "Vala": 5742,
    "Ġtvorca": 5743,
    "Ġ...Ċ": 5744,
    "JÅłI": 5745,
    "St": 5746,
    "dÅ¾ija": 5747,
    "jA": 5748,
    "Ġspusti": 5749,
    "ĠdÅ¾i": 5750,
    "Ġdost": 5751,
    "ĠkÃ¢": 5752,
    "lina": 5753,
    "liji": 5754,
    "ricu": 5755,
    "Ġkazu": 5756,
    "tere": 5757,
    "ĠdoÄĳi": 5758,
    "med": 5759,
    "ovac": 5760,
    "Ġreku": 5761,
    "Ġsuza": 5762,
    "Ġraja": 5763,
    "Ġjaje": 5764,
    "ljak": 5765,
    "ĠDakle": 5766,
    "ĠproÄĩi": 5767,
    "ÄĮE": 5768,
    "ĠJanja": 5769,
    "Ġprva": 5770,
    "Å¡tar": 5771,
    "Ġkraji": 5772,
    "ĠbudeÅ¡": 5773,
    "Ġuzeti": 5774,
    "ĠtreÄĩe": 5775,
    "Ġspavati": 5776,
    "ĠnauÄįi": 5777,
    "Ġlijepa": 5778,
    "ĠnaÄĳem": 5779,
    "ĠÄĳavol": 5780,
    "ĠkaluÄĳeri": 5781,
    "Ã¢m": 5782,
    "ĠPripovijeda": 5783,
    "Ġdrugoja": 5784,
    "Dok": 5785,
    "Ġmeseca": 5786,
    "Ġljubov": 5787,
    "ĠBosni": 5788,
    "Ġsanduk": 5789,
    "Amo": 5790,
    "Knji": 5791,
    "Ġsker": 5792,
    "Ġovijem": 5793,
    "ĠoÅ¡t": 5794,
    "Ġjelo": 5795,
    "ĠAv": 5796,
    "ĠAda": 5797,
    "vit": 5798,
    "Ġsusret": 5799,
    "Ġtevima": 5800,
    "gotovi": 5801,
    "milost": 5802,
    "ÄĨA": 5803,
    "ĠJavi": 5804,
    "ĠSara": 5805,
    "ĠSada": 5806,
    "ĠostaÅ¡e": 5807,
    "Ġplatna": 5808,
    "vrh": 5809,
    "Ġcarevima": 5810,
    "ondje": 5811,
    "Ġposlanike": 5812,
    "Ġpustinju": 5813,
    "Ġzboru": 5814,
    "ĠJosifu": 5815,
    "ĠÅ¡atora": 5816,
    "REÄĨA": 5817,
    "Ġsedmoga": 5818,
    "Ġkojom": 5819,
    "Ġopravlja": 5820,
    "svaki": 5821,
    "ĠsvrÅ¡i": 5822,
    "ĠÄįistoga": 5823,
    "ĠDnevniku": 5824,
    "ol": 5825,
    "skijem": 5826,
    "zvije": 5827,
    "Ġskvr": 5828,
    "Ġmije": 5829,
    "Ġudi": 5830,
    "ĠdaÄĩe": 5831,
    "Å¾di": 5832,
    "Ġzatr": 5833,
    "Ġsilom": 5834,
    "ĠsavrÅ¡e": 5835,
    "ĠvaÅ¡u": 5836,
    "zite": 5837,
    "duh": 5838,
    "ĠNebu": 5839,
    "skama": 5840,
    "Ġmnog": 5841,
    "Ġstrana": 5842,
    "ĠdoÄĳem": 5843,
    "Ġpostade": 5844,
    "Ġprorokova": 5845,
    "oganj": 5846,
    "Ġriba": 5847,
    "Ġnebesa": 5848,
    "svoji": 5849,
    "Ġvavilonski": 5850,
    "ĠneznaboÅ¡cima": 5851,
    "Bio": 5852,
    "JoÅ¡": 5853,
    "KE": 5854,
    "igra": 5855,
    "tkad": 5856,
    "Ġsl": 5857,
    "rate": 5858,
    "tane": 5859,
    "Ġudri": 5860,
    "Ġbrod": 5861,
    "koliko": 5862,
    "jalo": 5863,
    "vane": 5864,
    "Ġdobio": 5865,
    "pane": 5866,
    "Ġveku": 5867,
    "Ġtop": 5868,
    "ĠÄįad": 5869,
    "Ġjednome": 5870,
    "tuje": 5871,
    "Å½E": 5872,
    "ĠMeÄĳed": 5873,
    "Ġjunaci": 5874,
    "ĠsreÄĩ": 5875,
    "Ġustane": 5876,
    "Ġpesmu": 5877,
    "Ġgledaju": 5878,
    "ĠmisliÅ¡": 5879,
    "Ġnekoga": 5880,
    "ĠStarina": 5881,
    "ĠÅ½a": 5882,
    "Ġpoginuo": 5883,
    "ĠnaÅ¡oj": 5884,
    "Ġkonjma": 5885,
    "Ġkolena": 5886,
    "ĠNikola": 5887,
    "ĠStefan": 5888,
    "ĠRibnika": 5889,
    "ĠÄĩa": 5890,
    "Gr": 5891,
    "Re": 5892,
    "Sva": 5893,
    "alji": 5894,
    "Ġoto": 5895,
    "talija": 5896,
    "nara": 5897,
    "Ġzagr": 5898,
    "ĠKr": 5899,
    "ĠKor": 5900,
    "Ġmeg": 5901,
    "ĠOva": 5902,
    "ĠpuÅ¡ku": 5903,
    "Å½e": 5904,
    "ĠJankoviÄĩ": 5905,
    "Ġdobru": 5906,
    "Ġnasred": 5907,
    "VOR": 5908,
    "Ġispe": 5909,
    "Ġpoznao": 5910,
    "Ġluga": 5911,
    "Ġmoram": 5912,
    "Ġistoriji": 5913,
    "Kao": 5914,
    "ĠuveÄįe": 5915,
    "ĠCari": 5916,
    "Ġvospita": 5917,
    "Ġdlaku": 5918,
    "ĠPravo": 5919,
    "Ġljudma": 5920,
    "ĠmisleÄĩi": 5921,
    "-Janja": 5922,
    "Psalam": 5923,
    "TREÄĨA": 5924,
    "kon": 5925,
    "Ġge": 5926,
    "ĠAman": 5927,
    "ĠAdad": 5928,
    "saj": 5929,
    "Ġsudija": 5930,
    "Ġmesa": 5931,
    "ĠJezrae": 5932,
    "mina": 5933,
    "ĠNeÄĩu": 5934,
    "ĠÅ¾enom": 5935,
    "ĠGavao": 5936,
    "ĠGalga": 5937,
    "Ġdjece": 5938,
    "ĠustavÅ¡i": 5939,
    "Ġpostavio": 5940,
    "Izrailju": 5941,
    "ĠGospodnjim": 5942,
    "ĠLevite": 5943,
    "ĠVir": 5944,
    "Ġpomoli": 5945,
    "Ġhaljinu": 5946,
    "ĠvaÅ¡ega": 5947,
    "Ġprvenca": 5948,
    "Ġpoglavari": 5949,
    "Ġzahvalnu": 5950,
    "Ġpokriva": 5951,
    "Molitva": 5952,
    "Ġzatrudnje": 5953,
    "ĠJeriho": 5954,
    "toÄįiÅ¡te": 5955,
    "Ġstopice": 5956,
    "*Ef": 5957,
    "63": 5958,
    "ija": 5959,
    "Ġoce": 5960,
    "Ġonijem": 5961,
    "Ġnera": 5962,
    "Ġmudro": 5963,
    "ĠveÄĩi": 5964,
    "bezako": 5965,
    "djela": 5966,
    "Ġposrami": 5967,
    "doÄĩi": 5968,
    "Ġstado": 5969,
    "Ġprom": 5970,
    "Ġostavlja": 5971,
    "Ġplatu": 5972,
    "ĠMarija": 5973,
    "Ġgradovi": 5974,
    "Ġspasti": 5975,
    "ĠnaÅ¡emu": 5976,
    "ĠpokaÅ¾e": 5977,
    "Ġvjeruju": 5978,
    "luÅ¡ajte": 5979,
    "Ġubija": 5980,
    "Ġvavilonskom": 5981,
    "Ġrazape": 5982,
    "Äįijega": 5983,
    "ĠtaÅ¡tina": 5984,
    "evo": 5985,
    "lni": 5986,
    "novo": 5987,
    "Ġsnije": 5988,
    "Ġprod": 5989,
    "ĠdÃ¢": 5990,
    "Ġklo": 5991,
    "Å¾na": 5992,
    "dao": 5993,
    "ruÅ¡e": 5994,
    "Äįevi": 5995,
    "Äįesti": 5996,
    "mer": 5997,
    "Ġtih": 5998,
    "njena": 5999,
    "ĠmoÅ¾da": 6000,
    "kih": 6001,
    "Ġtopu": 6002,
    "micija": 6003,
    "ĠliÄįnosti": 6004,
    "Ġpriti": 6005,
    "tradan": 6006,
    "Ġdece": 6007,
    "ĠUg": 6008,
    "ÄĮam": 6009,
    "ĠduÅ¡o": 6010,
    "ĠÅła": 6011,
    "ĠÄįetr": 6012,
    "Ġlegne": 6013,
    "EVIÄĨ": 6014,
    "ĠjunaÄįke": 6015,
    "Ġcrna": 6016,
    "Ġotvore": 6017,
    "Ġsvijeta": 6018,
    "Ġtrgovi": 6019,
    "Ġosme": 6020,
    "Ġpokoj": 6021,
    "Ġsestru": 6022,
    "Ġprijatelju": 6023,
    "ĠÄĳavola": 6024,
    "Ġpopla": 6025,
    "RUGO": 6026,
    "ĠÄįestiti": 6027,
    "ĠÅ¾enid": 6028,
    "ĠuteÄįe": 6029,
    "ĠvaroÅ¡": 6030,
    "ĠĠĠĠĠĠĠĠĠĠĠĠĠĠĠĠĠĠĠĠĠĠĠĠĠĠĠĠĠĠĠĠĠĠĠĠ": 6031,
    "ĠKiriÄĩ": 6032,
    "Ġbesjedi": 6033,
    "\"Bogom": 6034,
    "ĠSremac": 6035,
    "ĠSenkoviÄĩu": 6036,
    "ĠKRALj": 6037,
    "ĠÅ¾d": 6038,
    "'o": 6039,
    ":)": 6040,
    "LU": 6041,
    "gri": 6042,
    "Ġsos": 6043,
    "ĠiÅ¡ao": 6044,
    "ĠoÄĩi": 6045,
    "Ġuprav": 6046,
    "Ġpolez": 6047,
    "ĠizmiÅ¡": 6048,
    "ĠmuÅ¾a": 6049,
    "kula": 6050,
    "ĠKla": 6051,
    "Ġvatra": 6052,
    "njen": 6053,
    "Ġkume": 6054,
    "Ġbolan": 6055,
    "Ġprirod": 6056,
    "ANjA": 6057,
    "Ġdeo": 6058,
    "ĠZA": 6059,
    "Ġbabe": 6060,
    "Ġprosti": 6061,
    "ĠÄįest": 6062,
    "181": 6063,
    "Ġnajpre": 6064,
    "ĠKada": 6065,
    "Ġisku": 6066,
    "Ġsjeki": 6067,
    "Neka": 6068,
    "Ġmorao": 6069,
    "ĠÅ¡ali": 6070,
    "ĠKulin": 6071,
    "ĠkaluÄĳera": 6072,
    "Ġokrene": 6073,
    "DIMA": 6074,
    "ĠÄĩy": 6075,
    "ĠgvoÅ¾Äĳa": 6076,
    ".B": 6077,
    "Ha": 6078,
    "Josif": 6079,
    "ocima": 6080,
    "ojte": 6081,
    "Ġure": 6082,
    "nam": 6083,
    "Ġnared": 6084,
    "Ġnazva": 6085,
    "daÅ¡e": 6086,
    "Ġizla": 6087,
    "ĠJevuse": 6088,
    "zapovjedi": 6089,
    "porodi": 6090,
    "ĠjedoÅ¡e": 6091,
    "Ġstan": 6092,
    "Jerusali": 6093,
    "ĠSama": 6094,
    "klet": 6095,
    "ĠJoram": 6096,
    "preko": 6097,
    "Ġotpusti": 6098,
    "Ġuzeo": 6099,
    "naesti": 6100,
    "Ġfaraona": 6101,
    "ĠstarjeÅ¡inama": 6102,
    "ĠVenijaminovi": 6103,
    "ĠAmonovijeh": 6104,
    "Ġhvale": 6105,
    "ĠAsaf": 6106,
    "Ġupravite": 6107,
    "Ġizrailj": 6108,
    "Ġprinose": 6109,
    "ĠValak": 6110,
    "Ġhananskoj": 6111,
    "ĠHevron": 6112,
    "ĠJestira": 6113,
    "Ġtankoga": 6114,
    ".R": 6115,
    "66": 6116,
    "LjE": 6117,
    "knji": 6118,
    "smu": 6119,
    "liÄį": 6120,
    "ĠnavrÅ¡i": 6121,
    "niÅ¡ta": 6122,
    "Ġnepo": 6123,
    "Ġodvra": 6124,
    "Ġbismo": 6125,
    "ljeva": 6126,
    "Ġraskopa": 6127,
    "arna": 6128,
    "Ġruga": 6129,
    "Ġsvakoj": 6130,
    "Ġjudej": 6131,
    "Ġimenom": 6132,
    "ĠkazaÅ¡e": 6133,
    "gled": 6134,
    "Ġmolitva": 6135,
    "Ġistine": 6136,
    "ĠbezboÅ¾nik": 6137,
    "Ġpravednik": 6138,
    "Kol": 6139,
    "ĠbludniÄįe": 6140,
    "Ġprorokuj": 6141,
    "mnogo": 6142,
    "ĠneznaboÅ¡ci": 6143,
    "Ġsakrive": 6144,
    "Ġnapolje": 6145,
    "Ġiscijeli": 6146,
    "\"S": 6147,
    "Crno": 6148,
    "gnuti": 6149,
    "ust": 6150,
    "jete": 6151,
    "Ġil": 6152,
    "Ġipak": 6153,
    "Äĩar": 6154,
    "Ġulo": 6155,
    "liva": 6156,
    "Ġnavali": 6157,
    "Ġsvad": 6158,
    "ĠponoÄĩi": 6159,
    "Ġkazuje": 6160,
    "Ġzaku": 6161,
    "ruÄį": 6162,
    "noÄĩ": 6163,
    "Ġsame": 6164,
    "Ġtica": 6165,
    "Ġvile": 6166,
    "Ġnigde": 6167,
    "Å¡inu": 6168,
    "Ġrazi": 6169,
    "Ġkuli": 6170,
    "bogom": 6171,
    "Å¾ak": 6172,
    "Ġljubu": 6173,
    "Ġpiju": 6174,
    "ĠRo": 6175,
    "Ġele": 6176,
    "ĠjunaÅ¡tvo": 6177,
    "ĠÄįiÄįa": 6178,
    "Ġcarevu": 6179,
    "gradu": 6180,
    "Ġsredi": 6181,
    "Ġbrdo": 6182,
    "Ġpokla": 6183,
    "Ñĸs": 6184,
    "Ġvjerna": 6185,
    "Ġsrpske": 6186,
    "Ġhajduci": 6187,
    "Ġborbi": 6188,
    "Ġborbu": 6189,
    "Ġizdaj": 6190,
    "ĠPrili": 6191,
    "Ġvezire": 6192,
    "Ġpotok": 6193,
    "Ġzaspi": 6194,
    "Ġbuzdovan": 6195,
    "Ġtrgovac": 6196,
    "ĠMatilda": 6197,
    "Vojvoda": 6198,
    "Uz": 6199,
    "ZA": 6200,
    "bru": 6201,
    "glo": 6202,
    "slo": 6203,
    "vri": 6204,
    "ĠuÅ¾e": 6205,
    "Ġbojim": 6206,
    "gan": 6207,
    "Ġzaboga": 6208,
    "nulo": 6209,
    "ĠGospodin": 6210,
    "Ġvami": 6211,
    "Ġvele": 6212,
    "Ġrak": 6213,
    "Ġpun": 6214,
    "Ġtuga": 6215,
    "Ġdanak": 6216,
    "ĠiziÄĩi": 6217,
    "Ġistorij": 6218,
    "ĠgroÅ¡a": 6219,
    "ĠpoÅ¡ten": 6220,
    "LjU": 6221,
    ".Pitao": 6222,
    "ĠStojan": 6223,
    "Ġmladosti": 6224,
    "Ġotkuda": 6225,
    "Ġhoteo": 6226,
    "ĠhodÅ¾a": 6227,
    "opako": 6228,
    ".G": 6229,
    "Ġomi": 6230,
    "ĠdaÅ¾d": 6231,
    "Ġgum": 6232,
    "ĠAga": 6233,
    "ĠAsvi": 6234,
    "noÅ¡ahu": 6235,
    "Ġsiti": 6236,
    "ovaÅ¡e": 6237,
    "Ġtinji": 6238,
    "zave": 6239,
    "ĠEno": 6240,
    "ĠSisa": 6241,
    "govolj": 6242,
    "ĠostaviÅ¡e": 6243,
    "ĠdanaÅ¡njega": 6244,
    "Ġoboje": 6245,
    "ĠustaÅ¡e": 6246,
    "ĠFi": 6247,
    "Ġvolova": 6248,
    "Ġzlatne": 6249,
    "Ġvrh": 6250,
    "Ġzbora": 6251,
    "ĠIsahar": 6252,
    "Ġkamenjem": 6253,
    "ĠpomaÅ¾e": 6254,
    "sluÅ¾": 6255,
    "njegovu": 6256,
    "Ġosamdeset": 6257,
    "ĠposveÄĩe": 6258,
    "ĠMardohej": 6259,
    "Ġnadjede": 6260,
    "Ġvrstama": 6261,
    "Ġugodni": 6262,
    "blagoslovi": 6263,
    "Carstvo": 6264,
    "Ġskerle": 6265,
    "PRI": 6266,
    "izi": 6267,
    "spi": 6268,
    "zvati": 6269,
    "jedna": 6270,
    "Ġzli": 6271,
    "Ġzle": 6272,
    "Ġsvo": 6273,
    "vanja": 6274,
    "Ġzabra": 6275,
    "ĠdoÄĳoh": 6276,
    "roma": 6277,
    "sana": 6278,
    "Ġmiru": 6279,
    "Ġsuda": 6280,
    "ĠMojim": 6281,
    "pasti": 6282,
    "Ġrasija": 6283,
    "ĠOcu": 6284,
    "ĠOpet": 6285,
    "Ġpostra": 6286,
    "Ġduhu": 6287,
    "ĠJagnje": 6288,
    "ĠÄįujte": 6289,
    "Ġostatak": 6290,
    "ĠÄįiniÅ¡": 6291,
    "Ġtrnje": 6292,
    "Ġposlao": 6293,
    "mjesto": 6294,
    "posla": 6295,
    "Ġkrivo": 6296,
    "ĠiziÅ¡avÅ¡i": 6297,
    "Ġkazah": 6298,
    "ĠNiti": 6299,
    "BoÅ¾i": 6300,
    "Ġhvalu": 6301,
    "Ġspasenije": 6302,
    "ĠCarstvo": 6303,
    "Ġpobijeni": 6304,
    "ĠBlagodat": 6305,
    "ĠOstatak": 6306,
    "ĠumnoÅ¾i": 6307,
    ".Jov": 6308,
    "ĠÅ¡irinu": 6309,
    "-tri": 6310,
    "Bi": 6311,
    "ora": 6312,
    "tome": 6313,
    "tnji": 6314,
    "zom": 6315,
    "Ġjeli": 6316,
    "mane": 6317,
    "ĠAN": 6318,
    "Ġzado": 6319,
    "ĠJovo": 6320,
    "num": 6321,
    "Ġpar": 6322,
    "Ġizvan": 6323,
    "Ġvinom": 6324,
    "Ġvaljda": 6325,
    "Ġvere": 6326,
    "ĠvenÄįa": 6327,
    "ĠBio": 6328,
    "kinja": 6329,
    "Ġprete": 6330,
    "ĠonÄĳe": 6331,
    "Ġkule": 6332,
    "Ġpripa": 6333,
    "Ġdelija": 6334,
    "ĠÄįelu": 6335,
    "ĠManoj": 6336,
    "Ġokolo": 6337,
    "Ġgledao": 6338,
    "ĠmogaÅ¡e": 6339,
    "noviÄĩa": 6340,
    "Ġvlaste": 6341,
    "ĠÄĮamÄįo": 6342,
    "Ġsmr": 6343,
    "Ġstotinu": 6344,
    "Ġceki": 6345,
    "Ġkakve": 6346,
    "ĠdrÅ¾ave": 6347,
    "Ġhajduke": 6348,
    "Ġnevolje": 6349,
    "Å¡kal": 6350,
    "ĠmomÄįe": 6351,
    "ĠÄĲemo": 6352,
    "POP": 6353,
    "ĠÅ½iv": 6354,
    "Ġdvojica": 6355,
    "ĠKRALjEVIÄĨ": 6356,
    "Kraj": 6357,
    "isto": 6358,
    "tj": 6359,
    "ĠiÅ¡li": 6360,
    "Å¡lo": 6361,
    "Ġnazi": 6362,
    "Ġnapre": 6363,
    "Ġsvuda": 6364,
    "Å¡em": 6365,
    "ĠodveÄĩ": 6366,
    "sak": 6367,
    "ĠMaj": 6368,
    "ĠMOJ": 6369,
    "ĠNE": 6370,
    "sica": 6371,
    "Ġvetar": 6372,
    "Ġmar": 6373,
    "ĠmaÄĳa": 6374,
    "ĠTadija": 6375,
    "Ġrazgovo": 6376,
    "ĠsreÄĩe": 6377,
    "Ġmojom": 6378,
    "njo": 6379,
    "ĠÄįoveku": 6380,
    "Ġpomogao": 6381,
    "ĠuÄįiti": 6382,
    "ĠpoÄįeo": 6383,
    "ĠÅ¡umu": 6384,
    "Ġnikada": 6385,
    "ĠMustaj": 6386,
    "ĠinaÄįe": 6387,
    "Ġvsegda": 6388,
    "ĠÅ¾dre": 6389,
    "Aha": 6390,
    "ncu": 6391,
    "ĠpÅ¡e": 6392,
    "lini": 6393,
    "Ġsabor": 6394,
    "ĠJoda": 6395,
    "mon": 6396,
    "sele": 6397,
    "sevo": 6398,
    "misir": 6399,
    "Ġkraje": 6400,
    "ĠNjegovijeh": 6401,
    "ĠnaÄįinio": 6402,
    "ĠVal": 6403,
    "ĠValam": 6404,
    "Ġpokropi": 6405,
    "ĠSeru": 6406,
    "Ġdrugih": 6407,
    "Ġneprijatelj": 6408,
    "ĠSolomuna": 6409,
    "Ġizbavlja": 6410,
    "Ġkamenja": 6411,
    "Ġmetnuo": 6412,
    "ĠReve": 6413,
    "pustinji": 6414,
    "njegove": 6415,
    "Ġprvenac": 6416,
    "Ġmagarca": 6417,
    "Ġpotomstvu": 6418,
    "ĠJosafa": 6419,
    "sveÅ¡tenik": 6420,
    "Ġobjesi": 6421,
    "Ġproklet": 6422,
    "ĠsluÅ¡kinja": 6423,
    "Ġdotakne": 6424,
    "ĠMerarije": 6425,
    "ĠGedeon": 6426,
    "ĠVirsave": 6427,
    "Ġlon": 6428,
    "61": 6429,
    "Pla": 6430,
    "ide": 6431,
    "ldej": 6432,
    "Ġslo": 6433,
    "tiÅ¡e": 6434,
    "line": 6435,
    "koh": 6436,
    "Å¾nje": 6437,
    "kama": 6438,
    "Ġsatr": 6439,
    "Äĳenja": 6440,
    "Ġizli": 6441,
    "Ġizobi": 6442,
    "Ġmudar": 6443,
    "kedo": 6444,
    "Ġgrane": 6445,
    "Ġzaprije": 6446,
    "Ġostaje": 6447,
    "Ġotpa": 6448,
    "Ġnemaju": 6449,
    "NOST": 6450,
    "vrata": 6451,
    "Dani": 6452,
    "Ġopomi": 6453,
    "ĠprimiÅ¡e": 6454,
    "primi": 6455,
    "ĠdoveÅ¡Äĩu": 6456,
    "Ġhum": 6457,
    "zdravi": 6458,
    "lazeÄĩi": 6459,
    "ĠneznaboÅ¾a": 6460,
    "Proricanje": 6461,
    "Ġpisano": 6462,
    "Ġptice": 6463,
    "Ġbogatstvo": 6464,
    "DRIJA": 6465,
    "Svi": 6466,
    "ch": 6467,
    "hrani": 6468,
    "pije": 6469,
    "Ġsmje": 6470,
    "Ġumet": 6471,
    "rine": 6472,
    "nila": 6473,
    "koÄįi": 6474,
    "leksa": 6475,
    "jicu": 6476,
    "ĠGospoÄĳa": 6477,
    "vera": 6478,
    "ĠmuÄįe": 6479,
    "Ġvikati": 6480,
    "Ġnjena": 6481,
    "Ġtakav": 6482,
    "Ġprihvati": 6483,
    "Ġpristane": 6484,
    "pora": 6485,
    "Ġnarodni": 6486,
    "ĠpeÄĩ": 6487,
    "ĠnoÄĩa": 6488,
    "ĠBogdan": 6489,
    "Ġprava": 6490,
    "ĠRoga": 6491,
    "Ġsobe": 6492,
    "ĠSofri": 6493,
    "Ġpostane": 6494,
    "Ġgrdno": 6495,
    "ĠÅ¡eta": 6496,
    "Ġtursku": 6497,
    "Ġsirota": 6498,
    "Ġuspe": 6499,
    "Ġudario": 6500,
    "Ġkakvu": 6501,
    "nduÅ¡i": 6502,
    "Ġmejdana": 6503,
    "ĠÅłarcu": 6504,
    "Ġozbi": 6505,
    "ĠÄĨe": 6506,
    "zlaÄĩe": 6507,
    "ĠMaksima": 6508,
    "Ġhleba": 6509,
    "Ġnapoji": 6510,
    "Ġrakije": 6511,
    "ĠANDRIJA": 6512,
    "Ajde": 6513,
    "LV": 6514,
    "ZOR": 6515,
    "]odi": 6516,
    "tvor": 6517,
    "Î½": 6518,
    "jet": 6519,
    "Ġspra": 6520,
    "ĠiduÄĩi": 6521,
    "tinu": 6522,
    "Ġmrtav": 6523,
    "Äįnom": 6524,
    "odmah": 6525,
    "rit": 6526,
    "naÄĳe": 6527,
    "mati": 6528,
    "Ġdala": 6529,
    "ĠIZ": 6530,
    "Ġpotu": 6531,
    "ĠpoÅ¡ao": 6532,
    "Ġkamo": 6533,
    "teljem": 6534,
    "Ġzapi": 6535,
    "Ġdolje": 6536,
    "Ġvala": 6537,
    "Å¡ir": 6538,
    "Ġpreo": 6539,
    "Ġkum": 6540,
    "Ġkupu": 6541,
    "Ġimadu": 6542,
    "Å½i": 6543,
    "ĠÅ¾ivu": 6544,
    "Ġcvet": 6545,
    "Ġbuda": 6546,
    "Ġpodob": 6547,
    "Ġsvim": 6548,
    "Ġostade": 6549,
    "Ġostavio": 6550,
    "ĠRA": 6551,
    "Ġfilo": 6552,
    "Ġrodila": 6553,
    "Å¡tina": 6554,
    "ĠobiÄįaj": 6555,
    "Ġzdrav": 6556,
    "Ġsrpska": 6557,
    "Ġlisicu": 6558,
    "Malo": 6559,
    "Ġgotov": 6560,
    "Ġpisati": 6561,
    "ĠÄįeloveÄįe": 6562,
    "Ġfrancuski": 6563,
    "Ġmegdan": 6564,
    "ZORJE": 6565,
    "Ave": 6566,
    "Jov": 6567,
    "Tvoje": 6568,
    "laka": 6569,
    "Ġnena": 6570,
    "ĠJOV": 6571,
    "ĠmuÅ¡ko": 6572,
    "Å¾ivi": 6573,
    "ĠBje": 6574,
    "luja": 6575,
    "ĠJedna": 6576,
    "ljudi": 6577,
    "Ġjare": 6578,
    "miÅ¡lja": 6579,
    "Ġlikove": 6580,
    "ĠprinesoÅ¡e": 6581,
    "potom": 6582,
    "ĠVara": 6583,
    "ĠSal": 6584,
    "Ġprijevor": 6585,
    "Ġizagna": 6586,
    "Ġosramo": 6587,
    "ĠposlaÅ¡e": 6588,
    "ĠIsaku": 6589,
    "ĠSaulova": 6590,
    "Bogu": 6591,
    "Ġmjesec": 6592,
    "ĠubiÅ¡e": 6593,
    "njegovijem": 6594,
    "svojih": 6595,
    "Ġvelikim": 6596,
    "Ġnemojte": 6597,
    "Ġbojte": 6598,
    "Ġplemenu": 6599,
    "ĠMisirci": 6600,
    "Ġpjesma": 6601,
    "ĠnaÅ¡ih": 6602,
    "ĠnaÅ¡im": 6603,
    "ĠFilistejima": 6604,
    "Ġognja": 6605,
    "Ġstrijele": 6606,
    "Ġheruvi": 6607,
    "oltar": 6608,
    "Jordana": 6609,
    "ĠJOVU": 6610,
    "Fil": 6611,
    "Moje": 6612,
    "mos": 6613,
    "svjedo": 6614,
    "ĠoÅ¾i": 6615,
    "tite": 6616,
    "Ġuga": 6617,
    "Ġugla": 6618,
    "Ġuho": 6619,
    "ĠuÄįaÅ¡e": 6620,
    "las": 6621,
    "reme": 6622,
    "naroda": 6623,
    "ĠsaÅ¾e": 6624,
    "Ġdoista": 6625,
    "nuvÅ¡i": 6626,
    "ven": 6627,
    "Ġizbra": 6628,
    "starjeÅ¡i": 6629,
    "luje": 6630,
    "Ġjaram": 6631,
    "ĠUÄįitelju": 6632,
    "ĠgovoriÅ¡": 6633,
    "Å¡tenje": 6634,
    "Ġstrada": 6635,
    "Ġstvore": 6636,
    "Ġnadvla": 6637,
    "Ġustati": 6638,
    "Ġpokvari": 6639,
    "Ġroblje": 6640,
    "Ġljubazni": 6641,
    "ĠBoÅ¾ijemu": 6642,
    "Ġsuncem": 6643,
    "Ġsramota": 6644,
    "Mene": 6645,
    "Ġstanovnike": 6646,
    "ĠSvaki": 6647,
    "ĠJakovljev": 6648,
    "Ġkorist": 6649,
    "Ġproslavi": 6650,
    "Ġdovrat": 6651,
    "Ġplod": 6652,
    "ĠduÅ¾inu": 6653,
    "Ġpromije": 6654,
    "ng": 6655,
    "rte": 6656,
    "tni": 6657,
    "vc": 6658,
    "Äįnim": 6659,
    "Ġgrom": 6660,
    "Å¡ena": 6661,
    "ĠneÄĳe": 6662,
    "Ġneku": 6663,
    "Ġpole": 6664,
    "vine": 6665,
    "ĠzapoÄįe": 6666,
    "Ġdozove": 6667,
    "veÄĩe": 6668,
    "Å¾eÅ¡": 6669,
    "Ġizu": 6670,
    "Ġizre": 6671,
    "Ġizvi": 6672,
    "moÄĩ": 6673,
    "ovoljan": 6674,
    "seÄįe": 6675,
    "Ġnigda": 6676,
    "Ġvek": 6677,
    "Ġrani": 6678,
    "Ġraki": 6679,
    "Ġravni": 6680,
    "pote": 6681,
    "ĠTaj": 6682,
    "ĠÄįuju": 6683,
    "Ġprase": 6684,
    "Ġnajvi": 6685,
    "Ġpodvi": 6686,
    "likom": 6687,
    "ĠKatica": 6688,
    "ĠMalo": 6689,
    "Ġtraga": 6690,
    "Ġnjegovom": 6691,
    "ĠgledajuÄĩi": 6692,
    "broj": 6693,
    "mandri": 6694,
    "Ġsnaha": 6695,
    "Ġvodenicu": 6696,
    "Ġsestre": 6697,
    "Ġprijatelji": 6698,
    "Ġljep": 6699,
    "Ġnevolja": 6700,
    "Ġhiljade": 6701,
    "ĠpevaÄį": 6702,
    "Ġpogled": 6703,
    "Ġkobila": 6704,
    "Ġkobilu": 6705,
    "ĠProfit": 6706,
    "Ġkapetan": 6707,
    "uspru": 6708,
    "ĠÅ¡iroko": 6709,
    "Ġtorbu": 6710,
    "ĠMomÄįilo": 6711,
    "ĠduÄĩanu": 6712,
    "ĠÅ½eni": 6713,
    "-ÄĮelik": 6714,
    "Ġmaramu": 6715,
    "ĠCrnojeviÄĩ": 6716,
    "ĠUglje": 6717,
    "ÄĮamÄįa": 6718,
    "ĠĠĠĠĠĠĠĠĠĠĠĠĠĠĠĠĠĠĠĠĠĠĠĠĠĠĠĠĠĠĠĠĠĠĠĠĠĠĠ": 6719,
    "-ka": 6720,
    "dnik": 6721,
    "ntu": 6722,
    "psi": 6723,
    "Î¹": 6724,
    "ĠsÃ¢m": 6725,
    "Ġpova": 6726,
    "Ġkim": 6727,
    "Ġmlije": 6728,
    "lit": 6729,
    "Ġjela": 6730,
    "Ġjele": 6731,
    "Ġtko": 6732,
    "Ġtvore": 6733,
    "Ġzaludu": 6734,
    "Ġpasa": 6735,
    "mor": 6736,
    "oviÄĩu": 6737,
    "Ġkoza": 6738,
    "ĠnipoÅ¡to": 6739,
    "Å¡im": 6740,
    "Å¡ice": 6741,
    "ĠraÄįu": 6742,
    "Moja": 6743,
    "ĠDan": 6744,
    "Å¾ati": 6745,
    "Ġprost": 6746,
    "Ġprvom": 6747,
    "nijela": 6748,
    "ĠznaÄįe": 6749,
    "ĠHor": 6750,
    "ĠtuÄĳe": 6751,
    "Ġefe": 6752,
    "ĠmoÅ¾ete": 6753,
    "Ġobli": 6754,
    "Ġtrava": 6755,
    "ĠNas": 6756,
    "Ġzeca": 6757,
    "ĠmoguÄĩe": 6758,
    "Ġzime": 6759,
    "ndÅ¾i": 6760,
    "Ġdukate": 6761,
    "ĠGori": 6762,
    "Samo": 6763,
    "ĠSrbiji": 6764,
    "Ġnikakva": 6765,
    "ĠÅ¡teta": 6766,
    "Ġzubi": 6767,
    "Ġvisoko": 6768,
    "ĠlepÅ¡e": 6769,
    "TeÅ¡ko": 6770,
    "Ġotkud": 6771,
    "Ġuzrok": 6772,
    "ĠSmilja": 6773,
    "POZORJE": 6774,
    "Ġnajmanje": 6775,
    "Ġbarjakta": 6776,
    "Care": 6777,
    "Ġfilozo": 6778,
    "UD": 6779,
    "fara": 6780,
    "gosilja": 6781,
    "hon": 6782,
    "sova": 6783,
    "Ġogla": 6784,
    "Ġuhode": 6785,
    "Ġnakon": 6786,
    "neprijate": 6787,
    "ĠAsi": 6788,
    "lev": 6789,
    "ĠJosi": 6790,
    "ĠkoÅ¾i": 6791,
    "sedam": 6792,
    "Ġmol": 6793,
    "Å¡ana": 6794,
    "Äĩanin": 6795,
    "ĠJerovoama": 6796,
    "Ġglad": 6797,
    "ĠEf": 6798,
    "Ġedom": 6799,
    "Ġotje": 6800,
    "stup": 6801,
    "ĠMaha": 6802,
    "Ġsjeme": 6803,
    "ĠTvojemu": 6804,
    "domu": 6805,
    "valite": 6806,
    "Ġpogine": 6807,
    "ĠHel": 6808,
    "sluge": 6809,
    "svojoj": 6810,
    "Ġzemaljskih": 6811,
    "Ġpotomstvo": 6812,
    "ĠNemojte": 6813,
    "Judi": 6814,
    "ĠEleaza": 6815,
    "Ġdolini": 6816,
    "Ġpogreben": 6817,
    "Koji": 6818,
    "SMA": 6819,
    "hor": 6820,
    "pom": 6821,
    "znu": 6822,
    "ĠuniÅ¡ti": 6823,
    "Ġnapu": 6824,
    "jam": 6825,
    "ĠIzi": 6826,
    "lopo": 6827,
    "Ġrev": 6828,
    "ĠmiÅ¡lja": 6829,
    "Ġkorije": 6830,
    "ĠMje": 6831,
    "ĠMoji": 6832,
    "Ġvavijek": 6833,
    "Ġteve": 6834,
    "stava": 6835,
    "ĠPR": 6836,
    "ĠOÄįe": 6837,
    "ziv": 6838,
    "ĠDama": 6839,
    "Ġstada": 6840,
    "âĢĻ,Ċ": 6841,
    "Ġnegoli": 6842,
    "189": 6843,
    "Ġgoni": 6844,
    "ĠRijeÄį": 6845,
    "ĠlaÄĳe": 6846,
    "ĠlaÄĳa": 6847,
    "Ġgledahu": 6848,
    "Ġposlanica": 6849,
    "Ġpoznaju": 6850,
    "kvama": 6851,
    "Ġduhov": 6852,
    "ĠtraÅ¾ite": 6853,
    "Ġhvala": 6854,
    "Ġvavilonskoga": 6855,
    "Ġtrijemu": 6856,
    "Ġpraznik": 6857,
    "uÄįenici": 6858,
    "Ġklanja": 6859,
    "ĠpristupivÅ¡i": 6860,
    "Ġsavjet": 6861,
    "ĠLjudi": 6862,
    "ĠJOVANU": 6863,
    "skijeh": 6864,
    "BoÅ¾ije": 6865,
    "\"B": 6866,
    "boji": 6867,
    "Å¡ni": 6868,
    "Ġkmet": 6869,
    "Ġude": 6870,
    "Ġuhva": 6871,
    "laca": 6872,
    "lila": 6873,
    "lizma": 6874,
    "jala": 6875,
    "Ġdara": 6876,
    "danu": 6877,
    "Ġponese": 6878,
    "ĠAnÄĳe": 6879,
    "ĠAleksa": 6880,
    "Ġkazivati": 6881,
    "dere": 6882,
    "Ġdopusti": 6883,
    "ĠodoÅ¡e": 6884,
    "Ġpatrijar": 6885,
    "Ġkoplja": 6886,
    "Ġmeri": 6887,
    "Ġrav": 6888,
    "Ġramenu": 6889,
    "ĠOh": 6890,
    "zio": 6891,
    "Ġher": 6892,
    "Äįaju": 6893,
    "ĠUro": 6894,
    "Ġbabi": 6895,
    "Ġsvane": 6896,
    "ĠBogdane": 6897,
    "puÅ¡ta": 6898,
    "Ġjutru": 6899,
    "ĠÅ¾ert": 6900,
    "185": 6901,
    "Ġlegi": 6902,
    "Å¡tam": 6903,
    "ĠÄĩuti": 6904,
    "ĠlakÅ¡e": 6905,
    "ĠjunaÅ¡t": 6906,
    "ĠMila": 6907,
    "ĠSoko": 6908,
    "ĠcareviÄĩ": 6909,
    "ĠManduÅ¡i": 6910,
    "Ġgrla": 6911,
    "Ġumije": 6912,
    "ĠÄĮamÄįi": 6913,
    "ĠÅ¾alos": 6914,
    "ĠuÄįitelju": 6915,
    "Ġigraju": 6916,
    "Äįkim": 6917,
    "ĠnovÄįiÄĩ": 6918,
    "Ġobraduje": 6919,
    "ĠArap": 6920,
    "Ġhajduka": 6921,
    "Ġoblake": 6922,
    "ĠvaÅ¡ar": 6923,
    "Ġpoezije": 6924,
    "ĠoÅ¾eniti": 6925,
    "Ġjabuke": 6926,
    "____": 6927,
    "ogoviÄĩ": 6928,
    "Ġvojevoda": 6929,
    "ĠÄĩoso": 6930,
    "ĠBrankoviÄĩa": 6931,
    "Ġcrnogor": 6932,
    "Ġnevese": 6933,
    "ĠÅ½ablja": 6934,
    "ĠnoÄĩas": 6935,
    "Ġ..": 6936,
    "LX": 6937,
    "Oni": 6938,
    "Opet": 6939,
    "VU": 6940,
    "sja": 6941,
    "Î±": 6942,
    "ĠpÄįe": 6943,
    "Ġpsi": 6944,
    "Ġkva": 6945,
    "tinj": 6946,
    "Ġuma": 6947,
    "Ġjesi": 6948,
    "Ġbur": 6949,
    "ĠGre": 6950,
    "Ġpazar": 6951,
    "ĠSlu": 6952,
    "Ġsuje": 6953,
    "Ġvatri": 6954,
    "Ġter": 6955,
    "Ġmeda": 6956,
    "ĠveÅ¾e": 6957,
    "luka": 6958,
    "ĠDRA": 6959,
    "ĠPomo": 6960,
    "ĠOvde": 6961,
    "Ġboli": 6962,
    "pol": 6963,
    "Äįasti": 6964,
    "Ġdela": 6965,
    "Ġdecu": 6966,
    "Ġdervi": 6967,
    "ĠZla": 6968,
    "Ġimanje": 6969,
    "Å½A": 6970,
    "ĠduÅ¾an": 6971,
    "gija": 6972,
    "Ġcvije": 6973,
    "Ġrazgovarati": 6974,
    "ĠÅ¡tam": 6975,
    "Ġvidimo": 6976,
    "Ġfami": 6977,
    "Ġmojem": 6978,
    "grabi": 6979,
    "vljati": 6980,
    "Nek": 6981,
    "niÄįar": 6982,
    "ĠnaÅ¡em": 6983,
    "ĠÅ¡enicu": 6984,
    "Ġzbogom": 6985,
    "ĠVidite": 6986,
    "ndÅ¾ija": 6987,
    "Ġvuku": 6988,
    "ĠTure": 6989,
    "ĠkomÅ¡i": 6990,
    "ĠzaiÅ¡te": 6991,
    "ĠknjiÅ¾evnosti": 6992,
    "ĠkokoÅ¡": 6993,
    "ĠobiÄįaju": 6994,
    "Ġposlednji": 6995,
    "ĠÄĲorÄĳe": 6996,
    "Ġmlogo": 6997,
    "-Se": 6998,
    "Ama": 6999,
    "Avi": 7000,
    "SU": 7001,
    "klu": 7002,
    "lovima": 7003,
    "rov": 7004,
    "Ġsprave": 7005,
    "rata": 7006,
    "ovom": 7007,
    "Ġubo": 7008,
    "Ġubiti": 7009,
    "reze": 7010,
    "Ġnapr": 7011,
    "Ġgri": 7012,
    "ĠIlije": 7013,
    "ĠAmno": 7014,
    "jinu": 7015,
    "desno": 7016,
    "rot": 7017,
    "loma": 7018,
    "Ġizgovori": 7019,
    "ĠSUD": 7020,
    "Ġmirom": 7021,
    "rijeva": 7022,
    "ĠkoÅ¾a": 7023,
    "njezi": 7024,
    "sij": 7025,
    "ĠJezave": 7026,
    "Ġmasli": 7027,
    "ljani": 7028,
    "Ġnjihovoj": 7029,
    "Jef": 7030,
    "Ġvelikoj": 7031,
    "IJAMA": 7032,
    "ĠÄįuvaju": 7033,
    "ĠjuÅ¾": 7034,
    "ĠSim": 7035,
    "ĠMesu": 7036,
    "ĠKat": 7037,
    "ĠbioÄįu": 7038,
    "ĠdrÅ¾ite": 7039,
    "Ġbroju": 7040,
    "ĠrodiÅ¡e": 7041,
    "ostavi": 7042,
    "Ġmogahu": 7043,
    "Ġpustinje": 7044,
    "Ġdragovolj": 7045,
    "Ġsudije": 7046,
    "Ġmolitvu": 7047,
    "izmeÄĳu": 7048,
    "Ġizbavio": 7049,
    "Ġknezove": 7050,
    "Ġblagoslov": 7051,
    "ĠÅ¡atoru": 7052,
    "Samu": 7053,
    "ĠpjevaÄįi": 7054,
    "ĠZemlja": 7055,
    "Ġoblaka": 7056,
    "Ġmagar": 7057,
    "sinovima": 7058,
    "Ġtvrdo": 7059,
    "Avram": 7060,
    "Knjiga": 7061,
    "Jerusalimu": 7062,
    "ĠSUDIJAMA": 7063,
    "69": 7064,
    "OT": 7065,
    "onoga": 7066,
    "tima": 7067,
    "naÅ¡e": 7068,
    "kome": 7069,
    "Ġzvati": 7070,
    "daj": 7071,
    "davÅ¡i": 7072,
    "Å¡enje": 7073,
    "vajte": 7074,
    "Ġsili": 7075,
    "ĠsagrijeÅ¡i": 7076,
    "Ġodo": 7077,
    "Ġodvrati": 7078,
    "ĠSO": 7079,
    "ĠStra": 7080,
    "rijeÄįi": 7081,
    "ĠMojih": 7082,
    "Ġgovorih": 7083,
    "vjer": 7084,
    "ĠMojoj": 7085,
    "Ġispi": 7086,
    "Ġispuni": 7087,
    "ĠNjegovoj": 7088,
    "ĠNazare": 7089,
    "ĠsjeÄĳahu": 7090,
    "Ġhaldej": 7091,
    "gnjev": 7092,
    "Ġnjezini": 7093,
    "Ġgnjevu": 7094,
    "Subo": 7095,
    "Ġnebeske": 7096,
    "Ġgroba": 7097,
    "ĠdovedoÅ¡e": 7098,
    "ĠneÄįisti": 7099,
    "Ġvjerni": 7100,
    "vanÄĳelje": 7101,
    "ĠuhvatiÅ¡e": 7102,
    "Ġgadove": 7103,
    "ĠJevanÄĳelja": 7104,
    "Ġstanovnici": 7105,
    "ĠProro": 7106,
    "Ġuzalud": 7107,
    "Ġjerusalimske": 7108,
    "ĠZakon": 7109,
    "ĠÅ¡ÄĩaÅ¡e": 7110,
    "\"Ja": 7111,
    "-pa": 7112,
    "DAR": 7113,
    "auspru": 7114,
    "dosa": 7115,
    "hom": 7116,
    "rge": 7117,
    "svu": 7118,
    "Ġokru": 7119,
    "tad": 7120,
    "Ġupo": 7121,
    "nicom": 7122,
    "Ġsede": 7123,
    "Ġkarak": 7124,
    "Ġzadr": 7125,
    "divoje": 7126,
    "Ġpala": 7127,
    "pala": 7128,
    "ĠnigÄĳe": 7129,
    "ĠpreÄĳe": 7130,
    "Ġpreki": 7131,
    "Ġrade": 7132,
    "ĠmaÄįka": 7133,
    "ĠPr": 7134,
    "ĠPrije": 7135,
    "Ġbola": 7136,
    "Ġtvome": 7137,
    "Ġpusta": 7138,
    "Ġrume": 7139,
    "ĠZogoviÄĩ": 7140,
    "ĠpendÅ¾e": 7141,
    "ĠJakÅ¡i": 7142,
    "Ġdobije": 7143,
    "ĠuzjaÅ¡e": 7144,
    "ĠplaÄįuÄĩi": 7145,
    "Ġlatin": 7146,
    "Ġjunaku": 7147,
    "ĠKara": 7148,
    "Pobratime": 7149,
    "tros": 7150,
    "Ġumr": 7151,
    "kraj": 7152,
    "ĠpoÄįetku": 7153,
    "ĠtraÅ¾im": 7154,
    "ĠStje": 7155,
    "Ġdrugoj": 7156,
    "ĠMilica": 7157,
    "Ġmomci": 7158,
    "Ġsvud": 7159,
    "ĠÅ¾iveti": 7160,
    "Ġnekim": 7161,
    "Ġumreti": 7162,
    "ĠRadu": 7163,
    "ĠLazare": 7164,
    "ĠArapine": 7165,
    "ĠBuga": 7166,
    "ĠdÅ¾anum": 7167,
    "ĠMARKO": 7168,
    "STVO": 7169,
    "]i": 7170,
    "]talija": 7171,
    "ndija": 7172,
    "un": 7173,
    "Ġsmatra": 7174,
    "Å¡Äįe": 7175,
    "lak": 7176,
    "Ġnestane": 7177,
    "vicu": 7178,
    "Ġzao": 7179,
    "ĠGdi": 7180,
    "Ġbiser": 7181,
    "pac": 7182,
    "pan": 7183,
    "Ġnismo": 7184,
    "Ġtoke": 7185,
    "Ġmagi": 7186,
    "ĠOÄĩi": 7187,
    "Ġpelin": 7188,
    "Jedan": 7189,
    "nijeti": 7190,
    "Ġpili": 7191,
    "Ġpija": 7192,
    "Ġnajbo": 7193,
    "Ġonim": 7194,
    "klen": 7195,
    "Ġplatiti": 7196,
    "Ġdivan": 7197,
    "ondo": 7198,
    "Ġgledam": 7199,
    "Ġkriv": 7200,
    "ĠPetra": 7201,
    "ĠDuna": 7202,
    "Ġzakolje": 7203,
    "Ġsvakog": 7204,
    "Ġgospodina": 7205,
    "Ġsedlo": 7206,
    "ĠcveÄĩe": 7207,
    "Ġingle": 7208,
    "ĠHajku": 7209,
    "ĠZnaÅ¡": 7210,
    "Ġljubovi": 7211,
    "Ġzaisto": 7212,
    "Ġnajstariji": 7213,
    "ĠHercegovini": 7214,
    "klon": 7215,
    "Ġoho": 7216,
    "Ġkost": 7217,
    "reja": 7218,
    "Ġjeo": 7219,
    "Ġnare": 7220,
    "Ġnalije": 7221,
    "Ġzgotovi": 7222,
    "ĠISU": 7223,
    "podi": 7224,
    "mora": 7225,
    "ĠKar": 7226,
    "seca": 7227,
    "ĠNAVI": 7228,
    "Ġradite": 7229,
    "ĠOzi": 7230,
    "piÅ¡e": 7231,
    "Ġpripovjedi": 7232,
    "dobro": 7233,
    "ĠVrati": 7234,
    "ĠSalu": 7235,
    "ĠEs": 7236,
    "ĠEma": 7237,
    "ĠSion": 7238,
    "ĠSiona": 7239,
    "Ġlevit": 7240,
    "ĠvraÄįa": 7241,
    "ĠplakaÅ¡e": 7242,
    "ĠJudu": 7243,
    "ĠMihe": 7244,
    "ĠÄįiniÅ¡e": 7245,
    "Ġovnova": 7246,
    "ĠVen": 7247,
    "*Jest": 7248,
    "ĠNaÄįini": 7249,
    "ĠodgovoriÅ¡e": 7250,
    "ĠÄįaÅ¡a": 7251,
    "Ġidemo": 7252,
    "ĠJudini": 7253,
    "Ġpodiga": 7254,
    "Davida": 7255,
    "Ġpredade": 7256,
    "Ġzemljama": 7257,
    "Ġoblak": 7258,
    "Ġmomku": 7259,
    "Ġtvrd": 7260,
    "ĠSimej": 7261,
    "cijelo": 7262,
    "Äįovjeka": 7263,
    "Leviti": 7264,
    "ĠSirci": 7265,
    "ĠHoÄĩeÅ¡": 7266,
    "ĠZavulon": 7267,
    "ĠploÄįe": 7268,
    "hljeb": 7269,
    "ĠSamson": 7270,
    "Å¾ivot": 7271,
    "ĠISUSA": 7272,
    "ĠNAVINA": 7273,
    ".U": 7274,
    "65": 7275,
    "Sla": 7276,
    "kovima": 7277,
    "lovati": 7278,
    "Ġslomi": 7279,
    "riÄĩe": 7280,
    "Ġvrije": 7281,
    "Ġvrt": 7282,
    "Ġnasu": 7283,
    "Ġdajem": 7284,
    "dajte": 7285,
    "vino": 7286,
    "ĠpadoÅ¡e": 7287,
    "ĠÄĩesa": 7288,
    "Å¡ih": 7289,
    "ĠmoljaÅ¡e": 7290,
    "ĠtoÄį": 7291,
    "Ġstajati": 7292,
    "ĠpeÄįa": 7293,
    "ĠEfe": 7294,
    "ĠÅ¾esto": 7295,
    "pravlja": 7296,
    "Ġposlati": 7297,
    "ĠSebi": 7298,
    "Ġrog": 7299,
    "Ġlupe": 7300,
    "treba": 7301,
    "Ġprimio": 7302,
    "Ġtrud": 7303,
    "grijeha": 7304,
    "Ġvijenac": 7305,
    "Ġzvijer": 7306,
    "proroka": 7307,
    "Ġtamnicu": 7308,
    "ĠpristupiÅ¡e": 7309,
    "Äįovjek": 7310,
    "Ġtjelesa": 7311,
    "Ġpokajanje": 7312,
    "Ġostrva": 7313,
    "Ġpomrije": 7314,
    "KARA": 7315,
    "Vladika": 7316,
    "est": 7317,
    "fer": 7318,
    "gru": 7319,
    "gospod": 7320,
    "nose": 7321,
    "rvat": 7322,
    "snik": 7323,
    "tnja": 7324,
    "vome": 7325,
    "Ġslika": 7326,
    "Ġplju": 7327,
    "Ġogra": 7328,
    "taju": 7329,
    "Ġvri": 7330,
    "Ġdali": 7331,
    "Ġpome": 7332,
    "Ġpoku": 7333,
    "ĠpozlaÄĩe": 7334,
    "Ġkavu": 7335,
    "Ġkatkad": 7336,
    "Ġzaga": 7337,
    "ruÄĩi": 7338,
    "Ġsave": 7339,
    "Ġodlazi": 7340,
    "ĠodrÅ¾a": 7341,
    "dit": 7342,
    "ĠpaÅ¡e": 7343,
    "Ġiznese": 7344,
    "ĠKod": 7345,
    "Ġtetka": 7346,
    "ĠBoja": 7347,
    "Ġjada": 7348,
    "Ġsvemogu": 7349,
    "mila": 7350,
    "baÅ¡": 7351,
    "Å¾ali": 7352,
    "Ġbadava": 7353,
    "ĠÄĳecu": 7354,
    "Ġjuri": 7355,
    "ĠHome": 7356,
    "Ġsvih": 7357,
    "Ġnasme": 7358,
    "ĠJuca": 7359,
    "ĠotiÅ¡ao": 7360,
    "ĠSolu": 7361,
    "ĠPolj": 7362,
    "ĠmlaÄĳi": 7363,
    "Ġosvanu": 7364,
    "ĠKravc": 7365,
    "ĠÅ¡eÄĩe": 7366,
    "ĠÅ¡esto": 7367,
    "ĠKosov": 7368,
    "ĠKosova": 7369,
    "ĠSrbije": 7370,
    "JET": 7371,
    "ĠGrlice": 7372,
    "Ġzelene": 7373,
    "ĠDoÄĳe": 7374,
    "ĠÅ¡umi": 7375,
    "?...âĢľĊ": 7376,
    "ĠstraÅ¡na": 7377,
    "Ġnjegovih": 7378,
    "Ġokrenu": 7379,
    "ĠoruÅ¾ja": 7380,
    "Ġukrade": 7381,
    "Ġpripovedi": 7382,
    "ĠÄįakÅ¡i": 7383,
    "ĠdÅ¾enera": 7384,
    "ĠÄįarda": 7385,
    "ĠtuÅ¾no": 7386,
    "ĠpoteÅ¾e": 7387,
    "Ġnedelje": 7388,
    "Ġbedevi": 7389,
    "Ġpogubiti": 7390,
    "ĠDraÅ¡ko": 7391,
    "ĠdrukÄįije": 7392,
    "ĠStrahiniÄĩu": 7393,
    "ĠÄĲuraÄĳ": 7394,
    "ĠRogan": 7395,
    "ĠÏ": 7396,
    "ĠÄĳu": 7397,
    "Naj": 7398,
    "dÅ¾e": 7399,
    "gode": 7400,
    "reÅ¡": 7401,
    "Ġnapred": 7402,
    "Ġzlu": 7403,
    "Ġpokr": 7404,
    "teri": 7405,
    "Ġzagone": 7406,
    "Ġana": 7407,
    "diji": 7408,
    "ÄįiÄĩe": 7409,
    "Äįicu": 7410,
    "Ġpapu": 7411,
    "ĠmiÅ¡a": 7412,
    "Ġsupru": 7413,
    "lum": 7414,
    "ĠJesam": 7415,
    "ĠBoÅ¡": 7416,
    "ĠDE": 7417,
    "ĠDob": 7418,
    "Ġsvetom": 7419,
    "Ġtakovi": 7420,
    "miti": 7421,
    "stiti": 7422,
    "Ġkuma": 7423,
    "Ġkuku": 7424,
    "Ġprilika": 7425,
    "Ġstaru": 7426,
    "Ġbarem": 7427,
    "ĠÅ¾iviti": 7428,
    "ĠÄįujem": 7429,
    "hat": 7430,
    "ĠdoÄĳemo": 7431,
    "ĠMir": 7432,
    "Ġdija": 7433,
    "ĠsreÄĩan": 7434,
    "Ġblagod": 7435,
    "Ġzlatnu": 7436,
    "Ġbrdu": 7437,
    "ĠuÄįeni": 7438,
    "ĠopÅ¡te": 7439,
    "priÄįa": 7440,
    "Ġpravosla": 7441,
    "Ġnauke": 7442,
    "ĠÄįitao": 7443,
    "Ġblagorod": 7444,
    "Ġproso": 7445,
    "Ġnovca": 7446,
    "?âĢĿĊ": 7447,
    "ĠpoÅ¡teno": 7448,
    "Ġarhije": 7449,
    "Ġnovac": 7450,
    "Ġkupiti": 7451,
    "ĠRuÅ¾i": 7452,
    "ĠdomaÄĩin": 7453,
    "Å¾denije": 7454,
    "ĠStojane": 7455,
    "Ġljubez": 7456,
    "ĠveziroviÄĩ": 7457,
    "Ġgospoja": 7458,
    "Ġdobrodetelj": 7459,
    "ĠKladu": 7460,
    "Ahi": 7461,
    "Aron": 7462,
    "Ki": 7463,
    "brijeh": 7464,
    "ilova": 7465,
    "Ġiskopa": 7466,
    "rekao": 7467,
    "naca": 7468,
    "ĠIdu": 7469,
    "vad": 7470,
    "ĠJodaj": 7471,
    "Å¾eni": 7472,
    "stoj": 7473,
    "Ġviku": 7474,
    "Ġjarca": 7475,
    "Ġnjivu": 7476,
    "Ġtama": 7477,
    "mima": 7478,
    "ĠOvid": 7479,
    "zaÅ¡e": 7480,
    "don": 7481,
    "Äĩak": 7482,
    "ĠÅ¾ita": 7483,
    "ĠnoÅ¡ahu": 7484,
    "stotina": 7485,
    "Ġuzdam": 7486,
    "ĠDavidove": 7487,
    "Ġeda": 7488,
    "ĠstraÅ¾ar": 7489,
    "ĠLot": 7490,
    "ĠKadi": 7491,
    "Ġbogovi": 7492,
    "ĠNavu": 7493,
    "Ġzavjeta": 7494,
    "ĠJudine": 7495,
    "ĠSveti": 7496,
    "Ġoltare": 7497,
    "ĠJoavu": 7498,
    "ĠJoaha": 7499,
    "Ġblagosloven": 7500,
    "ĠReci": 7501,
    "Izrailjevijeh": 7502,
    "ĠTvojoj": 7503,
    "ĠFilisteje": 7504,
    "ĠhoÄĳaÅ¡e": 7505,
    "Ġopravi": 7506,
    "Ġbolest": 7507,
    "Ġpolovine": 7508,
    "Ġopros": 7509,
    "Ġprinosite": 7510,
    "Ġsirski": 7511,
    "zlata": 7512,
    "ĠJudejci": 7513,
    "ĠopleÄĩak": 7514,
    "Ġpravedan": 7515,
    "ĠBlagosloven": 7516,
    "*Gal": 7517,
    "Mno": 7518,
    "NÄĨ": 7519,
    "OVO": 7520,
    "knez": 7521,
    "one": 7522,
    "vÃ´": 7523,
    "radi": 7524,
    "rahu": 7525,
    "Ġzbude": 7526,
    "ĠGodo": 7527,
    "Ġsilan": 7528,
    "moÅ¾e": 7529,
    "ovoga": 7530,
    "Ġvasi": 7531,
    "goga": 7532,
    "Ġtan": 7533,
    "Ġjedni": 7534,
    "âĢĻĊ": 7535,
    "vojskama": 7536,
    "Ġvjeran": 7537,
    "ĠÄįuvati": 7538,
    "Ġgrabe": 7539,
    "Äĳavo": 7540,
    "vjeru": 7541,
    "ĠtuÅ¾i": 7542,
    "RINÄĨ": 7543,
    "ĠlaÄĳu": 7544,
    "ĠstraÅ¾a": 7545,
    "Ġslab": 7546,
    "Ġsamoga": 7547,
    ".Sol": 7548,
    "ĠMakedo": 7549,
    "ĠPogleda": 7550,
    "Ġdrh": 7551,
    "Ġosla": 7552,
    "Jak": 7553,
    "ĠgrijeÅ¡i": 7554,
    "ĠuÄįenike": 7555,
    "Ġnikome": 7556,
    "Ġnositi": 7557,
    "Ġprimiti": 7558,
    "Ġmolite": 7559,
    "KORINÄĨ": 7560,
    "Ġkamenu": 7561,
    "Ġnebesima": 7562,
    "Ġpomaga": 7563,
    "ĠÅ¾ivite": 7564,
    "Ġmrtvi": 7565,
    "Ġpoginu": 7566,
    "ĠpogledavÅ¡i": 7567,
    "Ġrazuma": 7568,
    "Ġizdaleka": 7569,
    "ĠÄįovjeÄįije": 7570,
    "Ġnasilje": 7571,
    "Ġprorokuju": 7572,
    "Ġprijestolu": 7573,
    "ĠsaÄįuva": 7574,
    "ĠutjeÅ¡i": 7575,
    "Ġvikahu": 7576,
    "ĠPozdravite": 7577,
    "ĠVavilona": 7578,
    "ĠzapeÄįaÄĩe": 7579,
    "Ġzatvore": 7580,
    "KORINÄĨANIMA": 7581,
    "\"ÄĮu": 7582,
    "DRUGO": 7583,
    "Iguman": 7584,
    "PRO": 7585,
    "XI": 7586,
    "Zar": 7587,
    "ble": 7588,
    "dba": 7589,
    "lna": 7590,
    "lca": 7591,
    "nske": 7592,
    "snije": 7593,
    "Å¡kom": 7594,
    "ĠdaÅ¡": 7595,
    "Ġporu": 7596,
    "Ġpolo": 7597,
    "gani": 7598,
    "Ġkarta": 7599,
    "tora": 7600,
    "Ġzamoli": 7601,
    "ĠGoj": 7602,
    "Äįice": 7603,
    "ĠparÄįe": 7604,
    "Ġiznad": 7605,
    "ĠSme": 7606,
    "ĠÅ¡ljahte": 7607,
    "ĠKruÅ¡e": 7608,
    "Ġkono": 7609,
    "ĠMla": 7610,
    "Ġrastu": 7611,
    "ĠmaÄĳar": 7612,
    "Ġpripovije": 7613,
    "tuju": 7614,
    "dokle": 7615,
    "...âĢľĊ": 7616,
    "ĠnoÅ¾e": 7617,
    "Ġznadem": 7618,
    "ĠSiro": 7619,
    "Ġlepi": 7620,
    "Ġtuma": 7621,
    "Ġostale": 7622,
    "Ġovog": 7623,
    "Äįuje": 7624,
    "ĠPor": 7625,
    "ĠvreÄĩu": 7626,
    "Nema": 7627,
    "Ġbijelo": 7628,
    "Ġbroja": 7629,
    "ĠPau": 7630,
    "trÄįi": 7631,
    "ĠstiÅ¾e": 7632,
    "udari": 7633,
    "ĠLazo": 7634,
    "ĠLatin": 7635,
    "PRVO": 7636,
    "Ġguja": 7637,
    "Ġtrebalo": 7638,
    "OVA": 7639,
    "ĠgospoÄĳ": 7640,
    "Ġkrup": 7641,
    "ĠGoru": 7642,
    "ĠbliÅ¾e": 7643,
    "Ġdopade": 7644,
    "ĠGrujica": 7645,
    "ĠCrnogorce": 7646,
    "ĠdruÅ¡tva": 7647,
    "ĠdruÅ¡tvu": 7648,
    "Ġponavlja": 7649,
    "Ġdoneo": 7650,
    "Ġdodade": 7651,
    "Ġzmiju": 7652,
    "Ġrazgovaraju": 7653,
    "dÅ¾ije": 7654,
    "MiloÅ¡": 7655,
    "mandrit": 7656,
    "DRA": 7657,
    "Pi": 7658,
    "STI": 7659,
    "UR": 7660,
    "bno": 7661,
    "spre": 7662,
    "zvo": 7663,
    "Ġuvod": 7664,
    "Ġnaki": 7665,
    "Ġnauka": 7666,
    "Ġnaopako": 7667,
    "mana": 7668,
    "Ġtka": 7669,
    "Ġdaju": 7670,
    "Ġpohva": 7671,
    "lem": 7672,
    "Ġkapa": 7673,
    "der": 7674,
    "diju": 7675,
    "stri": 7676,
    "Ġkopa": 7677,
    "bilo": 7678,
    "Å¡iÄĩ": 7679,
    "Ġpredi": 7680,
    "Ġprepo": 7681,
    "Ġraste": 7682,
    "ĠhriÅ¡": 7683,
    "Ġbogo": 7684,
    "Å¡aka": 7685,
    "Å¡ava": 7686,
    "Ġnarodne": 7687,
    "Ġnarodnosti": 7688,
    "Ġpostu": 7689,
    "ĠproleÄĩe": 7690,
    "per": 7691,
    "ĠbeÅ¾i": 7692,
    "Ġgladan": 7693,
    "ĠEj": 7694,
    "Ġkojeka": 7695,
    "Ġnajposlije": 7696,
    "ĠJuco": 7697,
    "Ġcrn": 7698,
    "ĠLu": 7699,
    "ĠLondo": 7700,
    "Ġsolda": 7701,
    "ĠMari": 7702,
    "Potom": 7703,
    "Ġradio": 7704,
    "ĠNisam": 7705,
    "Ġnauku": 7706,
    "Ġcer": 7707,
    "ĠMoÅ¾e": 7708,
    "Ġkrajcara": 7709,
    "Ġmanastira": 7710,
    "Ġprevario": 7711,
    "ĠÄĲurÄĳe": 7712,
    "ĠCiganin": 7713,
    "Ġnepoznata": 7714,
    "Ġnobles": 7715,
    "ĠLjUBI": 7716,
    "Ġburmu": 7717,
    "oru": 7718,
    "svijeh": 7719,
    "tice": 7720,
    "riva": 7721,
    "Ġtve": 7722,
    "ĠIza": 7723,
    "ĠAse": 7724,
    "jini": 7725,
    "jinih": 7726,
    "tofe": 7727,
    "Ġsagra": 7728,
    "nuj": 7729,
    "ĠTri": 7730,
    "Ġtinje": 7731,
    "ĠkoÅ¾e": 7732,
    "sur": 7733,
    "Ġhode": 7734,
    "Ġlik": 7735,
    "duÅ¡a": 7736,
    "ljima": 7737,
    "Ġpepe": 7738,
    "Jezd": 7739,
    "ĠHo": 7740,
    "Ġkojem": 7741,
    "Ġpodaj": 7742,
    "ĠÄįovjeÄįi": 7743,
    "ĠRovoam": 7744,
    "Ġplaka": 7745,
    "Ġisje": 7746,
    "ĠobloÅ¾i": 7747,
    "Ġobojica": 7748,
    "ĠNava": 7749,
    "ĠNatana": 7750,
    "naeste": 7751,
    "ĠIsaka": 7752,
    "svega": 7753,
    "ĠAvimele": 7754,
    "Ġvinograd": 7755,
    "Ġrasr": 7756,
    "Ġstuba": 7757,
    "Izrailjem": 7758,
    "Ġhrane": 7759,
    "ĠAmon": 7760,
    "ĠGoto": 7761,
    "ĠManasija": 7762,
    "Ġsvrh": 7763,
    "Ġizabrao": 7764,
    "Ġotkrive": 7765,
    "ovoamu": 7766,
    "Ġopomenu": 7767,
    "Ġasirski": 7768,
    "ĠopleÄĩ": 7769,
    "ĠVenaja": 7770,
    "ĠGirson": 7771,
    "Ġomilje": 7772,
    "Ġnazirej": 7773,
    "ĠBjeÅ¡e": 7774,
    "*Fil": 7775,
    "spo": 7776,
    "svje": 7777,
    "sÃ´": 7778,
    "Ġoboga": 7779,
    "ĠuÅ¡avÅ¡i": 7780,
    "niÄĩe": 7781,
    "Ġzva": 7782,
    "ĠzvaÅ¡e": 7783,
    "Ġdalj": 7784,
    "ĠIs": 7785,
    "Äįeni": 7786,
    "dino": 7787,
    "Ġmud": 7788,
    "Ġmio": 7789,
    "Ġprezi": 7790,
    "Ġprozo": 7791,
    "Ġrug": 7792,
    "Ġnijeste": 7793,
    "Gospodnja": 7794,
    "Ġgrana": 7795,
    "Ġrazo": 7796,
    "ĠuÄįinim": 7797,
    "Ġrijeka": 7798,
    "ĠOnome": 7799,
    "ĠuzeÄĩe": 7800,
    "Ġtrpi": 7801,
    "ĠobliÄį": 7802,
    "Ġpodigoh": 7803,
    "ĠbiÄĩeÅ¡": 7804,
    "ĠsluÅ¡ahu": 7805,
    "Ġpravdi": 7806,
    "ĠAvraa": 7807,
    "farise": 7808,
    "Ġgrobu": 7809,
    "ĠlaÅ¾no": 7810,
    "SVETOGA": 7811,
    "Ġzemaljske": 7812,
    "ĠnaÅ¡ijem": 7813,
    "ĠPismo": 7814,
    "Ġslobodu": 7815,
    "Ġpoglavara": 7816,
    "ĠJevrejima": 7817,
    "ĠFilip": 7818,
    "ĠAPOSTOLA": 7819,
    "Ġpohoditi": 7820,
    "Ġpreljubu": 7821,
    "ĠVidjelo": 7822,
    "ĠÅ¾ivotinje": 7823,
    "ĠDvanaesto": 7824,
    "Ġdostojan": 7825,
    "Ġ.Ċ": 7826,
    "\"Je": 7827,
    "DAN": 7828,
    "Il": 7829,
    "JO": 7830,
    "MET": 7831,
    "SE": 7832,
    "SER": 7833,
    "rÅ¾e": 7834,
    "snom": 7835,
    "Ġikad": 7836,
    "Ġknja": 7837,
    "tini": 7838,
    "Äįkoj": 7839,
    "Ġud": 7840,
    "Ġuti": 7841,
    "reno": 7842,
    "nah": 7843,
    "nada": 7844,
    "Ġnaredi": 7845,
    "Ġnanovo": 7846,
    "Ġdanju": 7847,
    "Ġdavno": 7848,
    "Ġneg": 7849,
    "Ġneu": 7850,
    "nemoj": 7851,
    "ĠpoÅ¡a": 7852,
    "viÄĩa": 7853,
    "ruje": 7854,
    "Ġsanak": 7855,
    "ĠKon": 7856,
    "Ġtice": 7857,
    "ĠkoÅ¡ta": 7858,
    "ĠMI": 7859,
    "Ġviknu": 7860,
    "Ġnjen": 7861,
    "Ġtog": 7862,
    "Ġgavra": 7863,
    "Ġgaliju": 7864,
    "ĠDru": 7865,
    "mudri": 7866,
    "zam": 7867,
    "Å¡ala": 7868,
    "Äįaru": 7869,
    "Ġdrum": 7870,
    "Ġslugo": 7871,
    "ĠÄįuti": 7872,
    "Ġgranice": 7873,
    "Ġonih": 7874,
    "Ġotidu": 7875,
    "Ġvratio": 7876,
    "ĠÅłamike": 7877,
    "protiv": 7878,
    "Ġpitam": 7879,
    "ĠnaÅ¡eg": 7880,
    "ĠÄĮamÄįu": 7881,
    "Ġnosim": 7882,
    "ĠÄĳak": 7883,
    "ĠKraljeviÄĩ": 7884,
    "OVIÄĨ": 7885,
    "ĠgospoÄĳi": 7886,
    "Ġudariti": 7887,
    "ĠSutradan": 7888,
    "Ġzelenoj": 7889,
    "Ġobadvije": 7890,
    "Ġkrene": 7891,
    "Gospodaru": 7892,
    "ĠNovakoviÄĩ": 7893,
    "ĠGrujo": 7894,
    "ĠfiÅ¡kal": 7895,
    "Ġsilna": 7896,
    "ĠdÅ¾epove": 7897,
    "ĠnajmlaÄĳe": 7898,
    "ĠStambola": 7899,
    "ĠBrÄĳa": 7900,
    "Ġizgubio": 7901,
    "Ġpoezija": 7902,
    "ĠCarev": 7903,
    "ĠDojÄįine": 7904,
    "Ġozbilj": 7905,
    "Ġuhvate": 7906,
    "ĠKravcov": 7907,
    "ĠÄĳi": 7908,
    ".:": 7909,
    "IVO": 7910,
    "JSTVO": 7911,
    "OB": 7912,
    "ZI": 7913,
    "ngle": 7914,
    "Ġsrije": 7915,
    "Ġdovoljno": 7916,
    "razan": 7917,
    "Ġkosa": 7918,
    "liÅ¡ta": 7919,
    "rena": 7920,
    "Ġzrno": 7921,
    "Ġdavati": 7922,
    "Ġpopu": 7923,
    "Ġkala": 7924,
    "Ġzate": 7925,
    "Ġzapo": 7926,
    "ĠaÅ¡": 7927,
    "Ġdotle": 7928,
    "dine": 7929,
    "Ġpao": 7930,
    "veÄįe": 7931,
    "Ġrekla": 7932,
    "ĠreÅ¡ko": 7933,
    "stoja": 7934,
    "Ġkoli": 7935,
    "Ġvan": 7936,
    "sio": 7937,
    "Ġmoti": 7938,
    "zivao": 7939,
    "Ġhtio": 7940,
    "Ġdelo": 7941,
    "Ġdetinj": 7942,
    "Å¾aj": 7943,
    "Ġpero": 7944,
    "ĠsluÄįaj": 7945,
    "Ġdug": 7946,
    "ĠHoÄĩu": 7947,
    "178": 7948,
    "Ġnajlep": 7949,
    "ĠdoÄĳeÅ¡": 7950,
    "Ġslav": 7951,
    "Ġbudem": 7952,
    "Ġtrbu": 7953,
    "drav": 7954,
    "ĠPari": 7955,
    "Ġdrugima": 7956,
    "broje": 7957,
    "Ġzakopa": 7958,
    "Ġpetnaest": 7959,
    "Ġkazala": 7960,
    "Ġnosio": 7961,
    "ĠradiÅ¡": 7962,
    "ĠsluÅ¡ati": 7963,
    "Ġgubi": 7964,
    "ANIN": 7965,
    "nskim": 7966,
    "ĠMora": 7967,
    "Ġkrenu": 7968,
    "Ġtakovo": 7969,
    "Petar": 7970,
    "Ġuhvatiti": 7971,
    "ĠboÅ¾ji": 7972,
    "ĠStojana": 7973,
    "Ġdolazio": 7974,
    "jednom": 7975,
    "ĠoteÄįe": 7976,
    "ĠnajveÄĩe": 7977,
    "stvova": 7978,
    "Ġhleb": 7979,
    "Ġpolzu": 7980,
    "ĠSenjanin": 7981,
    "ĠhadÅ¾i": 7982,
    "Ġprotoko": 7983,
    "ĠdrugojaÄįe": 7984,
    "ĠÅ¾drebe": 7985,
    "Asa": 7986,
    "Pjesma": 7987,
    "joj": 7988,
    "jskoj": 7989,
    "snijeh": 7990,
    "snaest": 7991,
    "Ġpsal": 7992,
    "naÄįini": 7993,
    "Ġnavede": 7994,
    "Ġnadesno": 7995,
    "ĠItama": 7996,
    "vin": 7997,
    "Ġsiklu": 7998,
    "Ġsali": 7999,
    "Äįist": 8000,
    "veÄĩi": 8001,
    "Ġmuku": 8002,
    "Ġkolima": 8003,
    "Ġmadija": 8004,
    "Ġnjive": 8005,
    "pogi": 8006,
    "Ġcarskom": 8007,
    "Ġtvrti": 8008,
    "ĠZi": 8009,
    "ĠIzrailjevo": 8010,
    "Ġuzvisi": 8011,
    "Å¾rtva": 8012,
    "Ġotvara": 8013,
    "ĠtisuÄĩ": 8014,
    "Ġrodu": 8015,
    "Ġnjezinijem": 8016,
    "Ġhaljina": 8017,
    "Ġknezova": 8018,
    "Davidu": 8019,
    "ĠAvrama": 8020,
    "Izrailjeva": 8021,
    "ĠSamuilu": 8022,
    "ĠNijesam": 8023,
    "Ġrecite": 8024,
    "Ġtrijema": 8025,
    "drugi": 8026,
    "Ġptica": 8027,
    "raznik": 8028,
    "Ġotkup": 8029,
    "Ġhanansku": 8030,
    "ĠKirijat": 8031,
    "Ġstubova": 8032,
    "Ġpersij": 8033,
    "Ġropstva": 8034,
    "krijepi": 8035,
    "plemena": 8036,
    "tisuÄĩa": 8037,
    "ĠoÄįiÅ¡Äĩenje": 8038,
    "ĠpodnoÅ¾je": 8039,
    "ĠSpasi": 8040,
    "otide": 8041,
    "ĠHiram": 8042,
    "Ġnalijevo": 8043,
    "Nad": 8044,
    "Treba": 8045,
    "Zato": 8046,
    "onima": 8047,
    "pje": 8048,
    "snike": 8049,
    "zbog": 8050,
    "ĠnaÄĳoh": 8051,
    "Ġtli": 8052,
    "Äįemu": 8053,
    "Ġodba": 8054,
    "Ġodbra": 8055,
    "Ġpazi": 8056,
    "Äĳenju": 8057,
    "sah": 8058,
    "stoji": 8059,
    "Ġsusje": 8060,
    "ĠMno": 8061,
    "sebi": 8062,
    "njeni": 8063,
    "gori": 8064,
    "kima": 8065,
    "Ġjaki": 8066,
    "ĠproÄįita": 8067,
    "ĠproÅ¾di": 8068,
    "Äįahu": 8069,
    "ĠVarna": 8070,
    "LOMU": 8071,
    "âĢĻko": 8072,
    "ĠpiÄĩe": 8073,
    "Ġgrade": 8074,
    "Ġgradi": 8075,
    "Ġkrajeva": 8076,
    "Ġplata": 8077,
    "ĠpostaÅ¡e": 8078,
    "Javor": 8079,
    "ĠVaru": 8080,
    "Ġmolit": 8081,
    "ĠistoÄįne": 8082,
    "pravde": 8083,
    "Ġnebesko": 8084,
    "Ġusne": 8085,
    "Ġobradova": 8086,
    "ĠMoa": 8087,
    "Hristu": 8088,
    "Ġdijel": 8089,
    "Ġpastira": 8090,
    "Ġpastiri": 8091,
    "Ġhodite": 8092,
    "ĠZemlje": 8093,
    "strane": 8094,
    "LjANIMA": 8095,
    "ĠposluÅ¡aÅ¡e": 8096,
    "Ġbezumlje": 8097,
    "Ġzbornicama": 8098,
    "ĠpodignuÄĩe": 8099,
    "ĠobratiÄĩu": 8100,
    "Ġprijestola": 8101,
    "ĠÄĮujte": 8102,
    "ĠPraved": 8103,
    "ĠobeÄĩanje": 8104,
    "ĠdozvavÅ¡i": 8105,
    "Ġopusto": 8106,
    "NOVE": 8107,
    "Ġkroza": 8108,
    "Ġnapolju": 8109,
    "Ġpremudrost": 8110,
    "Ġnepravde": 8111,
    "Ġrazdijeli": 8112,
    "ovjednik": 8113,
    "ĠMARKU": 8114,
    "PRIÄĮE": 8115,
    "PlaÄį": 8116,
    "ĠPRVA": 8117,
    "ĠSOLOMU": 8118,
    "ĠSOLOMUNOVE": 8119,
    "Zlo": 8120,
    "smi": 8121,
    "Ġisko": 8122,
    "Ġdovati": 8123,
    "Å¡om": 8124,
    "rap": 8125,
    "Ġkova": 8126,
    "Ġmleta": 8127,
    "Äįnoga": 8128,
    "tamo": 8129,
    "Ġuvre": 8130,
    "Ġuvede": 8131,
    "linu": 8132,
    "Ġponu": 8133,
    "Ġpoha": 8134,
    "Ġponesi": 8135,
    "Ġpozove": 8136,
    "juna": 8137,
    "Ġzada": 8138,
    "Ġzave": 8139,
    "Ġzaklju": 8140,
    "caju": 8141,
    "ojicu": 8142,
    "Ġsat": 8143,
    "ĠdoÅ¡a": 8144,
    "Ġdoziva": 8145,
    "meta": 8146,
    "ĠSA": 8147,
    "Ġreka": 8148,
    "ovog": 8149,
    "Ġveza": 8150,
    "ĠBO": 8151,
    "ĠBeli": 8152,
    "Å¡ila": 8153,
    "Ġpredan": 8154,
    "Ġrata": 8155,
    "Ġmalu": 8156,
    "ĠPred": 8157,
    "ĠÅ¡togoÄĳ": 8158,
    "ĠObili": 8159,
    "zivlje": 8160,
    "begovi": 8161,
    "Ġlistom": 8162,
    "Ġposmatra": 8163,
    "tua": 8164,
    "Ġprozor": 8165,
    "Ġpurge": 8166,
    "Ġbeli": 8167,
    "ĠsluÅ¡ao": 8168,
    "Ġsvate": 8169,
    "Ġbrani": 8170,
    "ĠvjeÄįno": 8171,
    "ĠÅłe": 8172,
    "ĠÄįekati": 8173,
    "ĠÄĳece": 8174,
    "ĠÅ¾eniti": 8175,
    "Ġrazvi": 8176,
    "Ġplamen": 8177,
    "Ġepo": 8178,
    "osio": 8179,
    "VODA": 8180,
    "ĠÄĮo": 8181,
    "ĠsadrÅ¾i": 8182,
    "Ġobr": 8183,
    "Ġtrave": 8184,
    "ĠtreÄĩu": 8185,
    "Ġoslo": 8186,
    "ĠÄĳevojkom": 8187,
    "krva": 8188,
    "Ġpoklon": 8189,
    "Ñĸe": 8190,
    "oduÅ¡e": 8191,
    "ĠveÄįere": 8192,
    "ĠveÄįerati": 8193,
    "Ġsnaga": 8194,
    "ĠGrÄįiÄĩu": 8195,
    "Ġpogledati": 8196,
    "Tada": 8197,
    "Ìĵje": 8198,
    "Ġslobode": 8199,
    "ĠstraÅ¡no": 8200,
    "ĠNovak": 8201,
    "Ġfeudalizma": 8202,
    "ĠStojna": 8203,
    "Ġpolovinu": 8204,
    "Ġzapovedi": 8205,
    "Ġsutradan": 8206,
    "ĠStambolu": 8207,
    "Ġbuzdova": 8208,
    "Ġokovanu": 8209,
    "Ġavliju": 8210,
    "ĠVukaÅ¡in": 8211,
    "Ġserda": 8212,
    "ĠVojinoviÄĩ": 8213,
    "ĠÄįador": 8214,
    "ĠMeÄĳedoviÄĩ": 8215,
    "ĠÅ½ivko": 8216,
    "KARAMAN": 8217,
    "SERDAR": 8218,
    "'m": 8219,
    "bode": 8220,
    "jna": 8221,
    "tovati": 8222,
    "Ġslove": 8223,
    "Ġspisa": 8224,
    "Ġistu": 8225,
    "Äįje": 8226,
    "ĠuÅ¾i": 8227,
    "odgovori": 8228,
    "Ġbosa": 8229,
    "ĠIII": 8230,
    "Ġnebroje": 8231,
    "kazuje": 8232,
    "Äĳene": 8233,
    "stru": 8234,
    "ĠKri": 8235,
    "Ġkoke": 8236,
    "Ġkonac": 8237,
    "ĠviÅ¡": 8238,
    "Ġvikne": 8239,
    "Ġtela": 8240,
    "stano": 8241,
    "ĠBra": 8242,
    "Ġpreve": 8243,
    "ĠreÄįem": 8244,
    "Ġsvete": 8245,
    "ĠPla": 8246,
    "Å¡am": 8247,
    "ljiva": 8248,
    "oditi": 8249,
    "Äįaja": 8250,
    "Ġpune": 8251,
    "Ġpunu": 8252,
    "ĠdeÄįko": 8253,
    "Ġbaka": 8254,
    "ĠEv": 8255,
    "Å¡teni": 8256,
    "gen": 8257,
    "ĠneÄĩemo": 8258,
    "ĠÄįizme": 8259,
    "ajo": 8260,
    "ĠÄĮa": 8261,
    "Ġsrete": 8262,
    "gledati": 8263,
    "ĠnemaÅ¡": 8264,
    "ĠMale": 8265,
    "arac": 8266,
    "Ġoslob": 8267,
    "Ġ|Ċ": 8268,
    "ostan": 8269,
    "Ġluda": 8270,
    "Ġmoraju": 8271,
    "Ġpitanje": 8272,
    "ĠVide": 8273,
    "Ġrodom": 8274,
    "Ġpametno": 8275,
    "Ġraspo": 8276,
    "ĠRekao": 8277,
    "Ġnamera": 8278,
    "Ġobraza": 8279,
    "Ġobrazu": 8280,
    "ĠnesreÄĩa": 8281,
    "ĠSrbiju": 8282,
    "Ġmomka": 8283,
    "ĠboÅ¾ja": 8284,
    "Ġpjevo": 8285,
    "jutradan": 8286,
    "Ġseljak": 8287,
    "ĠLjub": 8288,
    "Starac": 8289,
    "ĠaÅ¾daja": 8290,
    "Ġefendija": 8291,
    "Ġkvarti": 8292,
    "Å½AJÅłI": 8293,
    "*Gospod": 8294,
    "62": 8295,
    "64": 8296,
    "pomo": 8297,
    "Ġuvijek": 8298,
    "nesu": 8299,
    "Ġpohi": 8300,
    "Ġsavi": 8301,
    "Å¾enu": 8302,
    "Ġreza": 8303,
    "sem": 8304,
    "ĠmogoÅ¡e": 8305,
    "Ġjaraca": 8306,
    "zato": 8307,
    "ĠprinoÅ¡aÅ¡e": 8308,
    "Ġzemljom": 8309,
    "Ġstaja": 8310,
    "ĠnoÅ¡aÅ¡e": 8311,
    "Ġmjestima": 8312,
    "Ġuzmu": 8313,
    "ĠÄĮuj": 8314,
    "Ġblagom": 8315,
    "Ġimenima": 8316,
    "Ġtrom": 8317,
    "ĠNatan": 8318,
    "ĠNavat": 8319,
    "odan": 8320,
    "Ġgledaj": 8321,
    "ĠSvega": 8322,
    "Ġluk": 8323,
    "Ġpodigao": 8324,
    "ĠRamot": 8325,
    "prijesto": 8326,
    "ĠneÄįista": 8327,
    "ĠSunce": 8328,
    "Ġhranu": 8329,
    "ĠbezboÅ¾nici": 8330,
    "njihovijem": 8331,
    "ĠAmonovi": 8332,
    "ĠÅ¡atorima": 8333,
    "Ġnevolj": 8334,
    "onaj": 8335,
    "ĠAhaz": 8336,
    "Misi": 8337,
    "Misir": 8338,
    "Ġpotomstva": 8339,
    "Ġzapad": 8340,
    "Ġkonjika": 8341,
    "Ġdesnica": 8342,
    "ĠoÄįistiti": 8343,
    "-Adad": 8344,
    "sveÅ¡tenici": 8345,
    "Ġpolovina": 8346,
    "Ġheruvima": 8347,
    "ĠElka": 8348,
    "Ġutrobe": 8349,
    "ĠOhozi": 8350,
    "ĠPashu": 8351,
    "ĠnaseliÅ¡e": 8352,
    "ĠposuÄĳe": 8353,
    "ĠVitleje": 8354,
    "ĠZaharija": 8355,
    "Ġsitima": 8356,
    "-Seme": 8357,
    "68": 8358,
    "79": 8359,
    "dove": 8360,
    "doste": 8361,
    "kÃ´": 8362,
    "kijeh": 8363,
    "uman": 8364,
    "zle": 8365,
    "Ġomr": 8366,
    "riÄįe": 8367,
    "Ġbrije": 8368,
    "ostra": 8369,
    "vavilon": 8370,
    "Ġzahva": 8371,
    "Ġsati": 8372,
    "ĠSluÅ¡ajte": 8373,
    "stvima": 8374,
    "Ġmimo": 8375,
    "cite": 8376,
    "ĠDANI": 8377,
    "miju": 8378,
    "Ġposlje": 8379,
    "Ġposvjedo": 8380,
    "ĠduÅ¾": 8381,
    "Ġmjera": 8382,
    "ĠÄįuste": 8383,
    "ĠÅ¾elje": 8384,
    "Ġbezuman": 8385,
    "pravite": 8386,
    "Ġdim": 8387,
    "ĠIsusom": 8388,
    "ĠTimo": 8389,
    "Å¾uje": 8390,
    "Ġgrijesi": 8391,
    "ĠDuhu": 8392,
    "Ġutvara": 8393,
    "ĠHristov": 8394,
    "Ġnauci": 8395,
    "Ġtajno": 8396,
    "pravdu": 8397,
    "Ġribe": 8398,
    "ĠÅ¾enama": 8399,
    "vljen": 8400,
    "Ġdovesti": 8401,
    "ĠÅ¾ivimo": 8402,
    "Ġhrana": 8403,
    "Ġjezikom": 8404,
    "ĠÄĮovjek": 8405,
    "ĠÄĮovjeÄįijega": 8406,
    "Ġobratiti": 8407,
    "uÄįenicima": 8408,
    "Ġrazdrije": 8409,
    "Ġglavarima": 8410,
    "Ġslijep": 8411,
    "Ġsjevera": 8412,
    "Ġnasuprot": 8413,
    ".,": 8414,
    "Ah": 8415,
    "HMET": 8416,
    "Pomo": 8417,
    "jno": 8418,
    "plju": 8419,
    "toj": 8420,
    "Ġuna": 8421,
    "Ġuja": 8422,
    "Ġupr": 8423,
    "lago": 8424,
    "lili": 8425,
    "ĠnaÄĳu": 8426,
    "Å¾ne": 8427,
    "kaj": 8428,
    "net": 8429,
    "den": 8430,
    "Ġsata": 8431,
    "Ġdonde": 8432,
    "Å¾en": 8433,
    "Ġticu": 8434,
    "ĠMleta": 8435,
    "Ġveze": 8436,
    "ĠBat": 8437,
    "ciona": 8438,
    "Ġmole": 8439,
    "kinje": 8440,
    "Ġprebaci": 8441,
    "Ġrana": 8442,
    "Ġjade": 8443,
    "Ġsvedo": 8444,
    "ĠPRI": 8445,
    "Ġlist": 8446,
    "Ġposi": 8447,
    "tujuÄĩi": 8448,
    "Ġpuno": 8449,
    "Ġdesno": 8450,
    "Ġbelo": 8451,
    "Ġbehu": 8452,
    "Ġpevaju": 8453,
    "Ġbana": 8454,
    "Ġgovorila": 8455,
    "Ġpisma": 8456,
    "ĠÄĳete": 8457,
    "ĠÄĳevera": 8458,
    "Ġvranca": 8459,
    "ĠÄĩuprije": 8460,
    "Ġbure": 8461,
    "Ġuzbu": 8462,
    "Ġgospodu": 8463,
    "ĠlaÅ¾a": 8464,
    "ĠjunaÄįe": 8465,
    "ĠjunaÄįka": 8466,
    "Ġslabo": 8467,
    "ajko": 8468,
    "Ġfr": 8469,
    "Ġkrst": 8470,
    "ĠÄĮovek": 8471,
    "Ġispa": 8472,
    "ĠVeli": 8473,
    "Ġvratim": 8474,
    "ĠmlaÄĳa": 8475,
    "Ġosje": 8476,
    "ĠKoÅ¡i": 8477,
    "Ġbroji": 8478,
    "Ġhata": 8479,
    "ĠpitaÅ¡e": 8480,
    "niÄįke": 8481,
    "ĠÅ¡eg": 8482,
    "Ġzbori": 8483,
    "glerbe": 8484,
    "ĠnaÄĳeÅ¡": 8485,
    "Ġpopije": 8486,
    "ĠGore": 8487,
    "Ġborba": 8488,
    "Ġljeka": 8489,
    "Koliko": 8490,
    "Ġhtela": 8491,
    "Ġkupio": 8492,
    "Ġbolesna": 8493,
    "Ġbolestan": 8494,
    "Ġskide": 8495,
    "ĠkoÅ¡ulju": 8496,
    "Ġvladika": 8497,
    "Ġepske": 8498,
    "ĠStambol": 8499,
    "Ġvitez": 8500,
    "Ġviteza": 8501,
    "ksandu": 8502,
    "Ġdolamu": 8503,
    "ĠÅ¡kole": 8504,
    "ĠNajposle": 8505,
    "ĠVlah": 8506,
    "Ġmehanu": 8507,
    "ĠÄĲurÄĳu": 8508,
    "Ġkalpak": 8509,
    "ĠVukaÅ¡ine": 8510,
    "Ġheroj": 8511,
    "Ġpredanj": 8512,
    "Oh": 8513,
    "Ovo": 8514,
    "Vu": 8515,
    "iska": 8516,
    "knuti": 8517,
    "sman": 8518,
    "Ġpsa": 8519,
    "Ġdro": 8520,
    "Å¡ne": 8521,
    "Ġklin": 8522,
    "tiju": 8523,
    "Äįva": 8524,
    "Ġuje": 8525,
    "odre": 8526,
    "mar": 8527,
    "jaha": 8528,
    "Ġsena": 8529,
    "Ġneme": 8530,
    "kan": 8531,
    "viÅ¡": 8532,
    "Ġzakli": 8533,
    "Ġpam": 8534,
    "Ġpalo": 8535,
    "Å¾estvo": 8536,
    "Ġizme": 8537,
    "ĠreÅ¡e": 8538,
    "ĠKovi": 8539,
    "Ġsubo": 8540,
    "Ġtikve": 8541,
    "Ġkona": 8542,
    "Ġkonak": 8543,
    "bica": 8544,
    "Ġniste": 8545,
    "gora": 8546,
    "ĠBre": 8547,
    "Ġprestane": 8548,
    "Ġrasti": 8549,
    "Ġtoliki": 8550,
    "ĠJeste": 8551,
    "ĠkuÄĩom": 8552,
    "Ġprokli": 8553,
    "Ġpuste": 8554,
    "ĠZu": 8555,
    "Ġbaja": 8556,
    "Ġprsi": 8557,
    "Ġprvu": 8558,
    "Ġsvati": 8559,
    "ĠÅ¾eno": 8560,
    "183": 8561,
    "osim": 8562,
    "Ġslatka": 8563,
    "Ġslatko": 8564,
    "ĠLaj": 8565,
    "ĠKakva": 8566,
    "ĠGavri": 8567,
    "NIK": 8568,
    "SKO": 8569,
    "Ġsof": 8570,
    "Ġovca": 8571,
    "ĠÄįasa": 8572,
    "ĠnaÄįiniti": 8573,
    "ĠVasi": 8574,
    "Ġluka": 8575,
    "ĠÅ¡eÅ¡ir": 8576,
    "Ġstiha": 8577,
    "Ġmolitve": 8578,
    "Sunce": 8579,
    "ĠgroÅ¾": 8580,
    "Ġdoveka": 8581,
    "Å¾davati": 8582,
    "Ġtomu": 8583,
    "Ġljubimi": 8584,
    "Ġnevolju": 8585,
    "ĠHasan": 8586,
    "Ġpotro": 8587,
    "Ġpotvr": 8588,
    "Ġmagarac": 8589,
    "Ġmeseci": 8590,
    "Ġverovati": 8591,
    "ĠZnate": 8592,
    "ĠMadÅ¾ara": 8593,
    "Ġuzroka": 8594,
    "ĠKotare": 8595,
    "stvovati": 8596,
    "Ġogledalo": 8597,
    "Ġsover": 8598,
    "Ljubi": 8599,
    "ĠSremu": 8600,
    "Ġiguman": 8601,
    "Ġnamerenije": 8602,
    "ĠzaduÅ¾": 8603,
    "Ġzadugo": 8604,
    "ĠAnÄįice": 8605,
    "ĠDalmaciji": 8606,
    "ĠÄįetrdeset": 8607,
    "kulacija": 8608,
    "78": 8609,
    "Fe": 8610,
    "Ri": 8611,
    "onom": 8612,
    "tov": 8613,
    "Ġosi": 8614,
    "ramu": 8615,
    "ĠuÄĳoÅ¡e": 8616,
    "Ġnaseli": 8617,
    "Ġpomije": 8618,
    "let": 8619,
    "Ġzava": 8620,
    "lona": 8621,
    "ĠbiÅ¡e": 8622,
    "Ġizje": 8623,
    "ĠSje": 8624,
    "mona": 8625,
    "Ġtilj": 8626,
    "Ġkolje": 8627,
    "Ġgalad": 8628,
    "Ġprinije": 8629,
    "Ġprinesi": 8630,
    "dolini": 8631,
    "zera": 8632,
    "Jeze": 8633,
    "ĠSala": 8634,
    "ĠSafa": 8635,
    "ĠTam": 8636,
    "ĠEdom": 8637,
    "Ġmjere": 8638,
    "ĠÅłest": 8639,
    "ĠÄįega": 8640,
    "ĠuÄįinili": 8641,
    "Ġgoloti": 8642,
    "Ġpodije": 8643,
    "vrlo": 8644,
    "vrdnu": 8645,
    "ĠDavidom": 8646,
    "ĠDavidovu": 8647,
    "Ġcarevijem": 8648,
    "ĠMal": 8649,
    "*Jezd": 8650,
    "Ġvratite": 8651,
    "Ġsjen": 8652,
    "Ġosvet": 8653,
    "krv": 8654,
    "Ġzakonom": 8655,
    "ljedstvo": 8656,
    "Ġnaumio": 8657,
    "Ġistoka": 8658,
    "vedenoga": 8659,
    "ĠkÄĩerima": 8660,
    "ĠudariÅ¡e": 8661,
    "ĠFilisteja": 8662,
    "ĠVenijamina": 8663,
    "ĠVenijaminovijeh": 8664,
    "Ġdijela": 8665,
    "ĠsluÅ¾ite": 8666,
    "ĠCrve": 8667,
    "Ġmrze": 8668,
    "gradove": 8669,
    "Manasi": 8670,
    "ĠGalada": 8671,
    "Ġhljebove": 8672,
    "Ġsazidati": 8673,
    "Ġvisinama": 8674,
    "Ġpraznova": 8675,
    "Jonata": 8676,
    "ĠProklet": 8677,
    "Ġvisok": 8678,
    "ĠmeÄĳama": 8679,
    "Ġuzmite": 8680,
    "ĠosveÅ¡ta": 8681,
    "Ġdjevojku": 8682,
    "Ġbojati": 8683,
    "ĠodvedoÅ¡e": 8684,
    "ĠÅ¾ivotinja": 8685,
    "ĠVoz": 8686,
    "Ġdostojanje": 8687,
    "Ġpodajte": 8688,
    "Filisteji": 8689,
    "ĠinoÄįa": 8690,
    "Ġmolbu": 8691,
    "Jefrem": 8692,
    "Samuilo": 8693,
    "Ġ=": 8694,
    "KRI": 8695,
    "KÃ¢": 8696,
    "dljiv": 8697,
    "gÃ´": 8698,
    "kvom": 8699,
    "kroz": 8700,
    "sramo": 8701,
    "Ġskri": 8702,
    "Ġopro": 8703,
    "Ġugled": 8704,
    "ĠnaÄįi": 8705,
    "Ġtvo": 8706,
    "ĠIsti": 8707,
    "Ġned": 8708,
    "Ġnepraved": 8709,
    "Ġpoziva": 8710,
    "vate": 8711,
    "Ġzasta": 8712,
    "Ġodnije": 8713,
    "dih": 8714,
    "Ġizvor": 8715,
    "Ġkojijeh": 8716,
    "ĠTra": 8717,
    "par": 8718,
    "Ġtevi": 8719,
    "ĠmoleÄĩi": 8720,
    "ljubav": 8721,
    "Ġsveza": 8722,
    "Ġtac": 8723,
    "zazle": 8724,
    "Ġpropovije": 8725,
    "ljivi": 8726,
    "Jevre": 8727,
    "Ġvelim": 8728,
    "Ġrazva": 8729,
    "ljo": 8730,
    "ĠRim": 8731,
    "ĠplaÄį": 8732,
    "ĠlaÅ¾i": 8733,
    "Ġotima": 8734,
    "Ġslavom": 8735,
    "Ġvojnici": 8736,
    "govoriÅ¡e": 8737,
    "Ġsrcima": 8738,
    "*Mal": 8739,
    "Ġsjedje": 8740,
    "ĠGospodaru": 8741,
    "mjeva": 8742,
    "glavar": 8743,
    "ĠpoznaÅ¡e": 8744,
    "ltasa": 8745,
    "ĠBoÅ¾iji": 8746,
    "ĠuÄįenik": 8747,
    "ĠIsaija": 8748,
    "Ġmilos": 8749,
    "ĠÅ¾ali": 8750,
    "VENjE": 8751,
    "Ġtajne": 8752,
    "ĠpoÄįeÅ¡e": 8753,
    "Ġmnogih": 8754,
    "ĠÄįineÄĩi": 8755,
    "Â»Javor": 8756,
    "Ġpokazati": 8757,
    "Ġkonjima": 8758,
    "ĠopraÅ¡ta": 8759,
    "ĠsvrÅ¡e": 8760,
    "ĠkuÄĩama": 8761,
    "ĠZnam": 8762,
    "ĠobeÄĩanja": 8763,
    "crkvu": 8764,
    "ĠpiÅ¡em": 8765,
    "Ġnestati": 8766,
    "tijelo": 8767,
    "ĠnapiÅ¡i": 8768,
    "ĠmreÅ¾u": 8769,
    "Ġtrpezom": 8770,
    "Ġnepravdu": 8771,
    "ĠnaraÅ¡ta": 8772,
    "*Amos": 8773,
    "ĠuplaÅ¡iÅ¡e": 8774,
    "Zemlju": 8775,
    "Ġzatrti": 8776,
    "OTKRI": 8777,
    "OTKRIVENjE": 8778,
    "Ġ,": 8779,
    "'jela": 8780,
    ",âĢĿ": 8781,
    "Ili": 8782,
    "Vo": 8783,
    "ZnaÅ¡": 8784,
    "dnika": 8785,
    "gnja": 8786,
    "krati": 8787,
    "zdu": 8788,
    "Ġistr": 8789,
    "Ġoma": 8790,
    "Ġoke": 8791,
    "Ġogre": 8792,
    "Äįad": 8793,
    "ĠuÄĩu": 8794,
    "kog": 8795,
    "osu": 8796,
    "Ġzbu": 8797,
    "Ġneo": 8798,
    "vaja": 8799,
    "leo": 8800,
    "Ġzala": 8801,
    "Ġzabri": 8802,
    "ruka": 8803,
    "Ġsitna": 8804,
    "Ġdolaze": 8805,
    "Ġodnos": 8806,
    "ĠodsijeÄįe": 8807,
    "nut": 8808,
    "Äįitelj": 8809,
    "ĠSkad": 8810,
    "ĠSmrt": 8811,
    "ĠÅ¡ti": 8812,
    "Ġmuzi": 8813,
    "Ġmini": 8814,
    "Ġmisao": 8815,
    "Ġsuko": 8816,
    "ĠmeÄĳ": 8817,
    "Ġmegda": 8818,
    "Ġmoma": 8819,
    "ĠprenoÄĩi": 8820,
    "ĠmaÄĩi": 8821,
    "ĠDÅ¾a": 8822,
    "Ġtaba": 8823,
    "mice": 8824,
    "Ġposje": 8825,
    "Ġstarije": 8826,
    "âĢľ.": 8827,
    "ĠruÄįka": 8828,
    "ĠSata": 8829,
    "ĠBogdana": 8830,
    "Gospodine": 8831,
    "ĠtakoÄĳe": 8832,
    "stor": 8833,
    "Ġjutros": 8834,
    "Ġbugar": 8835,
    "Ġpodeli": 8836,
    "ĠlaÅ¾e": 8837,
    "Ġcrnu": 8838,
    "ĠMilu": 8839,
    "Ġdivlja": 8840,
    "Ġisp": 8841,
    "Ġsoka": 8842,
    "Ġzete": 8843,
    "Ġgledala": 8844,
    "ĠgledaÅ¡e": 8845,
    "ĠMusa": 8846,
    "ĠMusi": 8847,
    "Ġroditelja": 8848,
    "brÅ¾e": 8849,
    "gnem": 8850,
    "kovao": 8851,
    "ĠviÄĳeh": 8852,
    "Ġsnahu": 8853,
    "Ġsnage": 8854,
    "ĠuÄįine": 8855,
    "Ġlijepu": 8856,
    "Ġsmeju": 8857,
    "ĠÄįitav": 8858,
    "Ġistorija": 8859,
    "Ġgusle": 8860,
    "Ġkrvca": 8861,
    "Ġmrtve": 8862,
    "Ġputah": 8863,
    "ĠdrÅ¾ava": 8864,
    "Ġovih": 8865,
    "ĠArapa": 8866,
    "ĠAranÄĳe": 8867,
    "mislio": 8868,
    "ĠkaluÄĳere": 8869,
    "LAD": 8870,
    "Ġarmicija": 8871,
    "Ġvezira": 8872,
    "Ġnjegovim": 8873,
    "Ġumire": 8874,
    "ĠoruÅ¾jem": 8875,
    "Ġpokloniti": 8876,
    "Kud": 8877,
    "MoÅ¾e": 8878,
    "Ġseljanin": 8879,
    "ĠkoÅ¡ulji": 8880,
    "ĠLazara": 8881,
    "Ġdelijo": 8882,
    "Ġdorata": 8883,
    "Ġzora": 8884,
    "Ġlagano": 8885,
    "ĠÅ¾enske": 8886,
    "ĠproÅ¡losti": 8887,
    "ĠÄįetvrti": 8888,
    "MEHMET": 8889,
    "Ġstaroga": 8890,
    "ĠUsud": 8891,
    "Ġdogodilo": 8892,
    "Ġpotpuno": 8893,
    "Ġulogu": 8894,
    "ĠRoksandu": 8895,
    "Ġrakiju": 8896,
    "ĠManduÅ¡iÄĩ": 8897,
    "Ġosvanulo": 8898,
    "ĠSmedere": 8899,
    "ĠÎ": 8900,
    "IduÄĩi": 8901,
    "Maj": 8902,
    "Ova": 8903,
    "OVOR": 8904,
    "Pra": 8905,
    "cke": 8906,
    "glu": 8907,
    "mbaÅ¡a": 8908,
    "vnu": 8909,
    "Ġpse": 8910,
    "Ġopisa": 8911,
    "rana": 8912,
    "radin": 8913,
    "tiÅ¡": 8914,
    "tinski": 8915,
    "Ġujedanput": 8916,
    "reti": 8917,
    "kopa": 8918,
    "jat": 8919,
    "Ġzgrabi": 8920,
    "Ġgi": 8921,
    "ĠGOVOR": 8922,
    "Ġaj": 8923,
    "ovanje": 8924,
    "ovanja": 8925,
    "oviÄĩa": 8926,
    "njenije": 8927,
    "Å¾im": 8928,
    "Ġpredu": 8929,
    "ĠJest": 8930,
    "balj": 8931,
    "Ġkup": 8932,
    "Ġbob": 8933,
    "pekulacija": 8934,
    "Äįavati": 8935,
    "boru": 8936,
    "ĠVr": 8937,
    "Ġljubiti": 8938,
    "Ġprsima": 8939,
    "ĠÅ¾ivio": 8940,
    "ĠbraÅ¡no": 8941,
    "Å¡ten": 8942,
    "ĠÅ¾elio": 8943,
    "182": 8944,
    "Ġnajmi": 8945,
    "Ġostao": 8946,
    "praviti": 8947,
    "ĠTurÄįinu": 8948,
    "ĠKamo": 8949,
    "Ġfra": 8950,
    "Ġfali": 8951,
    "ĠVene": 8952,
    "ĠNarod": 8953,
    "Ġludo": 8954,
    "ĠViÅ¡e": 8955,
    "Ġnekog": 8956,
    "Ġsmem": 8957,
    "ĠÄįitam": 8958,
    "Ġsuncu": 8959,
    "ĠÅ½uti": 8960,
    "ĠGrk": 8961,
    "ĠMolim": 8962,
    "Ġhajduk": 8963,
    "lovom": 8964,
    "ĠXVII": 8965,
    "Ġblagoda": 8966,
    "blago": 8967,
    "Ġzvezde": 8968,
    "Ġpotreba": 8969,
    "ĠnajveÄĩi": 8970,
    "ĠdruÅ¾inu": 8971,
    "Ġizgubiti": 8972,
    "Ġnovine": 8973,
    "Ġepiskop": 8974,
    "Ġposlovice": 8975,
    "ĠZadra": 8976,
    "Ġneprestano": 8977,
    "Ġdostoj": 8978,
    "Grbo": 8979,
    "ĠDRAÅ½AJÅłI": 8980,
    "ĠLajpsi": 8981,
    "-V": 8982,
    "72": 8983,
    "dmi": 8984,
    "far": 8985,
    "otom": 8986,
    "vojim": 8987,
    "Ġocem": 8988,
    "taji": 8989,
    "res": 8990,
    "osam": 8991,
    "kame": 8992,
    "Ġpobu": 8993,
    "ĠpotraÅ¾i": 8994,
    "tebe": 8995,
    "Ġzacijelo": 8996,
    "Ġbilje": 8997,
    "sada": 8998,
    "saka": 8999,
    "Ġreda": 9000,
    "ĠrekavÅ¡i": 9001,
    "Ġtio": 9002,
    "ĠniÄįice": 9003,
    "Ġnjiva": 9004,
    "ĠPodi": 9005,
    "Ġprinesite": 9006,
    "njanje": 9007,
    "poma": 9008,
    "Ġproglasi": 9009,
    "Ġimahu": 9010,
    "ĠTama": 9011,
    "Ġmjed": 9012,
    "ĠvjeÅ¡ti": 9013,
    "Ġjuga": 9014,
    "ĠuÄįinite": 9015,
    "Ġkraso": 9016,
    "Ġuzvi": 9017,
    "Ġcrvca": 9018,
    "ĠMis": 9019,
    "ĠMateri": 9020,
    "ĠVeti": 9021,
    "Ġobrta": 9022,
    "ĠvrativÅ¡i": 9023,
    "ĠizaÅ¡ao": 9024,
    "Ġzavjesa": 9025,
    "ĠAronovi": 9026,
    "ĠJudino": 9027,
    "ĠJudinoj": 9028,
    "Ġrogove": 9029,
    "ĠpodigoÅ¡e": 9030,
    "drva": 9031,
    "ĠÅ¡esnaest": 9032,
    "Ġnjezinu": 9033,
    "ĠJosifa": 9034,
    "ĠobraÄĩa": 9035,
    "ĠJefre": 9036,
    "Ġistrijebiti": 9037,
    "ĠJordanu": 9038,
    "ĠAmasija": 9039,
    "srcu": 9040,
    "ĠBez": 9041,
    "ĠHalev": 9042,
    "grijeÅ¡io": 9043,
    "Ġbolesti": 9044,
    "ĠpokloniÅ¡e": 9045,
    "Prop": 9046,
    "Ġvisinu": 9047,
    "Joav": 9048,
    "ĠdoÅ¡ljaku": 9049,
    "Venijami": 9050,
    "ĠuzasluÅ¡a": 9051,
    "Ġzlatnijeh": 9052,
    "Ġdjevojka": 9053,
    "Ġodvesti": 9054,
    "Ġdoline": 9055,
    "careva": 9056,
    "Ġzatrubi": 9057,
    "ĠdolaÅ¾ahu": 9058,
    "ĠsluÅ¡kinje": 9059,
    "ĠHevronu": 9060,
    "Ġobori": 9061,
    "ĠSamariju": 9062,
    "otaca": 9063,
    "Ġoskvrni": 9064,
    "zavjet": 9065,
    "ĠopkoliÅ¡e": 9066,
    "bezboÅ¾": 9067,
    "ĠduÅ¡om": 9068,
    "ĠraÅ¡iri": 9069,
    "ĠSvemoguÄĩi": 9070,
    "ĠmuÅ¡kinje": 9071,
    "ĠRijeke": 9072,
    "Åłator": 9073,
    "BoÅ¾ji": 9074,
    "ĠJerihonu": 9075,
    "sluÅ¾bu": 9076,
    "Ġdragovoljno": 9077,
    "70": 9078,
    "BO": 9079,
    "Pod": 9080,
    "mijeh": 9081,
    "slob": 9082,
    "upri": 9083,
    "vrijeme": 9084,
    "jeli": 9085,
    "nau": 9086,
    "kosti": 9087,
    "Ġzbi": 9088,
    "daÄĩe": 9089,
    "neÅ¡": 9090,
    "nemi": 9091,
    "nebo": 9092,
    "Ġponos": 9093,
    "tebi": 9094,
    "Ġsilazi": 9095,
    "Ġsabira": 9096,
    "Ġodje": 9097,
    "ĠbiÄĩu": 9098,
    "veni": 9099,
    "Ġizvu": 9100,
    "sec": 9101,
    "Ġmane": 9102,
    "ĠDRUGA": 9103,
    "Ġtami": 9104,
    "ĠOtkr": 9105,
    "Ġbolja": 9106,
    "Ġposred": 9107,
    "Ġpute": 9108,
    "ĠJaoh": 9109,
    "ĠEtio": 9110,
    "Ġznake": 9111,
    "Ġostanu": 9112,
    "Ġplatno": 9113,
    "ĠLuka": 9114,
    "Ġvidjeli": 9115,
    "ĠkrÅ¡ta": 9116,
    "Ġdjelu": 9117,
    "Ġobre": 9118,
    "Ġpesnik": 9119,
    "Neba": 9120,
    "ĠValtasa": 9121,
    "Ġspasa": 9122,
    "Ġutvare": 9123,
    "ĠSrce": 9124,
    "Ġsmokve": 9125,
    "Ġljubaz": 9126,
    "ĠHristom": 9127,
    "ĠsluÅ¡ajte": 9128,
    "ĠNine": 9129,
    "Ġtruda": 9130,
    "Ġpravdom": 9131,
    "Pas": 9132,
    "ZaÅ¡to": 9133,
    "ĠpoÄįetka": 9134,
    "dijahu": 9135,
    "Ġpravedni": 9136,
    "Ġobasja": 9137,
    "Ġzemaljskim": 9138,
    "Ġljubite": 9139,
    "Ġhoditi": 9140,
    "Ġdrugijem": 9141,
    "tiohi": 9142,
    "Ġpropast": 9143,
    "Ġzapadne": 9144,
    "ĠJeremiju": 9145,
    "Ġapostoli": 9146,
    "ĠostavivÅ¡i": 9147,
    "proroci": 9148,
    "Ġgadnijem": 9149,
    "Njemu": 9150,
    "marij": 9151,
    "ĠsaÄįuvaj": 9152,
    "vaskrse": 9153,
    "ĠSubote": 9154,
    "ĠJOVANOVO": 9155,
    "anÄĳela": 9156,
    "Ġsablazni": 9157,
    "Ġjarost": 9158,
    "Ġpostidje": 9159,
    "ĠmnoÅ¡tva": 9160,
    "Ġpoboja": 9161,
    "Ġpouzda": 9162,
    "grob": 9163,
    "Ġmnogijem": 9164,
    "bezakonje": 9165,
    "ĠneznaboÅ¾aca": 9166,
    "uprili": 9167,
    "\"D": 9168,
    "\"Na": 9169,
    ",âĢľ": 9170,
    "Bu": 9171,
    "Bje": 9172,
    "HA": 9173,
    "Luj": 9174,
    "Usta": 9175,
    "VIÄĨ": 9176,
    "Ġiako": 9177,
    "Ġotu": 9178,
    "Äįove": 9179,
    "Äįnoj": 9180,
    "Äįnika": 9181,
    "Ġupla": 9182,
    "risto": 9183,
    "redo": 9184,
    "Ġjesu": 9185,
    "Ġgoste": 9186,
    "Ġneobi": 9187,
    "vici": 9188,
    "gati": 9189,
    "Ġkava": 9190,
    "tolo": 9191,
    "ĠzamiÅ¡": 9192,
    "Ġsamu": 9193,
    "dilo": 9194,
    "Äįila": 9195,
    "Äįima": 9196,
    "Ġbitke": 9197,
    "mera": 9198,
    "Å¾enja": 9199,
    "ĠÅ¡ara": 9200,
    "morje": 9201,
    "stro": 9202,
    "Ġkoljeno": 9203,
    "bit": 9204,
    "bila": 9205,
    "Ġnjem": 9206,
    "Å¾iÄĩ": 9207,
    "star": 9208,
    "ĠmoÄĩ": 9209,
    "Ġrame": 9210,
    "Ġravna": 9211,
    "Ġmada": 9212,
    "ĠPita": 9213,
    "bal": 9214,
    "cer": 9215,
    "ĠObla": 9216,
    "bele": 9217,
    "Ġprite": 9218,
    "njao": 9219,
    "Ġposije": 9220,
    "ĠpuÅ¡ti": 9221,
    "Ġstati": 9222,
    "Ġnekaku": 9223,
    "Ġdevoja": 9224,
    "Ġpera": 9225,
    "Ġljute": 9226,
    "ĠpiÅ¡to": 9227,
    "ĠÄįude": 9228,
    "ĠÄįuvaj": 9229,
    "ĠjuÄįe": 9230,
    "Ġvrate": 9231,
    "Ġpodu": 9232,
    "Ġzapr": 9233,
    "VOJ": 9234,
    "tomi": 9235,
    "Ġdire": 9236,
    "ĠKajica": 9237,
    "ĠPop": 9238,
    "Ġtrojica": 9239,
    "ĠpleÄĩi": 9240,
    "ĠSofru": 9241,
    "ĠÄįau": 9242,
    "Ġideal": 9243,
    "Ġpoznajem": 9244,
    "ĠPetr": 9245,
    "ĠDuÅ¡an": 9246,
    "Ġturskog": 9247,
    "ĠKostura": 9248,
    "Ġvojvodu": 9249,
    "ĠStarac": 9250,
    "ĠBanoviÄĩ": 9251,
    "Ġprostra": 9252,
    "Ġpogibi": 9253,
    "ĠÅ¡Äĩeri": 9254,
    "ĠkruÅ¡ku": 9255,
    "Ġpovr": 9256,
    "ĠÄįestitoga": 9257,
    "ĠboÅ¾ju": 9258,
    "ĠGrujicu": 9259,
    "Ġumilja": 9260,
    "ĠÅłÄĩepana": 9261,
    "Ġizraz": 9262,
    "Ġkosu": 9263,
    "ĠpruÅ¾a": 9264,
    "Nemoj": 9265,
    "Ġzadovoljan": 9266,
    "Ġkraljev": 9267,
    "Ġsirotinja": 9268,
    "Ġpoeziji": 9269,
    "ĠMilisav": 9270,
    "OJKA": 9271,
    "ĠgvoÅ¾Äĳe": 9272,
    "Ġtavnice": 9273,
    "ĠMletke": 9274,
    "-ÄĮelika": 9275,
    "ĠznadeÅ¡": 9276,
    "Ġpostoja": 9277,
    "Ġuputi": 9278,
    "Ġvoleo": 9279,
    "Ġtemelj": 9280,
    "ĠVUKA": 9281,
    "Ġmegdana": 9282,
    "Ġtopuzi": 9283,
    "ĠManojlo": 9284,
    "Ġzubima": 9285,
    "ĠÅ½abljaka": 9286,
    "-paÅ¡a": 9287,
    "Ġbedeviju": 9288,
    "Ġoslobo": 9289,
    "!)": 9290,
    "Daj": 9291,
    "Osta": 9292,
    "Ovaj": 9293,
    "ala": 9294,
    "kte": 9295,
    "loviÄĩ": 9296,
    "mra": 9297,
    "movi": 9298,
    "obiti": 9299,
    "tli": 9300,
    "ĠiÅ¡ti": 9301,
    "Å¡nu": 9302,
    "tir": 9303,
    "Ġumu": 9304,
    "nade": 9305,
    "Ġnade": 9306,
    "Ġnahodi": 9307,
    "ĠAki": 9308,
    "gano": 9309,
    "Ġkaba": 9310,
    "ĠzadrÅ¾a": 9311,
    "Ġasta": 9312,
    "Ġsija": 9313,
    "Ġsakrije": 9314,
    "Äįeva": 9315,
    "ÄįeÅ¡Äĩe": 9316,
    "Ġodgovor": 9317,
    "ÄįiÄĩima": 9318,
    "Ġizlije": 9319,
    "ĠSI": 9320,
    "Ġmusli": 9321,
    "Ġmilu": 9322,
    "ĠKoja": 9323,
    "ĠKomi": 9324,
    "njeno": 9325,
    "gorodi": 9326,
    "ĠveÅ¡ti": 9327,
    "ĠBoji": 9328,
    "ĠBajo": 9329,
    "ĠJero": 9330,
    "Ġsvetoga": 9331,
    "ĠOÅ¡tar": 9332,
    "suje": 9333,
    "Ġhri": 9334,
    "Ġhoda": 9335,
    "Ġprote": 9336,
    "bogda": 9337,
    "ĠruÄįku": 9338,
    "urbija": 9339,
    "ĠÅ¾itija": 9340,
    "ĠÄįem": 9341,
    "ĠÄįele": 9342,
    "ĠÄįujuÄĩi": 9343,
    "ĠHvala": 9344,
    "Ġleto": 9345,
    "Ġrazne": 9346,
    "Ġtriput": 9347,
    "Ġlane": 9348,
    "govoriti": 9349,
    "Ġvidjeti": 9350,
    "ĠÄĮim": 9351,
    "Ġsoli": 9352,
    "Ġbogme": 9353,
    "Ġodgovorio": 9354,
    "ĠFo": 9355,
    "Ġpokre": 9356,
    "ĠSer": 9357,
    "ĠpitaÅ¡": 9358,
    "ĠsteÄįe": 9359,
    "Ġbogati": 9360,
    "ĠÅ¡alje": 9361,
    "prosti": 9362,
    "Ġlijep": 9363,
    "ĠRade": 9364,
    "Ġprose": 9365,
    "ĠdoÄįekati": 9366,
    "Ġdrveta": 9367,
    "Ġuhvatio": 9368,
    "Ġodavde": 9369,
    "Ġmajstorice": 9370,
    "Ġpolako": 9371,
    "Ġintere": 9372,
    "Ġizrazi": 9373,
    "opÅ¡te": 9374,
    "ĠSvaka": 9375,
    "ĠÅ¡kolu": 9376,
    "ĠAlba": 9377,
    "ĠJovane": 9378,
    "Lasno": 9379,
    "loso": 9380,
    "HHH": 9381,
    "Ġgolub": 9382,
    "Ġular": 9383,
    "Äįekaj": 9384,
    "ĠkiÄĩeni": 9385,
    "Ġslovo": 9386,
    "Ġistorijski": 9387,
    "Ġmagistra": 9388,
    "ĠBoÅ¡njo": 9389,
    "Ġblagodar": 9390,
    "89": 9391,
    "Aza": 9392,
    "Tvoj": 9393,
    "Zako": 9394,
    "jevih": 9395,
    "ĠisijeÄįe": 9396,
    "rame": 9397,
    "ĠjeÄį": 9398,
    "Ġjeda": 9399,
    "najim": 9400,
    "Ġnavrh": 9401,
    "Ġnastoj": 9402,
    "Ġnaoru": 9403,
    "Å¡est": 9404,
    "ospode": 9405,
    "Ġodvoji": 9406,
    "rota": 9407,
    "Ġiznu": 9408,
    "sar": 9409,
    "ĠKnji": 9410,
    "Ġsudu": 9411,
    "ĠvikaÅ¡e": 9412,
    "ĠJedno": 9413,
    "ĠJezdra": 9414,
    "Ġmaz": 9415,
    "Ġnjivi": 9416,
    "miri": 9417,
    "ĠOpome": 9418,
    "ĠOtuda": 9419,
    "ljine": 9420,
    "Jest": 9421,
    "Ġjug": 9422,
    "ĠSilom": 9423,
    "ĠMel": 9424,
    "Ġeno": 9425,
    "ĠMahi": 9426,
    "Ġuzeh": 9427,
    "Ġustani": 9428,
    "ĠtreÄĩega": 9429,
    "Ġprijesne": 9430,
    "Ġprijestup": 9431,
    "Ġprijesnijeh": 9432,
    "ĠizaÄĳoÅ¡e": 9433,
    "mjeseca": 9434,
    "Ġrodiv": 9435,
    "Ġsvjema": 9436,
    "ĠAvige": 9437,
    "Ġmisirski": 9438,
    "ĠkovÄįega": 9439,
    "ĠkovÄįegu": 9440,
    "godina": 9441,
    "ĠSusanu": 9442,
    "Ġvesele": 9443,
    "pustinju": 9444,
    "njihova": 9445,
    "njihove": 9446,
    "svojom": 9447,
    "Ġsvijetnja": 9448,
    "Ġmrak": 9449,
    "Ġprvence": 9450,
    "Ġognjena": 9451,
    "ĠIzve": 9452,
    "Ġzvijezde": 9453,
    "ĠAvesalomu": 9454,
    "ĠAvesaloma": 9455,
    "uÄįinio": 9456,
    "Ġfilistejski": 9457,
    "ĠGadovi": 9458,
    "ĠAzarija": 9459,
    "ĠRuvimovi": 9460,
    "ĠnaslijediÅ¡": 9461,
    "carevi": 9462,
    "ĠGovori": 9463,
    "ĠzgrijeÅ¡io": 9464,
    "ĠÅ¾ensko": 9465,
    "Ġizginu": 9466,
    "Ġstudenac": 9467,
    "Ġnevaljal": 9468,
    "ĠoÄįiÅ¡Äĩenja": 9469,
    "ĠSemaja": 9470,
    "ĠDvadeset": 9471,
    "ĠSvjedoÄįanstva": 9472,
    "ĠoÅ¡trijem": 9473,
    "zapovjedio": 9474,
    "Ġmlijeko": 9475,
    "ĠMesulam": 9476,
    "Ġkostrije": 9477,
    "ĠpodigavÅ¡i": 9478,
    "ĠIdume": 9479,
    "*Jak": 9480,
    "Juda": 9481,
    "Taj": 9482,
    "svako": 9483,
    "Ġistje": 9484,
    "Ġdoj": 9485,
    "Ġopusti": 9486,
    "narodi": 9487,
    "ĠnaÅ¡avÅ¡i": 9488,
    "Ġtja": 9489,
    "ĠdavaÅ¡e": 9490,
    "ĠAvde": 9491,
    "Ġan": 9492,
    "Ġsazda": 9493,
    "Ġodlu": 9494,
    "Ġpali": 9495,
    "Ġsudite": 9496,
    "ĠTreba": 9497,
    "Ġveri": 9498,
    "Ġgazi": 9499,
    "ĠJezek": 9500,
    "baca": 9501,
    "Ġhrom": 9502,
    "Ġtvom": 9503,
    "perna": 9504,
    "Å¾ava": 9505,
    "JevanÄĳelje": 9506,
    "ĠSavle": 9507,
    "ĠznadijaÅ¡e": 9508,
    "ĠNebo": 9509,
    "Ġdobrom": 9510,
    "vjere": 9511,
    "lijepi": 9512,
    "Ġlakom": 9513,
    "Ġstrahu": 9514,
    "Ġstraho": 9515,
    "Ġdivljahu": 9516,
    "Ġbudemo": 9517,
    "Ġgledajte": 9518,
    "Ġposlah": 9519,
    "ĠÅ¾ivoga": 9520,
    "pose": 9521,
    "ÄĳivaÅ¡e": 9522,
    "Ġlukav": 9523,
    "Ġpustim": 9524,
    "Ġpitahu": 9525,
    "niÄįka": 9526,
    "Ġrode": 9527,
    "ĠsunÄįa": 9528,
    "Ġnebeski": 9529,
    "Ġusnama": 9530,
    "Ġmnogim": 9531,
    "Ġpogibli": 9532,
    "ĠDoista": 9533,
    "Ġvjerovati": 9534,
    "Ġubiju": 9535,
    "Ġvijek": 9536,
    "Ġpastir": 9537,
    "Ġhule": 9538,
    "ĠPila": 9539,
    "ĠPismu": 9540,
    "ĠCrkve": 9541,
    "ĠCrkvi": 9542,
    "ĠmladiÄĩi": 9543,
    "slavu": 9544,
    "ĠotvoriÅ¡e": 9545,
    "carstva": 9546,
    "ĠsaÄįuvati": 9547,
    "Ġpokora": 9548,
    "ĠsabraÅ¡e": 9549,
    "ĠrazumjeÅ¡e": 9550,
    "Ġidolopo": 9551,
    "Ġslijepi": 9552,
    "ĠJudeji": 9553,
    "ĠNavuhodonosoru": 9554,
    "Ġizgorje": 9555,
    "Ġoprostiti": 9556,
    "Ġpremudrosti": 9557,
    "ĠradoÅ¡Äĩu": 9558,
    "svijet": 9559,
    "Ġuzdisa": 9560,
    "ĠVjerom": 9561,
    "ĠSedekija": 9562,
    "Ġsahat": 9563,
    "ĠHaldejcima": 9564,
    "LjENjE": 9565,
    "Danilo": 9566,
    "ĠgrabeÅ¾": 9567,
    "Ġodbacu": 9568,
    "-Ra": 9569,
    "Dva": 9570,
    "HoÄĩu": 9571,
    "vci": 9572,
    "zovu": 9573,
    "ÑĬ": 9574,
    "Ġokom": 9575,
    "rah": 9576,
    "rili": 9577,
    "Ġnaka": 9578,
    "Ġsele": 9579,
    "ĠseÄĩa": 9580,
    "Å¾nju": 9581,
    "Ġnegda": 9582,
    "ĠnegÄĳe": 9583,
    "Ġpolazi": 9584,
    "ĠpoÅ¡t": 9585,
    "Ġzama": 9586,
    "Ġad": 9587,
    "Ġsitnu": 9588,
    "Ġsitua": 9589,
    "Ġdoka": 9590,
    "Ġdohvati": 9591,
    "Ġodmo": 9592,
    "Ġodgovore": 9593,
    "nume": 9594,
    "Äįili": 9595,
    "ÄįiÄĩi": 9596,
    "ovala": 9597,
    "Å¾eno": 9598,
    "ĠizvuÄįe": 9599,
    "ĠSVI": 9600,
    "ĠKosta": 9601,
    "pade": 9602,
    "Ġmer": 9603,
    "ĠmeÄĳed": 9604,
    "goru": 9605,
    "gorac": 9606,
    "Ġpretr": 9607,
    "Ġrada": 9608,
    "ĠJelice": 9609,
    "ĠmaÅ¡i": 9610,
    "Ġjadna": 9611,
    "Ġtana": 9612,
    "ĠPod": 9613,
    "ĠOne": 9614,
    "ĠOdi": 9615,
    "zala": 9616,
    "Ġkuc": 9617,
    "zira": 9618,
    "pila": 9619,
    "Ġbolju": 9620,
    "Ġprilikom": 9621,
    "njav": 9622,
    "Ġcarska": 9623,
    "Ġprofe": 9624,
    "Ġbalu": 9625,
    "Ġljuti": 9626,
    "ĠSavi": 9627,
    "ĠsvaÅ¡ta": 9628,
    "Ġbrava": 9629,
    "ĠÅłarac": 9630,
    "ĠÄĳer": 9631,
    "Ġvraga": 9632,
    "Ġkratko": 9633,
    "vrosi": 9634,
    "pravo": 9635,
    "Ġkrsta": 9636,
    "ĠCAR": 9637,
    "Ġiskre": 9638,
    "Ġpostao": 9639,
    "ĠÄįoveÄįe": 9640,
    "!...âĢľ": 9641,
    "Ġgrdna": 9642,
    "Ġtursko": 9643,
    "Ġturskim": 9644,
    "Ġnikog": 9645,
    "ĠKosa": 9646,
    "Ñĸn": 9647,
    "ĠÄĲo": 9648,
    "ĠÅ¡ala": 9649,
    "Ġsvakoje": 9650,
    "ĠStana": 9651,
    "Ġdoklen": 9652,
    "ĠuÄįitelja": 9653,
    "'jele": 9654,
    "ĠsmeÅ¡i": 9655,
    "Ġcelu": 9656,
    "Ġnebesne": 9657,
    "ĠÅ½E": 9658,
    "Ġsvatova": 9659,
    "ĠCrne": 9660,
    "ĠCrnu": 9661,
    "Ġtakvi": 9662,
    "Ġtakve": 9663,
    "nijih": 9664,
    "ĠÅ¾iveo": 9665,
    "Ġpjesme": 9666,
    "Ġfeudalaca": 9667,
    "Ġmejdanu": 9668,
    "Ġpripovedati": 9669,
    "Ġbarja": 9670,
    "Raz": 9671,
    "ĠoÅ¾enio": 9672,
    "Ġprinci": 9673,
    "Ġpominje": 9674,
    "Ġciklu": 9675,
    "Ġpovede": 9676,
    "Ġkurvo": 9677,
    "ĠÄĳo": 9678,
    "Stani": 9679,
    "ĠotrÄįi": 9680,
    "Ġstruk": 9681,
    "Ġkavge": 9682,
    "Ġkapiju": 9683,
    "ĠkoÄįijaÅ¡i": 9684,
    "Ġarhimandrit": 9685,
    "Ġcekina": 9686,
    "JETKE": 9687,
    "ĠÄįakÅ¡ire": 9688,
    "ristokrati": 9689,
    "\";": 9690,
    "]op": 9691,
    "]alji": 9692,
    "dost": 9693,
    "dovati": 9694,
    "nstva": 9695,
    "opet": 9696,
    "rce": 9697,
    "tnju": 9698,
    "trom": 9699,
    "Ġsrod": 9700,
    "Ġpli": 9701,
    "Ġotuda": 9702,
    "raÅ¡": 9703,
    "tili": 9704,
    "Ġmleka": 9705,
    "rika": 9706,
    "nili": 9707,
    "niÄĩa": 9708,
    "jani": 9709,
    "Å¾ije": 9710,
    "Ġgurbija": 9711,
    "daÅ¡": 9712,
    "kano": 9713,
    "Ġpoza": 9714,
    "Ġpotur": 9715,
    "vidi": 9716,
    "Ġkasa": 9717,
    "toro": 9718,
    "noÅ¡a": 9719,
    "Ġsira": 9720,
    "Äįenije": 9721,
    "Ġdogovore": 9722,
    "ĠdoÅ¡lo": 9723,
    "ÄįiÅ¡": 9724,
    "Ġizja": 9725,
    "ĠÅ¡pekulacija": 9726,
    "ĠkoÅ¡": 9727,
    "Ġvida": 9728,
    "Ġvar": 9729,
    "Ġnigdje": 9730,
    "ĠveÅ¡t": 9731,
    "ĠBA": 9732,
    "Ġmogo": 9733,
    "Ġtolike": 9734,
    "Ġsveca": 9735,
    "ĠOno": 9736,
    "zavac": 9737,
    "Ġlija": 9738,
    "Ġprive": 9739,
    "Ġprolje": 9740,
    "odio": 9741,
    "Ġdedo": 9742,
    "ĠruÅ¾i": 9743,
    "ÄĮi": 9744,
    "Ġnogom": 9745,
    "Ġznali": 9746,
    "Ġpile": 9747,
    "ĠÄįelja": 9748,
    "han": 9749,
    "Ġotim": 9750,
    "ĠMiri": 9751,
    "ĠKazao": 9752,
    "Ġotpo": 9753,
    "Ġtrape": 9754,
    "ĠMuja": 9755,
    "Ġroditelj": 9756,
    "ĠPak": 9757,
    "ĠPer": 9758,
    "ĠroÄĳena": 9759,
    "trovi": 9760,
    "ĠgrÄįki": 9761,
    "ĠÅ¡ale": 9762,
    "Ġzdrava": 9763,
    "ĠvaÅ¡em": 9764,
    "luÄĳer": 9765,
    "ĠÅ½an": 9766,
    "Ġsvatov": 9767,
    "Ġhrani": 9768,
    "ĠdrÅ¾ati": 9769,
    "Ġljubim": 9770,
    "Ġmirski": 9771,
    "ĠBeo": 9772,
    "ĠBeÄįu": 9773,
    "ĠboÅ¾je": 9774,
    "Ġmanastiru": 9775,
    "Ġfiloso": 9776,
    "ĠdÅ¾ep": 9777,
    "Ġzub": 9778,
    "Ġpogubim": 9779,
    "Å¾denija": 9780,
    "Ġprevariti": 9781,
    "Ġjabuka": 9782,
    ".);": 9783,
    "Ġuzaj": 9784,
    "Ġzvezda": 9785,
    "Ġzlatnom": 9786,
    "Ġzavika": 9787,
    "Ġognji": 9788,
    "Ġfala": 9789,
    "ĠKotara": 9790,
    "-bega": 9791,
    "-beÅ¾e": 9792,
    "Ġdivovi": 9793,
    "Ġkomad": 9794,
    "Poslije": 9795,
    "ĠharambaÅ¡a": 9796,
    "ziroviÄĩ": 9797,
    "Ġkraljica": 9798,
    "Ġsahata": 9799,
    "ĠizmiÅ¡ljena": 9800,
    "Ġrazgovora": 9801,
    "-Ga": 9802,
    "dovijeka": 9803,
    "ira": 9804,
    "ilja": 9805,
    "kser": 9806,
    "rova": 9807,
    "voste": 9808,
    "laÅ¾aÅ¡e": 9809,
    "rihon": 9810,
    "Ġdajte": 9811,
    "Ġdaske": 9812,
    "ĠAs": 9813,
    "ĠAsu": 9814,
    "ĠArno": 9815,
    "Ġzamo": 9816,
    "Ġsitne": 9817,
    "ĠdonoÅ¡ahu": 9818,
    "ĠSova": 9819,
    "stvari": 9820,
    "Ġtinu": 9821,
    "Ġkotari": 9822,
    "ĠviÄįem": 9823,
    "Ġtelaca": 9824,
    "stade": 9825,
    "milosti": 9826,
    "Mojsiju": 9827,
    "ĠOda": 9828,
    "zavad": 9829,
    "pis": 9830,
    "Ġprizva": 9831,
    "ĠDana": 9832,
    "Ġpostelju": 9833,
    "Äĩani": 9834,
    "traÅ¾e": 9835,
    "Å¾ao": 9836,
    "ĠUrija": 9837,
    "Ġprovu": 9838,
    "Ġvjerno": 9839,
    "ĠHrama": 9840,
    "Ġbubre": 9841,
    "Ġzapovje": 9842,
    "Ġuzdr": 9843,
    "Ġuzvedenoga": 9844,
    "ĠMefi": 9845,
    "vrsta": 9846,
    "ĠMihi": 9847,
    "Ġslaviti": 9848,
    "Ġisred": 9849,
    "vljam": 9850,
    "Ġoble": 9851,
    "orova": 9852,
    "ĠNadav": 9853,
    "Ġosmi": 9854,
    "ĠpostaviÅ¡e": 9855,
    "MIJI": 9856,
    "Ġzavjesu": 9857,
    "ĠBoÅ¾ijem": 9858,
    "umrije": 9859,
    "ĠGospodnjemu": 9860,
    "ĠSolomunova": 9861,
    "hotice": 9862,
    "Ġsudovi": 9863,
    "ĠÅłatorom": 9864,
    "Ġsvakim": 9865,
    "Ġnjezino": 9866,
    "Ġvratari": 9867,
    "srebr": 9868,
    "Izrailjeve": 9869,
    "Ġhrabri": 9870,
    "Ġhrabar": 9871,
    "Ġhrabrijeh": 9872,
    "ĠdrÅ¾ao": 9873,
    "ĠVenijaminova": 9874,
    "rtakser": 9875,
    "ĠAhitofe": 9876,
    "Ġtakvoga": 9877,
    "Ġspasenja": 9878,
    "ĠIzbavi": 9879,
    "Ġblagoslovio": 9880,
    "ĠJonatana": 9881,
    "ĠposluÅ¡ati": 9882,
    "ĠsluÅ¾bi": 9883,
    "Ġumivao": 9884,
    "Ġzidati": 9885,
    "ĠGaladu": 9886,
    "Ġhljebova": 9887,
    "ĠkÄĩerju": 9888,
    "ĠElisa": 9889,
    "Ġpraznu": 9890,
    "ĠJefremovoj": 9891,
    "Ġizabrah": 9892,
    "narodu": 9893,
    "Ġodredi": 9894,
    "Ġmoavskom": 9895,
    "Ġstubove": 9896,
    "ĠAhavova": 9897,
    "ĠJudejce": 9898,
    "Ġsrebrnijeh": 9899,
    "ĠBudi": 9900,
    "Ġugodno": 9901,
    "ĠraÄĳajuÄĩi": 9902,
    "Ġkadionica": 9903,
    "ĠAdonija": 9904,
    "ĠGavaji": 9905,
    "Ġstijene": 9906,
    "Ġmrtvaca": 9907,
    "ĠNEMIJI": 9908,
    "Ġprijevornice": 9909,
    "Ġmagarce": 9910,
    "ĠSalum": 9911,
    "Ġoprosne": 9912,
    "ĠNEMIJINA": 9913,
    "*Kol": 9914,
    "Cr": 9915,
    "MLjANIMA": 9916,
    "aposto": 9917,
    "idu": 9918,
    "otvori": 9919,
    "vljuje": 9920,
    "zdo": 9921,
    "jes": 9922,
    "Ġozdravi": 9923,
    "Ġkrije": 9924,
    "Ġnadu": 9925,
    "ĠkaÅ¾ite": 9926,
    "Ġsamarij": 9927,
    "ĠdoÄĳosmo": 9928,
    "diÄĩu": 9929,
    "Å¾enje": 9930,
    "kuÄĩi": 9931,
    "ĠMat": 9932,
    "Ġvaz": 9933,
    "Ġprelomi": 9934,
    "Ġmari": 9935,
    "bazni": 9936,
    "Ġkune": 9937,
    "djelo": 9938,
    "djecu": 9939,
    "poga": 9940,
    "ÄĩaÅ¡e": 9941,
    "boÅ¡": 9942,
    "bole": 9943,
    "Ġbezazle": 9944,
    "ĠsvaÄĳa": 9945,
    "âĢĻma": 9946,
    "Ġmjeh": 9947,
    "RIMLjANIMA": 9948,
    "Ġvojnika": 9949,
    "Ġustade": 9950,
    "Ġprijeva": 9951,
    "Ġproroke": 9952,
    "Ġpoznat": 9953,
    "ĠBoÅ¾ijim": 9954,
    "propovijeda": 9955,
    "niÄįkom": 9956,
    "ljednji": 9957,
    "Ġoplije": 9958,
    "Ġprimiste": 9959,
    "Ġraspu": 9960,
    "ĠanÄĳeli": 9961,
    "ĠpoginuÄĩe": 9962,
    "Ġopada": 9963,
    "ĠJevreja": 9964,
    "Ġpojas": 9965,
    "Ġstrahom": 9966,
    "Ġnadanje": 9967,
    "ĠizvrÅ¡iti": 9968,
    "Ġidol": 9969,
    "Ġdoznati": 9970,
    "ĠGalileju": 9971,
    "ĠnapuniÅ¡e": 9972,
    "ĠKojega": 9973,
    "Bez": 9974,
    "ĠsveÅ¡teniÄįkoga": 9975,
    "Ġpotrti": 9976,
    "Ġposljednji": 9977,
    "Ġjevrejski": 9978,
    "ĠizvrÅ¡uje": 9979,
    "ĠHodite": 9980,
    "Ġpotsmijeh": 9981,
    "ĠsneÅ¾e": 9982,
    "Ġodijelo": 9983,
    "Jeremija": 9984,
    "ĠKrsti": 9985,
    "Ġnepoko": 9986,
    "ĠÄĨesa": 9987,
    "ĠDANILA": 9988,
    "\"Pobratime": 9989,
    "DÅ¾": 9990,
    "Kre": 9991,
    "PI": 9992,
    "Rad": 9993,
    "STO": 9994,
    "ek": 9995,
    "kti": 9996,
    "rovi": 9997,
    "jera": 9998,
    "Ġigru": 9999
}